{
  "version": "1.0",
  "truncation": null,
  "padding": null,
  "added_tokens": [],
  "normalizer": null,
  "pre_tokenizer": {
    "type": "ByteLevel",
    "add_prefix_space": false,
    "trim_offsets": true,
    "use_regex": true
  },
  "post_processor": null,
  "decoder": {
    "type": "ByteLevel",
    "add_prefix_space": true,
    "trim_offsets": true,
    "use_regex": true
  },
  "model": {
    "type": "BPE",
    "dropout": null,
    "unk_token": null,
    "continuing_subword_prefix": null,
    "end_of_word_suffix": null,
    "fuse_unk": false,
    "byte_fallback": false,
    "ignore_merges": false,
    "vocab": {
      "!": 0,
      "\"": 1,
      "#": 2,
      "$": 3,
      "%": 4,
      "&": 5,
      "'": 6,
      "(": 7,
      ")": 8,
      "*": 9,
      "+": 10,
      ",": 11,
      "-": 12,
      ".": 13,
      "/": 14,
      "0": 15,
      "1": 16,
      "2": 17,
      "3": 18,
      "4": 19,
      "5": 20,
      "6": 21,
      "7": 22,
      "8": 23,
      "9": 24,
      ":": 25,
      ";": 26,
      "<": 27,
      "=": 28,
      ">": 29,
      "?": 30,
      "@": 31,
      "A": 32,
      "B": 33,
      "C": 34,
      "D": 35,
      "E": 36,
      "F": 37,
      "G": 38,
      "H": 39,
      "I": 40,
      "J": 41,
      "K": 42,
      "L": 43,
      "M": 44,
      "N": 45,
      "O": 46,
      "P": 47,
      "Q": 48,
      "R": 49,
      "S": 50,
      "T": 51,
      "U": 52,
      "V": 53,
      "W": 54,
      "X": 55,
      "Y": 56,
      "Z": 57,
      "[": 58,
      "\\": 59,
      "]": 60,
      "^": 61,
      "_": 62,
      "`": 63,
      "a": 64,
      "b": 65,
      "c": 66,
      "d": 67,
      "e": 68,
      "f": 69,
      "g": 70,
      "h": 71,
      "i": 72,
      "j": 73,
      "k": 74,
      "l": 75,
      "m": 76,
      "n": 77,
      "o": 78,
      "p": 79,
      "q": 80,
      "r": 81,
      "s": 82,
      "t": 83,
      "u": 84,
      "v": 85,
      "w": 86,
      "x": 87,
      "y": 88,
      "z": 89,
      "{": 90,
      "|": 91,
      "}": 92,
      "~": 93,
      "¡": 94,
      "¢": 95,
      "£": 96,
      "¤": 97,
      "¥": 98,
      "¦": 99,
      "§": 100,
      "¨": 101,
      "©": 102,
      "ª": 103,
      "«": 104,
      "¬": 105,
      "®": 106,
      "¯": 107,
      "°": 108,
      "±": 109,
      "²": 110,
      "³": 111,
      "´": 112,
      "µ": 113,
      "¶": 114,
      "·": 115,
      "¸": 116,
      "¹": 117,
      "º": 118,
      "»": 119,
      "¼": 120,
      "½": 121,
      "¾": 122,
      "¿": 123,
      "À": 124,
      "Á": 125,
      "Â": 126,
      "Ã": 127,
      "Ä": 128,
      "Å": 129,
      "Æ": 130,
      "Ç": 131,
      "È": 132,
      "É": 133,
      "Ê": 134,
      "Ë": 135,
      "Ì": 136,
      "Í": 137,
      "Î": 138,
      "Ï": 139,
      "Ð": 140,
      "Ñ": 141,
      "Ò": 142,
      "Ó": 143,
      "Ô": 144,
      "Õ": 145,
      "Ö": 146,
      "×": 147,
      "Ø": 148,
      "Ù": 149,
      "Ú": 150,
      "Û": 151,
      "Ü": 152,
      "Ý": 153,
      "Þ": 154,
      "ß": 155,
      "à": 156,
      "á": 157,
      "â": 158,
      "ã": 159,
      "ä": 160,
      "å": 161,
      "æ": 162,
      "ç": 163,
      "è": 164,
      "é": 165,
      "ê": 166,
      "ë": 167,
      "ì": 168,
      "í": 169,
      "î": 170,
      "ï": 171,
      "ð": 172,
      "ñ": 173,
      "ò": 174,
      "ó": 175,
      "ô": 176,
      "õ": 177,
      "ö": 178,
      "÷": 179,
      "ø": 180,
      "ù": 181,
      "ú": 182,
      "û": 183,
      "ü": 184,
      "ý": 185,
      "þ": 186,
      "ÿ": 187,
      "Ā": 188,
      "ā": 189,
      "Ă": 190,
      "ă": 191,
      "Ą": 192,
      "ą": 193,
      "Ć": 194,
      "ć": 195,
      "Ĉ": 196,
      "ĉ": 197,
      "Ċ": 198,
      "ċ": 199,
      "Č": 200,
      "č": 201,
      "Ď": 202,
      "ď": 203,
      "Đ": 204,
      "đ": 205,
      "Ē": 206,
      "ē": 207,
      "Ĕ": 208,
      "ĕ": 209,
      "Ė": 210,
      "ė": 211,
      "Ę": 212,
      "ę": 213,
      "Ě": 214,
      "ě": 215,
      "Ĝ": 216,
      "ĝ": 217,
      "Ğ": 218,
      "ğ": 219,
      "Ġ": 220,
      "ġ": 221,
      "Ģ": 222,
      "ģ": 223,
      "Ĥ": 224,
      "ĥ": 225,
      "Ħ": 226,
      "ħ": 227,
      "Ĩ": 228,
      "ĩ": 229,
      "Ī": 230,
      "ī": 231,
      "Ĭ": 232,
      "ĭ": 233,
      "Į": 234,
      "į": 235,
      "İ": 236,
      "ı": 237,
      "Ĳ": 238,
      "ĳ": 239,
      "Ĵ": 240,
      "ĵ": 241,
      "Ķ": 242,
      "ķ": 243,
      "ĸ": 244,
      "Ĺ": 245,
      "ĺ": 246,
      "Ļ": 247,
      "ļ": 248,
      "Ľ": 249,
      "ľ": 250,
      "Ŀ": 251,
      "ŀ": 252,
      "Ł": 253,
      "ł": 254,
      "Ń": 255,
      "ĠĠ": 256,
      "ĠĠĠĠ": 257,
      "Ġt": 258,
      "he": 259,
      "Ġa": 260,
      "in": 261,
      "er": 262,
      "čĊ": 263,
      "re": 264,
      "Ġs": 265,
      "on": 266,
      "Ġthe": 267,
      "Ġw": 268,
      "at": 269,
      "ĠĠĠ": 270,
      "Ġo": 271,
      "en": 272,
      "es": 273,
      "is": 274,
      "or": 275,
      "it": 276,
      "nd": 277,
      "ed": 278,
      "Ġc": 279,
      "ĠĠĠĠĠĠĠĠ": 280,
      "ou": 281,
      "Ġb": 282,
      "Ġf": 283,
      "el": 284,
      "Ġm": 285,
      "ar": 286,
      "as": 287,
      "al": 288,
      "ing": 289,
      "Ġd": 290,
      "an": 291,
      "Ġh": 292,
      "Ġof": 293,
      "Ġp": 294,
      "le": 295,
      "Ġto": 296,
      "Ġand": 297,
      "Ġin": 298,
      "ĠĠĠĠĠĠĠ": 299,
      "Ġth": 300,
      "Ġn": 301,
      "om": 302,
      "et": 303,
      "ion": 304,
      "ic": 305,
      "st": 306,
      "Ġl": 307,
      "ent": 308,
      "ad": 309,
      "il": 310,
      "ot": 311,
      "Ġre": 312,
      "ut": 313,
      "ec": 314,
      "am": 315,
      "im": 316,
      "od": 317,
      "ow": 318,
      "Ġhe": 319,
      "ce": 320,
      "--": 321,
      "elf": 322,
      "id": 323,
      "ĠI": 324,
      "Ġe": 325,
      "Ġg": 326,
      "Ġ\"": 327,
      "ur": 328,
      "se": 329,
      "Ġu": 330,
      "Ġbe": 331,
      "ol": 332,
      "ig": 333,
      "ver": 334,
      "ĠT": 335,
      "ve": 336,
      "ith": 337,
      "ly": 338,
      "est": 339,
      "Ġ=": 340,
      "Ġis": 341,
      "ĠĠĠĠĠĠĠĠĠĠĠ": 342,
      "ac": 343,
      "Ġfor": 344,
      "ay": 345,
      "tr": 346,
      "Ġthat": 347,
      "ir": 348,
      "if": 349,
      "Ġy": 350,
      "Ġas": 351,
      "qu": 352,
      "Ġon": 353,
      "ro": 354,
      "Ġwh": 355,
      "Ġit": 356,
      "ter": 357,
      "Ġwith": 358,
      "ul": 359,
      "ĠA": 360,
      "ass": 361,
      "Ġself": 362,
      "Ġde": 363,
      "ĠS": 364,
      "and": 365,
      "Ġwas": 366,
      "em": 367,
      "ht": 368,
      "ect": 369,
      "ch": 370,
      "th": 371,
      "ert": 372,
      "ag": 373,
      "ain": 374,
      "ation": 375,
      "ab": 376,
      "ap": 377,
      "ld": 378,
      "her": 379,
      "Ġyou": 380,
      "Ġan": 381,
      "Ġal": 382,
      "Ġnot": 383,
      "Ġst": 384,
      "Ġ'": 385,
      "Ġcon": 386,
      "Ġr": 387,
      "ame": 388,
      "un": 389,
      "ke": 390,
      "ĠC": 391,
      "</": 392,
      "res": 393,
      "oc": 394,
      "ãģ": 395,
      "Ġhis": 396,
      "ess": 397,
      "ate": 398,
      "Ġv": 399,
      "00": 400,
      "ill": 401,
      "ub": 402,
      "um": 403,
      "Ġ(": 404,
      "pt": 405,
      "rom": 406,
      "ri": 407,
      "ĠM": 408,
      "ex": 409,
      "ĠĠĠĠĠĠĠĠĠĠĠĠĠĠĠĠ": 410,
      "):": 411,
      "ue": 412,
      "all": 413,
      "ĠThe": 414,
      "ore": 415,
      "self": 416,
      "Ġ`": 417,
      "pe": 418,
      "Ġex": 419,
      "ers": 420,
      "us": 421,
      "Ġ1": 422,
      "Ġat": 423,
      "Ġsh": 424,
      "ĠP": 425,
      "ave": 426,
      "ort": 427,
      "ĠH": 428,
      "ould": 429,
      "ĠB": 430,
      "Ġor": 431,
      "ct": 432,
      "ist": 433,
      "end": 434,
      "Ġby": 435,
      "ight": 436,
      "pl": 437,
      "our": 438,
      "os": 439,
      "ich": 440,
      "ĠW": 441,
      "Ġdef": 442,
      "'s": 443,
      "),": 444,
      "Ġ#": 445,
      "\",": 446,
      "to": 447,
      "one": 448,
      "assert": 449,
      "Ġhad": 450,
      "Ġk": 451,
      "ust": 452,
      "Ġcom": 453,
      "ĠN": 454,
      "``": 455,
      "Ġfrom": 456,
      "Ġ[": 457,
      "oo": 458,
      "ãĥ": 459,
      "Ġif": 460,
      "Ġthis": 461,
      "##": 462,
      "ĠL": 463,
      "td": 464,
      "art": 465,
      "ple": 466,
      "Ġse": 467,
      "the": 468,
      "Ġare": 469,
      "ãĤ": 470,
      "Ġwe": 471,
      "ĠF": 472,
      "Ġall": 473,
      "ard": 474,
      "ew": 475,
      "ĠĠĠĠĠĠĠĠĠĠĠĠĠĠĠ": 476,
      "con": 477,
      "Ġsu": 478,
      "ind": 479,
      "ode": 480,
      "urn": 481,
      "Ġwhich": 482,
      "ĠD": 483,
      "Ġme": 484,
      "Ġhave": 485,
      "ant": 486,
      "()": 487,
      "nt": 488,
      "Ġher": 489,
      "out": 490,
      "cl": 491,
      "ord": 492,
      "iv": 493,
      "ine": 494,
      "ell": 495,
      "\")": 496,
      "Ġ_": 497,
      "ang": 498,
      "Ġwhe": 499,
      "Ġch": 500,
      "Ġbut": 501,
      "ure": 502,
      "Ġmy": 503,
      "Ġ{": 504,
      "ere": 505,
      "Ġhim": 506,
      "(\"": 507,
      "oug": 508,
      "pp": 509,
      "ity": 510,
      "able": 511,
      "=\"": 512,
      "age": 513,
      "ĠR": 514,
      "Ġ<": 515,
      "ack": 516,
      "Ġso": 517,
      "ment": 518,
      "ult": 519,
      "',": 520,
      "ĠE": 521,
      "Ġus": 522,
      "Ġtr": 523,
      "av": 524,
      "ib": 525,
      "ef": 526,
      "ast": 527,
      "ive": 528,
      ".\"": 529,
      "ous": 530,
      "Ġcl": 531,
      "ace": 532,
      "Ġpro": 533,
      "Ġle": 534,
      "ĠG": 535,
      "ile": 536,
      "qual": 537,
      "Ġup": 538,
      "Ġ,": 539,
      "ak": 540,
      "ath": 541,
      "Ġ-": 542,
      "Ġ0": 543,
      "are": 544,
      "Ġ.": 545,
      "sp": 546,
      "----": 547,
      "Ġar": 548,
      "ong": 549,
      "ire": 550,
      "ype": 551,
      "ĠĠĠĠĠ": 552,
      "ime": 553,
      "ome": 554,
      "ound": 555,
      "Ġthey": 556,
      "ĠO": 557,
      "ost": 558,
      "ies": 559,
      "Ġsp": 560,
      "The": 561,
      "Ġun": 562,
      "Ġsa": 563,
      "ject": 564,
      "Ġwill": 565,
      "ff": 566,
      "Ġcan": 567,
      "Ġdo": 568,
      "Ġim": 569,
      "ence": 570,
      "Ġman": 571,
      "ions": 572,
      "Ġwere": 573,
      "ror": 574,
      "lo": 575,
      "Ġtest": 576,
      "per": 577,
      "Ġret": 578,
      "Ġ2": 579,
      "ext": 580,
      "__": 581,
      "com": 582,
      "Ġone": 583,
      "get": 584,
      "for": 585,
      "Ġout": 586,
      "Ġstr": 587,
      "Ġthem": 588,
      "ook": 589,
      "ref": 590,
      "Ġshe": 591,
      "Ġno": 592,
      "ps": 593,
      "own": 594,
      "eld": 595,
      "}}": 596,
      "str": 597,
      "ide": 598,
      "very": 599,
      "Ġtheir": 600,
      "ud": 601,
      "Ġwho": 602,
      "Ġreturn": 603,
      "ance": 604,
      "ated": 605,
      "int": 606,
      "ther": 607,
      "ice": 608,
      "iz": 609,
      "Equal": 610,
      "ield": 611,
      "alue": 612,
      "ear": 613,
      "Ġab": 614,
      "ake": 615,
      "ern": 616,
      "op": 617,
      "Ġgo": 618,
      "ase": 619,
      "port": 620,
      "Ġ*": 621,
      "ĠJ": 622,
      "itt": 623,
      ",\"": 624,
      "Ġwhen": 625,
      "ough": 626,
      "ip": 627,
      "à¦": 628,
      "ress": 629,
      "Ġpl": 630,
      "ug": 631,
      "Ġen": 632,
      "ãĢ": 633,
      "Ġpr": 634,
      "assertEqual": 635,
      "](": 636,
      "ĠTh": 637,
      "hed": 638,
      "Ġcont": 639,
      "ite": 640,
      "name": 641,
      "bject": 642,
      "><": 643,
      "ock": 644,
      "ep": 645,
      "Ġj": 646,
      "Ġ|": 647,
      "Ġad": 648,
      "ign": 649,
      "\"\"": 650,
      "ose": 651,
      "ail": 652,
      "Ġkn": 653,
      "Ġì": 654,
      "reat": 655,
      "act": 656,
      "ial": 657,
      "arg": 658,
      "oll": 659,
      "Ġel": 660,
      "ä¸": 661,
      "Ġmore": 662,
      "Ġqu": 663,
      "//": 664,
      "Ġwould": 665,
      "ary": 666,
      "Ġsaid": 667,
      "Ġbeen": 668,
      "```": 669,
      "cc": 670,
      "')": 671,
      "Ġdis": 672,
      "Ġgr": 673,
      "Ġhas": 674,
      "Ġwor": 675,
      "ck": 676,
      "Ġne": 677,
      "Ġres": 678,
      "Ġthere": 679,
      "ings": 680,
      "Ġbr": 681,
      "Ġyour": 682,
      "'t": 683,
      "Ġother": 684,
      "eb": 685,
      "ata": 686,
      "ais": 687,
      "Ġag": 688,
      "Ġany": 689,
      "code": 690,
      "ike": 691,
      "ĠK": 692,
      "ans": 693,
      "eth": 694,
      "ond": 695,
      "Ġsc": 696,
      "ll": 697,
      "rror": 698,
      "._": 699,
      "erv": 700,
      "cept": 701,
      "Ġev": 702,
      "ents": 703,
      "sh": 704,
      "ĠAnd": 705,
      "Error": 706,
      "ber": 707,
      "))": 708,
      "ish": 709,
      "ink": 710,
      "ie": 711,
      "doc": 712,
      "old": 713,
      "Ġinto": 714,
      "ally": 715,
      "gr": 716,
      "ely": 717,
      "kub": 718,
      "ild": 719,
      "Ġass": 720,
      "></": 721,
      "form": 722,
      "ful": 723,
      "ĠHe": 724,
      "ï¼": 725,
      "Ġ)": 726,
      "of": 727,
      "ick": 728,
      "not": 729,
      "ER": 730,
      "ng": 731,
      "ach": 732,
      "aw": 733,
      "Ġour": 734,
      "ction": 735,
      "Ġtime": 736,
      "app": 737,
      "fter": 738,
      "ied": 739,
      "Ġ{{": 740,
      "ays": 741,
      "set": 742,
      "Ġthan": 743,
      "('": 744,
      "Ġshould": 745,
      "ãĢĤ": 746,
      "etes": 747,
      "ree": 748,
      "ade": 749,
      "ernetes": 750,
      "Ġset": 751,
      "read": 752,
      "ĠĊ": 753,
      "vers": 754,
      "Ġsome": 755,
      "Ġ3": 756,
      "ict": 757,
      "Ġtw": 758,
      "arr": 759,
      "irst": 760,
      "other": 761,
      "ount": 762,
      "Ġam": 763,
      "çļ": 764,
      "çļĦ": 765,
      "ious": 766,
      "In": 767,
      "Ġlo": 768,
      "ory": 769,
      "ĠĠĠĠĠĠĠĠĠĠĠĠĠĠĠĠĠĠĠ": 770,
      "so": 771,
      "red": 772,
      "cri": 773,
      "ows": 774,
      "ev": 775,
      "ations": 776,
      "Ġmay": 777,
      "put": 778,
      "Ġper": 779,
      "docs": 780,
      "Ġname": 781,
      "ĠIn": 782,
      "**": 783,
      "atch": 784,
      "type": 785,
      "ĠIt": 786,
      "nder": 787,
      "Ġwhat": 788,
      "ĠU": 789,
      "],": 790,
      "ĠNone": 791,
      "we": 792,
      "Ġonly": 793,
      "ition": 794,
      "ark": 795,
      "Ġ>": 796,
      "Ġ\"\"\"": 797,
      "Ġover": 798,
      "ont": 799,
      "ret": 800,
      "0000": 801,
      "up": 802,
      "Ġits": 803,
      "..": 804,
      "ener": 805,
      "oy": 806,
      "IN": 807,
      "ault": 808,
      "pr": 809,
      "\">": 810,
      "ss": 811,
      "iss": 812,
      "Ġthen": 813,
      "Ġro": 814,
      "test": 815,
      "key": 816,
      "ia": 817,
      "Ġ@": 818,
      "io": 819,
      "ens": 820,
      "fer": 821,
      "://": 822,
      "ĠV": 823,
      "che": 824,
      "ix": 825,
      "Ġdes": 826,
      "Ġexp": 827,
      "Ġnow": 828,
      "man": 829,
      "Ġcall": 830,
      "--------": 831,
      "quest": 832,
      "fig": 833,
      "use": 834,
      "Ġfe": 835,
      "ìĿ": 836,
      "?\"": 837,
      "Ġpart": 838,
      "ange": 839,
      "pro": 840,
      "PI": 841,
      "Ġcould": 842,
      "\")}}": 843,
      "Ġlike": 844,
      "Ġhand": 845,
      "ty": 846,
      "ge": 847,
      "odu": 848,
      "ittle": 849,
      "Ġvalue": 850,
      "\":": 851,
      "Ġsee": 852,
      "Ġvery": 853,
      "ry": 854,
      "alse": 855,
      "ought": 856,
      "ning": 857,
      "ĠĠĠĠĠĠĠĠĠĠĠĠĠĠĠĠĠĠĠĠĠĠĠĠĠĠĠĠĠĠĠĠ": 858,
      "ample": 859,
      "Ġfl": 860,
      "Ġbl": 861,
      "rue": 862,
      "Ġgreat": 863,
      "par": 864,
      "ces": 865,
      "uch": 866,
      "hat": 867,
      "Ġget": 868,
      "Ġupon": 869,
      "](/": 870,
      "Ġpass": 871,
      "Ġnew": 872,
      "htt": 873,
      "Ġmust": 874,
      "Ġrem": 875,
      "ood": 876,
      "ĠY": 877,
      "Ġfirst": 878,
      "Ġabout": 879,
      "Ġcomm": 880,
      "Ġpo": 881,
      ").": 882,
      "ames": 883,
      "ient": 884,
      "Ġap": 885,
      "Ġafter": 886,
      "ne": 887,
      "ather": 888,
      "ax": 889,
      "ource": 890,
      "ward": 891,
      "cont": 892,
      "Ġind": 893,
      "Ġagain": 894,
      "ption": 895,
      "ob": 896,
      "Ġhow": 897,
      "US": 898,
      "oss": 899,
      "fore": 900,
      "def": 901,
      "Ġdid": 902,
      "led": 903,
      "odel": 904,
      "oth": 905,
      "hen": 906,
      "class": 907,
      "Ġtwo": 908,
      "ĠĠĠĠĠĠ": 909,
      "wn": 910,
      "ors": 911,
      "Ġlook": 912,
      "Ġclass": 913,
      "Ġobject": 914,
      "Ġimport": 915,
      "ize": 916,
      "Ġwr": 917,
      "min": 918,
      "Ġcol": 919,
      "Ġknow": 920,
      "line": 921,
      "Ġuse": 922,
      "Ġthr": 923,
      "Ġform": 924,
      "path": 925,
      "ĠThis": 926,
      "Ġtoo": 927,
      "with": 928,
      "Ġlittle": 929,
      "air": 930,
      "Ġsuch": 931,
      "ise": 932,
      "ON": 933,
      "from": 934,
      "uth": 935,
      "Ġinter": 936,
      "val": 937,
      "])": 938,
      "Ġcomp": 939,
      "ife": 940,
      "Ġë": 941,
      "be": 942,
      "over": 943,
      "Ġ4": 944,
      "Ġbefore": 945,
      "les": 946,
      "ft": 947,
      "Ġwhere": 948,
      "Ġ:": 949,
      "Ġbec": 950,
      "ars": 951,
      "ered": 952,
      "âĢ": 953,
      "íķ": 954,
      "Ġspec": 955,
      "'d": 956,
      "Ġpre": 957,
      "ĠBut": 958,
      "ä»": 959,
      "Ġthese": 960,
      "Ġwork": 961,
      "ected": 962,
      "Ġlist": 963,
      "ness": 964,
      "Ġoff": 965,
      "ons": 966,
      "Ġassert": 967,
      "ues": 968,
      "ĠSt": 969,
      "Ġmade": 970,
      "Ġmen": 971,
      "!--": 972,
      "og": 973,
      "Ġadd": 974,
      "ĠÐ": 975,
      "ian": 976,
      "Ġapp": 977,
      "add": 978,
      "Ġdown": 979,
      "Ġlong": 980,
      "oun": 981,
      "ĠCh": 982,
      "ead": 983,
      "Ġbet": 984,
      "Ġpe": 985,
      "trib": 986,
      "{{": 987,
      "Ġshall": 988,
      "Ġgood": 989,
      "https": 990,
      "ove": 991,
      "Ġback": 992,
      "ific": 993,
      "iew": 994,
      "ody": 995,
      "Ġval": 996,
      "01": 997,
      "error": 998,
      "ause": 999,
      "Ġsy": 1000,
      "Ġ+": 1001,
      "AL": 1002,
      "Ġsub": 1003,
      "ical": 1004,
      "ĠIf": 1005,
      "pport": 1006,
      "ull": 1007,
      "Ġaw": 1008,
      "ement": 1009,
      "-->": 1010,
      "ask": 1011,
      "ä½": 1012,
      "!\"": 1013,
      "ved": 1014,
      "Ġ->": 1015,
      "Ġsm": 1016,
      "ubernetes": 1017,
      "reate": 1018,
      "ï¼Į": 1019,
      "OR": 1020,
      "åı": 1021,
      "erver": 1022,
      "Ġend": 1023,
      "file": 1024,
      "Ġint": 1025,
      "ced": 1026,
      "Ġmake": 1027,
      "igh": 1028,
      "Ġown": 1029,
      "xref": 1030,
      "tribut": 1031,
      "ection": 1032,
      "ater": 1033,
      "Test": 1034,
      "field": 1035,
      "ĠMr": 1036,
      "Ġold": 1037,
      "ates": 1038,
      "Ġnp": 1039,
      "ollow": 1040,
      "eg": 1041,
      "Ġinst": 1042,
      "AR": 1043,
      "ES": 1044,
      "Ġhead": 1045,
      "Ġwell": 1046,
      "aises": 1047,
      "Ġevery": 1048,
      "wr": 1049,
      "li": 1050,
      "Ġmuch": 1051,
      "AT": 1052,
      "ible": 1053,
      "ual": 1054,
      "wh": 1055,
      "ork": 1056,
      "Ġcons": 1057,
      "Ġcr": 1058,
      "atter": 1059,
      "Ġob": 1060,
      "Ġword": 1061,
      "Ġop": 1062,
      "Ġunder": 1063,
      "ãĥ¼": 1064,
      "Ġdec": 1065,
      "Ġmost": 1066,
      "Ġacc": 1067,
      "ethod": 1068,
      "his": 1069,
      "ool": 1070,
      "Ġfield": 1071,
      "ms": 1072,
      "Web": 1073,
      "resent": 1074,
      "Ġsame": 1075,
      "py": 1076,
      "çĶ": 1077,
      "Ġalso": 1078,
      "Ð¾": 1079,
      "####": 1080,
      "Ġ</": 1081,
      "Ġsec": 1082,
      "Ġfun": 1083,
      "Ġbre": 1084,
      "ait": 1085,
      "Ġnum": 1086,
      "à¤": 1087,
      "Ġeven": 1088,
      "ily": 1089,
      "<!--": 1090,
      "fl": 1091,
      "==": 1092,
      "object": 1093,
      "Ġread": 1094,
      "Ġday": 1095,
      "ãģ®": 1096,
      "less": 1097,
      "aint": 1098,
      "ouse": 1099,
      "_.": 1100,
      "Ġche": 1101,
      "br": 1102,
      "ature": 1103,
      "å®": 1104,
      "cript": 1105,
      "Ġ%": 1106,
      "der": 1107,
      "Ġent": 1108,
      "ren": 1109,
      "Ġfr": 1110,
      "Ġway": 1111,
      "by": 1112,
      "Ġsay": 1113,
      "dom": 1114,
      "Ġrun": 1115,
      "ET": 1116,
      "Ġem": 1117,
      "ray": 1118,
      "su": 1119,
      "Ġ/": 1120,
      "Ġ5": 1121,
      "æľ": 1122,
      "args": 1123,
      "vel": 1124,
      "arn": 1125,
      "met": 1126,
      "Ġ**": 1127,
      "ery": 1128,
      "Ġlet": 1129,
      "Ðµ": 1130,
      "Ġthose": 1131,
      "Ġcontain": 1132,
      "eng": 1133,
      "ired": 1134,
      "cess": 1135,
      "fo": 1136,
      "Ġgl": 1137,
      "Ġyear": 1138,
      "ble": 1139,
      "col": 1140,
      "Ġthrough": 1141,
      "Ġsl": 1142,
      "plic": 1143,
      "word": 1144,
      "ared": 1145,
      "ower": 1146,
      "abel": 1147,
      "uct": 1148,
      "Ġnever": 1149,
      "Ġdel": 1150,
      "True": 1151,
      "its": 1152,
      "Ġhere": 1153,
      "ĠPod": 1154,
      "js": 1155,
      "Ġelse": 1156,
      "Ġey": 1157,
      "that": 1158,
      "Ġmight": 1159,
      "Ġcame": 1160,
      "Ġfollow": 1161,
      "åĪ": 1162,
      "comm": 1163,
      "Ġresult": 1164,
      "Ġac": 1165,
      "Ġused": 1166,
      "ever": 1167,
      "te": 1168,
      "ines": 1169,
      "Ġbeing": 1170,
      "aug": 1171,
      "sc": 1172,
      "Ġcome": 1173,
      "10": 1174,
      "version": 1175,
      "Ġbel": 1176,
      "Ġlast": 1177,
      "ĠFor": 1178,
      "ner": 1179,
      "ating": 1180,
      "EN": 1181,
      "ument": 1182,
      "Ġdr": 1183,
      "Ġarg": 1184,
      "Ġatt": 1185,
      "ope": 1186,
      "value": 1187,
      "try": 1188,
      "ĠĠĠĠĠĠĠĠĠĠĠĠĠĠĠĠĠĠĠĠĠĠĠĠ": 1189,
      "Ġthou": 1190,
      "Ġdif": 1191,
      "ator": 1192,
      "irect": 1193,
      "sel": 1194,
      "ters": 1195,
      "Ġmany": 1196,
      "çĶ¨": 1197,
      "Ġrequest": 1198,
      "ins": 1199,
      "Ġwithout": 1200,
      "Ġpar": 1201,
      "ople": 1202,
      "Ġthink": 1203,
      "Ġcur": 1204,
      "Ġjust": 1205,
      "Ġrec": 1206,
      "assertR": 1207,
      "ves": 1208,
      "åĲ": 1209,
      "ked": 1210,
      "St": 1211,
      "ures": 1212,
      "Ġtype": 1213,
      "Ġfound": 1214,
      "az": 1215,
      "ash": 1216,
      "clud": 1217,
      "Ġx": 1218,
      "erence": 1219,
      "Ġbu": 1220,
      "pos": 1221,
      "ph": 1222,
      "ee": 1223,
      "pert": 1224,
      "Ġseem": 1225,
      "Ð°": 1226,
      "###": 1227,
      "Ġresp": 1228,
      "orm": 1229,
      "And": 1230,
      "odule": 1231,
      "12": 1232,
      "ãģĻ": 1233,
      "ãĢģ": 1234,
      "assertRaises": 1235,
      "ĠKubernetes": 1236,
      "Ġdata": 1237,
      "Ġfile": 1238,
      "Ġwhile": 1239,
      "ervice": 1240,
      "None": 1241,
      "ither": 1242,
      "ting": 1243,
      "my": 1244,
      "Ġke": 1245,
      "Ġ==": 1246,
      "time": 1247,
      "TER": 1248,
      "Ġrais": 1249,
      "ream": 1250,
      "ages": 1251,
      "Ġrel": 1252,
      "Ġeach": 1253,
      "aut": 1254,
      "Ġchild": 1255,
      "Ġstring": 1256,
      "It": 1257,
      "Ġ>}}": 1258,
      "ÑĤ": 1259,
      "ined": 1260,
      "Ex": 1261,
      "Ġlife": 1262,
      "ried": 1263,
      "':": 1264,
      "array": 1265,
      "Ġkey": 1266,
      "Ġbeg": 1267,
      "inter": 1268,
      "yn": 1269,
      "ments": 1270,
      "Ġreg": 1271,
      "amet": 1272,
      "Ġneed": 1273,
      "aid": 1274,
      "ah": 1275,
      "ished": 1276,
      "fil": 1277,
      "kubernetes": 1278,
      "land": 1279,
      "ml": 1280,
      "Ġstill": 1281,
      "ince": 1282,
      "po": 1283,
      "Ġthy": 1284,
      "Ġact": 1285,
      "vent": 1286,
      "ened": 1287,
      "here": 1288,
      "ank": 1289,
      "Ġthought": 1290,
      "ĠWe": 1291,
      "und": 1292,
      "riend": 1293,
      "ĠAPI": 1294,
      "ocal": 1295,
      "Ġgener": 1296,
      "ectl": 1297,
      "yle": 1298,
      "ility": 1299,
      "ns": 1300,
      "ular": 1301,
      "aking": 1302,
      "LE": 1303,
      "mer": 1304,
      "ling": 1305,
      "è¿": 1306,
      "fr": 1307,
      "Type": 1308,
      "me": 1309,
      "dd": 1310,
      "ken": 1311,
      "onse": 1312,
      "fun": 1313,
      "ier": 1314,
      "back": 1315,
      "Ġexcept": 1316,
      "data": 1317,
      "hing": 1318,
      "Ġdoes": 1319,
      "Ġright": 1320,
      "ari": 1321,
      "ason": 1322,
      "Ġsom": 1323,
      "hy": 1324,
      "imes": 1325,
      "apt": 1326,
      "Ġgiv": 1327,
      ".__": 1328,
      "aster": 1329,
      "ices": 1330,
      "Ġpeople": 1331,
      "Ġtake": 1332,
      "Ġ__": 1333,
      "ĭ¤": 1334,
      "Ġturn": 1335,
      "iter": 1336,
      "load": 1337,
      "Ġear": 1338,
      "string": 1339,
      "Ġprov": 1340,
      "oup": 1341,
      "Ġbo": 1342,
      "([": 1343,
      "API": 1344,
      "cy": 1345,
      "SS": 1346,
      "Ġter": 1347,
      "Ġstart": 1348,
      "Ġwant": 1349,
      "elet": 1350,
      "'ll": 1351,
      "Ð¸": 1352,
      "Ġ'\\": 1353,
      "olic": 1354,
      "ween": 1355,
      "`.": 1356,
      "Ġyet": 1357,
      "Ġdefault": 1358,
      "Ġtry": 1359,
      "ative": 1360,
      "log": 1361,
      "comp": 1362,
      "ape": 1363,
      "work": 1364,
      "Ġ}": 1365,
      "Ġfind": 1366,
      "ĠShe": 1367,
      "sub": 1368,
      "ĠGod": 1369,
      "AN": 1370,
      "ĠĠĠĠĠĠĠĠĠĠĠĠĠĠĠĠĠĠĠĠĠĠĠ": 1371,
      "à§": 1372,
      "rec": 1373,
      "Ġplace": 1374,
      "no": 1375,
      "Ġsupport": 1376,
      "aving": 1377,
      "oh": 1378,
      "Ġexample": 1379,
      "ST": 1380,
      "äº": 1381,
      "-@": 1382,
      "Ġ@-@": 1383,
      "Ġaway": 1384,
      "fe": 1385,
      "Ġchar": 1386,
      "30": 1387,
      "Ref": 1388,
      "Is": 1389,
      "Ġcoun": 1390,
      "Ġhimself": 1391,
      "ified": 1392,
      "span": 1393,
      "è¯": 1394,
      "ãĤĴ": 1395,
      "{{<": 1396,
      "ident": 1397,
      "Ġ6": 1398,
      "Ġcontr": 1399,
      "Ġput": 1400,
      "body": 1401,
      "ĠThey": 1402,
      "uring": 1403,
      "ways": 1404,
      "HT": 1405,
      "api": 1406,
      "side": 1407,
      "Ġspe": 1408,
      "most": 1409,
      "Ġusing": 1410,
      "Ġmin": 1411,
      "`,": 1412,
      "ained": 1413,
      "Ġcour": 1414,
      "uster": 1415,
      "list": 1416,
      "Ġrep": 1417,
      "ote": 1418,
      "Ġcor": 1419,
      "Ġthee": 1420,
      "Ġappe": 1421,
      "20": 1422,
      "import": 1423,
      "Ġkub": 1424,
      "any": 1425,
      "cle": 1426,
      "Ġmem": 1427,
      "Ġeyes": 1428,
      "url": 1429,
      "dir": 1430,
      "alk": 1431,
      "RE": 1432,
      "yp": 1433,
      "sy": 1434,
      "sw": 1435,
      "ĠYou": 1436,
      "Ġref": 1437,
      "ĠĠĠĠĠĠĠĠĠ": 1438,
      "_,": 1439,
      "bo": 1440,
      "ľë": 1441,
      "ted": 1442,
      "inst": 1443,
      "Ġtext": 1444,
      "Ġdet": 1445,
      "ited": 1446,
      ",--": 1447,
      "ides": 1448,
      "arch": 1449,
      "ven": 1450,
      "Ġfil": 1451,
      "Con": 1452,
      "Ġnumber": 1453,
      "uthor": 1454,
      "ache": 1455,
      "Ġcode": 1456,
      "als": 1457,
      "config": 1458,
      "Ġbreak": 1459,
      "Ġí": 1460,
      "Ġmethod": 1461,
      "Ġheart": 1462,
      "Ġboth": 1463,
      "Ġ('": 1464,
      "Ġthree": 1465,
      "Ġ19": 1466,
      "Ġwent": 1467,
      "med": 1468,
      "Ġline": 1469,
      "åħ": 1470,
      "but": 1471,
      "Ġleft": 1472,
      "Ð¾Ð": 1473,
      "olum": 1474,
      "Ġanother": 1475,
      "TH": 1476,
      "amp": 1477,
      "ched": 1478,
      "ik": 1479,
      "Ġpath": 1480,
      "ify": 1481,
      "ric": 1482,
      "Ġpers": 1483,
      "ane": 1484,
      "Ġdoc": 1485,
      "Ġco": 1486,
      "Ġhouse": 1487,
      "check": 1488,
      "Ġfriend": 1489,
      "ton": 1490,
      "ertain": 1491,
      "mb": 1492,
      "Ġ10": 1493,
      "Ġdep": 1494,
      "ĠTo": 1495,
      "ubl": 1496,
      ");": 1497,
      "lect": 1498,
      "ross": 1499,
      "empl": 1500,
      "Ġwar": 1501,
      "Ġbetween": 1502,
      "ĠEx": 1503,
      ">>": 1504,
      "But": 1505,
      "Ġcalled": 1506,
      "Ġi": 1507,
      "essage": 1508,
      "view": 1509,
      "lp": 1510,
      "Ġ--": 1511,
      "Ġz": 1512,
      "ased": 1513,
      "ived": 1514,
      "Ġever": 1515,
      "ains": 1516,
      "Ġposs": 1517,
      "Ġworld": 1518,
      "ek": 1519,
      "Ġbecause": 1520,
      "aps": 1521,
      "Ġagainst": 1522,
      "iver": 1523,
      "rent": 1524,
      "Ġrequ": 1525,
      "000": 1526,
      "dis": 1527,
      "Ġgu": 1528,
      "He": 1529,
      "Ġdon": 1530,
      "Ġwom": 1531,
      "Ġkind": 1532,
      "Ġcheck": 1533,
      "Ġdiffer": 1534,
      "(),": 1535,
      "miss": 1536,
      "Ġfunction": 1537,
      "Ġcontin": 1538,
      "'),": 1539,
      "False": 1540,
      "Ġdist": 1541,
      "domxref": 1542,
      "label": 1543,
      "ãģ«": 1544,
      "date": 1545,
      "Ġraise": 1546,
      "Ġunt": 1547,
      "elt": 1548,
      "You": 1549,
      "ustom": 1550,
      "idd": 1551,
      "Ġfar": 1552,
      "init": 1553,
      "ÑĢ": 1554,
      "arge": 1555,
      "Ġtell": 1556,
      "row": 1557,
      "Ġtrue": 1558,
      "sl": 1559,
      "Ġdisc": 1560,
      "This": 1561,
      "run": 1562,
      "----------------": 1563,
      "Ġerror": 1564,
      "Ġthough": 1565,
      "was": 1566,
      "valid": 1567,
      "__(": 1568,
      "Ġsim": 1569,
      "amesp": 1570,
      "Ġos": 1571,
      "text": 1572,
      "Ġyoung": 1573,
      "ale": 1574,
      "Ð½": 1575,
      "ML": 1576,
      "spec": 1577,
      "Ġstyle": 1578,
      "bu": 1579,
      "Ġser": 1580,
      "Ã©": 1581,
      "ems": 1582,
      "ĠWhen": 1583,
      "nb": 1584,
      "thing": 1585,
      "create": 1586,
      "cod": 1587,
      "Ġpresent": 1588,
      "gg": 1589,
      "Ġonce": 1590,
      "exp": 1591,
      "Ġart": 1592,
      "Ġple": 1593,
      "itle": 1594,
      "kubectl": 1595,
      "Ġnor": 1596,
      "ĠAs": 1597,
      "æĪ": 1598,
      "ength": 1599,
      "elect": 1600,
      "ĠThere": 1601,
      "Ġå": 1602,
      "Ġyears": 1603,
      "Cont": 1604,
      "Ġopen": 1605,
      "ru": 1606,
      "64": 1607,
      "ples": 1608,
      "ized": 1609,
      "Ġsur": 1610,
      "Ġbeh": 1611,
      "reg": 1612,
      "she": 1613,
      "orn": 1614,
      "thon": 1615,
      "aim": 1616,
      "table": 1617,
      "Ġmind": 1618,
      "Ġpoint": 1619,
      "alf": 1620,
      "Ġgive": 1621,
      "ãĥ³": 1622,
      "iet": 1623,
      "Ġlove": 1624,
      "ey": 1625,
      "ĠAr": 1626,
      "objects": 1627,
      "Ġê": 1628,
      "sec": 1629,
      "Ġrest": 1630,
      "att": 1631,
      "ended": 1632,
      "ĠTrue": 1633,
      "equal": 1634,
      "Ġcle": 1635,
      "empt": 1636,
      "ãĤĭ": 1637,
      "Ġfew": 1638,
      "oice": 1639,
      "owed": 1640,
      "tt": 1641,
      "Ġnight": 1642,
      "Ġsaw": 1643,
      "ãģĹ": 1644,
      "Ġnear": 1645,
      "oud": 1646,
      "Ġvalues": 1647,
      "Ġface": 1648,
      "inal": 1649,
      "head": 1650,
      "ĠBr": 1651,
      "è®": 1652,
      "ãģ¾": 1653,
      "Ġcase": 1654,
      "oin": 1655,
      "\"),": 1656,
      "='": 1657,
      "IG": 1658,
      "Ġserver": 1659,
      "nbsp": 1660,
      "ities": 1661,
      "ccess": 1662,
      "Ñģ": 1663,
      "11": 1664,
      "ases": 1665,
      "aces": 1666,
      "00000000": 1667,
      "ister": 1668,
      "bl": 1669,
      "Ġà¦": 1670,
      "Cl": 1671,
      "arent": 1672,
      "Ġdirect": 1673,
      "Ġmod": 1674,
      "ithub": 1675,
      "Ġed": 1676,
      "Ġalways": 1677,
      "Ġarray": 1678,
      "ider": 1679,
      ".'": 1680,
      "div": 1681,
      "rem": 1682,
      "Ġext": 1683,
      "perty": 1684,
      "olicy": 1685,
      "ured": 1686,
      "Ġmon": 1687,
      "github": 1688,
      "ech": 1689,
      "ersion": 1690,
      "Ġfather": 1691,
      "To": 1692,
      "CH": 1693,
      "ute": 1694,
      "Ġsing": 1695,
      "ìĿ´": 1696,
      "Ġmet": 1697,
      "Ġinclud": 1698,
      "Ġlight": 1699,
      "hes": 1700,
      "Ġexpected": 1701,
      "Ġsign": 1702,
      "anc": 1703,
      "ĠâĢ": 1704,
      "foo": 1705,
      "pec": 1706,
      "ser": 1707,
      "Ġsmall": 1708,
      "ĠAn": 1709,
      "lement": 1710,
      "ten": 1711,
      "Ġstand": 1712,
      "akes": 1713,
      "ĠWh": 1714,
      "Ġthings": 1715,
      "Ġimp": 1716,
      "Ġcommand": 1717,
      "Ġmodel": 1718,
      "call": 1719,
      "bar": 1720,
      "Ġ8": 1721,
      "Ġav": 1722,
      "stem": 1723,
      "åĬ": 1724,
      "Ġsent": 1725,
      "Ĭ¤": 1726,
      "ĠThat": 1727,
      "css": 1728,
      "ts": 1729,
      "Ġsw": 1730,
      "Ġocc": 1731,
      "ameters": 1732,
      "Ġeff": 1733,
      "Ġwater": 1734,
      "rew": 1735,
      "If": 1736,
      "ats": 1737,
      "tribute": 1738,
      "ets": 1739,
      "Ġpur": 1740,
      "ìĹ": 1741,
      "è¡": 1742,
      "gether": 1743,
      "[\"": 1744,
      "ĠFalse": 1745,
      "ething": 1746,
      "Ġside": 1747,
      "ression": 1748,
      "men": 1749,
      "Ġhapp": 1750,
      "Ġoper": 1751,
      "ants": 1752,
      "iness": 1753,
      "els": 1754,
      "Ġstate": 1755,
      "que": 1756,
      "/)": 1757,
      "Ġhigh": 1758,
      "wrap": 1759,
      "Script": 1760,
      "Field": 1761,
      "Ġdone": 1762,
      "Ġgiven": 1763,
      "uration": 1764,
      "ploy": 1765,
      "25": 1766,
      "Version": 1767,
      "ĠEng": 1768,
      "Ġfollowing": 1769,
      "Ġvis": 1770,
      "ually": 1771,
      "Ġtook": 1772,
      "model": 1773,
      "stand": 1774,
      "\"]": 1775,
      "atic": 1776,
      "Ġwind": 1777,
      "Ġnothing": 1778,
      "resp": 1779,
      "Ġaff": 1780,
      "oot": 1781,
      "Ġcannot": 1782,
      "Ġuser": 1783,
      "Ġnext": 1784,
      "lob": 1785,
      "oub": 1786,
      "tes": 1787,
      "Ġ>>>": 1788,
      "åľ": 1789,
      "Ġorder": 1790,
      "num": 1791,
      "atus": 1792,
      "Ġsk": 1793,
      "---": 1794,
      "Ġconfig": 1795,
      "Ġ7": 1796,
      "Ġhour": 1797,
      "Ġansw": 1798,
      "TP": 1799,
      "Ġpri": 1800,
      "ember": 1801,
      "ĠUn": 1802,
      "Ġpod": 1803,
      "assertIs": 1804,
      "ãģ¯": 1805,
      "ĠAl": 1806,
      "IC": 1807,
      "ager": 1808,
      "Ġ18": 1809,
      "now": 1810,
      "Ġgot": 1811,
      "ptions": 1812,
      "ided": 1813,
      "wards": 1814,
      "Ġelement": 1815,
      "OM": 1816,
      "ception": 1817,
      "Ġamong": 1818,
      "ci": 1819,
      "ING": 1820,
      "ync": 1821,
      "99": 1822,
      "amespace": 1823,
      "ady": 1824,
      "ĠJoh": 1825,
      "Ġunto": 1826,
      "Ġmo": 1827,
      "dec": 1828,
      "ately": 1829,
      "attr": 1830,
      "Ġsecond": 1831,
      "new": 1832,
      "ler": 1833,
      "Not": 1834,
      "default": 1835,
      "Ġcond": 1836,
      "orage": 1837,
      "ĬĶ": 1838,
      "ĠTest": 1839,
      "ĠThen": 1840,
      "osed": 1841,
      "aken": 1842,
      "Ġfell": 1843,
      "mon": 1844,
      "æĸ": 1845,
      "ãĥ¼ãĥ": 1846,
      "Ġ(\"": 1847,
      "Ġless": 1848,
      "refore": 1849,
      "Ġes": 1850,
      "order": 1851,
      "html": 1852,
      "Ġwhom": 1853,
      "Ġ...": 1854,
      "ED": 1855,
      "amb": 1856,
      "ird": 1857,
      "EL": 1858,
      "Ġfull": 1859,
      "outh": 1860,
      "Ġcharac": 1861,
      "Ġexc": 1862,
      "Ġpos": 1863,
      "Ġconn": 1864,
      "Reference": 1865,
      "play": 1866,
      "opy": 1867,
      "org": 1868,
      "ãĤ¹": 1869,
      "ources": 1870,
      "Ġfam": 1871,
      "Ġred": 1872,
      "adata": 1873,
      "pped": 1874,
      "Ġland": 1875,
      "ches": 1876,
      "Ch": 1877,
      "ives": 1878,
      "which": 1879,
      "pre": 1880,
      "Ġuntil": 1881,
      "Ġthing": 1882,
      "Ġseen": 1883,
      "32": 1884,
      "ann": 1885,
      "day": 1886,
      "():": 1887,
      "Ġhelp": 1888,
      "idth": 1889,
      "Ġmer": 1890,
      "Ġtrans": 1891,
      "ãģ§": 1892,
      "Ġfail": 1893,
      "start": 1894,
      "ename": 1895,
      "Ġmom": 1896,
      "Ġcare": 1897,
      "alueError": 1898,
      "Ġhum": 1899,
      "Ġkeep": 1900,
      "ĠOn": 1901,
      "Ġcountry": 1902,
      "ently": 1903,
      "ĠHT": 1904,
      "âĢĻ": 1905,
      "bed": 1906,
      "uck": 1907,
      "Ġbetter": 1908,
      "Ġrece": 1909,
      "place": 1910,
      "Ġmor": 1911,
      "plied": 1912,
      "imit": 1913,
      "ango": 1914,
      "ä¸Ģ": 1915,
      "IT": 1916,
      ".,": 1917,
      "Ġinc": 1918,
      "ĠAt": 1919,
      "emp": 1920,
      "selves": 1921,
      "iron": 1922,
      "ĠCon": 1923,
      "åı¯": 1924,
      "Ġoutput": 1925,
      "Ġte": 1926,
      "ements": 1927,
      "Ġbro": 1928,
      "16": 1929,
      "Ġwithin": 1930,
      "æĺ": 1931,
      "Ġconf": 1932,
      "state": 1933,
      "Ġpower": 1934,
      "struct": 1935,
      "Ġreturned": 1936,
      "db": 1937,
      "Ġbest": 1938,
      "olume": 1939,
      "ung": 1940,
      "ready": 1941,
      "ĠWhat": 1942,
      "ETTER": 1943,
      "Ġcre": 1944,
      "used": 1945,
      "Ġcomple": 1946,
      "ffer": 1947,
      "ley": 1948,
      "Ġversion": 1949,
      "eed": 1950,
      "ense": 1951,
      "unt": 1952,
      "Ġserv": 1953,
      "ma": 1954,
      "ulti": 1955,
      "emplate": 1956,
      "Ġhard": 1957,
      "irl": 1958,
      "OT": 1959,
      "Ġcar": 1960,
      "Ġtyp": 1961,
      "owser": 1962,
      "module": 1963,
      "AD": 1964,
      "ìĬ¤": 1965,
      "Ar": 1966,
      "count": 1967,
      "å¤": 1968,
      "ceed": 1969,
      "ä½¿": 1970,
      "ĠNo": 1971,
      "urs": 1972,
      "Ġsupp": 1973,
      "serv": 1974,
      "Ġcontent": 1975,
      "ĠLETTER": 1976,
      "Ġdays": 1977,
      "Ġcertain": 1978,
      "Ġview": 1979,
      "Ġid": 1980,
      "Ġchang": 1981,
      "Ġheard": 1982,
      "content": 1983,
      "ists": 1984,
      "example": 1985,
      "AM": 1986,
      "err": 1987,
      "ached": 1988,
      "jango": 1989,
      "Ġsat": 1990,
      "Ġhalf": 1991,
      "Ġplay": 1992,
      "We": 1993,
      "pod": 1994,
      "Ġdifferent": 1995,
      "Ġest": 1996,
      "Ġlay": 1997,
      "requ": 1998,
      "Ġaut": 1999,
      "rel": 2000,
      "tern": 2001,
      "Ġsure": 2002,
      "Ġsoon": 2003,
      "Ġhands": 2004,
      "åľ¨": 2005,
      "plement": 2006,
      "Ġwhole": 2007,
      "size": 2008,
      "Ġnec": 2009,
      "Ġinform": 2010,
      "ç»": 2011,
      ";&": 2012,
      "ilt": 2013,
      "reen": 2014,
      "ãģ¦": 2015,
      "ëĬĶ": 2016,
      "AC": 2017,
      "ra": 2018,
      "íķĺ": 2019,
      "Ġinv": 2020,
      "you": 2021,
      "ĠHow": 2022,
      "imal": 2023,
      "Ġsil": 2024,
      "Ġmother": 2025,
      "====": 2026,
      "18": 2027,
      "Th": 2028,
      "Ġhome": 2029,
      "ĠSh": 2030,
      "itor": 2031,
      "ëĵ": 2032,
      "info": 2033,
      "Ġlooked": 2034,
      "Ġobjects": 2035,
      "Ġdev": 2036,
      "point": 2037,
      "())": 2038,
      "oop": 2039,
      "ĠMy": 2040,
      "Ġfour": 2041,
      "arget": 2042,
      "ãģ¾ãģĻ": 2043,
      "As": 2044,
      "At": 2045,
      "ged": 2046,
      "like": 2047
    },
    "merges": [
      [
        "Ġ",
        "Ġ"
      ],
      [
        "ĠĠ",
        "ĠĠ"
      ],
      [
        "Ġ",
        "t"
      ],
      [
        "h",
        "e"
      ],
      [
        "Ġ",
        "a"
      ],
      [
        "i",
        "n"
      ],
      [
        "e",
        "r"
      ],
      [
        "č",
        "Ċ"
      ],
      [
        "r",
        "e"
      ],
      [
        "Ġ",
        "s"
      ],
      [
        "o",
        "n"
      ],
      [
        "Ġt",
        "he"
      ],
      [
        "Ġ",
        "w"
      ],
      [
        "a",
        "t"
      ],
      [
        "ĠĠ",
        "Ġ"
      ],
      [
        "Ġ",
        "o"
      ],
      [
        "e",
        "n"
      ],
      [
        "e",
        "s"
      ],
      [
        "i",
        "s"
      ],
      [
        "o",
        "r"
      ],
      [
        "i",
        "t"
      ],
      [
        "n",
        "d"
      ],
      [
        "e",
        "d"
      ],
      [
        "Ġ",
        "c"
      ],
      [
        "ĠĠĠĠ",
        "ĠĠĠĠ"
      ],
      [
        "o",
        "u"
      ],
      [
        "Ġ",
        "b"
      ],
      [
        "Ġ",
        "f"
      ],
      [
        "e",
        "l"
      ],
      [
        "Ġ",
        "m"
      ],
      [
        "a",
        "r"
      ],
      [
        "a",
        "s"
      ],
      [
        "a",
        "l"
      ],
      [
        "in",
        "g"
      ],
      [
        "Ġ",
        "d"
      ],
      [
        "a",
        "n"
      ],
      [
        "Ġ",
        "h"
      ],
      [
        "Ġo",
        "f"
      ],
      [
        "Ġ",
        "p"
      ],
      [
        "l",
        "e"
      ],
      [
        "Ġt",
        "o"
      ],
      [
        "Ġa",
        "nd"
      ],
      [
        "Ġ",
        "in"
      ],
      [
        "ĠĠĠĠ",
        "ĠĠĠ"
      ],
      [
        "Ġt",
        "h"
      ],
      [
        "Ġ",
        "n"
      ],
      [
        "o",
        "m"
      ],
      [
        "e",
        "t"
      ],
      [
        "i",
        "on"
      ],
      [
        "i",
        "c"
      ],
      [
        "s",
        "t"
      ],
      [
        "Ġ",
        "l"
      ],
      [
        "en",
        "t"
      ],
      [
        "a",
        "d"
      ],
      [
        "i",
        "l"
      ],
      [
        "o",
        "t"
      ],
      [
        "Ġ",
        "re"
      ],
      [
        "u",
        "t"
      ],
      [
        "e",
        "c"
      ],
      [
        "a",
        "m"
      ],
      [
        "i",
        "m"
      ],
      [
        "o",
        "d"
      ],
      [
        "o",
        "w"
      ],
      [
        "Ġ",
        "he"
      ],
      [
        "c",
        "e"
      ],
      [
        "-",
        "-"
      ],
      [
        "el",
        "f"
      ],
      [
        "i",
        "d"
      ],
      [
        "Ġ",
        "I"
      ],
      [
        "Ġ",
        "e"
      ],
      [
        "Ġ",
        "g"
      ],
      [
        "Ġ",
        "\""
      ],
      [
        "u",
        "r"
      ],
      [
        "s",
        "e"
      ],
      [
        "Ġ",
        "u"
      ],
      [
        "Ġb",
        "e"
      ],
      [
        "o",
        "l"
      ],
      [
        "i",
        "g"
      ],
      [
        "v",
        "er"
      ],
      [
        "Ġ",
        "T"
      ],
      [
        "v",
        "e"
      ],
      [
        "it",
        "h"
      ],
      [
        "l",
        "y"
      ],
      [
        "es",
        "t"
      ],
      [
        "Ġ",
        "="
      ],
      [
        "Ġ",
        "is"
      ],
      [
        "ĠĠĠĠĠĠĠĠ",
        "ĠĠĠ"
      ],
      [
        "a",
        "c"
      ],
      [
        "Ġf",
        "or"
      ],
      [
        "a",
        "y"
      ],
      [
        "t",
        "r"
      ],
      [
        "Ġth",
        "at"
      ],
      [
        "i",
        "r"
      ],
      [
        "i",
        "f"
      ],
      [
        "Ġ",
        "y"
      ],
      [
        "Ġa",
        "s"
      ],
      [
        "q",
        "u"
      ],
      [
        "Ġ",
        "on"
      ],
      [
        "r",
        "o"
      ],
      [
        "Ġw",
        "h"
      ],
      [
        "Ġ",
        "it"
      ],
      [
        "t",
        "er"
      ],
      [
        "Ġw",
        "ith"
      ],
      [
        "u",
        "l"
      ],
      [
        "Ġ",
        "A"
      ],
      [
        "as",
        "s"
      ],
      [
        "Ġs",
        "elf"
      ],
      [
        "Ġd",
        "e"
      ],
      [
        "Ġ",
        "S"
      ],
      [
        "a",
        "nd"
      ],
      [
        "Ġw",
        "as"
      ],
      [
        "e",
        "m"
      ],
      [
        "h",
        "t"
      ],
      [
        "ec",
        "t"
      ],
      [
        "c",
        "h"
      ],
      [
        "t",
        "h"
      ],
      [
        "er",
        "t"
      ],
      [
        "a",
        "g"
      ],
      [
        "a",
        "in"
      ],
      [
        "at",
        "ion"
      ],
      [
        "a",
        "b"
      ],
      [
        "a",
        "p"
      ],
      [
        "l",
        "d"
      ],
      [
        "he",
        "r"
      ],
      [
        "Ġy",
        "ou"
      ],
      [
        "Ġa",
        "n"
      ],
      [
        "Ġa",
        "l"
      ],
      [
        "Ġn",
        "ot"
      ],
      [
        "Ġs",
        "t"
      ],
      [
        "Ġ",
        "'"
      ],
      [
        "Ġc",
        "on"
      ],
      [
        "Ġ",
        "r"
      ],
      [
        "am",
        "e"
      ],
      [
        "u",
        "n"
      ],
      [
        "k",
        "e"
      ],
      [
        "Ġ",
        "C"
      ],
      [
        "<",
        "/"
      ],
      [
        "re",
        "s"
      ],
      [
        "o",
        "c"
      ],
      [
        "ã",
        "ģ"
      ],
      [
        "Ġh",
        "is"
      ],
      [
        "es",
        "s"
      ],
      [
        "at",
        "e"
      ],
      [
        "Ġ",
        "v"
      ],
      [
        "0",
        "0"
      ],
      [
        "il",
        "l"
      ],
      [
        "u",
        "b"
      ],
      [
        "u",
        "m"
      ],
      [
        "Ġ",
        "("
      ],
      [
        "p",
        "t"
      ],
      [
        "r",
        "om"
      ],
      [
        "r",
        "i"
      ],
      [
        "Ġ",
        "M"
      ],
      [
        "e",
        "x"
      ],
      [
        "ĠĠĠĠĠĠĠĠ",
        "ĠĠĠĠĠĠĠĠ"
      ],
      [
        ")",
        ":"
      ],
      [
        "u",
        "e"
      ],
      [
        "al",
        "l"
      ],
      [
        "ĠT",
        "he"
      ],
      [
        "o",
        "re"
      ],
      [
        "s",
        "elf"
      ],
      [
        "Ġ",
        "`"
      ],
      [
        "p",
        "e"
      ],
      [
        "Ġe",
        "x"
      ],
      [
        "er",
        "s"
      ],
      [
        "u",
        "s"
      ],
      [
        "Ġ",
        "1"
      ],
      [
        "Ġa",
        "t"
      ],
      [
        "Ġs",
        "h"
      ],
      [
        "Ġ",
        "P"
      ],
      [
        "a",
        "ve"
      ],
      [
        "or",
        "t"
      ],
      [
        "Ġ",
        "H"
      ],
      [
        "ou",
        "ld"
      ],
      [
        "Ġ",
        "B"
      ],
      [
        "Ġo",
        "r"
      ],
      [
        "c",
        "t"
      ],
      [
        "is",
        "t"
      ],
      [
        "en",
        "d"
      ],
      [
        "Ġb",
        "y"
      ],
      [
        "ig",
        "ht"
      ],
      [
        "p",
        "l"
      ],
      [
        "ou",
        "r"
      ],
      [
        "o",
        "s"
      ],
      [
        "ic",
        "h"
      ],
      [
        "Ġ",
        "W"
      ],
      [
        "Ġde",
        "f"
      ],
      [
        "'",
        "s"
      ],
      [
        ")",
        ","
      ],
      [
        "Ġ",
        "#"
      ],
      [
        "\"",
        ","
      ],
      [
        "t",
        "o"
      ],
      [
        "on",
        "e"
      ],
      [
        "ass",
        "ert"
      ],
      [
        "Ġh",
        "ad"
      ],
      [
        "Ġ",
        "k"
      ],
      [
        "u",
        "st"
      ],
      [
        "Ġc",
        "om"
      ],
      [
        "Ġ",
        "N"
      ],
      [
        "`",
        "`"
      ],
      [
        "Ġf",
        "rom"
      ],
      [
        "Ġ",
        "["
      ],
      [
        "o",
        "o"
      ],
      [
        "ã",
        "ĥ"
      ],
      [
        "Ġ",
        "if"
      ],
      [
        "Ġth",
        "is"
      ],
      [
        "#",
        "#"
      ],
      [
        "Ġ",
        "L"
      ],
      [
        "t",
        "d"
      ],
      [
        "ar",
        "t"
      ],
      [
        "p",
        "le"
      ],
      [
        "Ġs",
        "e"
      ],
      [
        "t",
        "he"
      ],
      [
        "Ġa",
        "re"
      ],
      [
        "ã",
        "Ĥ"
      ],
      [
        "Ġw",
        "e"
      ],
      [
        "Ġ",
        "F"
      ],
      [
        "Ġal",
        "l"
      ],
      [
        "ar",
        "d"
      ],
      [
        "e",
        "w"
      ],
      [
        "ĠĠĠĠĠĠĠĠ",
        "ĠĠĠĠĠĠĠ"
      ],
      [
        "c",
        "on"
      ],
      [
        "Ġs",
        "u"
      ],
      [
        "in",
        "d"
      ],
      [
        "od",
        "e"
      ],
      [
        "ur",
        "n"
      ],
      [
        "Ġwh",
        "ich"
      ],
      [
        "Ġ",
        "D"
      ],
      [
        "Ġm",
        "e"
      ],
      [
        "Ġh",
        "ave"
      ],
      [
        "an",
        "t"
      ],
      [
        "(",
        ")"
      ],
      [
        "n",
        "t"
      ],
      [
        "Ġhe",
        "r"
      ],
      [
        "ou",
        "t"
      ],
      [
        "c",
        "l"
      ],
      [
        "or",
        "d"
      ],
      [
        "i",
        "v"
      ],
      [
        "in",
        "e"
      ],
      [
        "el",
        "l"
      ],
      [
        "\"",
        ")"
      ],
      [
        "Ġ",
        "_"
      ],
      [
        "an",
        "g"
      ],
      [
        "Ġw",
        "he"
      ],
      [
        "Ġc",
        "h"
      ],
      [
        "Ġb",
        "ut"
      ],
      [
        "u",
        "re"
      ],
      [
        "Ġm",
        "y"
      ],
      [
        "Ġ",
        "{"
      ],
      [
        "er",
        "e"
      ],
      [
        "Ġh",
        "im"
      ],
      [
        "(",
        "\""
      ],
      [
        "ou",
        "g"
      ],
      [
        "p",
        "p"
      ],
      [
        "it",
        "y"
      ],
      [
        "ab",
        "le"
      ],
      [
        "=",
        "\""
      ],
      [
        "ag",
        "e"
      ],
      [
        "Ġ",
        "R"
      ],
      [
        "Ġ",
        "<"
      ],
      [
        "ac",
        "k"
      ],
      [
        "Ġs",
        "o"
      ],
      [
        "m",
        "ent"
      ],
      [
        "ul",
        "t"
      ],
      [
        "'",
        ","
      ],
      [
        "Ġ",
        "E"
      ],
      [
        "Ġu",
        "s"
      ],
      [
        "Ġt",
        "r"
      ],
      [
        "a",
        "v"
      ],
      [
        "i",
        "b"
      ],
      [
        "e",
        "f"
      ],
      [
        "as",
        "t"
      ],
      [
        "i",
        "ve"
      ],
      [
        ".",
        "\""
      ],
      [
        "ou",
        "s"
      ],
      [
        "Ġc",
        "l"
      ],
      [
        "a",
        "ce"
      ],
      [
        "Ġp",
        "ro"
      ],
      [
        "Ġ",
        "le"
      ],
      [
        "Ġ",
        "G"
      ],
      [
        "i",
        "le"
      ],
      [
        "qu",
        "al"
      ],
      [
        "Ġu",
        "p"
      ],
      [
        "Ġ",
        ","
      ],
      [
        "a",
        "k"
      ],
      [
        "at",
        "h"
      ],
      [
        "Ġ",
        "-"
      ],
      [
        "Ġ",
        "0"
      ],
      [
        "a",
        "re"
      ],
      [
        "Ġ",
        "."
      ],
      [
        "s",
        "p"
      ],
      [
        "--",
        "--"
      ],
      [
        "Ġa",
        "r"
      ],
      [
        "on",
        "g"
      ],
      [
        "i",
        "re"
      ],
      [
        "y",
        "pe"
      ],
      [
        "ĠĠĠĠ",
        "Ġ"
      ],
      [
        "im",
        "e"
      ],
      [
        "om",
        "e"
      ],
      [
        "ou",
        "nd"
      ],
      [
        "Ġthe",
        "y"
      ],
      [
        "Ġ",
        "O"
      ],
      [
        "o",
        "st"
      ],
      [
        "i",
        "es"
      ],
      [
        "Ġs",
        "p"
      ],
      [
        "T",
        "he"
      ],
      [
        "Ġu",
        "n"
      ],
      [
        "Ġs",
        "a"
      ],
      [
        "j",
        "ect"
      ],
      [
        "Ġw",
        "ill"
      ],
      [
        "f",
        "f"
      ],
      [
        "Ġc",
        "an"
      ],
      [
        "Ġd",
        "o"
      ],
      [
        "Ġ",
        "im"
      ],
      [
        "en",
        "ce"
      ],
      [
        "Ġm",
        "an"
      ],
      [
        "ion",
        "s"
      ],
      [
        "Ġw",
        "ere"
      ],
      [
        "r",
        "or"
      ],
      [
        "l",
        "o"
      ],
      [
        "Ġt",
        "est"
      ],
      [
        "p",
        "er"
      ],
      [
        "Ġre",
        "t"
      ],
      [
        "Ġ",
        "2"
      ],
      [
        "ex",
        "t"
      ],
      [
        "_",
        "_"
      ],
      [
        "c",
        "om"
      ],
      [
        "Ġon",
        "e"
      ],
      [
        "g",
        "et"
      ],
      [
        "f",
        "or"
      ],
      [
        "Ġo",
        "ut"
      ],
      [
        "Ġs",
        "tr"
      ],
      [
        "Ġthe",
        "m"
      ],
      [
        "oo",
        "k"
      ],
      [
        "re",
        "f"
      ],
      [
        "Ġs",
        "he"
      ],
      [
        "Ġn",
        "o"
      ],
      [
        "p",
        "s"
      ],
      [
        "ow",
        "n"
      ],
      [
        "el",
        "d"
      ],
      [
        "}",
        "}"
      ],
      [
        "st",
        "r"
      ],
      [
        "id",
        "e"
      ],
      [
        "ver",
        "y"
      ],
      [
        "Ġthe",
        "ir"
      ],
      [
        "u",
        "d"
      ],
      [
        "Ġwh",
        "o"
      ],
      [
        "Ġret",
        "urn"
      ],
      [
        "an",
        "ce"
      ],
      [
        "at",
        "ed"
      ],
      [
        "in",
        "t"
      ],
      [
        "t",
        "her"
      ],
      [
        "ic",
        "e"
      ],
      [
        "i",
        "z"
      ],
      [
        "E",
        "qual"
      ],
      [
        "i",
        "eld"
      ],
      [
        "al",
        "ue"
      ],
      [
        "e",
        "ar"
      ],
      [
        "Ġa",
        "b"
      ],
      [
        "a",
        "ke"
      ],
      [
        "er",
        "n"
      ],
      [
        "o",
        "p"
      ],
      [
        "Ġg",
        "o"
      ],
      [
        "as",
        "e"
      ],
      [
        "p",
        "ort"
      ],
      [
        "Ġ",
        "*"
      ],
      [
        "Ġ",
        "J"
      ],
      [
        "it",
        "t"
      ],
      [
        ",",
        "\""
      ],
      [
        "Ġwhe",
        "n"
      ],
      [
        "oug",
        "h"
      ],
      [
        "i",
        "p"
      ],
      [
        "à",
        "¦"
      ],
      [
        "res",
        "s"
      ],
      [
        "Ġp",
        "l"
      ],
      [
        "u",
        "g"
      ],
      [
        "Ġ",
        "en"
      ],
      [
        "ã",
        "Ģ"
      ],
      [
        "Ġp",
        "r"
      ],
      [
        "assert",
        "Equal"
      ],
      [
        "]",
        "("
      ],
      [
        "ĠT",
        "h"
      ],
      [
        "he",
        "d"
      ],
      [
        "Ġcon",
        "t"
      ],
      [
        "it",
        "e"
      ],
      [
        "n",
        "ame"
      ],
      [
        "b",
        "ject"
      ],
      [
        ">",
        "<"
      ],
      [
        "oc",
        "k"
      ],
      [
        "e",
        "p"
      ],
      [
        "Ġ",
        "j"
      ],
      [
        "Ġ",
        "|"
      ],
      [
        "Ġa",
        "d"
      ],
      [
        "ig",
        "n"
      ],
      [
        "\"",
        "\""
      ],
      [
        "o",
        "se"
      ],
      [
        "a",
        "il"
      ],
      [
        "Ġk",
        "n"
      ],
      [
        "Ġ",
        "ì"
      ],
      [
        "re",
        "at"
      ],
      [
        "ac",
        "t"
      ],
      [
        "i",
        "al"
      ],
      [
        "ar",
        "g"
      ],
      [
        "ol",
        "l"
      ],
      [
        "Ġ",
        "el"
      ],
      [
        "ä",
        "¸"
      ],
      [
        "Ġm",
        "ore"
      ],
      [
        "Ġ",
        "qu"
      ],
      [
        "/",
        "/"
      ],
      [
        "Ġw",
        "ould"
      ],
      [
        "ar",
        "y"
      ],
      [
        "Ġsa",
        "id"
      ],
      [
        "Ġbe",
        "en"
      ],
      [
        "``",
        "`"
      ],
      [
        "c",
        "c"
      ],
      [
        "'",
        ")"
      ],
      [
        "Ġd",
        "is"
      ],
      [
        "Ġg",
        "r"
      ],
      [
        "Ġh",
        "as"
      ],
      [
        "Ġw",
        "or"
      ],
      [
        "c",
        "k"
      ],
      [
        "Ġn",
        "e"
      ],
      [
        "Ġre",
        "s"
      ],
      [
        "Ġthe",
        "re"
      ],
      [
        "ing",
        "s"
      ],
      [
        "Ġb",
        "r"
      ],
      [
        "Ġyou",
        "r"
      ],
      [
        "'",
        "t"
      ],
      [
        "Ġo",
        "ther"
      ],
      [
        "e",
        "b"
      ],
      [
        "at",
        "a"
      ],
      [
        "a",
        "is"
      ],
      [
        "Ġa",
        "g"
      ],
      [
        "Ġan",
        "y"
      ],
      [
        "c",
        "ode"
      ],
      [
        "i",
        "ke"
      ],
      [
        "Ġ",
        "K"
      ],
      [
        "an",
        "s"
      ],
      [
        "et",
        "h"
      ],
      [
        "on",
        "d"
      ],
      [
        "Ġs",
        "c"
      ],
      [
        "l",
        "l"
      ],
      [
        "r",
        "ror"
      ],
      [
        ".",
        "_"
      ],
      [
        "er",
        "v"
      ],
      [
        "ce",
        "pt"
      ],
      [
        "Ġe",
        "v"
      ],
      [
        "ent",
        "s"
      ],
      [
        "s",
        "h"
      ],
      [
        "ĠA",
        "nd"
      ],
      [
        "E",
        "rror"
      ],
      [
        "b",
        "er"
      ],
      [
        ")",
        ")"
      ],
      [
        "is",
        "h"
      ],
      [
        "in",
        "k"
      ],
      [
        "i",
        "e"
      ],
      [
        "d",
        "oc"
      ],
      [
        "ol",
        "d"
      ],
      [
        "Ġin",
        "to"
      ],
      [
        "al",
        "ly"
      ],
      [
        "g",
        "r"
      ],
      [
        "el",
        "y"
      ],
      [
        "k",
        "ub"
      ],
      [
        "il",
        "d"
      ],
      [
        "Ġas",
        "s"
      ],
      [
        ">",
        "</"
      ],
      [
        "for",
        "m"
      ],
      [
        "f",
        "ul"
      ],
      [
        "ĠH",
        "e"
      ],
      [
        "ï",
        "¼"
      ],
      [
        "Ġ",
        ")"
      ],
      [
        "o",
        "f"
      ],
      [
        "ic",
        "k"
      ],
      [
        "n",
        "ot"
      ],
      [
        "E",
        "R"
      ],
      [
        "n",
        "g"
      ],
      [
        "ac",
        "h"
      ],
      [
        "a",
        "w"
      ],
      [
        "Ġo",
        "ur"
      ],
      [
        "ct",
        "ion"
      ],
      [
        "Ġt",
        "ime"
      ],
      [
        "ap",
        "p"
      ],
      [
        "f",
        "ter"
      ],
      [
        "i",
        "ed"
      ],
      [
        "Ġ{",
        "{"
      ],
      [
        "ay",
        "s"
      ],
      [
        "s",
        "et"
      ],
      [
        "Ġth",
        "an"
      ],
      [
        "(",
        "'"
      ],
      [
        "Ġsh",
        "ould"
      ],
      [
        "ãĢ",
        "Ĥ"
      ],
      [
        "et",
        "es"
      ],
      [
        "re",
        "e"
      ],
      [
        "ad",
        "e"
      ],
      [
        "ern",
        "etes"
      ],
      [
        "Ġs",
        "et"
      ],
      [
        "re",
        "ad"
      ],
      [
        "Ġ",
        "Ċ"
      ],
      [
        "ver",
        "s"
      ],
      [
        "Ġs",
        "ome"
      ],
      [
        "Ġ",
        "3"
      ],
      [
        "ic",
        "t"
      ],
      [
        "Ġt",
        "w"
      ],
      [
        "ar",
        "r"
      ],
      [
        "ir",
        "st"
      ],
      [
        "ot",
        "her"
      ],
      [
        "ou",
        "nt"
      ],
      [
        "Ġa",
        "m"
      ],
      [
        "ç",
        "ļ"
      ],
      [
        "çļ",
        "Ħ"
      ],
      [
        "i",
        "ous"
      ],
      [
        "I",
        "n"
      ],
      [
        "Ġl",
        "o"
      ],
      [
        "or",
        "y"
      ],
      [
        "ĠĠĠĠĠĠĠĠ",
        "ĠĠĠĠĠĠĠĠĠĠĠ"
      ],
      [
        "s",
        "o"
      ],
      [
        "re",
        "d"
      ],
      [
        "c",
        "ri"
      ],
      [
        "ow",
        "s"
      ],
      [
        "e",
        "v"
      ],
      [
        "ation",
        "s"
      ],
      [
        "Ġm",
        "ay"
      ],
      [
        "p",
        "ut"
      ],
      [
        "Ġp",
        "er"
      ],
      [
        "doc",
        "s"
      ],
      [
        "Ġn",
        "ame"
      ],
      [
        "ĠI",
        "n"
      ],
      [
        "*",
        "*"
      ],
      [
        "at",
        "ch"
      ],
      [
        "t",
        "ype"
      ],
      [
        "ĠI",
        "t"
      ],
      [
        "nd",
        "er"
      ],
      [
        "Ġwh",
        "at"
      ],
      [
        "Ġ",
        "U"
      ],
      [
        "]",
        ","
      ],
      [
        "ĠN",
        "one"
      ],
      [
        "w",
        "e"
      ],
      [
        "Ġon",
        "ly"
      ],
      [
        "it",
        "ion"
      ],
      [
        "ar",
        "k"
      ],
      [
        "Ġ",
        ">"
      ],
      [
        "Ġ\"",
        "\"\""
      ],
      [
        "Ġo",
        "ver"
      ],
      [
        "on",
        "t"
      ],
      [
        "re",
        "t"
      ],
      [
        "00",
        "00"
      ],
      [
        "u",
        "p"
      ],
      [
        "Ġit",
        "s"
      ],
      [
        ".",
        "."
      ],
      [
        "en",
        "er"
      ],
      [
        "o",
        "y"
      ],
      [
        "I",
        "N"
      ],
      [
        "a",
        "ult"
      ],
      [
        "p",
        "r"
      ],
      [
        "\"",
        ">"
      ],
      [
        "s",
        "s"
      ],
      [
        "is",
        "s"
      ],
      [
        "Ġthe",
        "n"
      ],
      [
        "Ġ",
        "ro"
      ],
      [
        "t",
        "est"
      ],
      [
        "ke",
        "y"
      ],
      [
        "i",
        "a"
      ],
      [
        "Ġ",
        "@"
      ],
      [
        "i",
        "o"
      ],
      [
        "en",
        "s"
      ],
      [
        "f",
        "er"
      ],
      [
        ":",
        "//"
      ],
      [
        "Ġ",
        "V"
      ],
      [
        "c",
        "he"
      ],
      [
        "i",
        "x"
      ],
      [
        "Ġd",
        "es"
      ],
      [
        "Ġex",
        "p"
      ],
      [
        "Ġn",
        "ow"
      ],
      [
        "m",
        "an"
      ],
      [
        "Ġc",
        "all"
      ],
      [
        "----",
        "----"
      ],
      [
        "qu",
        "est"
      ],
      [
        "f",
        "ig"
      ],
      [
        "u",
        "se"
      ],
      [
        "Ġf",
        "e"
      ],
      [
        "ì",
        "Ŀ"
      ],
      [
        "?",
        "\""
      ],
      [
        "Ġp",
        "art"
      ],
      [
        "ang",
        "e"
      ],
      [
        "p",
        "ro"
      ],
      [
        "P",
        "I"
      ],
      [
        "Ġc",
        "ould"
      ],
      [
        "\")",
        "}}"
      ],
      [
        "Ġl",
        "ike"
      ],
      [
        "Ġh",
        "and"
      ],
      [
        "t",
        "y"
      ],
      [
        "g",
        "e"
      ],
      [
        "od",
        "u"
      ],
      [
        "itt",
        "le"
      ],
      [
        "Ġv",
        "alue"
      ],
      [
        "\"",
        ":"
      ],
      [
        "Ġse",
        "e"
      ],
      [
        "Ġ",
        "very"
      ],
      [
        "r",
        "y"
      ],
      [
        "al",
        "se"
      ],
      [
        "oug",
        "ht"
      ],
      [
        "n",
        "ing"
      ],
      [
        "ĠĠĠĠĠĠĠĠĠĠĠĠĠĠĠĠ",
        "ĠĠĠĠĠĠĠĠĠĠĠĠĠĠĠĠ"
      ],
      [
        "am",
        "ple"
      ],
      [
        "Ġf",
        "l"
      ],
      [
        "Ġb",
        "l"
      ],
      [
        "r",
        "ue"
      ],
      [
        "Ġg",
        "reat"
      ],
      [
        "p",
        "ar"
      ],
      [
        "c",
        "es"
      ],
      [
        "u",
        "ch"
      ],
      [
        "h",
        "at"
      ],
      [
        "Ġg",
        "et"
      ],
      [
        "Ġup",
        "on"
      ],
      [
        "](",
        "/"
      ],
      [
        "Ġp",
        "ass"
      ],
      [
        "Ġn",
        "ew"
      ],
      [
        "ht",
        "t"
      ],
      [
        "Ġm",
        "ust"
      ],
      [
        "Ġre",
        "m"
      ],
      [
        "o",
        "od"
      ],
      [
        "Ġ",
        "Y"
      ],
      [
        "Ġf",
        "irst"
      ],
      [
        "Ġab",
        "out"
      ],
      [
        "Ġcom",
        "m"
      ],
      [
        "Ġp",
        "o"
      ],
      [
        ")",
        "."
      ],
      [
        "am",
        "es"
      ],
      [
        "i",
        "ent"
      ],
      [
        "Ġa",
        "p"
      ],
      [
        "Ġa",
        "fter"
      ],
      [
        "n",
        "e"
      ],
      [
        "at",
        "her"
      ],
      [
        "a",
        "x"
      ],
      [
        "our",
        "ce"
      ],
      [
        "w",
        "ard"
      ],
      [
        "con",
        "t"
      ],
      [
        "Ġin",
        "d"
      ],
      [
        "Ġag",
        "ain"
      ],
      [
        "pt",
        "ion"
      ],
      [
        "o",
        "b"
      ],
      [
        "Ġh",
        "ow"
      ],
      [
        "U",
        "S"
      ],
      [
        "os",
        "s"
      ],
      [
        "f",
        "ore"
      ],
      [
        "d",
        "ef"
      ],
      [
        "Ġd",
        "id"
      ],
      [
        "l",
        "ed"
      ],
      [
        "od",
        "el"
      ],
      [
        "ot",
        "h"
      ],
      [
        "he",
        "n"
      ],
      [
        "cl",
        "ass"
      ],
      [
        "Ġtw",
        "o"
      ],
      [
        "ĠĠĠĠ",
        "ĠĠ"
      ],
      [
        "w",
        "n"
      ],
      [
        "or",
        "s"
      ],
      [
        "Ġl",
        "ook"
      ],
      [
        "Ġcl",
        "ass"
      ],
      [
        "Ġo",
        "bject"
      ],
      [
        "Ġim",
        "port"
      ],
      [
        "iz",
        "e"
      ],
      [
        "Ġw",
        "r"
      ],
      [
        "m",
        "in"
      ],
      [
        "Ġc",
        "ol"
      ],
      [
        "Ġkn",
        "ow"
      ],
      [
        "l",
        "ine"
      ],
      [
        "Ġu",
        "se"
      ],
      [
        "Ġth",
        "r"
      ],
      [
        "Ġfor",
        "m"
      ],
      [
        "p",
        "ath"
      ],
      [
        "ĠTh",
        "is"
      ],
      [
        "Ġto",
        "o"
      ],
      [
        "w",
        "ith"
      ],
      [
        "Ġl",
        "ittle"
      ],
      [
        "a",
        "ir"
      ],
      [
        "Ġsu",
        "ch"
      ],
      [
        "is",
        "e"
      ],
      [
        "O",
        "N"
      ],
      [
        "f",
        "rom"
      ],
      [
        "ut",
        "h"
      ],
      [
        "Ġin",
        "ter"
      ],
      [
        "v",
        "al"
      ],
      [
        "]",
        ")"
      ],
      [
        "Ġcom",
        "p"
      ],
      [
        "if",
        "e"
      ],
      [
        "Ġ",
        "ë"
      ],
      [
        "b",
        "e"
      ],
      [
        "o",
        "ver"
      ],
      [
        "Ġ",
        "4"
      ],
      [
        "Ġbe",
        "fore"
      ],
      [
        "l",
        "es"
      ],
      [
        "f",
        "t"
      ],
      [
        "Ġwhe",
        "re"
      ],
      [
        "Ġ",
        ":"
      ],
      [
        "Ġb",
        "ec"
      ],
      [
        "ar",
        "s"
      ],
      [
        "er",
        "ed"
      ],
      [
        "â",
        "Ģ"
      ],
      [
        "í",
        "ķ"
      ],
      [
        "Ġsp",
        "ec"
      ],
      [
        "'",
        "d"
      ],
      [
        "Ġp",
        "re"
      ],
      [
        "ĠB",
        "ut"
      ],
      [
        "ä",
        "»"
      ],
      [
        "Ġthe",
        "se"
      ],
      [
        "Ġwor",
        "k"
      ],
      [
        "ect",
        "ed"
      ],
      [
        "Ġl",
        "ist"
      ],
      [
        "n",
        "ess"
      ],
      [
        "Ġof",
        "f"
      ],
      [
        "on",
        "s"
      ],
      [
        "Ġass",
        "ert"
      ],
      [
        "u",
        "es"
      ],
      [
        "ĠS",
        "t"
      ],
      [
        "Ġm",
        "ade"
      ],
      [
        "Ġm",
        "en"
      ],
      [
        "!",
        "--"
      ],
      [
        "o",
        "g"
      ],
      [
        "Ġad",
        "d"
      ],
      [
        "Ġ",
        "Ð"
      ],
      [
        "i",
        "an"
      ],
      [
        "Ġa",
        "pp"
      ],
      [
        "ad",
        "d"
      ],
      [
        "Ġd",
        "own"
      ],
      [
        "Ġl",
        "ong"
      ],
      [
        "ou",
        "n"
      ],
      [
        "ĠC",
        "h"
      ],
      [
        "e",
        "ad"
      ],
      [
        "Ġb",
        "et"
      ],
      [
        "Ġp",
        "e"
      ],
      [
        "tr",
        "ib"
      ],
      [
        "{",
        "{"
      ],
      [
        "Ġsh",
        "all"
      ],
      [
        "Ġgo",
        "od"
      ],
      [
        "htt",
        "ps"
      ],
      [
        "o",
        "ve"
      ],
      [
        "Ġb",
        "ack"
      ],
      [
        "if",
        "ic"
      ],
      [
        "i",
        "ew"
      ],
      [
        "od",
        "y"
      ],
      [
        "Ġv",
        "al"
      ],
      [
        "0",
        "1"
      ],
      [
        "er",
        "ror"
      ],
      [
        "a",
        "use"
      ],
      [
        "Ġs",
        "y"
      ],
      [
        "Ġ",
        "+"
      ],
      [
        "A",
        "L"
      ],
      [
        "Ġs",
        "ub"
      ],
      [
        "ic",
        "al"
      ],
      [
        "ĠI",
        "f"
      ],
      [
        "pp",
        "ort"
      ],
      [
        "ul",
        "l"
      ],
      [
        "Ġa",
        "w"
      ],
      [
        "em",
        "ent"
      ],
      [
        "--",
        ">"
      ],
      [
        "as",
        "k"
      ],
      [
        "ä",
        "½"
      ],
      [
        "!",
        "\""
      ],
      [
        "v",
        "ed"
      ],
      [
        "Ġ-",
        ">"
      ],
      [
        "Ġs",
        "m"
      ],
      [
        "ub",
        "ernetes"
      ],
      [
        "re",
        "ate"
      ],
      [
        "ï¼",
        "Į"
      ],
      [
        "O",
        "R"
      ],
      [
        "å",
        "ı"
      ],
      [
        "er",
        "ver"
      ],
      [
        "Ġ",
        "end"
      ],
      [
        "f",
        "ile"
      ],
      [
        "Ġin",
        "t"
      ],
      [
        "c",
        "ed"
      ],
      [
        "Ġm",
        "ake"
      ],
      [
        "ig",
        "h"
      ],
      [
        "Ġo",
        "wn"
      ],
      [
        "x",
        "ref"
      ],
      [
        "trib",
        "ut"
      ],
      [
        "ect",
        "ion"
      ],
      [
        "at",
        "er"
      ],
      [
        "T",
        "est"
      ],
      [
        "f",
        "ield"
      ],
      [
        "ĠM",
        "r"
      ],
      [
        "Ġo",
        "ld"
      ],
      [
        "at",
        "es"
      ],
      [
        "Ġn",
        "p"
      ],
      [
        "oll",
        "ow"
      ],
      [
        "e",
        "g"
      ],
      [
        "Ġin",
        "st"
      ],
      [
        "A",
        "R"
      ],
      [
        "E",
        "S"
      ],
      [
        "Ġhe",
        "ad"
      ],
      [
        "Ġw",
        "ell"
      ],
      [
        "ais",
        "es"
      ],
      [
        "Ġe",
        "very"
      ],
      [
        "w",
        "r"
      ],
      [
        "l",
        "i"
      ],
      [
        "Ġm",
        "uch"
      ],
      [
        "A",
        "T"
      ],
      [
        "ib",
        "le"
      ],
      [
        "u",
        "al"
      ],
      [
        "w",
        "h"
      ],
      [
        "or",
        "k"
      ],
      [
        "Ġcon",
        "s"
      ],
      [
        "Ġc",
        "r"
      ],
      [
        "at",
        "ter"
      ],
      [
        "Ġo",
        "b"
      ],
      [
        "Ġw",
        "ord"
      ],
      [
        "Ġo",
        "p"
      ],
      [
        "Ġu",
        "nder"
      ],
      [
        "ãĥ",
        "¼"
      ],
      [
        "Ġd",
        "ec"
      ],
      [
        "Ġm",
        "ost"
      ],
      [
        "Ġa",
        "cc"
      ],
      [
        "eth",
        "od"
      ],
      [
        "h",
        "is"
      ],
      [
        "o",
        "ol"
      ],
      [
        "Ġf",
        "ield"
      ],
      [
        "m",
        "s"
      ],
      [
        "W",
        "eb"
      ],
      [
        "res",
        "ent"
      ],
      [
        "Ġs",
        "ame"
      ],
      [
        "p",
        "y"
      ],
      [
        "ç",
        "Ķ"
      ],
      [
        "Ġal",
        "so"
      ],
      [
        "Ð",
        "¾"
      ],
      [
        "##",
        "##"
      ],
      [
        "Ġ",
        "</"
      ],
      [
        "Ġs",
        "ec"
      ],
      [
        "Ġf",
        "un"
      ],
      [
        "Ġb",
        "re"
      ],
      [
        "a",
        "it"
      ],
      [
        "Ġn",
        "um"
      ],
      [
        "à",
        "¤"
      ],
      [
        "Ġev",
        "en"
      ],
      [
        "il",
        "y"
      ],
      [
        "<",
        "!--"
      ],
      [
        "f",
        "l"
      ],
      [
        "=",
        "="
      ],
      [
        "o",
        "bject"
      ],
      [
        "Ġre",
        "ad"
      ],
      [
        "Ġd",
        "ay"
      ],
      [
        "ãģ",
        "®"
      ],
      [
        "l",
        "ess"
      ],
      [
        "ain",
        "t"
      ],
      [
        "ou",
        "se"
      ],
      [
        "_",
        "."
      ],
      [
        "Ġc",
        "he"
      ],
      [
        "b",
        "r"
      ],
      [
        "at",
        "ure"
      ],
      [
        "å",
        "®"
      ],
      [
        "cri",
        "pt"
      ],
      [
        "Ġ",
        "%"
      ],
      [
        "d",
        "er"
      ],
      [
        "Ġ",
        "ent"
      ],
      [
        "re",
        "n"
      ],
      [
        "Ġf",
        "r"
      ],
      [
        "Ġw",
        "ay"
      ],
      [
        "b",
        "y"
      ],
      [
        "Ġs",
        "ay"
      ],
      [
        "d",
        "om"
      ],
      [
        "Ġr",
        "un"
      ],
      [
        "E",
        "T"
      ],
      [
        "Ġe",
        "m"
      ],
      [
        "r",
        "ay"
      ],
      [
        "s",
        "u"
      ],
      [
        "Ġ",
        "/"
      ],
      [
        "Ġ",
        "5"
      ],
      [
        "æ",
        "ľ"
      ],
      [
        "arg",
        "s"
      ],
      [
        "v",
        "el"
      ],
      [
        "ar",
        "n"
      ],
      [
        "m",
        "et"
      ],
      [
        "Ġ*",
        "*"
      ],
      [
        "er",
        "y"
      ],
      [
        "Ġle",
        "t"
      ],
      [
        "Ð",
        "µ"
      ],
      [
        "Ġth",
        "ose"
      ],
      [
        "Ġcont",
        "ain"
      ],
      [
        "en",
        "g"
      ],
      [
        "ire",
        "d"
      ],
      [
        "c",
        "ess"
      ],
      [
        "f",
        "o"
      ],
      [
        "Ġg",
        "l"
      ],
      [
        "Ġy",
        "ear"
      ],
      [
        "b",
        "le"
      ],
      [
        "c",
        "ol"
      ],
      [
        "Ġthr",
        "ough"
      ],
      [
        "Ġs",
        "l"
      ],
      [
        "pl",
        "ic"
      ],
      [
        "w",
        "ord"
      ],
      [
        "are",
        "d"
      ],
      [
        "ow",
        "er"
      ],
      [
        "ab",
        "el"
      ],
      [
        "u",
        "ct"
      ],
      [
        "Ġne",
        "ver"
      ],
      [
        "Ġd",
        "el"
      ],
      [
        "T",
        "rue"
      ],
      [
        "it",
        "s"
      ],
      [
        "Ġhe",
        "re"
      ],
      [
        "ĠP",
        "od"
      ],
      [
        "j",
        "s"
      ],
      [
        "Ġel",
        "se"
      ],
      [
        "Ġe",
        "y"
      ],
      [
        "th",
        "at"
      ],
      [
        "Ġm",
        "ight"
      ],
      [
        "Ġc",
        "ame"
      ],
      [
        "Ġf",
        "ollow"
      ],
      [
        "å",
        "Ī"
      ],
      [
        "com",
        "m"
      ],
      [
        "Ġres",
        "ult"
      ],
      [
        "Ġa",
        "c"
      ],
      [
        "Ġus",
        "ed"
      ],
      [
        "e",
        "ver"
      ],
      [
        "t",
        "e"
      ],
      [
        "in",
        "es"
      ],
      [
        "Ġbe",
        "ing"
      ],
      [
        "a",
        "ug"
      ],
      [
        "s",
        "c"
      ],
      [
        "Ġcom",
        "e"
      ],
      [
        "1",
        "0"
      ],
      [
        "vers",
        "ion"
      ],
      [
        "Ġb",
        "el"
      ],
      [
        "Ġl",
        "ast"
      ],
      [
        "ĠF",
        "or"
      ],
      [
        "n",
        "er"
      ],
      [
        "at",
        "ing"
      ],
      [
        "E",
        "N"
      ],
      [
        "um",
        "ent"
      ],
      [
        "Ġd",
        "r"
      ],
      [
        "Ġar",
        "g"
      ],
      [
        "Ġat",
        "t"
      ],
      [
        "o",
        "pe"
      ],
      [
        "v",
        "alue"
      ],
      [
        "tr",
        "y"
      ],
      [
        "ĠĠĠĠĠĠĠĠĠĠĠĠĠĠĠĠ",
        "ĠĠĠĠĠĠĠĠ"
      ],
      [
        "Ġth",
        "ou"
      ],
      [
        "Ġd",
        "if"
      ],
      [
        "at",
        "or"
      ],
      [
        "ire",
        "ct"
      ],
      [
        "s",
        "el"
      ],
      [
        "ter",
        "s"
      ],
      [
        "Ġman",
        "y"
      ],
      [
        "çĶ",
        "¨"
      ],
      [
        "Ġre",
        "quest"
      ],
      [
        "in",
        "s"
      ],
      [
        "Ġwith",
        "out"
      ],
      [
        "Ġp",
        "ar"
      ],
      [
        "o",
        "ple"
      ],
      [
        "Ġth",
        "ink"
      ],
      [
        "Ġc",
        "ur"
      ],
      [
        "Ġj",
        "ust"
      ],
      [
        "Ġre",
        "c"
      ],
      [
        "assert",
        "R"
      ],
      [
        "v",
        "es"
      ],
      [
        "å",
        "Ĳ"
      ],
      [
        "k",
        "ed"
      ],
      [
        "S",
        "t"
      ],
      [
        "u",
        "res"
      ],
      [
        "Ġt",
        "ype"
      ],
      [
        "Ġf",
        "ound"
      ],
      [
        "a",
        "z"
      ],
      [
        "as",
        "h"
      ],
      [
        "cl",
        "ud"
      ],
      [
        "Ġ",
        "x"
      ],
      [
        "er",
        "ence"
      ],
      [
        "Ġb",
        "u"
      ],
      [
        "p",
        "os"
      ],
      [
        "p",
        "h"
      ],
      [
        "e",
        "e"
      ],
      [
        "p",
        "ert"
      ],
      [
        "Ġse",
        "em"
      ],
      [
        "Ð",
        "°"
      ],
      [
        "##",
        "#"
      ],
      [
        "Ġre",
        "sp"
      ],
      [
        "or",
        "m"
      ],
      [
        "A",
        "nd"
      ],
      [
        "odu",
        "le"
      ],
      [
        "1",
        "2"
      ],
      [
        "ãģ",
        "Ļ"
      ],
      [
        "ãĢ",
        "ģ"
      ],
      [
        "assertR",
        "aises"
      ],
      [
        "ĠK",
        "ubernetes"
      ],
      [
        "Ġd",
        "ata"
      ],
      [
        "Ġf",
        "ile"
      ],
      [
        "Ġwh",
        "ile"
      ],
      [
        "erv",
        "ice"
      ],
      [
        "N",
        "one"
      ],
      [
        "it",
        "her"
      ],
      [
        "t",
        "ing"
      ],
      [
        "m",
        "y"
      ],
      [
        "Ġ",
        "ke"
      ],
      [
        "Ġ=",
        "="
      ],
      [
        "t",
        "ime"
      ],
      [
        "T",
        "ER"
      ],
      [
        "Ġr",
        "ais"
      ],
      [
        "re",
        "am"
      ],
      [
        "ag",
        "es"
      ],
      [
        "Ġre",
        "l"
      ],
      [
        "Ġe",
        "ach"
      ],
      [
        "a",
        "ut"
      ],
      [
        "Ġch",
        "ild"
      ],
      [
        "Ġstr",
        "ing"
      ],
      [
        "I",
        "t"
      ],
      [
        "Ġ>",
        "}}"
      ],
      [
        "Ñ",
        "Ĥ"
      ],
      [
        "in",
        "ed"
      ],
      [
        "E",
        "x"
      ],
      [
        "Ġl",
        "ife"
      ],
      [
        "ri",
        "ed"
      ],
      [
        "'",
        ":"
      ],
      [
        "arr",
        "ay"
      ],
      [
        "Ġ",
        "key"
      ],
      [
        "Ġbe",
        "g"
      ],
      [
        "in",
        "ter"
      ],
      [
        "y",
        "n"
      ],
      [
        "ment",
        "s"
      ],
      [
        "Ġre",
        "g"
      ],
      [
        "am",
        "et"
      ],
      [
        "Ġne",
        "ed"
      ],
      [
        "a",
        "id"
      ],
      [
        "a",
        "h"
      ],
      [
        "is",
        "hed"
      ],
      [
        "f",
        "il"
      ],
      [
        "kub",
        "ernetes"
      ],
      [
        "l",
        "and"
      ],
      [
        "m",
        "l"
      ],
      [
        "Ġst",
        "ill"
      ],
      [
        "in",
        "ce"
      ],
      [
        "p",
        "o"
      ],
      [
        "Ġth",
        "y"
      ],
      [
        "Ġa",
        "ct"
      ],
      [
        "v",
        "ent"
      ],
      [
        "en",
        "ed"
      ],
      [
        "he",
        "re"
      ],
      [
        "an",
        "k"
      ],
      [
        "Ġth",
        "ought"
      ],
      [
        "ĠW",
        "e"
      ],
      [
        "u",
        "nd"
      ],
      [
        "ri",
        "end"
      ],
      [
        "ĠA",
        "PI"
      ],
      [
        "oc",
        "al"
      ],
      [
        "Ġg",
        "ener"
      ],
      [
        "ect",
        "l"
      ],
      [
        "y",
        "le"
      ],
      [
        "il",
        "ity"
      ],
      [
        "n",
        "s"
      ],
      [
        "ul",
        "ar"
      ],
      [
        "ak",
        "ing"
      ],
      [
        "L",
        "E"
      ],
      [
        "m",
        "er"
      ],
      [
        "l",
        "ing"
      ],
      [
        "è",
        "¿"
      ],
      [
        "f",
        "r"
      ],
      [
        "T",
        "ype"
      ],
      [
        "m",
        "e"
      ],
      [
        "d",
        "d"
      ],
      [
        "k",
        "en"
      ],
      [
        "on",
        "se"
      ],
      [
        "f",
        "un"
      ],
      [
        "i",
        "er"
      ],
      [
        "b",
        "ack"
      ],
      [
        "Ġex",
        "cept"
      ],
      [
        "d",
        "ata"
      ],
      [
        "h",
        "ing"
      ],
      [
        "Ġdo",
        "es"
      ],
      [
        "Ġr",
        "ight"
      ],
      [
        "ar",
        "i"
      ],
      [
        "as",
        "on"
      ],
      [
        "Ġs",
        "om"
      ],
      [
        "h",
        "y"
      ],
      [
        "im",
        "es"
      ],
      [
        "ap",
        "t"
      ],
      [
        "Ġg",
        "iv"
      ],
      [
        ".",
        "__"
      ],
      [
        "as",
        "ter"
      ],
      [
        "ic",
        "es"
      ],
      [
        "Ġpe",
        "ople"
      ],
      [
        "Ġt",
        "ake"
      ],
      [
        "Ġ_",
        "_"
      ],
      [
        "ĭ",
        "¤"
      ],
      [
        "Ġt",
        "urn"
      ],
      [
        "it",
        "er"
      ],
      [
        "lo",
        "ad"
      ],
      [
        "Ġe",
        "ar"
      ],
      [
        "str",
        "ing"
      ],
      [
        "Ġpro",
        "v"
      ],
      [
        "ou",
        "p"
      ],
      [
        "Ġb",
        "o"
      ],
      [
        "(",
        "["
      ],
      [
        "A",
        "PI"
      ],
      [
        "c",
        "y"
      ],
      [
        "S",
        "S"
      ],
      [
        "Ġt",
        "er"
      ],
      [
        "Ġst",
        "art"
      ],
      [
        "Ġw",
        "ant"
      ],
      [
        "el",
        "et"
      ],
      [
        "'",
        "ll"
      ],
      [
        "Ð",
        "¸"
      ],
      [
        "Ġ'",
        "\\"
      ],
      [
        "ol",
        "ic"
      ],
      [
        "we",
        "en"
      ],
      [
        "`",
        "."
      ],
      [
        "Ġy",
        "et"
      ],
      [
        "Ġdef",
        "ault"
      ],
      [
        "Ġtr",
        "y"
      ],
      [
        "at",
        "ive"
      ],
      [
        "lo",
        "g"
      ],
      [
        "com",
        "p"
      ],
      [
        "ap",
        "e"
      ],
      [
        "w",
        "ork"
      ],
      [
        "Ġ",
        "}"
      ],
      [
        "Ġf",
        "ind"
      ],
      [
        "ĠS",
        "he"
      ],
      [
        "s",
        "ub"
      ],
      [
        "ĠG",
        "od"
      ],
      [
        "A",
        "N"
      ],
      [
        "ĠĠĠĠĠĠĠĠĠĠĠĠĠĠĠĠ",
        "ĠĠĠĠĠĠĠ"
      ],
      [
        "à",
        "§"
      ],
      [
        "re",
        "c"
      ],
      [
        "Ġpl",
        "ace"
      ],
      [
        "n",
        "o"
      ],
      [
        "Ġsu",
        "pport"
      ],
      [
        "av",
        "ing"
      ],
      [
        "o",
        "h"
      ],
      [
        "Ġex",
        "ample"
      ],
      [
        "S",
        "T"
      ],
      [
        "ä",
        "º"
      ],
      [
        "-",
        "@"
      ],
      [
        "Ġ@",
        "-@"
      ],
      [
        "Ġaw",
        "ay"
      ],
      [
        "f",
        "e"
      ],
      [
        "Ġch",
        "ar"
      ],
      [
        "3",
        "0"
      ],
      [
        "R",
        "ef"
      ],
      [
        "I",
        "s"
      ],
      [
        "Ġc",
        "oun"
      ],
      [
        "Ġhim",
        "self"
      ],
      [
        "if",
        "ied"
      ],
      [
        "sp",
        "an"
      ],
      [
        "è",
        "¯"
      ],
      [
        "ãĤ",
        "Ĵ"
      ],
      [
        "{{",
        "<"
      ],
      [
        "id",
        "ent"
      ],
      [
        "Ġ",
        "6"
      ],
      [
        "Ġcon",
        "tr"
      ],
      [
        "Ġp",
        "ut"
      ],
      [
        "b",
        "ody"
      ],
      [
        "ĠThe",
        "y"
      ],
      [
        "ur",
        "ing"
      ],
      [
        "w",
        "ays"
      ],
      [
        "H",
        "T"
      ],
      [
        "ap",
        "i"
      ],
      [
        "s",
        "ide"
      ],
      [
        "Ġs",
        "pe"
      ],
      [
        "m",
        "ost"
      ],
      [
        "Ġus",
        "ing"
      ],
      [
        "Ġm",
        "in"
      ],
      [
        "`",
        ","
      ],
      [
        "ain",
        "ed"
      ],
      [
        "Ġc",
        "our"
      ],
      [
        "ust",
        "er"
      ],
      [
        "l",
        "ist"
      ],
      [
        "Ġre",
        "p"
      ],
      [
        "ot",
        "e"
      ],
      [
        "Ġc",
        "or"
      ],
      [
        "Ġthe",
        "e"
      ],
      [
        "Ġap",
        "pe"
      ],
      [
        "2",
        "0"
      ],
      [
        "im",
        "port"
      ],
      [
        "Ġk",
        "ub"
      ],
      [
        "an",
        "y"
      ],
      [
        "c",
        "le"
      ],
      [
        "Ġm",
        "em"
      ],
      [
        "Ġey",
        "es"
      ],
      [
        "ur",
        "l"
      ],
      [
        "d",
        "ir"
      ],
      [
        "al",
        "k"
      ],
      [
        "R",
        "E"
      ],
      [
        "y",
        "p"
      ],
      [
        "s",
        "y"
      ],
      [
        "s",
        "w"
      ],
      [
        "ĠY",
        "ou"
      ],
      [
        "Ġre",
        "f"
      ],
      [
        "ĠĠĠĠĠĠĠĠ",
        "Ġ"
      ],
      [
        "_",
        ","
      ],
      [
        "b",
        "o"
      ],
      [
        "ľ",
        "ë"
      ],
      [
        "t",
        "ed"
      ],
      [
        "in",
        "st"
      ],
      [
        "Ġt",
        "ext"
      ],
      [
        "Ġd",
        "et"
      ],
      [
        "it",
        "ed"
      ],
      [
        ",",
        "--"
      ],
      [
        "id",
        "es"
      ],
      [
        "ar",
        "ch"
      ],
      [
        "v",
        "en"
      ],
      [
        "Ġf",
        "il"
      ],
      [
        "C",
        "on"
      ],
      [
        "Ġnum",
        "ber"
      ],
      [
        "uth",
        "or"
      ],
      [
        "ac",
        "he"
      ],
      [
        "Ġc",
        "ode"
      ],
      [
        "al",
        "s"
      ],
      [
        "con",
        "fig"
      ],
      [
        "Ġbre",
        "ak"
      ],
      [
        "Ġ",
        "í"
      ],
      [
        "Ġm",
        "ethod"
      ],
      [
        "Ġhe",
        "art"
      ],
      [
        "Ġb",
        "oth"
      ],
      [
        "Ġ(",
        "'"
      ],
      [
        "Ġth",
        "ree"
      ],
      [
        "Ġ1",
        "9"
      ],
      [
        "Ġw",
        "ent"
      ],
      [
        "m",
        "ed"
      ],
      [
        "Ġl",
        "ine"
      ],
      [
        "å",
        "ħ"
      ],
      [
        "b",
        "ut"
      ],
      [
        "Ġle",
        "ft"
      ],
      [
        "Ð¾",
        "Ð"
      ],
      [
        "ol",
        "um"
      ],
      [
        "Ġan",
        "other"
      ],
      [
        "T",
        "H"
      ],
      [
        "am",
        "p"
      ],
      [
        "c",
        "hed"
      ],
      [
        "i",
        "k"
      ],
      [
        "Ġp",
        "ath"
      ],
      [
        "if",
        "y"
      ],
      [
        "r",
        "ic"
      ],
      [
        "Ġp",
        "ers"
      ],
      [
        "an",
        "e"
      ],
      [
        "Ġd",
        "oc"
      ],
      [
        "Ġc",
        "o"
      ],
      [
        "Ġh",
        "ouse"
      ],
      [
        "che",
        "ck"
      ],
      [
        "Ġf",
        "riend"
      ],
      [
        "t",
        "on"
      ],
      [
        "ert",
        "ain"
      ],
      [
        "m",
        "b"
      ],
      [
        "Ġ1",
        "0"
      ],
      [
        "Ġde",
        "p"
      ],
      [
        "ĠT",
        "o"
      ],
      [
        "ub",
        "l"
      ],
      [
        ")",
        ";"
      ],
      [
        "le",
        "ct"
      ],
      [
        "ro",
        "ss"
      ],
      [
        "em",
        "pl"
      ],
      [
        "Ġw",
        "ar"
      ],
      [
        "Ġbet",
        "ween"
      ],
      [
        "ĠE",
        "x"
      ],
      [
        ">",
        ">"
      ],
      [
        "B",
        "ut"
      ],
      [
        "Ġcall",
        "ed"
      ],
      [
        "Ġ",
        "i"
      ],
      [
        "ess",
        "age"
      ],
      [
        "v",
        "iew"
      ],
      [
        "l",
        "p"
      ],
      [
        "Ġ",
        "--"
      ],
      [
        "Ġ",
        "z"
      ],
      [
        "as",
        "ed"
      ],
      [
        "iv",
        "ed"
      ],
      [
        "Ġe",
        "ver"
      ],
      [
        "ain",
        "s"
      ],
      [
        "Ġp",
        "oss"
      ],
      [
        "Ġwor",
        "ld"
      ],
      [
        "e",
        "k"
      ],
      [
        "Ġbec",
        "ause"
      ],
      [
        "ap",
        "s"
      ],
      [
        "Ġagain",
        "st"
      ],
      [
        "i",
        "ver"
      ],
      [
        "re",
        "nt"
      ],
      [
        "Ġre",
        "qu"
      ],
      [
        "00",
        "0"
      ],
      [
        "d",
        "is"
      ],
      [
        "Ġg",
        "u"
      ],
      [
        "H",
        "e"
      ],
      [
        "Ġd",
        "on"
      ],
      [
        "Ġw",
        "om"
      ],
      [
        "Ġk",
        "ind"
      ],
      [
        "Ġche",
        "ck"
      ],
      [
        "Ġdif",
        "fer"
      ],
      [
        "(",
        "),"
      ],
      [
        "m",
        "iss"
      ],
      [
        "Ġfun",
        "ction"
      ],
      [
        "Ġcont",
        "in"
      ],
      [
        "'",
        "),"
      ],
      [
        "F",
        "alse"
      ],
      [
        "Ġd",
        "ist"
      ],
      [
        "dom",
        "xref"
      ],
      [
        "l",
        "abel"
      ],
      [
        "ãģ",
        "«"
      ],
      [
        "d",
        "ate"
      ],
      [
        "Ġrais",
        "e"
      ],
      [
        "Ġu",
        "nt"
      ],
      [
        "el",
        "t"
      ],
      [
        "Y",
        "ou"
      ],
      [
        "ust",
        "om"
      ],
      [
        "id",
        "d"
      ],
      [
        "Ġf",
        "ar"
      ],
      [
        "in",
        "it"
      ],
      [
        "Ñ",
        "Ģ"
      ],
      [
        "arg",
        "e"
      ],
      [
        "Ġt",
        "ell"
      ],
      [
        "r",
        "ow"
      ],
      [
        "Ġtr",
        "ue"
      ],
      [
        "s",
        "l"
      ],
      [
        "Ġdis",
        "c"
      ],
      [
        "T",
        "his"
      ],
      [
        "r",
        "un"
      ],
      [
        "--------",
        "--------"
      ],
      [
        "Ġ",
        "error"
      ],
      [
        "Ġth",
        "ough"
      ],
      [
        "w",
        "as"
      ],
      [
        "val",
        "id"
      ],
      [
        "__",
        "("
      ],
      [
        "Ġs",
        "im"
      ],
      [
        "ames",
        "p"
      ],
      [
        "Ġo",
        "s"
      ],
      [
        "t",
        "ext"
      ],
      [
        "Ġyou",
        "ng"
      ],
      [
        "al",
        "e"
      ],
      [
        "Ð",
        "½"
      ],
      [
        "M",
        "L"
      ],
      [
        "sp",
        "ec"
      ],
      [
        "Ġst",
        "yle"
      ],
      [
        "b",
        "u"
      ],
      [
        "Ġs",
        "er"
      ],
      [
        "Ã",
        "©"
      ],
      [
        "em",
        "s"
      ],
      [
        "ĠW",
        "hen"
      ],
      [
        "n",
        "b"
      ],
      [
        "th",
        "ing"
      ],
      [
        "c",
        "reate"
      ],
      [
        "c",
        "od"
      ],
      [
        "Ġp",
        "resent"
      ],
      [
        "g",
        "g"
      ],
      [
        "Ġon",
        "ce"
      ],
      [
        "ex",
        "p"
      ],
      [
        "Ġar",
        "t"
      ],
      [
        "Ġp",
        "le"
      ],
      [
        "it",
        "le"
      ],
      [
        "kub",
        "ectl"
      ],
      [
        "Ġn",
        "or"
      ],
      [
        "ĠA",
        "s"
      ],
      [
        "æ",
        "Ī"
      ],
      [
        "eng",
        "th"
      ],
      [
        "el",
        "ect"
      ],
      [
        "ĠThe",
        "re"
      ],
      [
        "Ġ",
        "å"
      ],
      [
        "Ġyear",
        "s"
      ],
      [
        "C",
        "ont"
      ],
      [
        "Ġop",
        "en"
      ],
      [
        "r",
        "u"
      ],
      [
        "6",
        "4"
      ],
      [
        "pl",
        "es"
      ],
      [
        "iz",
        "ed"
      ],
      [
        "Ġs",
        "ur"
      ],
      [
        "Ġbe",
        "h"
      ],
      [
        "re",
        "g"
      ],
      [
        "s",
        "he"
      ],
      [
        "or",
        "n"
      ],
      [
        "th",
        "on"
      ],
      [
        "a",
        "im"
      ],
      [
        "t",
        "able"
      ],
      [
        "Ġm",
        "ind"
      ],
      [
        "Ġpo",
        "int"
      ],
      [
        "al",
        "f"
      ],
      [
        "Ġg",
        "ive"
      ],
      [
        "ãĥ",
        "³"
      ],
      [
        "i",
        "et"
      ],
      [
        "Ġlo",
        "ve"
      ],
      [
        "e",
        "y"
      ],
      [
        "ĠA",
        "r"
      ],
      [
        "object",
        "s"
      ],
      [
        "Ġ",
        "ê"
      ],
      [
        "s",
        "ec"
      ],
      [
        "Ġre",
        "st"
      ],
      [
        "at",
        "t"
      ],
      [
        "end",
        "ed"
      ],
      [
        "ĠT",
        "rue"
      ],
      [
        "e",
        "qual"
      ],
      [
        "Ġc",
        "le"
      ],
      [
        "em",
        "pt"
      ],
      [
        "ãĤ",
        "ĭ"
      ],
      [
        "Ġf",
        "ew"
      ],
      [
        "o",
        "ice"
      ],
      [
        "ow",
        "ed"
      ],
      [
        "t",
        "t"
      ],
      [
        "Ġn",
        "ight"
      ],
      [
        "Ġsa",
        "w"
      ],
      [
        "ãģ",
        "Ĺ"
      ],
      [
        "Ġn",
        "ear"
      ],
      [
        "ou",
        "d"
      ],
      [
        "Ġval",
        "ues"
      ],
      [
        "Ġf",
        "ace"
      ],
      [
        "in",
        "al"
      ],
      [
        "he",
        "ad"
      ],
      [
        "ĠB",
        "r"
      ],
      [
        "è",
        "®"
      ],
      [
        "ãģ",
        "¾"
      ],
      [
        "Ġc",
        "ase"
      ],
      [
        "o",
        "in"
      ],
      [
        "\"",
        "),"
      ],
      [
        "=",
        "'"
      ],
      [
        "I",
        "G"
      ],
      [
        "Ġs",
        "erver"
      ],
      [
        "nb",
        "sp"
      ],
      [
        "it",
        "ies"
      ],
      [
        "cc",
        "ess"
      ],
      [
        "Ñ",
        "ģ"
      ],
      [
        "1",
        "1"
      ],
      [
        "as",
        "es"
      ],
      [
        "ac",
        "es"
      ],
      [
        "0000",
        "0000"
      ],
      [
        "is",
        "ter"
      ],
      [
        "b",
        "l"
      ],
      [
        "Ġ",
        "à¦"
      ],
      [
        "C",
        "l"
      ],
      [
        "are",
        "nt"
      ],
      [
        "Ġd",
        "irect"
      ],
      [
        "Ġm",
        "od"
      ],
      [
        "ith",
        "ub"
      ],
      [
        "Ġ",
        "ed"
      ],
      [
        "Ġal",
        "ways"
      ],
      [
        "Ġar",
        "ray"
      ],
      [
        "id",
        "er"
      ],
      [
        ".",
        "'"
      ],
      [
        "d",
        "iv"
      ],
      [
        "re",
        "m"
      ],
      [
        "Ġex",
        "t"
      ],
      [
        "pert",
        "y"
      ],
      [
        "olic",
        "y"
      ],
      [
        "ure",
        "d"
      ],
      [
        "Ġm",
        "on"
      ],
      [
        "g",
        "ithub"
      ],
      [
        "ec",
        "h"
      ],
      [
        "ers",
        "ion"
      ],
      [
        "Ġf",
        "ather"
      ],
      [
        "T",
        "o"
      ],
      [
        "C",
        "H"
      ],
      [
        "ut",
        "e"
      ],
      [
        "Ġs",
        "ing"
      ],
      [
        "ìĿ",
        "´"
      ],
      [
        "Ġm",
        "et"
      ],
      [
        "Ġin",
        "clud"
      ],
      [
        "Ġl",
        "ight"
      ],
      [
        "he",
        "s"
      ],
      [
        "Ġexp",
        "ected"
      ],
      [
        "Ġs",
        "ign"
      ],
      [
        "an",
        "c"
      ],
      [
        "Ġ",
        "âĢ"
      ],
      [
        "f",
        "oo"
      ],
      [
        "p",
        "ec"
      ],
      [
        "s",
        "er"
      ],
      [
        "Ġsm",
        "all"
      ],
      [
        "ĠA",
        "n"
      ],
      [
        "le",
        "ment"
      ],
      [
        "t",
        "en"
      ],
      [
        "Ġst",
        "and"
      ],
      [
        "ak",
        "es"
      ],
      [
        "ĠW",
        "h"
      ],
      [
        "Ġth",
        "ings"
      ],
      [
        "Ġim",
        "p"
      ],
      [
        "Ġcomm",
        "and"
      ],
      [
        "Ġm",
        "odel"
      ],
      [
        "c",
        "all"
      ],
      [
        "b",
        "ar"
      ],
      [
        "Ġ",
        "8"
      ],
      [
        "Ġa",
        "v"
      ],
      [
        "st",
        "em"
      ],
      [
        "å",
        "Ĭ"
      ],
      [
        "Ġs",
        "ent"
      ],
      [
        "Ĭ",
        "¤"
      ],
      [
        "ĠTh",
        "at"
      ],
      [
        "c",
        "ss"
      ],
      [
        "t",
        "s"
      ],
      [
        "Ġs",
        "w"
      ],
      [
        "Ġo",
        "cc"
      ],
      [
        "amet",
        "ers"
      ],
      [
        "Ġe",
        "ff"
      ],
      [
        "Ġw",
        "ater"
      ],
      [
        "re",
        "w"
      ],
      [
        "I",
        "f"
      ],
      [
        "at",
        "s"
      ],
      [
        "tribut",
        "e"
      ],
      [
        "et",
        "s"
      ],
      [
        "Ġp",
        "ur"
      ],
      [
        "ì",
        "Ĺ"
      ],
      [
        "è",
        "¡"
      ],
      [
        "get",
        "her"
      ],
      [
        "[",
        "\""
      ],
      [
        "ĠF",
        "alse"
      ],
      [
        "eth",
        "ing"
      ],
      [
        "Ġs",
        "ide"
      ],
      [
        "ress",
        "ion"
      ],
      [
        "m",
        "en"
      ],
      [
        "Ġh",
        "app"
      ],
      [
        "Ġo",
        "per"
      ],
      [
        "ant",
        "s"
      ],
      [
        "in",
        "ess"
      ],
      [
        "el",
        "s"
      ],
      [
        "Ġst",
        "ate"
      ],
      [
        "qu",
        "e"
      ],
      [
        "/",
        ")"
      ],
      [
        "Ġh",
        "igh"
      ],
      [
        "wr",
        "ap"
      ],
      [
        "S",
        "cript"
      ],
      [
        "F",
        "ield"
      ],
      [
        "Ġd",
        "one"
      ],
      [
        "Ġgiv",
        "en"
      ],
      [
        "ur",
        "ation"
      ],
      [
        "pl",
        "oy"
      ],
      [
        "2",
        "5"
      ],
      [
        "V",
        "ersion"
      ],
      [
        "ĠE",
        "ng"
      ],
      [
        "Ġfollow",
        "ing"
      ],
      [
        "Ġv",
        "is"
      ],
      [
        "u",
        "ally"
      ],
      [
        "Ġtoo",
        "k"
      ],
      [
        "m",
        "odel"
      ],
      [
        "st",
        "and"
      ],
      [
        "\"",
        "]"
      ],
      [
        "at",
        "ic"
      ],
      [
        "Ġw",
        "ind"
      ],
      [
        "Ġnot",
        "hing"
      ],
      [
        "res",
        "p"
      ],
      [
        "Ġa",
        "ff"
      ],
      [
        "o",
        "ot"
      ],
      [
        "Ġcan",
        "not"
      ],
      [
        "Ġus",
        "er"
      ],
      [
        "Ġn",
        "ext"
      ],
      [
        "lo",
        "b"
      ],
      [
        "ou",
        "b"
      ],
      [
        "t",
        "es"
      ],
      [
        "Ġ>",
        ">>"
      ],
      [
        "å",
        "ľ"
      ],
      [
        "Ġor",
        "der"
      ],
      [
        "n",
        "um"
      ],
      [
        "at",
        "us"
      ],
      [
        "Ġs",
        "k"
      ],
      [
        "--",
        "-"
      ],
      [
        "Ġcon",
        "fig"
      ],
      [
        "Ġ",
        "7"
      ],
      [
        "Ġh",
        "our"
      ],
      [
        "Ġan",
        "sw"
      ],
      [
        "T",
        "P"
      ],
      [
        "Ġp",
        "ri"
      ],
      [
        "em",
        "ber"
      ],
      [
        "ĠU",
        "n"
      ],
      [
        "Ġp",
        "od"
      ],
      [
        "assert",
        "Is"
      ],
      [
        "ãģ",
        "¯"
      ],
      [
        "ĠA",
        "l"
      ],
      [
        "I",
        "C"
      ],
      [
        "ag",
        "er"
      ],
      [
        "Ġ1",
        "8"
      ],
      [
        "n",
        "ow"
      ],
      [
        "Ġg",
        "ot"
      ],
      [
        "pt",
        "ions"
      ],
      [
        "id",
        "ed"
      ],
      [
        "ward",
        "s"
      ],
      [
        "Ġel",
        "ement"
      ],
      [
        "O",
        "M"
      ],
      [
        "cept",
        "ion"
      ],
      [
        "Ġam",
        "ong"
      ],
      [
        "c",
        "i"
      ],
      [
        "IN",
        "G"
      ],
      [
        "yn",
        "c"
      ],
      [
        "9",
        "9"
      ],
      [
        "amesp",
        "ace"
      ],
      [
        "ad",
        "y"
      ],
      [
        "ĠJ",
        "oh"
      ],
      [
        "Ġun",
        "to"
      ],
      [
        "Ġm",
        "o"
      ],
      [
        "d",
        "ec"
      ],
      [
        "at",
        "ely"
      ],
      [
        "at",
        "tr"
      ],
      [
        "Ġsec",
        "ond"
      ],
      [
        "n",
        "ew"
      ],
      [
        "l",
        "er"
      ],
      [
        "N",
        "ot"
      ],
      [
        "def",
        "ault"
      ],
      [
        "Ġcon",
        "d"
      ],
      [
        "or",
        "age"
      ],
      [
        "Ĭ",
        "Ķ"
      ],
      [
        "ĠT",
        "est"
      ],
      [
        "ĠThe",
        "n"
      ],
      [
        "os",
        "ed"
      ],
      [
        "ak",
        "en"
      ],
      [
        "Ġf",
        "ell"
      ],
      [
        "m",
        "on"
      ],
      [
        "æ",
        "ĸ"
      ],
      [
        "ãĥ¼",
        "ãĥ"
      ],
      [
        "Ġ(",
        "\""
      ],
      [
        "Ġl",
        "ess"
      ],
      [
        "ref",
        "ore"
      ],
      [
        "Ġ",
        "es"
      ],
      [
        "ord",
        "er"
      ],
      [
        "ht",
        "ml"
      ],
      [
        "Ġwh",
        "om"
      ],
      [
        "Ġ.",
        ".."
      ],
      [
        "E",
        "D"
      ],
      [
        "am",
        "b"
      ],
      [
        "ir",
        "d"
      ],
      [
        "E",
        "L"
      ],
      [
        "Ġf",
        "ull"
      ],
      [
        "ou",
        "th"
      ],
      [
        "Ġchar",
        "ac"
      ],
      [
        "Ġex",
        "c"
      ],
      [
        "Ġp",
        "os"
      ],
      [
        "Ġcon",
        "n"
      ],
      [
        "Ref",
        "erence"
      ],
      [
        "pl",
        "ay"
      ],
      [
        "op",
        "y"
      ],
      [
        "or",
        "g"
      ],
      [
        "ãĤ",
        "¹"
      ],
      [
        "our",
        "ces"
      ],
      [
        "Ġf",
        "am"
      ],
      [
        "Ġre",
        "d"
      ],
      [
        "ad",
        "ata"
      ],
      [
        "pp",
        "ed"
      ],
      [
        "Ġl",
        "and"
      ],
      [
        "che",
        "s"
      ],
      [
        "C",
        "h"
      ],
      [
        "iv",
        "es"
      ],
      [
        "wh",
        "ich"
      ],
      [
        "p",
        "re"
      ],
      [
        "Ġunt",
        "il"
      ],
      [
        "Ġth",
        "ing"
      ],
      [
        "Ġse",
        "en"
      ],
      [
        "3",
        "2"
      ],
      [
        "an",
        "n"
      ],
      [
        "d",
        "ay"
      ],
      [
        "(",
        "):"
      ],
      [
        "Ġhe",
        "lp"
      ],
      [
        "id",
        "th"
      ],
      [
        "Ġm",
        "er"
      ],
      [
        "Ġtr",
        "ans"
      ],
      [
        "ãģ",
        "§"
      ],
      [
        "Ġf",
        "ail"
      ],
      [
        "st",
        "art"
      ],
      [
        "en",
        "ame"
      ],
      [
        "Ġm",
        "om"
      ],
      [
        "Ġc",
        "are"
      ],
      [
        "alue",
        "Error"
      ],
      [
        "Ġh",
        "um"
      ],
      [
        "Ġke",
        "ep"
      ],
      [
        "ĠO",
        "n"
      ],
      [
        "Ġcoun",
        "try"
      ],
      [
        "ent",
        "ly"
      ],
      [
        "ĠH",
        "T"
      ],
      [
        "âĢ",
        "Ļ"
      ],
      [
        "b",
        "ed"
      ],
      [
        "u",
        "ck"
      ],
      [
        "Ġbet",
        "ter"
      ],
      [
        "Ġre",
        "ce"
      ],
      [
        "pl",
        "ace"
      ],
      [
        "Ġm",
        "or"
      ],
      [
        "pl",
        "ied"
      ],
      [
        "im",
        "it"
      ],
      [
        "ang",
        "o"
      ],
      [
        "ä¸",
        "Ģ"
      ],
      [
        "I",
        "T"
      ],
      [
        ".",
        ","
      ],
      [
        "Ġin",
        "c"
      ],
      [
        "ĠA",
        "t"
      ],
      [
        "em",
        "p"
      ],
      [
        "sel",
        "ves"
      ],
      [
        "ir",
        "on"
      ],
      [
        "ĠC",
        "on"
      ],
      [
        "åı",
        "¯"
      ],
      [
        "Ġout",
        "put"
      ],
      [
        "Ġt",
        "e"
      ],
      [
        "em",
        "ents"
      ],
      [
        "Ġb",
        "ro"
      ],
      [
        "1",
        "6"
      ],
      [
        "Ġwith",
        "in"
      ],
      [
        "æ",
        "ĺ"
      ],
      [
        "Ġcon",
        "f"
      ],
      [
        "st",
        "ate"
      ],
      [
        "Ġp",
        "ower"
      ],
      [
        "str",
        "uct"
      ],
      [
        "Ġreturn",
        "ed"
      ],
      [
        "d",
        "b"
      ],
      [
        "Ġb",
        "est"
      ],
      [
        "olum",
        "e"
      ],
      [
        "un",
        "g"
      ],
      [
        "read",
        "y"
      ],
      [
        "ĠW",
        "hat"
      ],
      [
        "ET",
        "TER"
      ],
      [
        "Ġc",
        "re"
      ],
      [
        "us",
        "ed"
      ],
      [
        "Ġcom",
        "ple"
      ],
      [
        "ff",
        "er"
      ],
      [
        "le",
        "y"
      ],
      [
        "Ġ",
        "version"
      ],
      [
        "e",
        "ed"
      ],
      [
        "en",
        "se"
      ],
      [
        "un",
        "t"
      ],
      [
        "Ġs",
        "erv"
      ],
      [
        "m",
        "a"
      ],
      [
        "ult",
        "i"
      ],
      [
        "empl",
        "ate"
      ],
      [
        "Ġh",
        "ard"
      ],
      [
        "ir",
        "l"
      ],
      [
        "O",
        "T"
      ],
      [
        "Ġc",
        "ar"
      ],
      [
        "Ġt",
        "yp"
      ],
      [
        "ows",
        "er"
      ],
      [
        "m",
        "odule"
      ],
      [
        "A",
        "D"
      ],
      [
        "ì",
        "Ĭ¤"
      ],
      [
        "A",
        "r"
      ],
      [
        "c",
        "ount"
      ],
      [
        "å",
        "¤"
      ],
      [
        "ce",
        "ed"
      ],
      [
        "ä½",
        "¿"
      ],
      [
        "ĠN",
        "o"
      ],
      [
        "ur",
        "s"
      ],
      [
        "Ġsu",
        "pp"
      ],
      [
        "s",
        "erv"
      ],
      [
        "Ġcont",
        "ent"
      ],
      [
        "ĠL",
        "ETTER"
      ],
      [
        "Ġd",
        "ays"
      ],
      [
        "Ġc",
        "ertain"
      ],
      [
        "Ġv",
        "iew"
      ],
      [
        "Ġ",
        "id"
      ],
      [
        "Ġch",
        "ang"
      ],
      [
        "Ġhe",
        "ard"
      ],
      [
        "cont",
        "ent"
      ],
      [
        "ist",
        "s"
      ],
      [
        "ex",
        "ample"
      ],
      [
        "A",
        "M"
      ],
      [
        "er",
        "r"
      ],
      [
        "ac",
        "hed"
      ],
      [
        "j",
        "ango"
      ],
      [
        "Ġs",
        "at"
      ],
      [
        "Ġh",
        "alf"
      ],
      [
        "Ġpl",
        "ay"
      ],
      [
        "W",
        "e"
      ],
      [
        "p",
        "od"
      ],
      [
        "Ġdiffer",
        "ent"
      ],
      [
        "Ġ",
        "est"
      ],
      [
        "Ġl",
        "ay"
      ],
      [
        "re",
        "qu"
      ],
      [
        "Ġa",
        "ut"
      ],
      [
        "re",
        "l"
      ],
      [
        "ter",
        "n"
      ],
      [
        "Ġsu",
        "re"
      ],
      [
        "Ġso",
        "on"
      ],
      [
        "Ġhand",
        "s"
      ],
      [
        "åľ",
        "¨"
      ],
      [
        "ple",
        "ment"
      ],
      [
        "Ġwho",
        "le"
      ],
      [
        "s",
        "ize"
      ],
      [
        "Ġn",
        "ec"
      ],
      [
        "Ġin",
        "form"
      ],
      [
        "ç",
        "»"
      ],
      [
        ";",
        "&"
      ],
      [
        "il",
        "t"
      ],
      [
        "re",
        "en"
      ],
      [
        "ãģ",
        "¦"
      ],
      [
        "ë",
        "ĬĶ"
      ],
      [
        "A",
        "C"
      ],
      [
        "r",
        "a"
      ],
      [
        "íķ",
        "ĺ"
      ],
      [
        "Ġin",
        "v"
      ],
      [
        "y",
        "ou"
      ],
      [
        "ĠH",
        "ow"
      ],
      [
        "im",
        "al"
      ],
      [
        "Ġs",
        "il"
      ],
      [
        "Ġm",
        "other"
      ],
      [
        "==",
        "=="
      ],
      [
        "1",
        "8"
      ],
      [
        "T",
        "h"
      ],
      [
        "Ġh",
        "ome"
      ],
      [
        "ĠS",
        "h"
      ],
      [
        "it",
        "or"
      ],
      [
        "ë",
        "ĵ"
      ],
      [
        "in",
        "fo"
      ],
      [
        "Ġlook",
        "ed"
      ],
      [
        "Ġobject",
        "s"
      ],
      [
        "Ġde",
        "v"
      ],
      [
        "po",
        "int"
      ],
      [
        "()",
        ")"
      ],
      [
        "oo",
        "p"
      ],
      [
        "ĠM",
        "y"
      ],
      [
        "Ġf",
        "our"
      ],
      [
        "ar",
        "get"
      ],
      [
        "ãģ¾",
        "ãģĻ"
      ],
      [
        "A",
        "s"
      ],
      [
        "A",
        "t"
      ],
      [
        "g",
        "ed"
      ],
      [
        "l",
        "ike"
      ]
    ]
  }
}