{
  "version": "1.0",
  "truncation": null,
  "padding": null,
  "added_tokens": [],
  "normalizer": null,
  "pre_tokenizer": {
    "type": "ByteLevel",
    "add_prefix_space": false,
    "trim_offsets": true,
    "use_regex": true
  },
  "post_processor": null,
  "decoder": {
    "type": "ByteLevel",
    "add_prefix_space": true,
    "trim_offsets": true,
    "use_regex": true
  },
  "model": {
    "type": "BPE",
    "dropout": null,
    "unk_token": null,
    "continuing_subword_prefix": null,
    "end_of_word_suffix": null,
    "fuse_unk": false,
    "byte_fallback": false,
    "ignore_merges": false,
    "vocab": {
      "!": 0,
      "\"": 1,
      "#": 2,
      "$": 3,
      "%": 4,
      "&": 5,
      "'": 6,
      "(": 7,
      ")": 8,
      "*": 9,
      "+": 10,
      ",": 11,
      "-": 12,
      ".": 13,
      "/": 14,
      "0": 15,
      "1": 16,
      "2": 17,
      "3": 18,
      "4": 19,
      "5": 20,
      "6": 21,
      "7": 22,
      "8": 23,
      "9": 24,
      ":": 25,
      ";": 26,
      "<": 27,
      "=": 28,
      ">": 29,
      "?": 30,
      "@": 31,
      "A": 32,
      "B": 33,
      "C": 34,
      "D": 35,
      "E": 36,
      "F": 37,
      "G": 38,
      "H": 39,
      "I": 40,
      "J": 41,
      "K": 42,
      "L": 43,
      "M": 44,
      "N": 45,
      "O": 46,
      "P": 47,
      "Q": 48,
      "R": 49,
      "S": 50,
      "T": 51,
      "U": 52,
      "V": 53,
      "W": 54,
      "X": 55,
      "Y": 56,
      "Z": 57,
      "[": 58,
      "\\": 59,
      "]": 60,
      "^": 61,
      "_": 62,
      "`": 63,
      "a": 64,
      "b": 65,
      "c": 66,
      "d": 67,
      "e": 68,
      "f": 69,
      "g": 70,
      "h": 71,
      "i": 72,
      "j": 73,
      "k": 74,
      "l": 75,
      "m": 76,
      "n": 77,
      "o": 78,
      "p": 79,
      "q": 80,
      "r": 81,
      "s": 82,
      "t": 83,
      "u": 84,
      "v": 85,
      "w": 86,
      "x": 87,
      "y": 88,
      "z": 89,
      "{": 90,
      "|": 91,
      "}": 92,
      "~": 93,
      "¡": 94,
      "¢": 95,
      "£": 96,
      "¤": 97,
      "¥": 98,
      "¦": 99,
      "§": 100,
      "¨": 101,
      "©": 102,
      "ª": 103,
      "«": 104,
      "¬": 105,
      "®": 106,
      "¯": 107,
      "°": 108,
      "±": 109,
      "²": 110,
      "³": 111,
      "´": 112,
      "µ": 113,
      "¶": 114,
      "·": 115,
      "¸": 116,
      "¹": 117,
      "º": 118,
      "»": 119,
      "¼": 120,
      "½": 121,
      "¾": 122,
      "¿": 123,
      "À": 124,
      "Á": 125,
      "Â": 126,
      "Ã": 127,
      "Ä": 128,
      "Å": 129,
      "Æ": 130,
      "Ç": 131,
      "È": 132,
      "É": 133,
      "Ê": 134,
      "Ë": 135,
      "Ì": 136,
      "Í": 137,
      "Î": 138,
      "Ï": 139,
      "Ð": 140,
      "Ñ": 141,
      "Ò": 142,
      "Ó": 143,
      "Ô": 144,
      "Õ": 145,
      "Ö": 146,
      "×": 147,
      "Ø": 148,
      "Ù": 149,
      "Ú": 150,
      "Û": 151,
      "Ü": 152,
      "Ý": 153,
      "Þ": 154,
      "ß": 155,
      "à": 156,
      "á": 157,
      "â": 158,
      "ã": 159,
      "ä": 160,
      "å": 161,
      "æ": 162,
      "ç": 163,
      "è": 164,
      "é": 165,
      "ê": 166,
      "ë": 167,
      "ì": 168,
      "í": 169,
      "î": 170,
      "ï": 171,
      "ð": 172,
      "ñ": 173,
      "ò": 174,
      "ó": 175,
      "ô": 176,
      "õ": 177,
      "ö": 178,
      "÷": 179,
      "ø": 180,
      "ù": 181,
      "ú": 182,
      "û": 183,
      "ü": 184,
      "ý": 185,
      "þ": 186,
      "ÿ": 187,
      "Ā": 188,
      "ā": 189,
      "Ă": 190,
      "ă": 191,
      "Ą": 192,
      "ą": 193,
      "Ć": 194,
      "ć": 195,
      "Ĉ": 196,
      "ĉ": 197,
      "Ċ": 198,
      "ċ": 199,
      "Č": 200,
      "č": 201,
      "Ď": 202,
      "ď": 203,
      "Đ": 204,
      "đ": 205,
      "Ē": 206,
      "ē": 207,
      "Ĕ": 208,
      "ĕ": 209,
      "Ė": 210,
      "ė": 211,
      "Ę": 212,
      "ę": 213,
      "Ě": 214,
      "ě": 215,
      "Ĝ": 216,
      "ĝ": 217,
      "Ğ": 218,
      "ğ": 219,
      "Ġ": 220,
      "ġ": 221,
      "Ģ": 222,
      "ģ": 223,
      "Ĥ": 224,
      "ĥ": 225,
      "Ħ": 226,
      "ħ": 227,
      "Ĩ": 228,
      "ĩ": 229,
      "Ī": 230,
      "ī": 231,
      "Ĭ": 232,
      "ĭ": 233,
      "Į": 234,
      "į": 235,
      "İ": 236,
      "ı": 237,
      "Ĳ": 238,
      "ĳ": 239,
      "Ĵ": 240,
      "ĵ": 241,
      "Ķ": 242,
      "ķ": 243,
      "ĸ": 244,
      "Ĺ": 245,
      "ĺ": 246,
      "Ļ": 247,
      "ļ": 248,
      "Ľ": 249,
      "ľ": 250,
      "Ŀ": 251,
      "ŀ": 252,
      "Ł": 253,
      "ł": 254,
      "Ń": 255,
      "ĠĠ": 256,
      "ĠĠĠĠ": 257,
      "Ġt": 258,
      "he": 259,
      "Ġa": 260,
      "in": 261,
      "er": 262,
      "čĊ": 263,
      "Ġs": 264,
      "re": 265,
      "Ġthe": 266,
      "on": 267,
      "at": 268,
      "Ġw": 269,
      "en": 270,
      "ĠĠĠ": 271,
      "Ġo": 272,
      "es": 273,
      "is": 274,
      "or": 275,
      "it": 276,
      "nd": 277,
      "ed": 278,
      "Ġc": 279,
      "ĠĠĠĠĠĠĠĠ": 280,
      "Ġb": 281,
      "ou": 282,
      "Ġf": 283,
      "ar": 284,
      "Ġm": 285,
      "el": 286,
      "an": 287,
      "al": 288,
      "ing": 289,
      "Ġd": 290,
      "as": 291,
      "Ġh": 292,
      "Ġof": 293,
      "Ġp": 294,
      "Ġto": 295,
      "le": 296,
      "Ġand": 297,
      "Ġin": 298,
      "Ġth": 299,
      "ĠĠĠĠĠĠĠ": 300,
      "Ġn": 301,
      "om": 302,
      "ion": 303,
      "et": 304,
      "ic": 305,
      "st": 306,
      "ent": 307,
      "Ġl": 308,
      "il": 309,
      "ad": 310,
      "ot": 311,
      "Ġre": 312,
      "am": 313,
      "ec": 314,
      "ut": 315,
      "im": 316,
      "ow": 317,
      "od": 318,
      "ce": 319,
      "ĠI": 320,
      "Ġg": 321,
      "Ġhe": 322,
      "id": 323,
      "--": 324,
      "Ġe": 325,
      "se": 326,
      "Ġ\"": 327,
      "elf": 328,
      "Ġu": 329,
      "ol": 330,
      "ur": 331,
      "Ġbe": 332,
      "ver": 333,
      "ĠT": 334,
      "ve": 335,
      "ig": 336,
      "ly": 337,
      "tr": 338,
      "ith": 339,
      "Ġis": 340,
      "Ġ=": 341,
      "ac": 342,
      "Ġfor": 343,
      "ay": 344,
      "ir": 345,
      "if": 346,
      "Ġthat": 347,
      "ĠĠĠĠĠĠĠĠĠĠĠ": 348,
      "Ġas": 349,
      "est": 350,
      "Ġon": 351,
      "ro": 352,
      "Ġy": 353,
      "Ġit": 354,
      "Ġwh": 355,
      "ter": 356,
      "Ġwith": 357,
      "ul": 358,
      "ĠA": 359,
      "qu": 360,
      "em": 361,
      "Ġ'": 362,
      "ĠS": 363,
      "ht": 364,
      "ect": 365,
      "ass": 366,
      "00": 367,
      "Ġwas": 368,
      "ch": 369,
      "th": 370,
      "ef": 371,
      "ab": 372,
      "Ġself": 373,
      "and": 374,
      "ag": 375,
      "ap": 376,
      "Ġal": 377,
      "ain": 378,
      "Ġan": 379,
      "Ġr": 380,
      "ation": 381,
      "</": 382,
      "Ġnot": 383,
      "her": 384,
      "ld": 385,
      "Ġyou": 386,
      "ert": 387,
      "Ġst": 388,
      "Ġcon": 389,
      "un": 390,
      "ke": 391,
      "ĠC": 392,
      "res": 393,
      "ame": 394,
      "oc": 395,
      "ub": 396,
      "um": 397,
      "ill": 398,
      "ĠĠĠĠĠĠĠĠĠĠĠĠĠĠĠĠ": 399,
      "pt": 400,
      "ri": 401,
      "ess": 402,
      "ate": 403,
      "Ġ(": 404,
      "Ġv": 405,
      "Ġhis": 406,
      "ĠM": 407,
      "rom": 408,
      "Ġ`": 409,
      "ex": 410,
      "pe": 411,
      "ue": 412,
      "ĠThe": 413,
      "Ġsh": 414,
      "Ġ1": 415,
      "us": 416,
      "all": 417,
      "Ġex": 418,
      "ĠP": 419,
      "Ġor": 420,
      "pl": 421,
      "ore": 422,
      "Ġat": 423,
      "ers": 424,
      "ist": 425,
      "ave": 426,
      "ort": 427,
      "self": 428,
      "end": 429,
      "):": 430,
      "ĠB": 431,
      "ĠH": 432,
      "Ġby": 433,
      "ould": 434,
      "ct": 435,
      "ight": 436,
      "``": 437,
      "our": 438,
      "op": 439,
      "),": 440,
      "ãģ": 441,
      "ĠW": 442,
      "ich": 443,
      "Ġ[": 444,
      "Ġk": 445,
      "td": 446,
      "',": 447,
      "'s": 448,
      "ust": 449,
      "lo": 450,
      "nt": 451,
      "Ġif": 452,
      "\",": 453,
      "Ġse": 454,
      "Ġfrom": 455,
      "Ġdef": 456,
      "ĠN": 457,
      "Ġhad": 458,
      "Ġ#": 459,
      "Ġall": 460,
      "the": 461,
      "Ġcom": 462,
      "ĠL": 463,
      "Ġare": 464,
      "art": 465,
      "one": 466,
      "ard": 467,
      "ine": 468,
      "Ġthis": 469,
      "Ġsu": 470,
      "ĠF": 471,
      "##": 472,
      "Ġher": 473,
      "os": 474,
      "Ġwe": 475,
      "Ġhave": 476,
      "out": 477,
      "ode": 478,
      "ĠĠĠĠĠĠĠĠĠĠĠĠĠĠĠ": 479,
      "Ġ{": 480,
      "Ġwhich": 481,
      "ang": 482,
      "\")": 483,
      "ew": 484,
      "iv": 485,
      "Ġch": 486,
      "ind": 487,
      "ant": 488,
      "Ġ_": 489,
      "con": 490,
      "urn": 491,
      "(\"": 492,
      "Ġwhe": 493,
      "ord": 494,
      "able": 495,
      "to": 496,
      "Ġme": 497,
      "()": 498,
      "Ġ<": 499,
      "assert": 500,
      "ple": 501,
      "ment": 502,
      "ity": 503,
      "ĠD": 504,
      "ure": 505,
      "ãĥ": 506,
      "ive": 507,
      "ib": 508,
      "Ġ,": 509,
      "Ġbut": 510,
      "Ġtr": 511,
      "cl": 512,
      "ok": 513,
      "ak": 514,
      "age": 515,
      "Ġpro": 516,
      "ell": 517,
      "ere": 518,
      "oug": 519,
      "Ġde": 520,
      "Ġus": 521,
      "sp": 522,
      "Ġ0": 523,
      "Ġso": 524,
      "ype": 525,
      "ult": 526,
      "Ġmy": 527,
      "Ġup": 528,
      "Ġhim": 529,
      "ace": 530,
      "ĠE": 531,
      "ack": 532,
      "Ġ-": 533,
      "ile": 534,
      "ĠR": 535,
      "ous": 536,
      "=\"": 537,
      "Ġle": 538,
      "ong": 539,
      "ĠĠĠĠĠ": 540,
      "Ġsa": 541,
      "Ġar": 542,
      "pp": 543,
      "Ġ.": 544,
      "ire": 545,
      "ast": 546,
      "are": 547,
      "----": 548,
      "ject": 549,
      "ĠG": 550,
      "Ġthey": 551,
      ".\"": 552,
      "Ġwill": 553,
      "ãĤ": 554,
      "Ġlo": 555,
      "for": 556,
      "av": 557,
      "ies": 558,
      "ome": 559,
      "ĠO": 560,
      "Ġdo": 561,
      "ext": 562,
      "ath": 563,
      "Ġcan": 564,
      "ound": 565,
      "ence": 566,
      "ime": 567,
      "The": 568,
      "Ġim": 569,
      "ions": 570,
      "ror": 571,
      "qual": 572,
      "ff": 573,
      "Ġman": 574,
      "ip": 575,
      "Ġ2": 576,
      "__": 577,
      "Ġsp": 578,
      "Ġshe": 579,
      "turn": 580,
      "ance": 581,
      "Ġone": 582,
      "Ġcl": 583,
      "ress": 584,
      "ern": 585,
      "ost": 586,
      "ated": 587,
      "Ġthem": 588,
      "ice": 589,
      "own": 590,
      "Ġstr": 591,
      "Ġwere": 592,
      "](": 593,
      "Ġtheir": 594,
      "ref": 595,
      "com": 596,
      "very": 597,
      "ob": 598,
      "><": 599,
      "per": 600,
      "Ġreturn": 601,
      "Ġout": 602,
      "alue": 603,
      "ther": 604,
      "eld": 605,
      "Ġ|": 606,
      "iz": 607,
      "Ġwho": 608,
      "Ġun": 609,
      "ud": 610,
      "Ġgo": 611,
      "}}": 612,
      "Ġab": 613,
      "ug": 614,
      "str": 615,
      "Ġno": 616,
      "ide": 617,
      "Ġen": 618,
      "arg": 619,
      "ps": 620,
      "ield": 621,
      "Ġtest": 622,
      "ake": 623,
      "Ġwhen": 624,
      "Ġpr": 625,
      ",\"": 626,
      "ear": 627,
      "ä¸": 628,
      "Ġ*": 629,
      "oll": 630,
      "ĠJ": 631,
      "Ġpl": 632,
      "itt": 633,
      "int": 634,
      "ĠTh": 635,
      "ough": 636,
      "ign": 637,
      "Ġj": 638,
      "ase": 639,
      "erv": 640,
      "port": 641,
      "Ġad": 642,
      "Ġel": 643,
      "ock": 644,
      "Ġob": 645,
      "ally": 646,
      "hed": 647,
      "Ġcont": 648,
      "ep": 649,
      "form": 650,
      "```": 651,
      "eb": 652,
      "cri": 653,
      "Ġsaid": 654,
      "name": 655,
      "ite": 656,
      "//": 657,
      "reat": 658,
      "ĠK": 659,
      "')": 660,
      "Ġmore": 661,
      "ais": 662,
      "get": 663,
      "act": 664,
      "Ġkn": 665,
      "ĠĊ": 666,
      "Ġwor": 667,
      "à¦": 668,
      "Equal": 669,
      "ail": 670,
      "ãĢ": 671,
      "ĠAnd": 672,
      "cc": 673,
      "ans": 674,
      "Ġhas": 675,
      "Ġres": 676,
      "Ġgr": 677,
      "'t": 678,
      "Ġwould": 679,
      "rror": 680,
      "ike": 681,
      "ll": 682,
      "ose": 683,
      "Ġany": 684,
      "sh": 685,
      "Ġdis": 686,
      "Ġbeen": 687,
      "etes": 688,
      "Ġother": 689,
      "></": 690,
      "0000": 691,
      "kub": 692,
      "ary": 693,
      "Ġbr": 694,
      "ernetes": 695,
      "Ġthere": 696,
      "Error": 697,
      "Ġag": 698,
      "ata": 699,
      "ck": 700,
      "ink": 701,
      "Ġev": 702,
      "ption": 703,
      "Ġne": 704,
      "\"\"": 705,
      "ss": 706,
      "old": 707,
      "eth": 708,
      "Ġyour": 709,
      "ï¼": 710,
      "ings": 711,
      "Ġass": 712,
      "Ġqu": 713,
      "doc": 714,
      "read": 715,
      "assertEqual": 716,
      "ents": 717,
      "ber": 718,
      "ev": 719,
      "Ġ)": 720,
      "ER": 721,
      "code": 722,
      "ach": 723,
      "ray": 724,
      "Ġset": 725,
      "ng": 726,
      "oy": 727,
      "ild": 728,
      "of": 729,
      "vers": 730,
      "ial": 731,
      "ond": 732,
      "ish": 733,
      "ition": 734,
      "not": 735,
      "set": 736,
      "type": 737,
      "gr": 738,
      "ict": 739,
      "ction": 740,
      "ely": 741,
      "ener": 742,
      "._": 743,
      "Ġthan": 744,
      "way": 745,
      "ick": 746,
      "ĠU": 747,
      "Ġinto": 748,
      "Ġour": 749,
      "ied": 750,
      "çļ": 751,
      "çļĦ": 752,
      "Ġtime": 753,
      "))": 754,
      "irst": 755,
      "fter": 756,
      "Ġ{{": 757,
      "Ġsome": 758,
      "Ġshould": 759,
      "Ġ3": 760,
      "ious": 761,
      "ark": 762,
      "atch": 763,
      "docs": 764,
      "Ġonly": 765,
      "ade": 766,
      "aw": 767,
      "**": 768,
      "ĠHe": 769,
      "up": 770,
      "Ġam": 771,
      "Ġper": 772,
      "ĠIt": 773,
      "ount": 774,
      "ory": 775,
      "Ġits": 776,
      "fer": 777,
      "://": 778,
      "ful": 779,
      "pro": 780,
      "PI": 781,
      "ont": 782,
      "ree": 783,
      "Ġmay": 784,
      "ault": 785,
      "Ġover": 786,
      "Ġpre": 787,
      "ãĢĤ": 788,
      "so": 789,
      "Ġtw": 790,
      "ia": 791,
      "Ġname": 792,
      "ĠĠĠĠĠĠĠĠĠĠĠĠĠĠĠĠĠĠĠ": 793,
      "put": 794,
      "ows": 795,
      "Ġsc": 796,
      "ĠIn": 797,
      "key": 798,
      "],": 799,
      "ry": 800,
      "pr": 801,
      "other": 802,
      "Ġwhat": 803,
      "In": 804,
      "app": 805,
      "fo": 806,
      "Ġ>": 807,
      "tps": 808,
      "we": 809,
      "Ġì": 810,
      "Ġdes": 811,
      "\")}}": 812,
      "ens": 813,
      "Ġget": 814,
      "Ġpart": 815,
      "Ġnow": 816,
      "Ġlike": 817,
      "use": 818,
      "ĠV": 819,
      "IN": 820,
      "\":": 821,
      "Ġthen": 822,
      "Ġfe": 823,
      "ient": 824,
      "cript": 825,
      "nder": 826,
      "quest": 827,
      "ie": 828,
      "Ġro": 829,
      "ations": 830,
      "Ġsee": 831,
      "ge": 832,
      "cept": 833,
      "ĠĠĠĠĠĠĠĠĠĠĠĠĠĠĠĠĠĠĠĠĠĠĠĠĠĠĠĠĠĠĠĠ": 834,
      "red": 835,
      "iss": 836,
      "](/": 837,
      "US": 838,
      "ize": 839,
      "?\"": 840,
      "ook": 841,
      "hat": 842,
      "Ġvery": 843,
      "Ġbl": 844,
      "ange": 845,
      "ample": 846,
      "ix": 847,
      "cont": 848,
      "ĠĠĠĠĠĠ": 849,
      "ittle": 850,
      "Ġmust": 851,
      "anc": 852,
      "--------": 853,
      "ning": 854,
      "Ġcould": 855,
      "ource": 856,
      "Ġvalue": 857,
      "Ġ:": 858,
      "Ġgreat": 859,
      "Ġ\"\"\"": 860,
      "par": 861,
      "ax": 862,
      "ty": 863,
      "ise": 864,
      "alse": 865,
      "fig": 866,
      "Ġfl": 867,
      "Ġfirst": 868,
      "\">": 869,
      "io": 870,
      "uch": 871,
      "Ġcall": 872,
      "ĠNone": 873,
      "Ġlook": 874,
      "Ġhand": 875,
      "_.": 876,
      "odel": 877,
      "ought": 878,
      "Ġrem": 879,
      "Ġpo": 880,
      "Ġnew": 881,
      "('": 882,
      "hen": 883,
      "ody": 884,
      "man": 885,
      "Ġabout": 886,
      "Ġafter": 887,
      "Ġpass": 888,
      "test": 889,
      "oth": 890,
      "Ġexp": 891,
      "ather": 892,
      "AL": 893,
      "Ġunt": 894,
      "Ġcol": 895,
      "ors": 896,
      "ï¼Į": 897,
      "Ġdid": 898,
      "Ġupon": 899,
      "Ġap": 900,
      "ne": 901,
      "ward": 902,
      "Ġobject": 903,
      "Ġcomm": 904,
      "wn": 905,
      "val": 906,
      "https": 907,
      "led": 908,
      "Ġagain": 909,
      "Ġthr": 910,
      "Ġbec": 911,
      "Ġ@": 912,
      "ames": 913,
      "line": 914,
      "Ġhow": 915,
      "min": 916,
      "over": 917,
      "Ġwr": 918,
      "ĠThis": 919,
      "Ġassert": 920,
      "Ġlittle": 921,
      "Ġthese": 922,
      ").": 923,
      "'d": 924,
      "Ġform": 925,
      "ĠIf": 926,
      "Ġuse": 927,
      "TT": 928,
      "og": 929,
      "Ġknow": 930,
      "Ġsuch": 931,
      "Ġmen": 932,
      "Ġind": 933,
      "ood": 934,
      "Ġtwo": 935,
      "ife": 936,
      "ific": 937,
      "ubernetes": 938,
      "Ġimport": 939,
      "Ġadd": 940,
      "te": 941,
      "ĠY": 942,
      "rue": 943,
      "def": 944,
      "class": 945,
      "fore": 946,
      "Ġwork": 947,
      "trib": 948,
      "reate": 949,
      "odu": 950,
      "ement": 951,
      "Ġsy": 952,
      "Ġinter": 953,
      "Ġlist": 954,
      "Ġday": 955,
      "Ġspec": 956,
      "xref": 957,
      "])": 958,
      "Ġnp": 959,
      "air": 960,
      "heck": 961,
      "..": 962,
      "ON": 963,
      "path": 964,
      "Ġback": 965,
      "ĠSt": 966,
      "Ġwhere": 967,
      "uth": 968,
      "âĢ": 969,
      "ars": 970,
      "Ġshall": 971,
      "Ġgood": 972,
      "plic": 973,
      "Ġcomp": 974,
      "les": 975,
      "ered": 976,
      "Ġpe": 977,
      "ause": 978,
      "br": 979,
      "ons": 980,
      "Ġsay": 981,
      "ian": 982,
      "elect": 983,
      "Ġ('": 984,
      "erver": 985,
      "Ġbefore": 986,
      "tribut": 987,
      "enc": 988,
      "Ġapp": 989,
      "Ġmade": 990,
      "be": 991,
      "iew": 992,
      "Ġoff": 993,
      "ness": 994,
      "add": 995,
      "ĠBut": 996,
      "Ġsub": 997,
      "Ġdown": 998,
      "Ġsupp": 999,
      "ask": 1000,
      "Ġ4": 1001,
      "from": 1002,
      "AR": 1003,
      "Ġend": 1004,
      "dom": 1005,
      "atter": 1006,
      "Ġlong": 1007,
      "ĠMr": 1008,
      "cess": 1009,
      "Ġbet": 1010,
      "Ġway": 1011,
      "ove": 1012,
      "Ġhead": 1013,
      "ft": 1014,
      "Ġown": 1015,
      "Ġpos": 1016,
      "ĠCh": 1017,
      "file": 1018,
      "hes": 1019,
      "Ġword": 1020,
      "aises": 1021,
      "ollow": 1022,
      "ily": 1023,
      "object": 1024,
      "ä»": 1025,
      "Ġold": 1026,
      "ull": 1027,
      "01": 1028,
      "py": 1029,
      "oun": 1030,
      "Web": 1031,
      "by": 1032,
      "with": 1033,
      "ait": 1034,
      "Ġ</": 1035,
      "Ġmake": 1036,
      "Ġinst": 1037,
      "ument": 1038,
      "ues": 1039,
      "ork": 1040,
      "!--": 1041,
      "Ġ+": 1042,
      "sc": 1043,
      "ä½": 1044,
      "OR": 1045,
      "Ġmuch": 1046,
      "Ġarg": 1047,
      "ervice": 1048,
      "Ġsm": 1049,
      "Ġevery": 1050,
      "Ġalso": 1051,
      "Ġval": 1052,
      "{{": 1053,
      "ible": 1054,
      "Ġunder": 1055,
      "umber": 1056,
      "ates": 1057,
      "Ġop": 1058,
      "Ġclass": 1059,
      "less": 1060,
      "ical": 1061,
      "ìĿ": 1062,
      "igh": 1063,
      "error": 1064,
      "ater": 1065,
      "Ġacc": 1066,
      "Ġfield": 1067,
      "ead": 1068,
      "Ġmost": 1069,
      "version": 1070,
      "field": 1071,
      "Ġread": 1072,
      "ery": 1073,
      "wr": 1074,
      "ik": 1075,
      "Ġthose": 1076,
      "pert": 1077,
      "Ġeven": 1078,
      "åĪ": 1079,
      "der": 1080,
      "ved": 1081,
      "SS": 1082,
      "wh": 1083,
      "eng": 1084,
      "Ġbre": 1085,
      "ouse": 1086,
      "Ġfun": 1087,
      "Ġ--": 1088,
      "ature": 1089,
      "Ġrun": 1090,
      "!\"": 1091,
      "ren": 1092,
      "Ġpres": 1093,
      "åı": 1094,
      "Ġwell": 1095,
      "word": 1096,
      "AT": 1097,
      "ection": 1098,
      "Ġsec": 1099,
      "Ġcr": 1100,
      "Ġrequest": 1101,
      "Ġpar": 1102,
      "erence": 1103,
      "orm": 1104,
      "Ġcontain": 1105,
      "ired": 1106,
      "ĠKubernetes": 1107,
      "his": 1108,
      "Ġused": 1109,
      "Ġsame": 1110,
      "Ġcons": 1111,
      "ĠPod": 1112,
      "API": 1113,
      "arn": 1114,
      "array": 1115,
      "Ġfollow": 1116,
      "Ġdec": 1117,
      "ĠĠĠĠĠĠĠĠĠĠĠĠĠĠĠĠĠĠĠĠĠĠĠĠ": 1118,
      "ool": 1119,
      "kubernetes": 1120,
      "its": 1121,
      "':": 1122,
      "ower": 1123,
      "Ġrel": 1124,
      "ethod": 1125,
      "ual": 1126,
      "vel": 1127,
      "Ġsl": 1128,
      "Ġint": 1129,
      "Ġlet": 1130,
      "ared": 1131,
      "Ġem": 1132,
      "su": 1133,
      "å®": 1134,
      "ml": 1135,
      "Ġfr": 1136,
      "ah": 1137,
      "Ġtype": 1138,
      "Ġthrough": 1139,
      "Ġ5": 1140,
      "Ġrais": 1141,
      "gg": 1142,
      "Ġbeing": 1143,
      "assertR": 1144,
      "<!--": 1145,
      "Ġelse": 1146,
      "RE": 1147,
      "Ġbu": 1148,
      "aug": 1149,
      "Ġmight": 1150,
      "that": 1151,
      "10": 1152,
      "ST": 1153,
      "æľ": 1154,
      "aint": 1155,
      "ople": 1156,
      "ever": 1157,
      "ope": 1158,
      "çĶ": 1159,
      "Ġ%": 1160,
      "12": 1161,
      "'),": 1162,
      "fl": 1163,
      "ator": 1164,
      "dir": 1165,
      "ves": 1166,
      "value": 1167,
      "ret": 1168,
      "Ġë": 1169,
      "oup": 1170,
      "Ġ==": 1171,
      "Ġcame": 1172,
      "js": 1173,
      "Ġresp": 1174,
      "Ġwithout": 1175,
      "args": 1176,
      "Ġnever": 1177,
      "Ġke": 1178,
      "Ġcome": 1179,
      "irect": 1180,
      "pos": 1181,
      "Ġdif": 1182,
      "Ġbel": 1183,
      "ected": 1184,
      "Ġatt": 1185,
      "Ġmany": 1186,
      "ines": 1187,
      "Ġjust": 1188,
      "ee": 1189,
      "troll": 1190,
      "Ġyear": 1191,
      "Ġac": 1192,
      "elet": 1193,
      "Ġ/": 1194,
      "Con": 1195,
      "ating": 1196,
      "assertRaises": 1197,
      "ters": 1198,
      "####": 1199,
      "Ġcur": 1200,
      "Ġhere": 1201,
      "ms": 1202,
      "ãĥ¼": 1203,
      "Ġey": 1204,
      "vent": 1205,
      "Ġent": 1206,
      "Ġrec": 1207,
      "ments": 1208,
      "Ġthink": 1209,
      "Ġ->": 1210,
      "orn": 1211,
      "ĠFor": 1212,
      "ures": 1213,
      "ream": 1214,
      "alk": 1215,
      "Ġdefault": 1216,
      "ular": 1217,
      "Ġline": 1218,
      "Ġgl": 1219,
      "den": 1220,
      "ither": 1221,
      "Ġtoo": 1222,
      "Ref": 1223,
      "St": 1224,
      "sl": 1225,
      "Ġresult": 1226,
      "ari": 1227,
      "Ġlast": 1228,
      "hing": 1229,
      "íķ": 1230,
      "Ġchild": 1231,
      "Ġseem": 1232,
      "Test": 1233,
      "oint": 1234,
      "åĲ": 1235,
      "az": 1236,
      ",--": 1237,
      "ble": 1238,
      "Ġeach": 1239,
      "bsp": 1240,
      "Ġkey": 1241,
      "Ġdr": 1242,
      "Ġfound": 1243,
      "ape": 1244,
      "ier": 1245,
      "ages": 1246,
      "([": 1247,
      "und": 1248,
      "try": 1249,
      "Ġfile": 1250,
      "Ġreg": 1251,
      "`.": 1252,
      "ins": 1253,
      "ting": 1254,
      "Ġthou": 1255,
      "body": 1256,
      "ility": 1257,
      "ale": 1258,
      "amet": 1259,
      "Ġkub": 1260,
      "###": 1261,
      "inst": 1262,
      "And": 1263,
      "Ġpeople": 1264,
      "fil": 1265,
      "nbsp": 1266,
      "ĠĠĠĠĠĠĠĠĠĠĠĠĠĠĠĠĠĠĠĠĠĠĠ": 1267,
      "domxref": 1268,
      "col": 1269,
      "EN": 1270,
      "None": 1271,
      "uct": 1272,
      "Ġthy": 1273,
      "ph": 1274,
      "Ġact": 1275,
      "Ġdoc": 1276,
      "ectl": 1277,
      "mer": 1278,
      "Ġstart": 1279,
      "ank": 1280,
      "ices": 1281,
      "Ġstill": 1282,
      "arri": 1283,
      "Ex": 1284,
      "inter": 1285,
      "ished": 1286,
      "ox": 1287,
      "ative": 1288,
      "Ġ}": 1289,
      "Ġsom": 1290,
      "Ġlife": 1291,
      "clud": 1292,
      "api": 1293,
      "time": 1294,
      "zz": 1295,
      "ened": 1296,
      "apt": 1297,
      "fun": 1298,
      "aut": 1299,
      "20": 1300,
      "Ġwhile": 1301,
      "ĠShe": 1302,
      "çĶ¨": 1303,
      "press": 1304,
      "any": 1305,
      "Ġdata": 1306,
      "Ġthought": 1307,
      "ling": 1308,
      "imit": 1309,
      "Ġbeg": 1310,
      "onse": 1311,
      "als": 1312,
      "aster": 1313,
      "Ġgener": 1314,
      "load": 1315,
      "ined": 1316,
      "LE": 1317,
      "hy": 1318,
      "Ġtry": 1319,
      ".__": 1320,
      "-->": 1321,
      "olic": 1322,
      "ify": 1323,
      "imes": 1324,
      "riend": 1325,
      ">>": 1326,
      "Type": 1327,
      "sy": 1328,
      "ãģ®": 1329,
      "ĠWe": 1330,
      "Ġsupport": 1331,
      "True": 1332,
      "Ġyet": 1333,
      "empl": 1334,
      "Ġdoes": 1335,
      "Ġ**": 1336,
      "Ġneed": 1337,
      "è¯": 1338,
      "Ġx": 1339,
      "Ġ'\\": 1340,
      "_,": 1341,
      "fe": 1342,
      "It": 1343,
      "ways": 1344,
      "ek": 1345,
      "string": 1346,
      "met": 1347,
      "Ġtext": 1348,
      "ash": 1349,
      "work": 1350,
      "Ġmem": 1351,
      "aking": 1352,
      "land": 1353,
      "nc": 1354,
      "ĠAPI": 1355,
      "uster": 1356,
      "aid": 1357,
      "30": 1358,
      "ides": 1359,
      "ces": 1360,
      "ote": 1361,
      "00000000": 1362,
      "Ġarray": 1363,
      "list": 1364,
      "è¿": 1365,
      "data": 1366,
      "Ġ>>>": 1367,
      "fr": 1368,
      "ason": 1369,
      "Ġid": 1370,
      "åħ": 1371,
      "amp": 1372,
      "Ġright": 1373,
      "ĠĠĠĠĠĠĠĠĠ": 1374,
      "Ġraise": 1375,
      "Ġtake": 1376,
      "els": 1377,
      "here": 1378,
      "arr": 1379,
      "Ġstring": 1380,
      "ithub": 1381,
      "Ġchar": 1382,
      "Ġplace": 1383,
      "000": 1384,
      "troller": 1385,
      "github": 1386,
      "Ġ6": 1387,
      "Ġusing": 1388,
      "Ġcour": 1389,
      "spec": 1390,
      "Ġbecause": 1391,
      "ween": 1392,
      "ced": 1393,
      "ner": 1394,
      "ince": 1395,
      "eg": 1396,
      "side": 1397,
      "Ġwant": 1398,
      "Ġear": 1399,
      "Ġprov": 1400,
      "text": 1401,
      "Ġgu": 1402,
      "Cl": 1403,
      "`,": 1404,
      "Ġpropert": 1405,
      "Ġaway": 1406,
      "arch": 1407,
      "Ġdet": 1408,
      "ĠLE": 1409,
      "Ġserver": 1410,
      "Ġter": 1411,
      "ĠThey": 1412,
      "äº": 1413,
      "Ġnumber": 1414,
      "'ll": 1415,
      "Is": 1416,
      "Ġcoun": 1417,
      "my": 1418,
      "ploy": 1419,
      "Ġunto": 1420,
      "Ġexample": 1421,
      "most": 1422,
      "ĠÐ": 1423,
      "mb": 1424,
      "Ġgiv": 1425,
      "comp": 1426,
      "ained": 1427,
      "ĠGod": 1428,
      "Ġsim": 1429,
      "back": 1430,
      "ane": 1431,
      "create": 1432,
      "li": 1433,
      "Ġfind": 1434,
      ");": 1435,
      "-@": 1436,
      "Ġdist": 1437,
      "ently": 1438,
      "Ġ19": 1439,
      "Ġ@-@": 1440,
      "TH": 1441,
      "table": 1442,
      "option": 1443,
      "à§": 1444,
      "Ġdel": 1445,
      "Ġask": 1446,
      "Ġsty": 1447,
      "sub": 1448,
      "Ġmethod": 1449,
      "valid": 1450,
      "ãģĻ": 1451,
      "she": 1452,
      "Ġappe": 1453,
      "Ġfriend": 1454,
      "me": 1455,
      "Ġboth": 1456,
      "Ġhimself": 1457,
      "ross": 1458,
      "Ġext": 1459,
      "sel": 1460,
      "Ġwent": 1461,
      "Ġdiffer": 1462,
      "ID": 1463,
      "Ġcert": 1464,
      "But": 1465,
      "size": 1466,
      "uring": 1467,
      "aving": 1468,
      "Ġbreak": 1469,
      "Ġmin": 1470,
      "Ðµ": 1471,
      "Ġå": 1472,
      "Ġspe": 1473,
      "Ġelement": 1474,
      "ume": 1475,
      "ased": 1476,
      "='": 1477,
      "but": 1478,
      "no": 1479,
      "ples": 1480,
      "arge": 1481,
      "ED": 1482,
      "Ġthee": 1483,
      "ains": 1484,
      "TTER": 1485,
      "ĠTo": 1486,
      "IG": 1487,
      "lp": 1488,
      "ted": 1489,
      "import": 1490,
      "sw": 1491,
      "Ġcode": 1492,
      "ified": 1493,
      "==": 1494,
      "TM": 1495,
      "Ġworld": 1496,
      "Ġrequ": 1497,
      "view": 1498,
      "itle": 1499,
      "ĠLETTER": 1500,
      "aim": 1501,
      "ton": 1502,
      "Ġeyes": 1503,
      ";&": 1504,
      "iter": 1505,
      "Ġhouse": 1506,
      "stem": 1507,
      "objects": 1508,
      "ci": 1509,
      "hn": 1510,
      "Ġmind": 1511,
      "lose": 1512,
      "64": 1513,
      "rent": 1514,
      "Ġpers": 1515,
      "Ġ__": 1516,
      "Ġanother": 1517,
      "He": 1518,
      "oin": 1519,
      "Ġturn": 1520,
      "Ġcontin": 1521,
      "ived": 1522,
      "Ġbetween": 1523,
      "oman": 1524,
      "arent": 1525,
      "odule": 1526,
      "\"),": 1527,
      "Ġwar": 1528,
      "Ġbeh": 1529,
      "ven": 1530,
      "Ġdon": 1531,
      "ccess": 1532,
      "bu": 1533,
      "Ġcheck": 1534,
      "Ġexcept": 1535,
      "Reference": 1536,
      "Ġposs": 1537,
      "IC": 1538,
      "ãĢģ": 1539,
      "Ġcalled": 1540,
      "Ġfunction": 1541,
      "pec": 1542,
      "Ġsur": 1543,
      "Ġpod": 1544,
      "Ġalways": 1545,
      "Ġagainst": 1546,
      "ĠEx": 1547,
      "ength": 1548,
      "dis": 1549,
      "ases": 1550,
      "imal": 1551,
      "Ġheart": 1552,
      "thon": 1553,
      "Ġ10": 1554,
      "Ġos": 1555,
      "med": 1556,
      "Ġsign": 1557,
      "Ġyoung": 1558,
      "Ġgive": 1559,
      "run": 1560,
      "Ġbo": 1561,
      "Ġonce": 1562,
      "Ġcre": 1563,
      "Ġfar": 1564,
      "Ġ8": 1565,
      "Ġfin": 1566,
      "Ġnor": 1567,
      "ider": 1568,
      "Ġstate": 1569,
      "ubl": 1570,
      "Ġever": 1571,
      "olicy": 1572,
      "19": 1573,
      "You": 1574,
      "Ġnear": 1575,
      "empt": 1576,
      "ersion": 1577,
      "If": 1578,
      "equal": 1579,
      "Ġple": 1580,
      "(),": 1581,
      "Cont": 1582,
      "Ġæ": 1583,
      "Ġdirect": 1584,
      "Ġrep": 1585,
      "Ġtrue": 1586,
      "ey": 1587,
      "yp": 1588,
      "owed": 1589,
      "ĠCon": 1590,
      "ken": 1591,
      "thing": 1592,
      "Ġ>}}": 1593,
      "ities": 1594,
      "Ġput": 1595,
      "Ġnight": 1596,
      "uthor": 1597,
      "ĠAl": 1598,
      "Ġkind": 1599,
      "kubectl": 1600,
      "ustom": 1601,
      "Ġthree": 1602,
      "AN": 1603,
      "ĠTrue": 1604,
      "tes": 1605,
      "ĠAs": 1606,
      "oud": 1607,
      "Ġfil": 1608,
      "Ġlove": 1609,
      "Ġfail": 1610,
      "ache": 1611,
      "lob": 1612,
      "ized": 1613,
      "OM": 1614,
      "Ġlight": 1615,
      "aps": 1616,
      "Ġleft": 1617,
      "comm": 1618,
      "Ġface": 1619,
      "Ġvis": 1620,
      "ĠBr": 1621,
      "Ġtell": 1622,
      "Ġdone": 1623,
      "ĠAn": 1624,
      "Ġpoint": 1625,
      "Ġerror": 1626,
      "Ġsing": 1627,
      "Ġrest": 1628,
      "alueError": 1629,
      "call": 1630,
      "iet": 1631,
      "model": 1632,
      "ĠYou": 1633,
      "date": 1634,
      "è®": 1635,
      "Ġscript": 1636,
      "igin": 1637,
      "ĠThere": 1638,
      "ĠWhen": 1639,
      "Ġopen": 1640,
      "Ġfather": 1641,
      "Ġdtype": 1642,
      "adata": 1643,
      "Ġref": 1644,
      "html": 1645,
      "Ġdisc": 1646,
      "TTP": 1647,
      "Ġstyle": 1648,
      "Ġthough": 1649,
      "Ġinclud": 1650,
      "ãĤĴ": 1651,
      "bar": 1652,
      "ched": 1653,
      "ru": 1654,
      "---": 1655,
      "Ġuser": 1656,
      "pre": 1657,
      "ten": 1658,
      "essage": 1659,
      "place": 1660,
      "\"]": 1661,
      "Version": 1662,
      "ser": 1663,
      "Ġi": 1664,
      "Ġsk": 1665,
      "Ġfam": 1666,
      "Ġorder": 1667,
      "ended": 1668,
      "False": 1669,
      "Ġconn": 1670,
      "Ġuntil": 1671,
      "This": 1672,
      "css": 1673,
      "was": 1674,
      "Ã©": 1675,
      "ĠâĢ": 1676,
      "Ġcle": 1677,
      "ute": 1678,
      "Ġeff": 1679,
      "ĭ¤": 1680,
      "Ġcase": 1681,
      "Ġpath": 1682,
      "Ġthings": 1683,
      "Ġenc": 1684,
      "Ġvalues": 1685,
      "part": 1686,
      "ually": 1687,
      "Ġprot": 1688,
      "Ġz": 1689,
      "item": 1690,
      "ĠThat": 1691,
      "bl": 1692,
      "Ġ7": 1693,
      "Ġco": 1694,
      "ives": 1695,
      "serv": 1696,
      "log": 1697,
      "Ġcor": 1698,
      "Ġhapp": 1699,
      "iron": 1700,
      "ocal": 1701,
      "ants": 1702,
      "akes": 1703,
      "ocket": 1704,
      "Ġyears": 1705,
      "check": 1706,
      "Ġav": 1707,
      "info": 1708,
      "ited": 1709,
      "ception": 1710,
      "Ġnothing": 1711,
      "span": 1712,
      "bed": 1713,
      "Ġstand": 1714,
      "iness": 1715,
      "Ġocc": 1716,
      "let": 1717,
      "25": 1718,
      "34": 1719,
      "head": 1720,
      "Ġnext": 1721,
      "ager": 1722,
      "Ġsaw": 1723,
      "Ġà¦": 1724,
      "ĠWh": 1725,
      "alf": 1726,
      "Ġart": 1727,
      "ĠJo": 1728,
      "Ġevent": 1729,
      "ãĥ¼ãĥ": 1730,
      "miss": 1731,
      "ä¸ª": 1732,
      "{{<": 1733,
      "32": 1734,
      "ements": 1735,
      "Ġfollowing": 1736,
      "EL": 1737,
      "rem": 1738,
      "----------------": 1739,
      "Ġpresent": 1740,
      "Ġsent": 1741,
      "Ġserv": 1742,
      "stand": 1743,
      "aces": 1744,
      "riv": 1745,
      "ured": 1746,
      "div": 1747,
      "Ġmet": 1748,
      "Ġmod": 1749,
      "lect": 1750,
      "tern": 1751,
      "opy": 1752,
      "plement": 1753,
      "ptions": 1754,
      "ä¸Ģ": 1755,
      "rist": 1756,
      "Ġwhom": 1757,
      "ĠFalse": 1758,
      ".,": 1759,
      "To": 1760,
      "iver": 1761,
      "Ġwind": 1762,
      "tribute": 1763,
      "Ġcontr": 1764,
      "Ġ18": 1765,
      "uck": 1766,
      "abel": 1767,
      "pace": 1768,
      "ense": 1769,
      "Ġfew": 1770,
      "Ġgre": 1771,
      "ĠWhat": 1772,
      "Ġhigh": 1773,
      "ĠHow": 1774,
      "wrap": 1775,
      "gener": 1776,
      "Ð¾": 1777,
      ".</": 1778,
      "Ġaff": 1779,
      "ĠAt": 1780,
      "Ġexc": 1781,
      "ething": 1782,
      "Ġmo": 1783,
      "Ġ``": 1784,
      "Ġsw": 1785,
      "elt": 1786,
      "context": 1787,
      "dd": 1788,
      "Ġmer": 1789,
      "Ġhum": 1790,
      "Ġconfig": 1791,
      "atic": 1792,
      "attr": 1793,
      "ird": 1794,
      "order": 1795,
      "Ġcannot": 1796,
      "plication": 1797,
      "names": 1798,
      "oot": 1799,
      "Ġport": 1800,
      "Ġrefer": 1801,
      "Ġtrans": 1802,
      "selves": 1803,
      ".'": 1804,
      "We": 1805,
      "de": 1806,
      "åĬ": 1807,
      "Ġreturned": 1808,
      "Ġselect": 1809,
      "Ġpur": 1810,
      "Ġ[`": 1811,
      "Ġseen": 1812,
      "gether": 1813,
      "Ġcond": 1814,
      "plied": 1815,
      "ulti": 1816,
      "cription": 1817,
      "Ġdocument": 1818,
      "row": 1819,
      "title": 1820,
      "oub": 1821,
      "ided": 1822,
      "ĠAr": 1823,
      "Ġsmall": 1824,
      "CE": 1825,
      "Ġmodel": 1826,
      "ĠPar": 1827,
      "Ġkeep": 1828,
      "emplate": 1829,
      "Not": 1830,
      "Script": 1831,
      "day": 1832,
      "tbody": 1833,
      "ç»": 1834,
      "HE": 1835,
      "np": 1836,
      "ources": 1837,
      "aken": 1838,
      "Ġdev": 1839,
      "xy": 1840,
      "ÑĤ": 1841,
      "Ġ9": 1842,
      "Ġte": 1843,
      "Ġtri": 1844,
      "Ġaw": 1845,
      "Ġser": 1846,
      "ĠĠĠĠĠĠĠĠĠĠ": 1847,
      "Ġfell": 1848,
      "__(": 1849,
      "At": 1850,
      "cle": 1851,
      "ls": 1852,
      "script": 1853,
      "init": 1854,
      "Ġside": 1855,
      "Ġmon": 1856,
      "Ġthing": 1857,
      "cur": 1858,
      "orage": 1859,
      "AA": 1860,
      "Pod": 1861,
      "[\"": 1862,
      "ler": 1863,
      "ister": 1864,
      "ready": 1865,
      "Ġamong": 1866,
      "ibility": 1867,
      "Ġbetter": 1868,
      "åľ": 1869,
      "Ġinform": 1870,
      "ady": 1871,
      "Ġwhole": 1872,
      "ns": 1873,
      "Ġsil": 1874,
      "Ġgot": 1875,
      "AB": 1876,
      "ĠQ": 1877,
      "Ġcreate": 1878,
      "Ġhelp": 1879,
      "oly": 1880,
      "ä¸º": 1881,
      "TML": 1882,
      "height": 1883,
      "uration": 1884,
      "15": 1885,
      "ma": 1886,
      "ats": 1887,
      "atus": 1888,
      "Ġview": 1889,
      "ĠEng": 1890,
      "Ġdifferent": 1891,
      "Name": 1892,
      "off": 1893,
      "point": 1894,
      "Ġpower": 1895,
      "Ġtook": 1896,
      "true": 1897,
      "Ġ12": 1898,
      "used": 1899,
      "owser": 1900,
      "Re": 1901,
      "Ġexist": 1902,
      "/)": 1903,
      "ger": 1904,
      "reg": 1905,
      "ĠThen": 1906,
      "%;": 1907,
      "Field": 1908,
      "Ġless": 1909,
      "amb": 1910,
      "wards": 1911,
      "ET": 1912,
      "aff": 1913,
      "Ġet": 1914,
      "amples": 1915,
      "ceed": 1916,
      "Ġye": 1917,
      "Ġhard": 1918,
      "Ġnames": 1919,
      "Ġcertain": 1920,
      "like": 1921,
      "Ġbest": 1922,
      "start": 1923,
      "Ġland": 1924,
      "Ġansw": 1925,
      "unt": 1926,
      "ĠNo": 1927,
      "Ġwords": 1928,
      "Ġcharac": 1929,
      "uc": 1930,
      "Ġaut": 1931,
      "Ġbody": 1932,
      "Ġfull": 1933,
      "play": 1934,
      "content": 1935,
      "default": 1936,
      "TE": 1937,
      "Ġcare": 1938,
      "Ġht": 1939,
      "ending": 1940,
      "Ġking": 1941,
      "Ġproperty": 1942,
      "Ġsat": 1943,
      "ately": 1944,
      "Ġwater": 1945,
      "ably": 1946,
      "ush": 1947,
      "****": 1948,
      "Ġcommand": 1949,
      "which": 1950,
      "ployment": 1951,
      "æĪ": 1952,
      "Ġax": 1953,
      "ann": 1954,
      "ãĥ³": 1955,
      "ä¸Ń": 1956,
      "Ġhour": 1957,
      "amed": 1958,
      "ĠSee": 1959,
      "Ġsecond": 1960,
      "bject": 1961,
      "oice": 1962,
      "uid": 1963,
      "you": 1964,
      "Ġoper": 1965,
      "Ġsure": 1966,
      "Ġexpress": 1967,
      "Ġcurrent": 1968,
      "`](/": 1969,
      "men": 1970,
      "Ġsize": 1971,
      "ams": 1972,
      "resp": 1973,
      "è¡": 1974,
      "requ": 1975,
      "aml": 1976,
      "ainer": 1977,
      "ops": 1978,
      "ameters": 1979,
      "Ġgiven": 1980,
      "md": 1981,
      "tp": 1982,
      "idth": 1983,
      "refore": 1984,
      "foo": 1985,
      "AD": 1986,
      "uple": 1987,
      "16": 1988,
      "sec": 1989,
      "Ġes": 1990,
      "Ġconf": 1991,
      "Ġobjects": 1992,
      "Ð¸": 1993,
      "Ġinc": 1994,
      "dev": 1995,
      "pk": 1996,
      "web": 1997,
      "ics": 1998,
      "los": 1999,
      "åº": 2000,
      "Ġbook": 2001,
      "Ġplay": 2002,
      "tle": 2003,
      "ëĭ¤": 2004,
      "Ġversion": 2005,
      "Ġwithin": 2006,
      "assertIs": 2007,
      "pport": 2008,
      "IL": 2009,
      "ached": 2010,
      "Ġposition": 2011,
      "ìĿ´": 2012,
      "Ġcourse": 2013,
      "dict": 2014,
      "rc": 2015,
      "viron": 2016,
      "Ġsince": 2017,
      "ĠĠĠĠĠĠĠĠĠĠĠĠĠ": 2018,
      "olume": 2019,
      "ĠPy": 2020,
      "Ġchildren": 2021,
      "AM": 2022,
      "ged": 2023,
      "kn": 2024,
      "max": 2025,
      "Ġbro": 2026,
      "ution": 2027,
      "urity": 2028,
      "ãģ¾": 2029,
      "client": 2030,
      "metadata": 2031,
      "hand": 2032,
      "ets": 2033,
      "Ġrece": 2034,
      "Ġ```": 2035,
      "ãģ«": 2036,
      "count": 2037,
      "Ġyang": 2038,
      "ALL": 2039,
      "ief": 2040,
      "pod": 2041,
      "18": 2042,
      "Ġfact": 2043,
      "ĠJohn": 2044,
      "Res": 2045,
      "ior": 2046,
      "hel": 2047,
      "ĠSir": 2048,
      "resource": 2049,
      "ires": 2050,
      "Ġservice": 2051,
      "Ġvari": 2052,
      "Ġed": 2053,
      "Ġred": 2054,
      "ĠSh": 2055,
      "Ġobj": 2056,
      "Ġknown": 2057,
      "Ġlooked": 2058,
      "org": 2059,
      "Ġmor": 2060,
      "Ġgoing": 2061,
      "Ġcontent": 2062,
      "ances": 2063,
      "ATIN": 2064,
      "func": 2065,
      "px": 2066,
      "Ð°": 2067,
      "Ġsou": 2068,
      "Ġadv": 2069,
      "Ġasked": 2070,
      "kw": 2071,
      "ĠTest": 2072,
      "ĠLATIN": 2073,
      "Ġchang": 2074,
      "Ġpassed": 2075,
      "join": 2076,
      "num": 2077,
      "ĠčĊ": 2078,
      "annot": 2079,
      "Ġhold": 2080,
      "Ġtold": 2081,
      "uk": 2082,
      "å¤": 2083,
      "Ġdi": 2084,
      "Ġsomething": 2085,
      "For": 2086,
      "Ġê": 2087,
      "olog": 2088,
      "Ġmean": 2089,
      "Ġlead": 2090,
      "eed": 2091,
      "Ġfour": 2092,
      "Ġmom": 2093,
      "Ġheard": 2094,
      "abc": 2095,
      "Ġsoon": 2096,
      "Ġwhose": 2097,
      "box": 2098,
      "err": 2099,
      "Ġcar": 2100,
      "owing": 2101,
      "config": 2102,
      "():": 2103,
      "ename": 2104,
      "Ġcent": 2105,
      "Ġheav": 2106,
      "thead": 2107,
      "Ġprocess": 2108,
      "group": 2109,
      "filter": 2110,
      "å°": 2111,
      "Ġlarge": 2112,
      "Ġ([": 2113,
      "ING": 2114,
      "åı¯": 2115,
      "List": 2116,
      "has": 2117,
      "âł": 2118,
      "åĻ": 2119,
      "Ġsn": 2120,
      "alth": 2121,
      "Ġ(\"": 2122,
      "arget": 2123,
      "åĻ¨": 2124,
      "14": 2125,
      "AC": 2126,
      "Ġgir": 2127,
      "Ġcomple": 2128,
      "Ġfeel": 2129,
      "cepts": 2130,
      "yaml": 2131,
      "Ġhome": 2132,
      "ĠCl": 2133,
      "ãĤĭ": 2134,
      "Ġresponse": 2135,
      "Ch": 2136,
      "oke": 2137,
      "Ġprom": 2138,
      "Ġrather": 2139,
      "Ġcluster": 2140,
      "ĠUn": 2141,
      "augh": 2142,
      "No": 2143,
      "ially": 2144,
      "ä¹": 2145,
      "atform": 2146,
      "ene": 2147,
      "Ġinv": 2148,
      "ech": 2149,
      "ĠCom": 2150,
      "ava": 2151,
      "åľ¨": 2152,
      "Th": 2153,
      "dat": 2154,
      "Ġwait": 2155,
      "Ġmark": 2156,
      "aced": 2157,
      "ĠOn": 2158,
      "qs": 2159,
      "éĢ": 2160,
      "Ġnon": 2161,
      "Ġlive": 2162,
      "ember": 2163,
      "Ġ130": 2164,
      "ieve": 2165,
      "Ġcountry": 2166,
      "æĺ": 2167,
      "Ġhalf": 2168,
      "Ġpubl": 2169,
      "Ġbeaut": 2170,
      "umn": 2171,
      "angu": 2172,
      "ffer": 2173,
      "shell": 2174,
      "len": 2175,
      "Ġwoman": 2176,
      "Ġhear": 2177,
      "vious": 2178,
      "efault": 2179,
      "example": 2180,
      "ra": 2181,
      "ism": 2182,
      "Ġste": 2183,
      "ĠChrist": 2184,
      "lish": 2185,
      "iled": 2186,
      "idden": 2187,
      "formance": 2188,
      "Ġhands": 2189,
      "Ġformat": 2190,
      "instance": 2191,
      "::": 2192,
      "ley": 2193,
      "state": 2194,
      "fully": 2195,
      "fox": 2196,
      "ences": 2197,
      "II": 2198,
      "haps": 2199,
      "rel": 2200,
      "Ġmother": 2201,
      "ung": 2202,
      "Ġcolspan": 2203,
      "ä»¥": 2204,
      "OU": 2205,
      "sign": 2206,
      "Ġhon": 2207,
      "ention": 2208,
      "ott": 2209,
      "Ġsever": 2210,
      "Ġmeans": 2211,
      "struct": 2212,
      "Ġsys": 2213,
      "âĢĻ": 2214,
      "Ġappro": 2215,
      "sk": 2216,
      "Ð½": 2217,
      "æĸ": 2218,
      "ised": 2219,
      "Ġmatter": 2220,
      "alt": 2221,
      "ĠMy": 2222,
      "ĠMrs": 2223,
      "ä½¿": 2224,
      "db": 2225,
      "module": 2226,
      "},": 2227,
      "Ø§": 2228,
      "Ġduring": 2229,
      "Ġnum": 2230,
      "irefox": 2231,
      "11": 2232,
      "des": 2233,
      "Ġnode": 2234,
      "())": 2235,
      "04": 2236,
      "ience": 2237,
      "orth": 2238,
      "Ġeither": 2239,
      "ols": 2240,
      "Ġround": 2241,
      "ĠHis": 2242,
      "ãģĹ": 2243,
      "reference": 2244,
      "å®ļ": 2245,
      "Ġmatch": 2246,
      "Ġhor": 2247,
      "Ġhaving": 2248,
      "que": 2249,
      "ux": 2250,
      "Ġfall": 2251,
      "Ġenough": 2252,
      "ignore": 2253,
      "kube": 2254,
      "Ġquite": 2255,
      "Ġcreated": 2256,
      "dec": 2257,
      "Ġwhether": 2258,
      "process": 2259,
      "Ġcount": 2260,
      "etime": 2261,
      "ĠRe": 2262,
      "Ġbuild": 2263,
      "Ġbegan": 2264,
      "((": 2265,
      "Ġest": 2266,
      "irt": 2267,
      "itted": 2268,
      "Ġexpected": 2269,
      "Ġdays": 2270,
      "Object": 2271,
      "Tr": 2272,
      "Ġut": 2273,
      "Ġtyp": 2274,
      "Ġboy": 2275,
      "Ġshort": 2276,
      "ĠWith": 2277,
      "ailable": 2278,
      "aught": 2279,
      "03": 2280,
      "pose": 2281,
      "Ġí": 2282,
      "atures": 2283,
      "Ġnec": 2284,
      "ists": 2285,
      "loat": 2286,
      "loop": 2287,
      "Ġleast": 2288,
      "append": 2289,
      "Ġsystem": 2290,
      "CSS": 2291,
      "That": 2292,
      "urch": 2293,
      "irit": 2294,
      "resent": 2295,
      "ĠMiss": 2296,
      "Ġoutput": 2297,
      "son": 2298,
      "ync": 2299,
      "oding": 2300,
      "ags": 2301,
      "dtype": 2302,
      "ium": 2303,
      "ĠFr": 2304,
      "ground": 2305,
      "24": 2306,
      "Model": 2307,
      "Ġson": 2308,
      "lement": 2309,
      "Ġlaw": 2310,
      "user": 2311,
      "Ġ200": 2312,
      "Ġabove": 2313,
      "Ġcommon": 2314,
      "co": 2315,
      "Ġthemselves": 2316,
      "Ġseemed": 2317,
      "Ġsingle": 2318,
      "CH": 2319,
      "ĠIP": 2320,
      "Ġalong": 2321,
      "ĠHer": 2322,
      "Ġdep": 2323,
      "Ġinterest": 2324,
      "Ġver": 2325,
      "Ġsir": 2326,
      "Ġswe": 2327,
      "arning": 2328,
      "Ġthread": 2329,
      "ĠSo": 2330,
      "iving": 2331,
      "const": 2332,
      "Ġdeath": 2333,
      "æľī": 2334,
      "Ġmoment": 2335,
      "åŃ": 2336,
      "Ġche": 2337,
      "ips": 2338,
      ";\"": 2339,
      "IT": 2340,
      "Ġwalk": 2341,
      "ites": 2342,
      "Ġdark": 2343,
      "Ġprodu": 2344,
      "17": 2345,
      "Gr": 2346,
      "PU": 2347,
      "bit": 2348,
      "ansp": 2349,
      "Ġtogether": 2350,
      "aged": 2351,
      "vironment": 2352,
      ")),": 2353,
      "¡ľ": 2354,
      "¦Ĥ": 2355,
      "atur": 2356,
      "Ġlimit": 2357,
      "Ġrele": 2358,
      "ĠAll": 2359,
      "Ġalready": 2360,
      "onder": 2361,
      "Ġappear": 2362,
      "/#": 2363,
      "lib": 2364,
      "ada": 2365,
      "Ġreason": 2366,
      "Ġwhite": 2367,
      "Ġaccess": 2368,
      "ww": 2369,
      "ĠX": 2370,
      "Ġcapt": 2371,
      "etwork": 2372,
      "url": 2373,
      "Ġsuper": 2374,
      "Ġ20": 2375,
      "Ġroom": 2376,
      "Ġpoor": 2377,
      "Ġaxis": 2378,
      "'m": 2379,
      "MALL": 2380,
      "pack": 2381,
      "ision": 2382,
      "ots": 2383,
      "Ġclient": 2384,
      "elector": 2385,
      "Ġcontainer": 2386,
      "Ġinformation": 2387,
      "ãģ¾ãģĻ": 2388,
      "'re": 2389,
      "ES": 2390,
      "had": 2391,
      "mark": 2392,
      "pped": 2393,
      "Ġresource": 2394,
      "Ġquest": 2395,
      "When": 2396,
      "lin": 2397,
      "Ġsun": 2398,
      "Ġbad": 2399,
      "entle": 2400,
      "ils": 2401,
      "quence": 2402,
      "ç½": 2403,
      "Ġtre": 2404,
      "Ġfire": 2405,
      "Ġpop": 2406,
      "ury": 2407,
      "ngress": 2408,
      "13": 2409,
      "TAL": 2410,
      "Ġlay": 2411,
      "Ġalmost": 2412,
      "There": 2413,
      "ude": 2414,
      "Ġothers": 2415,
      "prot": 2416,
      "input": 2417,
      "af": 2418,
      "mon": 2419,
      "ÑĢ": 2420,
      "Ġ//": 2421,
      "Ġtalk": 2422,
      "itor": 2423,
      "emp": 2424,
      "ĠSMALL": 2425,
      "ĠHTTP": 2426,
      "concepts": 2427,
      "ãĤ¹": 2428,
      "ORD": 2429,
      "cd": 2430,
      "ration": 2431,
      "ìĹ": 2432,
      "Ġwatch": 2433,
      "Ġhost": 2434,
      "tra": 2435,
      "ĠRes": 2436,
      "ï¼ļ": 2437,
      "ÛĮ": 2438,
      "lex": 2439,
      "iles": 2440,
      "Ġeas": 2441,
      "aining": 2442,
      "Ġstream": 2443,
      "ocol": 2444,
      "ãģ¯": 2445,
      "lood": 2446,
      "oney": 2447,
      "Ġabs": 2448,
      "undred": 2449,
      "meric": 2450,
      "avaScript": 2451,
      "99": 2452,
      "RO": 2453,
      "bug": 2454,
      "face": 2455,
      "label": 2456,
      "Ġoften": 2457,
      "Ġconst": 2458,
      "Ġelements": 2459,
      "format": 2460,
      "Ġinstance": 2461,
      "IA": 2462,
      "ä¼": 2463,
      "ë¥": 2464,
      "Ġsum": 2465,
      "iting": 2466,
      "Ġdiv": 2467,
      "Ġpage": 2468,
      "Ġgave": 2469,
      "Ġshard": 2470,
      "ĠPro": 2471,
      "ĠNew": 2472,
      "Ġhowever": 2473,
      "ND": 2474,
      "Set": 2475,
      "ëĬ": 2476,
      "ouble": 2477,
      "Ġins": 2478,
      "resh": 2479,
      "exp": 2480,
      "aves": 2481,
      "ination": 2482,
      "river": 2483,
      "Ġshow": 2484,
      "Ġchange": 2485,
      "velop": 2486,
      "Ġspeak": 2487,
      "ä½¿çĶ¨": 2488,
      "bers": 2489,
      "å¼": 2490,
      "ķãĤ": 2491,
      "Ġoption": 2492,
      "write": 2493,
      "Ġpossible": 2494,
      "As": 2495,
      "IS": 2496,
      "ValueError": 2497,
      "da": 2498,
      "ks": 2499,
      "oid": 2500,
      "å¯": 2501,
      "Ġdro": 2502,
      "Ġur": 2503,
      "though": 2504,
      "æī": 2505,
      "Ġhref": 2506,
      "Ġthus": 2507,
      "Ġreal": 2508,
      "open": 2509,
      "Ġknew": 2510,
      "Ġblock": 2511,
      "\">--": 2512,
      "arried": 2513,
      "mission": 2514,
      "201": 2515,
      "On": 2516,
      "new": 2517,
      "Ġsort": 2518,
      "request": 2519,
      "TypeError": 2520,
      "Ġcontinue": 2521,
      "33": 2522,
      "RL": 2523,
      "can": 2524,
      "ians": 2525,
      "ively": 2526,
      "Ġdevelop": 2527,
      "oubt": 2528,
      "Ġlib": 2529,
      "Ġfields": 2530,
      "Ġhttps": 2531,
      "ëĬĶ": 2532,
      "55": 2533,
      "Pro": 2534,
      "found": 2535,
      "Ġrange": 2536,
      "Node": 2537,
      "What": 2538,
      "node": 2539,
      "Ġsend": 2540,
      "Ġca": 2541,
      "Ġinput": 2542,
      "eturn": 2543,
      "ĠĠĠĠĠĠĠĠĠĠĠĠĠĠĠĠĠĠĠĠĠĠĠĠĠĠĠ": 2544,
      "plit": 2545,
      "action": 2546,
      "Ġconsider": 2547,
      "book": 2548,
      "ches": 2549,
      "æķ": 2550,
      "ilar": 2551,
      "Ġitem": 2552,
      "ried": 2553,
      "Ġsud": 2554,
      "Ġstrong": 2555,
      "Ġpret": 2556,
      "DE": 2557,
      "che": 2558,
      "Ġtimes": 2559,
      "Ġfore": 2560,
      "Ġmask": 2561,
      "ilt": 2562,
      "Ġstre": 2563,
      "Ġorigin": 2564,
      "lobal": 2565,
      "close": 2566,
      "go": 2567,
      "host": 2568,
      "Ġsix": 2569,
      "ident": 2570,
      "ables": 2571,
      "ãģ§": 2572,
      "inks": 2573,
      "gy": 2574,
      "ius": 2575,
      "ole": 2576,
      "ving": 2577,
      "index": 2578,
      "overed": 2579,
      "python": 2580,
      "Ġvalid": 2581,
      "Ġcharacter": 2582,
      "\\\\": 2583,
      "hs": 2584,
      "Ġbus": 2585,
      "Ġfear": 2586,
      "Ġdict": 2587,
      "Ġpartic": 2588,
      "ultiple": 2589,
      "56": 2590,
      "kind": 2591,
      "ĠWill": 2592,
      "Ġperson": 2593,
      "Ð¾Ð": 2594,
      "him": 2595,
      "Ġlength": 2596,
      "urs": 2597,
      "ules": 2598,
      "unity": 2599,
      "ĠCAPI": 2600,
      "Ġdeep": 2601,
      "Ġimage": 2602,
      "Ġprint": 2603,
      "ship": 2604,
      "Ġfeature": 2605,
      "ameter": 2606,
      "Ġeffect": 2607,
      "anguage": 2608,
      "IP": 2609,
      "Un": 2610,
      "wise": 2611,
      "Ġtaken": 2612,
      "elop": 2613,
      "asure": 2614,
      "ĠIs": 2615,
      "\");": 2616,
      "ĠOne": 2617,
      "ĠJob": 2618,
      "Ġadded": 2619,
      "zzzz": 2620,
      "ĠCAPITAL": 2621,
      "Of": 2622,
      "aj": 2623,
      "ĥ½": 2624,
      "ĠTHE": 2625,
      "illed": 2626,
      "rior": 2627,
      "She": 2628,
      "æĢ": 2629,
      "Ġhath": 2630,
      "Ġtop": 2631,
      "iff": 2632,
      "Ġexpl": 2633,
      "ĠPr": 2634,
      "ĠNot": 2635,
      "Ġload": 2636,
      "Ġaddress": 2637,
      "Class": 2638,
      "à§ĩ": 2639,
      "Ġseveral": 2640,
      "En": 2641,
      "etimes": 2642,
      "anger": 2643,
      "obj": 2644,
      "Ġfeet": 2645,
      "'ve": 2646,
      "ison": 2647,
      "istent": 2648,
      "ĠOF": 2649,
      "ron": 2650,
      "è¦": 2651,
      "Ġair": 2652,
      "ĠType": 2653,
      "tered": 2654,
      "this": 2655,
      "Ġadm": 2656,
      "attern": 2657,
      "Ġrequests": 2658,
      "ĠĠĠĠĠĠĠĠĠĠĠĠĠĠĠĠĠĠĠĠĠĠĠĠĠĠĠĠĠ": 2659,
      "íķľ": 2660,
      "function": 2661,
      "down": 2662,
      "fort": 2663,
      "jang": 2664,
      "ically": 2665,
      "Ġitself": 2666,
      "Ġdoor": 2667,
      "*.": 2668,
      "¬ì": 2669,
      "Ġpap": 2670,
      "leep": 2671,
      "ament": 2672,
      "--\"": 2673,
      "ails": 2674,
      "ä¸Ģä¸ª": 2675,
      "æĺ¯": 2676,
      "23": 2677,
      "Event": 2678,
      "ION": 2679,
      "inc": 2680,
      "Ġlow": 2681,
      "Ġequal": 2682,
      "uments": 2683,
      "ãģ¦": 2684,
      "ards": 2685,
      "output": 2686,
      "ĠOr": 2687,
      "Ġcontext": 2688,
      "Policy": 2689,
      "bo": 2690,
      "Ġhundred": 2691,
      "Ġpref": 2692,
      "illa": 2693,
      "ĠBy": 2694,
      "ãĤ¤": 2695,
      "Ġfamily": 2696,
      "Ġconnection": 2697,
      "cert": 2698,
      "Ġtill": 2699,
      "rec": 2700,
      "rew": 2701,
      "Ġmount": 2702,
      "Ġdat": 2703,
      "Ġgentle": 2704,
      "acy": 2705,
      "ĠService": 2706,
      "cssxref": 2707,
      "ç½®": 2708,
      "ë¥¼": 2709,
      "ĠZ": 2710,
      "outh": 2711,
      "Ġdem": 2712,
      "iful": 2713,
      "ĠAmeric": 2714,
      "Ġimplement": 2715,
      "Ġbrought": 2716,
      "Ġblack": 2717,
      "ency": 2718,
      "Ġclear": 2719,
      "Ġavailable": 2720,
      "Ġnecess": 2721,
      "50": 2722,
      "Im": 2723,
      "UL": 2724,
      "well": 2725,
      "inary": 2726,
      "econ": 2727,
      "ntax": 2728,
      "oss": 2729,
      "jango": 2730,
      "By": 2731,
      "fect": 2732,
      "have": 2733,
      "Ġill": 2734,
      "Ġcap": 2735,
      "ittest": 2736,
      "Ġargument": 2737,
      "Controller": 2738,
      "/>": 2739,
      "200": 2740,
      "cr": 2741,
      "dep": 2742,
      "sa": 2743,
      "Ġund": 2744,
      "efore": 2745,
      "Ġ16": 2746,
      "Ġsuff": 2747,
      "ney": 2748,
      "ze": 2749,
      "std": 2750,
      "Ġloc": 2751,
      "iment": 2752,
      "claim": 2753,
      "Ġrunning": 2754,
      "HTML": 2755,
      "Yes": 2756,
      "do": 2757,
      "false": 2758,
      "Ġwish": 2759,
      "Ġpy": 2760,
      "Ġstud": 2761,
      "Ġvoice": 2762,
      "parse": 2763,
      "íķĺ": 2764,
      "Ġdeter": 2765,
      "=[": 2766,
      "Ar": 2767,
      "All": 2768,
      "bs": 2769,
      "ped": 2770,
      "pass": 2771,
      "å¦Ĥ": 2772,
      "æĮ": 2773,
      "Ġfelt": 2774,
      "Ġdoubt": 2775,
      "ster": 2776,
      "Ġeng": 2777,
      "event": 2778,
      "Ġdecl": 2779,
      "è¡Į": 2780,
      "ĴĮ": 2781,
      "itions": 2782,
      "Ġcir": 2783,
      "Ġgroup": 2784,
      "Ġearth": 2785,
      "uff": 2786,
      "æİ": 2787,
      "Ġwife": 2788,
      "Ġpi": 2789,
      "Ġexec": 2790,
      "Ġsuccess": 2791,
      "Ġmyself": 2792,
      "ensions": 2793,
      "ixed": 2794,
      "äºİ": 2795,
      "è¦ģ": 2796,
      "21": 2797,
      "Per": 2798,
      "Time": 2799,
      "ued": 2800,
      "Ġfair": 2801,
      "idd": 2802,
      "ender": 2803,
      "Ġlearn": 2804,
      "Ġaround": 2805,
      "Ġident": 2806,
      "skip": 2807,
      "Ġclose": 2808,
      "Ġbar": 2809,
      "ĠĠĠĠĠĠĠĠĠĠĠĠĠĠĠĠĠ": 2810,
      "ends": 2811,
      "they": 2812,
      "Ġque": 2813,
      "Ġ-->": 2814,
      "ts": 2815,
      "ħį": 2816,
      "Ġsch": 2817,
      "Ġmar": 2818,
      "Ġmus": 2819,
      "Ġmessage": 2820,
      "Ġgone": 2821,
      "express": 2822,
      "Ġ{\"": 2823,
      "Ġdead": 2824,
      "ĠGr": 2825,
      "Ġable": 2826,
      "hedul": 2827,
      "support": 2828,
      "Ġdraw": 2829,
      "Ġhuman": 2830,
      "uit": 2831,
      "æŃ": 2832,
      "Ġsol": 2833,
      "Ġbug": 2834,
      "query": 2835,
      "agr": 2836,
      "ession": 2837,
      "look": 2838,
      "Ġallow": 2839,
      "their": 2840,
      "Ġdescri": 2841,
      "Ġbecome": 2842,
      "TER": 2843,
      "Ġ!": 2844,
      "Ġtable": 2845,
      "()\")}}": 2846,
      "tributes": 2847,
      "ql": 2848,
      "æĹ": 2849,
      "éħį": 2850,
      "ingly": 2851,
      "enty": 2852,
      "Ġlater": 2853,
      "ĠInd": 2854,
      "ĠThese": 2855,
      "ĠBe": 2856,
      "ization": 2857,
      "shape": 2858,
      "Ġbecame": 2859,
      "airs": 2860,
      "ITH": 2861,
      "ai": 2862,
      "ivers": 2863,
      "ĠçļĦ": 2864,
      "Ġhope": 2865,
      "abled": 2866,
      "aph": 2867,
      "ä¸į": 2868,
      "Ġbrother": 2869,
      "åĪ¶": 2870,
      "color": 2871,
      "Ġturned": 2872,
      "known": 2873,
      "Ġsudden": 2874,
      "80": 2875,
      "Gu": 2876,
      "iev": 2877,
      "Ĭ¤": 2878,
      "Ġtherefore": 2879,
      "Ġcity": 2880,
      "Ġpol": 2881,
      "Ġparent": 2882,
      "ĠCSS": 2883,
      "Ġmeet": 2884,
      "Ġ...": 2885,
      "Ġlog": 2886,
      "Ġimp": 2887,
      "Ġindic": 2888,
      "Ġspecific": 2889,
      "ormal": 2890,
      "pip": 2891,
      "})": 2892,
      "Ñģ": 2893,
      "Ġide": 2894,
      "Ġlen": 2895,
      "oles": 2896,
      "thread": 2897,
      "Ġstood": 2898,
      "ĠCont": 2899,
      "Ġshape": 2900,
      "Ġspecified": 2901,
      "Ġsubject": 2902,
      "replace": 2903,
      "Ġfur": 2904,
      "Ġanim": 2905,
      "Ġstop": 2906,
      "ousand": 2907,
      "strict": 2908,
      "Ġprevious": 2909,
      "select": 2910,
      "service": 2911,
      "ä¾": 2912,
      "Ġmis": 2913,
      "Ġmoney": 2914,
      "Ġinf": 2915,
      "ĠIngress": 2916,
      "pty": 2917,
      "Ġexper": 2918,
      "osed": 2919,
      "itten": 2920,
      "Ġsays": 2921,
      "Ġbelow": 2922,
      "Ġgirl": 2923,
      "AS": 2924,
      "la": 2925,
      "light": 2926,
      "nment": 2927,
      "tim": 2928,
      "only": 2929,
      "Ġwild": 2930,
      "Ġalone": 2931,
      "Ġground": 2932,
      "...": 2933,
      "\".": 2934,
      "UT": 2935,
      "kan": 2936,
      "sg": 2937,
      "èĥ½": 2938,
      "Ġsound": 2939,
      "att": 2940,
      "ĠLord": 2941,
      "Ġleave": 2942,
      "Ġindeed": 2943,
      "Ġunderstand": 2944,
      "Com": 2945,
      "length": 2946,
      "æŀ": 2947,
      "ë¡ľ": 2948,
      "Ġsold": 2949,
      "itable": 2950,
      "ĠĠĠĠĠĠĠĠĠĠĠĠĠĠ": 2951,
      "eta": 2952,
      "using": 2953,
      "Ġattribute": 2954,
      "Ġsepar": 2955,
      "Ġ{#": 2956,
      "ãĥ©": 2957,
      "ĠOf": 2958,
      "à¦°": 2959,
      "Ġbrowser": 2960,
      "Ġquestion": 2961,
      "Form": 2962,
      "Kubernetes": 2963,
      "With": 2964,
      "ony": 2965,
      "aria": 2966,
      "omen": 2967,
      "Ġlab": 2968,
      "une": 2969,
      "Ġord": 2970,
      "Ġleg": 2971,
      "Ġlooking": 2972,
      "Ġwindow": 2973,
      "when": 2974,
      "yn": 2975,
      "åĩ": 2976,
      "Ġopp": 2977,
      "utes": 2978,
      "Ġjud": 2979,
      "Ġperhaps": 2980,
      "aughter": 2981,
      "sing": 2982,
      "server": 2983,
      "tor": 2984,
      "æĿ": 2985,
      "æł": 2986,
      "itial": 2987,
      "Ġmine": 2988,
      "Ġintr": 2989,
      "Ġnature": 2990,
      "ecimal": 2991,
      "Ġforth": 2992,
      "Ġ[\"": 2993,
      "Ġquick": 2994,
      "ä½ł": 2995,
      "Ġdiff": 2996,
      "Ġsupported": 2997,
      "Ġmemory": 2998,
      "26": 2999,
      "Selector": 3000,
      "admin": 3001,
      "ĠTr": 3002,
      "ested": 3003,
      "Ġ100": 3004,
      "ĠNow": 3005,
      "ĠLORD": 3006,
      "Ġdear": 3007,
      "à¦¾": 3008,
      "ools": 3009,
      "ìĹĲ": 3010,
      "EC": 3011,
      "Key": 3012,
      "Wh": 3013,
      "Ġcal": 3014,
      "Ġcause": 3015,
      "Ġbase": 3016,
      "odes": 3017,
      "trans": 3018,
      "Ġwhy": 3019,
      "andom": 3020,
      "Ġprob": 3021,
      "Ġspirit": 3022,
      "Ġanything": 3023,
      "bytes": 3024,
      "Ġbelieve": 3025,
      "medi": 3026,
      "models": 3027,
      "AP": 3028,
      "Des": 3029,
      "aa": 3030,
      "local": 3031,
      "ny": 3032,
      "tw": 3033,
      "ìĦ": 3034,
      "ators": 3035,
      "Ġbes": 3036,
      "ouch": 3037,
      "iffer": 3038,
      "Ġgeneral": 3039,
      ";\"><": 3040,
      "Oh": 3041,
      "ule": 3042,
      "Ġcreat": 3043,
      "Ġcold": 3044,
      "Ġblood": 3045,
      "Ġfive": 3046,
      "ored": 3047,
      "ours": 3048,
      "Ġtruth": 3049,
      "ĠĠĠĠĠĠĠĠĠĠĠĠĠĠĠĠĠĠĠĠĠĠĠĠĠĠĠĠĠĠĠĠĠĠĠĠĠĠĠĠĠĠĠĠĠĠĠĠĠĠĠĠĠĠĠĠĠĠĠĠĠ": 3050,
      "Ġproperties": 3051,
      "band": 3052,
      "cache": 3053,
      "src": 3054,
      "åĮ": 3055,
      "Ġsight": 3056,
      "Ġwonder": 3057,
      "Ġfoot": 3058,
      "stance": 3059,
      "Ġasync": 3060,
      "Ġyield": 3061,
      "Ġnote": 3062,
      "27": 3063,
      "40": 3064,
      "Pl": 3065,
      "ìł": 3066,
      "Ġ&": 3067,
      "Ġmsg": 3068,
      "Ġhar": 3069,
      "Ġlady": 3070,
      "ĠMar": 3071,
      "Ġ17": 3072,
      "Ġsea": 3073,
      "ogn": 3074,
      "Ġexpression": 3075,
      "Ġtypes": 3076,
      "Ġsweet": 3077,
      "ansport": 3078,
      "method": 3079,
      "Ġ]": 3080,
      "Ġpriv": 3081,
      "Ġvar": 3082,
      "Ġweek": 3083,
      "Ġmanner": 3084,
      "proxy": 3085,
      "Ġpods": 3086,
      "Ġcontrol": 3087,
      "Ġmorning": 3088,
      "My": 3089,
      "sample": 3090,
      "tx": 3091,
      "Ĥ¹": 3092,
      "Ġten": 3093,
      "icult": 3094,
      "icient": 3095,
      "uture": 3096,
      "Then": 3097,
      "Ġspace": 3098,
      "typ": 3099,
      "Ġawait": 3100,
      "å°Ĩ": 3101,
      "æķ°": 3102,
      "59": 3103,
      "èĢ": 3104,
      "Ġcopy": 3105,
      "Ġret": 3106,
      "ãĥĪ": 3107,
      "clus": 3108,
      "Ġage": 3109,
      "Ġremark": 3110,
      "Ġwrite": 3111,
      "plicit": 3112,
      "Ġinstead": 3113,
      "ä½ľ": 3114,
      "']": 3115,
      "oved": 3116,
      "ëĵ": 3117,
      "Ġignore": 3118,
      "Ġsong": 3119,
      "aring": 3120,
      "Ġhast": 3121,
      "Ġheld": 3122,
      "ĠSp": 3123,
      "Ġherself": 3124,
      "ĠValueError": 3125,
      "Ġreference": 3126,
      "Py": 3127,
      "dist": 3128,
      "ponse": 3129,
      "å¹": 3130,
      "åĨ": 3131,
      "Ġmain": 3132,
      "Ġph": 3133,
      "ift": 3134,
      "strong": 3135,
      "ancy": 3136,
      "Ġbegin": 3137,
      "loads": 3138,
      "è¿Ļ": 3139,
      "Ġrequired": 3140,
      "iety": 3141,
      "pkg": 3142,
      "Ġparticular": 3143,
      "LO": 3144,
      "round": 3145,
      "Ġnd": 3146,
      "ones": 3147,
      "Ġbit": 3148,
      "Ġfree": 3149,
      "Ġmed": 3150,
      "Ġmaking": 3151,
      "ales": 3152,
      "Ġnamed": 3153,
      "otion": 3154,
      "owers": 3155,
      "vert": 3156,
      "ãģĮ": 3157,
      "Ġattempt": 3158,
      "Config": 3159,
      "åĲį": 3160,
      ">`": 3161,
      "NO": 3162,
      "iers": 3163,
      "will": 3164,
      "rect": 3165,
      "loss": 3166,
      "().": 3167,
      "Ġgover": 3168,
      "Ġobserv": 3169,
      "ificate": 3170,
      "copy": 3171,
      "first": 3172,
      "Ġauthor": 3173,
      "Ġbound": 3174,
      "Ġmat": 3175,
      "Ġfort": 3176,
      "Ġshad": 3177,
      "ĠWeb": 3178,
      "akan": 3179,
      "Ġbring": 3180,
      "ension": 3181,
      "Ġexpect": 3182,
      "Ġargs": 3183,
      "Ġbehav": 3184,
      "gment": 3185,
      "mod": 3186,
      "sim": 3187,
      "å¿": 3188,
      "çĤ¹": 3189,
      "asi": 3190,
      "ece": 3191,
      "ĠWITH": 3192,
      "ears": 3193,
      "Ġelif": 3194,
      "Ġaccount": 3195,
      "json": 3196,
      "Ġacross": 3197,
      "Ġregard": 3198,
      "Ġkubectl": 3199,
      "ãģĻãĤĭ": 3200,
      "Ġmodels": 3201,
      "ĠEnglish": 3202,
      "'\\": 3203,
      "36": 3204,
      "Al": 3205,
      "Firefox": 3206,
      "Se": 3207,
      "Str": 3208,
      "UC": 3209,
      "lock": 3210,
      "patch": 3211,
      "ä¿": 3212,
      "åį": 3213,
      "reen": 3214,
      "Ġpat": 3215,
      "Ġlik": 3216,
      "ills": 3217,
      "ĠPat": 3218,
      "()`": 3219,
      "Ġarm": 3220,
      "Ġlost": 3221,
      "Ġresol": 3222,
      "Ġinstall": 3223,
      "kwargs": 3224,
      "Ġpublic": 3225,
      "Ġhorse": 3226,
      "where": 3227,
      "Ġcross": 3228,
      "Ġfine": 3229,
      "idered": 3230,
      "Ġisinstance": 3231,
      "Ġfeatures": 3232,
      "Ġrespect": 3233,
      "Ġreceived": 3234,
      "riority": 3235,
      "options": 3236,
      "pat": 3237,
      "some": 3238,
      "æº": 3239,
      "isf": 3240,
      "olt": 3241,
      "Ġrout": 3242,
      "unc": 3243,
      "uss": 3244,
      "ĠLet": 3245,
      "conn": 3246,
      "Ġready": 3247,
      "install": 3248,
      "Ġrepresent": 3249,
      "Ġanswer": 3250,
      "author": 3251,
      "ral": 3252,
      "çŃ": 3253,
      "Ġcast": 3254,
      "Ġclos": 3255,
      "Ġlord": 3256,
      "Ġstat": 3257,
      "Ġvirt": 3258,
      "ãģª": 3259,
      "Ġresources": 3260,
      "Ġresults": 3261,
      "ä¼ļ": 3262,
      "cent": 3263,
      "ded": 3264,
      "nal": 3265,
      "po": 3266,
      "pen": 3267,
      "sig": 3268,
      "were": 3269,
      "Ġtarget": 3270,
      "Ġcried": 3271,
      "Ġmaster": 3272,
      "Ġmakes": 3273,
      "Ġpost": 3274,
      "unic": 3275,
      "ĠCol": 3276,
      "ĠPer": 3277,
      "cons": 3278,
      "elled": 3279,
      "Ġdisplay": 3280,
      "itional": 3281,
      "Ġcolor": 3282,
      "Ġseems": 3283,
      "Ġkubelet": 3284,
      "filename": 3285,
      "à§į": 3286,
      "Default": 3287,
      "Element": 3288,
      "SON": 3289,
      "aith": 3290,
      "long": 3291,
      "opt": 3292,
      "uous": 3293,
      "eter": 3294,
      "imum": 3295,
      "Ġ14": 3296,
      "\"\"\"": 3297,
      "Ġsecret": 3298,
      "Ġfriends": 3299,
      "offset": 3300,
      "å¯¹": 3301,
      "88": 3302,
      "Case": 3303,
      "HTTP": 3304,
      "float": 3305,
      "ias": 3306,
      "Ġmode": 3307,
      "idence": 3308,
      "ctions": 3309,
      "ãģĦ": 3310,
      "Ġcomes": 3311,
      "Ġcoming": 3312,
      "Ġproject": 3313,
      "ĠGener": 3314,
      "ressed": 3315,
      "](#": 3316,
      "ìĿĦ": 3317,
      "Ġeye": 3318,
      "helper": 3319,
      ",'": 3320,
      ".--": 3321,
      "auth": 3322,
      "base": 3323,
      "mit": 3324,
      "mask": 3325,
      "rs": 3326,
      "template": 3327,
      "erman": 3328,
      "Ġsense": 3329,
      "element": 3330,
      "Ġnone": 3331,
      "Ġlocal": 3332,
      "urope": 3333,
      "room": 3334,
      "result": 3335,
      "Ġ[]": 3336,
      "Ġsoft": 3337,
      "Ġcls": 3338,
      "Ġperform": 3339,
      "anced": 3340,
      "Ġkept": 3341,
      "ĠBrit": 3342,
      "datetime": 3343,
      "warn": 3344,
      "èµ": 3345,
      "Ġ$": 3346,
      "Ġwon": 3347,
      "Ġwood": 3348,
      "Ġmove": 3349,
      "Ġthousand": 3350,
      "tract": 3351,
      "Ġship": 3352,
      "igned": 3353,
      "Ġremember": 3354,
      "Ġspecify": 3355,
      "Ġoffset": 3356,
      "Ġempty": 3357,
      "Ġmonth": 3358,
      "********": 3359,
      "29": 3360,
      "How": 3361,
      "IR": 3362,
      "Range": 3363,
      "Reg": 3364,
      "hold": 3365,
      "ring": 3366,
      "raw": 3367,
      "under": 3368,
      "Ġ--------": 3369,
      "Ġhidden": 3370,
      "ĠIN": 3371,
      "unk": 3372,
      "oci": 3373,
      "indow": 3374,
      "Ġreturns": 3375,
      "Ġlonger": 3376,
      "Ġsimple": 3377,
      "ternal": 3378,
      "æŀľ": 3379,
      "rary": 3380,
      "ero": 3381,
      "Ġcustom": 3382,
      "Ġoffer": 3383,
      "Ġpars": 3384,
      "Ġgold": 3385,
      "endor": 3386,
      "ãģŁ": 3387,
      "ĠWhy": 3388,
      "them": 3389,
      "ĠLe": 3390,
      "Ġ201": 3391,
      "Ġsimilar": 3392,
      "Ġanswered": 3393,
      "loc": 3394,
      "master": 3395,
      "orrow": 3396,
      "Ġcut": 3397,
      "ingress": 3398,
      "level": 3399,
      "Ġlink": 3400,
      "char": 3401,
      "abs": 3402,
      "ãģ¨": 3403,
      "usted": 3404,
      "ãĥĹ": 3405,
      "They": 3406,
      "ssl": 3407,
      "Ġsometimes": 3408,
      "Ġearly": 3409,
      "Content": 3410,
      "Ġvisit": 3411,
      "ĠEngland": 3412,
      "Ġbeautiful": 3413,
      "Ġpretty": 3414,
      "æĢ§": 3415,
      "37": 3416,
      "width": 3417,
      "Ľ´": 3418,
      "Ġaction": 3419,
      "Ġcamp": 3420,
      "Ġber": 3421,
      "Ġbur": 3422,
      "Ġmax": 3423,
      "Ġpast": 3424,
      "etch": 3425,
      "ĠSy": 3426,
      "aven": 3427,
      "Ġpract": 3428,
      "Ġwritten": 3429,
      "Ġfollowed": 3430,
      "elete": 3431,
      "respond": 3432,
      "Path": 3433,
      "gu": 3434,
      "oes": 3435,
      "source": 3436,
      "éĻ": 3437,
      "Ġtask": 3438,
      "Ġmock": 3439,
      "Ġmultiple": 3440,
      "Ġinte": 3441,
      "icle": 3442,
      "ording": 3443,
      "gram": 3444,
      "propert": 3445,
      "poss": 3446,
      "got": 3447,
      "how": 3448,
      "çī": 3449,
      "Ġtim": 3450,
      "Ġcorn": 3451,
      "Ġfn": 3452,
      "Ġful": 3453,
      "Ġfont": 3454,
      "Ġdom": 3455,
      "Ġnatur": 3456,
      "ĠMan": 3457,
      "cluster": 3458,
      "ĠEm": 3459,
      "Ġquiet": 3460,
      "Ġwrong": 3461,
      "Ġprovided": 3462,
      "====": 3463,
      "ĠâĢĶ": 3464,
      "Ġcirc": 3465,
      "JavaScript": 3466,
      "iar": 3467,
      "number": 3468,
      "Ø±": 3469,
      "è§": 3470,
      "Ġtuple": 3471,
      "Ġsit": 3472,
      "Ġbed": 3473,
      "Ġmiss": 3474,
      "ety": 3475,
      "Ġallowed": 3476,
      "ĠEurope": 3477,
      "ĠReturn": 3478,
      "ledge": 3479,
      "derr": 3480,
      "Ad": 3481,
      "GE": 3482,
      "Spec": 3483,
      "au": 3484,
      "after": 3485,
      "bre": 3486,
      "tar": 3487,
      "åĢ": 3488,
      "Ġwidth": 3489,
      "Ġmodule": 3490,
      "eline": 3491,
      "Ġ`.": 3492,
      "Ġgreater": 3493,
      "ology": 3494,
      "iddle": 3495,
      "File": 3496,
      "gar": 3497,
      "ming": 3498,
      "make": 3499,
      "now": 3500,
      "pi": 3501,
      "sv": 3502,
      "å»": 3503,
      "itude": 3504,
      "idge": 3505,
      "ump": 3506,
      "0000000": 3507,
      ")).": 3508,
      "Ġoffic": 3509,
      "########": 3510,
      "sys": 3511,
      "Ġbehind": 3512,
      "Ġsoul": 3513,
      "Ġrelease": 3514,
      "22": 3515,
      "90": 3516,
      "UID": 3517,
      "Work": 3518,
      "]:": 3519,
      "][": 3520,
      "vis": 3521,
      "what": 3522,
      "Ġnob": 3523,
      "status": 3524,
      "ĠIm": 3525,
      "Ġgen": 3526,
      "about": 3527,
      "Ġannot": 3528,
      "usband": 3529,
      "Ġseason": 3530,
      "ĠNode": 3531,
      "ï¼ī": 3532,
      "è¯ģ": 3533,
      "Ġfellow": 3534,
      "Description": 3535,
      "60": 3536,
      "Access": 3537,
      "ae": 3538,
      "cher": 3539,
      "oad": 3540,
      "raises": 3541,
      "Ġwall": 3542,
      "Ġdu": 3543,
      "Ġdie": 3544,
      "Ġreplied": 3545,
      "quired": 3546,
      "thr": 3547,
      "Ġconc": 3548,
      "Ġimag": 3549,
      "Ġworth": 3550,
      "ï¼Ī": 3551,
      "Ġroot": 3552,
      "Ġfront": 3553,
      "Ġdoesn": 3554,
      "bugz": 3555,
      "iod": 3556,
      "mo": 3557,
      "erc": 3558,
      "asion": 3559,
      "Ġlines": 3560,
      "Ġ11": 3561,
      "Ġimmedi": 3562,
      "Ġtests": 3563,
      "ailed": 3564,
      "Ġrock": 3565,
      "ifications": 3566,
      "000000000000000": 3567,
      "Ġrequire": 3568,
      "Ġbusiness": 3569,
      "Ġ!=": 3570,
      "/><": 3571,
      "PE": 3572,
      "UE": 3573,
      "].": 3574,
      "link": 3575,
      "inx": 3576,
      "Ġsoc": 3577,
      "Ġinfl": 3578,
      "Ġrepe": 3579,
      "Ġreport": 3580,
      "semb": 3581,
      "Ġweb": 3582,
      ".\"\"\"": 3583,
      "ught": 3584,
      "Ġgrow": 3585,
      "ĠURL": 3586,
      "Ġbackground": 3587,
      "Ġheader": 3588,
      "åĪ°": 3589,
      "Ġ/>": 3590,
      "bugzil": 3591,
      "LA": 3592,
      "oe": 3593,
      "pop": 3594,
      "right": 3595,
      "ening": 3596,
      "Ġpolicy": 3597,
      "olly": 3598,
      "trol": 3599,
      "Ġiter": 3600,
      "ĠFrom": 3601,
      "itting": 3602,
      "ĠKing": 3603,
      "Ġindex": 3604,
      "Ġespec": 3605,
      "Ġdifficult": 3606,
      "OS": 3607,
      "page": 3608,
      "uction": 3609,
      "Ġ\\": 3610,
      "Ġcache": 3611,
      "Ġfif": 3612,
      "Ġthird": 3613,
      "ĠAb": 3614,
      "usp": 3615,
      "Ġcho": 3616,
      "ä¸ĭ": 3617,
      "sole": 3618,
      "fields": 3619,
      "Ġstarted": 3620,
      "Ġ},": 3621,
      "Ġfurther": 3622,
      "ëĵľ": 3623,
      "ca": 3624,
      "cy": 3625,
      "custom": 3626,
      "è´": 3627,
      "Ġdut": 3628,
      "Ġliving": 3629,
      "Ġgame": 3630,
      "sequ": 3631,
      "Ġorg": 3632,
      "cond": 3633,
      "Ġprof": 3634,
      "ìĿĺ": 3635,
      "eadm": 3636,
      "Ġcorrespond": 3637,
      "TC": 3638,
      "bes": 3639,
      "fill": 3640,
      "none": 3641,
      "Ġvers": 3642,
      "inct": 3643,
      "Ġtown": 3644,
      "emory": 3645,
      "ĠCar": 3646,
      "Ġdefined": 3647,
      "antly": 3648,
      "ãĤ¯": 3649,
      "active": 3650,
      "à¦¿": 3651,
      "arrier": 3652,
      "vendor": 3653,
      "ising": 3654,
      "anch": 3655,
      "Ġshut": 3656,
      "ĠHTML": 3657,
      "ivid": 3658,
      "comple": 3659,
      "Ġpray": 3660,
      "Ġconsidered": 3661,
      "meta": 3662,
      "Ġincre": 3663,
      "ĠChristian": 3664,
      "types": 3665,
      "54": 3666,
      "¢«": 3667,
      "Ġve": 3668,
      "Ġtar": 3669,
      "Ġtree": 3670,
      "Ġssl": 3671,
      "alph": 3672,
      "Ġdjango": 3673,
      "Ġhur": 3674,
      "Ġled": 3675,
      "http": 3676,
      "Ġstory": 3677,
      "Ġ`<": 3678,
      "ãĥķãĤ": 3679,
      "Ġproper": 3680,
      "apping": 3681,
      "Ġìŀ": 3682,
      "Ġparts": 3683,
      "Ġeverything": 3684,
      "ighb": 3685,
      "develop": 3686,
      "Ġnecessary": 3687,
      "safe": 3688,
      "å»º": 3689,
      "\"],": 3690,
      "100": 3691,
      "mode": 3692,
      "night": 3693,
      "socket": 3694,
      "è¢«": 3695,
      "Ġ;": 3696,
      "Ġqs": 3697,
      "erve": 3698,
      "Ġfill": 3699,
      "Ġfalse": 3700,
      "ele": 3701,
      "Ġhig": 3702,
      "storage": 3703,
      "Ġlanguage": 3704,
      "verse": 3705,
      "Ġuses": 3706,
      "Ġlogg": 3707,
      "aise": 3708,
      "Ġevents": 3709,
      "Ġslow": 3710,
      "íķľëĭ¤": 3711,
      "'],": 3712,
      "28": 3713,
      ":--": 3714,
      "CK": 3715,
      "gress": 3716,
      "hood": 3717,
      "éĩ": 3718,
      "éĹ": 3719,
      "ĠĠčĊ": 3720,
      "Ġsource": 3721,
      "Ġsocket": 3722,
      "repr": 3723,
      "Ġbig": 3724,
      "ĠAg": 3725,
      "emo": 3726,
      "ĠSc": 3727,
      "apis": 3728,
      "there": 3729,
      "Ġdeal": 3730,
      "Ġscope": 3731,
      "Ġparameters": 3732,
      "TestCase": 3733,
      "Ġautom": 3734,
      "Ġchanges": 3735,
      "Group": 3736,
      "æĹ¶": 3737,
      "lossary": 3738,
      "Ag": 3739,
      "Pr": 3740,
      "UM": 3741,
      "ds": 3742,
      "ients": 3743,
      "mt": 3744,
      "ric": 3745,
      "ises": 3746,
      "Ġbox": 3747,
      "Ġfuture": 3748,
      "Ġdri": 3749,
      "Ġlim": 3750,
      "iding": 3751,
      "ĠAdd": 3752,
      "ĠPh": 3753,
      "ĠGerman": 3754,
      "ä»¶": 3755,
      "Ġminutes": 3756,
      "Ġcondition": 3757,
      "æºĲ": 3758,
      "78": 3759,
      "Read": 3760,
      "ging": 3761,
      "gments": 3762,
      "lines": 3763,
      "wait": 3764,
      "inion": 3765,
      "Ġoptions": 3766,
      "origin": 3767,
      "eless": 3768,
      "ality": 3769,
      "Ġhop": 3770,
      "ulation": 3771,
      "ĠAND": 3772,
      "abit": 3773,
      "Ġbytes": 3774,
      "ebug": 3775,
      "Ġroad": 3776,
      "axis": 3777,
      "Ġparameter": 3778,
      "ĠĠĠĠĠĠĠĠĠĠĠĠĠĠĠĠĠĠĠĠĠĠĠĠĠĠĠĠĠĠ": 3779,
      "Ġletter": 3780,
      "Ġraised": 3781,
      "Ġentire": 3782,
      "Ġrecogn": 3783,
      "äºĨ": 3784,
      "Ġmethods": 3785,
      "ĠâĢĵ": 3786,
      "Ġesc": 3787,
      "Ġbehavior": 3788,
      "åĢ¼": 3789,
      "IO": 3790,
      "come": 3791,
      "pref": 3792,
      "ys": 3793,
      "Ġcry": 3794,
      "Ġpada": 3795,
      "lection": 3796,
      "Ġlate": 3797,
      "Ġreally": 3798,
      "Ġreached": 3799,
      "Ġeat": 3800,
      "Ġ=>": 3801,
      "ays": 3802,
      "change": 3803,
      "abase": 3804,
      "uses": 3805,
      "ĠNor": 3806,
      "ival": 3807,
      "Ġchief": 3808,
      "Ġstrange": 3809,
      "Ġbright": 3810,
      "Ġkube": 3811,
      "Ġintrodu": 3812,
      "oo": 3813,
      "Ã§": 3814,
      "Ð¼": 3815,
      "Ġwomen": 3816,
      "Ġought": 3817,
      "Ġflo": 3818,
      "Ġforward": 3819,
      "child": 3820,
      "Ġexact": 3821,
      "Ġarch": 3822,
      "iously": 3823,
      "adding": 3824,
      "Ġencoding": 3825,
      "resourceVersion": 3826,
      "åı¯ä»¥": 3827,
      "Map": 3828,
      "find": 3829,
      "non": 3830,
      "nes": 3831,
      "sm": 3832,
      "ÙĨ": 3833,
      "æį": 3834,
      "çĲ": 3835,
      "èĩ": 3836,
      "return": 3837,
      "Ġbas": 3838,
      "aled": 3839,
      "Ġpick": 3840,
      "amu": 3841,
      "aches": 3842,
      "ability": 3843,
      "ĠMay": 3844,
      "Ġparty": 3845,
      "Ġworks": 3846,
      "Ġcontaining": 3847,
      "Ġrelig": 3848,
      "123": 3849,
      "ãĥ¼ãĤ": 3850,
      "è¯·": 3851,
      "Ġfiles": 3852,
      "Ġoccur": 3853,
      "ĠParameters": 3854,
      "ĠshardRange": 3855,
      "OK": 3856,
      "Well": 3857,
      "aul": 3858,
      "joy": 3859,
      "limit": 3860,
      "pri": 3861,
      "roll": 3862,
      "sql": 3863,
      "ç«": 3864,
      "Ġmur": 3865,
      "alid": 3866,
      "Ġtoken": 3867,
      "Ġinside": 3868,
      "Ġgod": 3869,
      "appe": 3870,
      "Ġ15": 3871,
      "',),": 3872,
      "ĠDe": 3873,
      "Ġprin": 3874,
      "Ġpeace": 3875,
      "rench": 3876,
      "Ġinclude": 3877,
      "namespace": 3878,
      "AME": 3879,
      "æĸĩ": 3880,
      "Ġprobably": 3881,
      "çĲĨ": 3882,
      "\"`": 3883,
      "05": 3884,
      "GL": 3885,
      "OP": 3886,
      "aur": 3887,
      "range": 3888,
      "ying": 3889,
      "å¾": 3890,
      "Ġerr": 3891,
      "ining": 3892,
      "eness": 3893,
      "Ġhot": 3894,
      "Ġhusband": 3895,
      "Ġinitial": 3896,
      "Ġweak": 3897,
      "ellow": 3898,
      "Ġstruct": 3899,
      "Ġunless": 3900,
      "ĠJer": 3901,
      "Ġ%}}": 3902,
      "position": 3903,
      "ENT": 3904,
      "Ġfinally": 3905,
      "Ġgreen": 3906,
      "oltip": 3907,
      ".]": 3908,
      "From": 3909,
      "Sec": 3910,
      "Up": 3911,
      "XT": 3912,
      "fin": 3913,
      "ering": 3914,
      "Ġsqu": 3915,
      "Ġsleep": 3916,
      "reet": 3917,
      "Ġbird": 3918,
      "arp": 3919,
      "Ġden": 3920,
      "Ġdaughter": 3921,
      "ential": 3922,
      "ĠSome": 3923,
      "rief": 3924,
      "Ġsugg": 3925,
      "Ġarri": 3926,
      "__,": 3927,
      "Ġens": 3928,
      "ERS": 3929,
      "Ġprep": 3930,
      "Ġsaying": 3931,
      "Ġopened": 3932,
      "Ġevening": 3933,
      "Ġconfiguration": 3934,
      "Ġidea": 3935,
      "EP": 3936,
      "cceed": 3937,
      "del": 3938,
      "iol": 3939,
      "Ġsens": 3940,
      "itive": 3941,
      "Ġcat": 3942,
      "oted": 3943,
      "image": 3944,
      "Ġheight": 3945,
      "Ġforce": 3946,
      "Ġalthough": 3947,
      "Ġann": 3948,
      "Ġcontroller": 3949,
      "essed": 3950,
      "ĠPl": 3951,
      "ername": 3952,
      "ĠìĿ": 3953,
      "Ġblue": 3954,
      "enced": 3955,
      "Ġrelated": 3956,
      "Ġaccept": 3957,
      "block": 3958,
      "Ġheaven": 3959,
      "Ġdetermin": 3960,
      "èµĦ": 3961,
      "44": 3962,
      "So": 3963,
      "Sy": 3964,
      "UN": 3965,
      "Value": 3966,
      "Warning": 3967,
      "Ùħ": 3968,
      "éĽ": 3969,
      "inner": 3970,
      "rest": 3971,
      "Ġcaught": 3972,
      "Ġfav": 3973,
      "Ġdim": 3974,
      "Ġpip": 3975,
      "Ġtowards": 3976,
      "Ġinsp": 3977,
      "Ġ'<": 3978,
      "umb": 3979,
      "Ġchurch": 3980,
      "Ġtrack": 3981,
      "Ġenvironment": 3982,
      "Ġplain": 3983,
      "Ġprec": 3984,
      "Ġtwenty": 3985,
      "Instance": 3986,
      "msg": 3987,
      "åħ¶": 3988,
      "Ġincluding": 3989,
      "Ġsatisf": 3990,
      "ìĿ´ë": 3991,
      "Ġcarry": 3992,
      "ottom": 3993,
      "www": 3994,
      "èµĦæºĲ": 3995,
      "({": 3996,
      "IF": 3997,
      "OT": 3998,
      "Why": 3999,
      "ipp": 4000,
      "ned": 4001,
      "Ġwat": 4002,
      "Ġfaith": 4003,
      "aries": 4004,
      "Ġdanger": 4005,
      "Ġnation": 4006,
      "olute": 4007,
      "ests": 4008,
      "ushed": 4009,
      "ĠEn": 4010,
      "Ġlevel": 4011,
      "Ġarms": 4012,
      "Ġdoing": 4013,
      "Ġenem": 4014,
      "Ġjoy": 4015,
      "Ġassoci": 4016,
      "ĠĠĠĠĠĠĠĠĠĠĠĠĠĠĠĠĠĠĠĠĠĠĠĠĠĠĠĠĠĠĠĠĠĠĠĠĠĠĠĠĠĠĠĠĠĠĠĠĠĠĠĠĠĠĠĠĠĠĠĠĠĠĠĠ": 4017,
      "Ġremain": 4018,
      "Ġattack": 4019,
      "ãĥ¼ãĥī": 4020,
      "annotate": 4021,
      "02": 4022,
      "31": 4023,
      "fall": 4024,
      "main": 4025,
      "task": 4026,
      "would": 4027,
      "yond": 4028,
      "æ®": 4029,
      "Īĺ": 4030,
      "ndpoint": 4031,
      "Ġfig": 4032,
      "Ġpen": 4033,
      "Ġiss": 4034,
      "Ġrandom": 4035,
      "Ġconv": 4036,
      "unittest": 4037,
      "ĠCPU": 4038,
      "Ġ[_": 4039,
      "ĠDefault": 4040,
      "aching": 4041,
      "Ġprevent": 4042,
      "keys": 4043,
      "Ġapply": 4044,
      "Ġ42": 4045,
      "ARIA": 4046,
      "aterial": 4047,
      "Ġpresence": 4048,
      "build": 4049,
      "Ġhours": 4050,
      "Response": 4051,
      "\"):": 4052,
      "An": 4053,
      "Let": 4054,
      "RA": 4055,
      "debug": 4056,
      "var": 4057,
      "ì§": 4058,
      "Ĭ¸": 4059,
      "Ġhair": 4060,
      "Ġpal": 4061,
      "Ġstd": 4062,
      "ĠMo": 4063,
      "exc": 4064,
      "allow": 4065,
      "Ġsafe": 4066,
      "Ġperiod": 4067,
      "Ġimportant": 4068,
      "arriage": 4069,
      "Context": 4070,
      "Ġnamespace": 4071,
      "å¹¶": 4072,
      "35": 4073,
      "['": 4074,
      "before": 4075,
      "cn": 4076,
      "gl": 4077,
      "å¸": 4078,
      "Ġwis": 4079,
      "Ġdue": 4080,
      "ĠAfter": 4081,
      "ands": 4082,
      "Ġvia": 4083,
      "erson": 4084,
      "ously": 4085,
      "Ġdog": 4086,
      "ugin": 4087,
      "Ġrecord": 4088,
      "Ġglad": 4089,
      "Ġhappy": 4090,
      "ILL": 4091,
      "bin": 4092,
      "cast": 4093,
      "ea": 4094,
      "mar": 4095,
      "more": 4096,
      "tag": 4097,
      "vas": 4098,
      "°Ģ": 4099,
      "Ã¡": 4100,
      "åĴĮ": 4101,
      "ina": 4102,
      "invalid": 4103,
      "Ġmid": 4104,
      "Ġmist": 4105,
      "Ġder": 4106,
      "Ġpay": 4107,
      "Ġpict": 4108,
      "ims": 4109,
      "ĠSUC": 4110,
      "ĠCan": 4111,
      "ĠĠĠĠĠĠĠĠĠĠĠĠĠĠĠĠĠĠĠĠĠĠĠĠĠĠĠĠĠĠĠ": 4112,
      "Ġ{}": 4113,
      "ĠDr": 4114,
      "should": 4115,
      "Ġperfect": 4116,
      "å®¹": 4117,
      "jsxref": 4118,
      "Ġ>}}\">": 4119,
      "è®¤": 4120,
      "ambda": 4121,
      "ĠAmerican": 4122,
      "ĠSUCCE": 4123,
      "OL": 4124,
      "VE": 4125,
      "pu": 4126,
      "uly": 4127,
      "åī": 4128,
      "Ġtemplate": 4129,
      "Ġmiles": 4130,
      "Ġmaj": 4131,
      "Ġdied": 4132,
      "irs": 4133,
      "ĠStr": 4134,
      "Ġriver": 4135,
      "unakan": 4136,
      "ĠĠĠĠĠĠĠĠĠĠĠĠĠĠĠĠĠĠ": 4137,
      "ĠĠĠĠĠĠĠĠĠĠĠĠĠĠĠĠĠĠĠĠ": 4138,
      "exception": 4139,
      "ĠHere": 4140,
      "\"))": 4141,
      "ãĥª": 4142,
      "Ġdeg": 4143,
      "=\"{{<": 4144,
      "erved": 4145,
      "been": 4146,
      "aptain": 4147,
      "Ġsurpr": 4148,
      "Now": 4149,
      "cat": 4150,
      "house": 4151,
      "next": 4152,
      "tree": 4153,
      "ç§": 4154,
      "ç¨": 4155,
      "ĬĤ": 4156,
      "itical": 4157,
      "Ġbased": 4158,
      "Ġpattern": 4159,
      "Ġrg": 4160,
      "ãĤ¢": 4161,
      "avig": 4162,
      "Ġclaim": 4163,
      "Ġneither": 4164,
      "params": 4165,
      "Ġlooks": 4166,
      "manager": 4167,
      "Ġuntuk": 4168,
      "ification": 4169,
      "Ġplease": 4170,
      "ĠWho": 4171,
      "ĠQu": 4172,
      "Ġbroken": 4173,
      "Ġvariable": 4174,
      "Ġoptional": 4175,
      "Ġschool": 4176,
      "ĠSUCCEED": 4177,
      "RI": 4178,
      "Sub": 4179,
      "_(": 4180,
      "dt": 4181,
      "direct": 4182,
      "great": 4183,
      "just": 4184,
      "uce": 4185,
      "»ĺ": 4186,
      "Ðº": 4187,
      "èĬĤ": 4188,
      "ìľ": 4189,
      "Ġ),": 4190,
      "Ġtaking": 4191,
      "onent": 4192,
      "Ġcarried": 4193,
      "Ġliter": 4194,
      "Ġhealth": 4195,
      "Ġ\"\",": 4196,
      "eful": 4197,
      "apps": 4198,
      "ãģĵ": 4199,
      "anged": 4200,
      "___": 4201,
      "à¦¨": 4202,
      "Ġcolumn": 4203,
      "âĢĿ": 4204,
      "åĪĽ": 4205,
      "åıĤ": 4206,
      "ĠPods": 4207,
      "æľ¬": 4208,
      "åĲĪ": 4209,
      "Ġneeds": 4210,
      "è¿ĩ": 4211,
      "cii": 4212,
      "åĬ¡": 4213,
      "åºĶ": 4214,
      "éĢļ": 4215,
      "claimed": 4216,
      "''": 4217,
      "bd": 4218,
      "eno": 4219,
      "enium": 4220,
      "edia": 4221,
      "oups": 4222,
      "Ġmention": 4223,
      "Ġmouth": 4224,
      "Ġpain": 4225,
      "Ġinvalid": 4226,
      "see": 4227,
      "Ġ\"--": 4228,
      "igr": 4229,
      "ector": 4230,
      "anges": 4231,
      "cls": 4232,
      "Ġunknown": 4233,
      "Ġflag": 4234,
      "values": 4235,
      "Ġformer": 4236,
      "Ġcompany": 4237,
      "Ġfunctions": 4238,
      "Ġframe": 4239,
      "Ġbuilt": 4240,
      "Ġdetails": 4241,
      "Ġfamil": 4242,
      "Ġclean": 4243,
      "Ġetcd": 4244,
      "æŃ¤": 4245,
      "Ġsuddenly": 4246,
      "Ġinflu": 4247,
      "æ®µ": 4248,
      "åĪĽå»º": 4249,
      "LS": 4250,
      "UB": 4251,
      "fact": 4252,
      "map": 4253,
      "pret": 4254,
      "zen": 4255,
      "zip": 4256,
      "Ġtouch": 4257,
      "Ġsave": 4258,
      "Ġborder": 4259,
      "Ġfre": 4260,
      "almost": 4261,
      "Ġdire": 4262,
      "stack": 4263,
      "Ġlarg": 4264,
      "ecause": 4265,
      "igration": 4266,
      "esty": 4267,
      "Ġvolume": 4268,
      "Ġsucceed": 4269,
      "antic": 4270,
      "ĠDecimal": 4271,
      "Ġproble": 4272,
      "argin": 4273,
      "ocks": 4274,
      "epend": 4275,
      "Ġneighb": 4276,
      "Ġperformance": 4277,
      "Ġregular": 4278,
      "column": 4279,
      "ÐµÐ½": 4280,
      "è®¾": 4281,
      "Ġitems": 4282,
      "ìĦľ": 4283,
      "Ġgovernment": 4284,
      "Accessibility": 4285,
      "Ġorgan": 4286,
      "Add": 4287,
      "ique": 4288,
      "mine": 4289,
      "network": 4290,
      "é»ĺ": 4291,
      "íĬ¸": 4292,
      "Ġsrc": 4293,
      "itch": 4294,
      "eds": 4295,
      "Ġcases": 4296,
      "Ġbow": 4297,
      "Ġfresh": 4298,
      "Ġdt": 4299,
      "omes": 4300,
      "stderr": 4301,
      "Ġlaid": 4302,
      "iling": 4303,
      "oded": 4304,
      "ĠAd": 4305,
      "ĠSIG": 4306,
      "ĠMore": 4307,
      "ĠWhere": 4308,
      "then": 4309,
      "assertTrue": 4310,
      "pygments": 4311,
      "Ġfunc": 4312,
      "aints": 4313,
      "flow": 4314,
      "ashion": 4315,
      "econfig": 4316,
      "Ġvarious": 4317,
      "Ġespecially": 4318,
      ";\">": 4319,
      "Mr": 4320,
      "YR": 4321,
      "aight": 4322,
      "fail": 4323,
      "target": 4324,
      "Ð»": 4325,
      "Ñĥ": 4326,
      "å½": 4327,
      "æ±": 4328,
      "æı": 4329,
      "çĽ": 4330,
      "éĿ": 4331,
      "ìĬ¤": 4332,
      "ories": 4333,
      "ĠĠĠĠĠĠĠĠĠĠĠĠ": 4334,
      "Ġben": 4335,
      "Ġfight": 4336,
      "Ġdoth": 4337,
      "ascii": 4338,
      "Ġrender": 4339,
      "rop": 4340,
      "agement": 4341,
      "umes": 4342,
      "exec": 4343,
      "Ġallows": 4344,
      "Ġarr": 4345,
      "ä¸Ĭ": 4346,
      "'))": 4347,
      "Ġdidn": 4348,
      "who": 4349,
      "Stream": 4350,
      "Ġtermin": 4351,
      "ĠÐ²": 4352,
      "Ġdistance": 4353,
      "Ġdirectory": 4354,
      "items": 4355,
      "Request": 4356,
      "Ġmusic": 4357,
      "45": 4358,
      "Col": 4359,
      "DW": 4360,
      "NS": 4361,
      "Sl": 4362,
      "Service": 4363,
      "send": 4364,
      "æŁ": 4365,
      "ç¤": 4366,
      "Ġcover": 4367,
      "Ġmill": 4368,
      "Ġdry": 4369,
      "Ġdream": 4370,
      "ica": 4371,
      "Ġlad": 4372,
      "Ġlif": 4373,
      "Ġlaug": 4374,
      "Ġum": 4375,
      "emon": 4376,
      "ivil": 4377,
      "ĠRich": 4378,
      "force": 4379,
      "udio": 4380,
      "Ġquar": 4381,
      "Ġquery": 4382,
      "Ġapplication": 4383,
      "Ġknowledge": 4384,
      "Ġsecurity": 4385,
      "slug": 4386,
      "azy": 4387,
      "Ġkeyword": 4388,
      "Ġdelight": 4389,
      "Ġboat": 4390,
      "generator": 4391,
      "Listener": 4392,
      "ĠFrance": 4393,
      "åŃĺ": 4394,
      "Ġimmediately": 4395,
      "ĠìŀĪ": 4396,
      "é»ĺè®¤": 4397,
      "Data": 4398,
      "Or": 4399,
      "ford": 4400,
      "match": 4401,
      "pan": 4402,
      "sum": 4403,
      "§åĪ¶": 4404,
      "ë¦": 4405,
      "Ġtem": 4406,
      "Ġcook": 4407,
      "Ġfat": 4408,
      "Ġmag": 4409,
      "Ġdress": 4410,
      "Ġlie": 4411,
      "Ġrestrict": 4412,
      "utor": 4413,
      "irm": 4414,
      "Ġrace": 4415,
      "Ġstep": 4416,
      "Ġvol": 4417,
      "\").": 4418,
      "ãĥ«": 4419,
      "Ġoutside": 4420,
      "Ġ*/": 4421,
      "Ġcalls": 4422,
      "Ġcontains": 4423,
      "Ġbelong": 4424,
      "Ext": 4425,
      "pression": 4426,
      "Ġpleas": 4427,
      "Ġoccasion": 4428,
      "Ġoperation": 4429,
      "éĽĨ": 4430,
      "\";": 4431,
      "'):": 4432,
      "75": 4433,
      "IM": 4434,
      "ja": 4435,
      "yl": 4436,
      "å·": 4437,
      "æĭ": 4438,
      "ç®": 4439,
      "è½": 4440,
      "inline": 4441,
      "asc": 4442,
      "ilities": 4443,
      "Ġbear": 4444,
      "Ġbeyond": 4445,
      "ulated": 4446,
      "again": 4447,
      "hern": 4448,
      "resol": 4449,
      "atever": 4450,
      "Ġhist": 4451,
      "exer": 4452,
      "outine": 4453,
      "Ġdeployment": 4454,
      "ä¸İ": 4455,
      "à¦Ł": 4456,
      "llib": 4457,
      "iction": 4458,
      "ĠExamples": 4459,
      "ĠConfig": 4460,
      "header": 4461,
      "atically": 4462,
      "ãĤ¹ãĤ": 4463,
      "lexers": 4464,
      "å¼ı": 4465,
      "Ġpaper": 4466,
      "Guides": 4467,
      "Ġconcern": 4468,
      "HA": 4469,
      "Lexer": 4470,
      "MR": 4471,
      "case": 4472,
      "zh": 4473,
      "£o": 4474,
      "Ġtemp": 4475,
      "into": 4476,
      "Ġfood": 4477,
      "Ġgate": 4478,
      "ects": 4479,
      "Ġvill": 4480,
      "extra": 4481,
      "Ġextra": 4482,
      "ãĥĨ": 4483,
      "aste": 4484,
      "ĠGe": 4485,
      "note": 4486,
      "Ġrose": 4487,
      "Ġremoved": 4488,
      "Ġspecies": 4489,
      "Ġterm": 4490,
      "Ġappeared": 4491,
      "Ġnearly": 4492,
      "Ġproto": 4493,
      "Ġservices": 4494,
      "Ġmoon": 4495,
      "Ġexisting": 4496,
      "stdout": 4497,
      "simple": 4498,
      "Ġhistory": 4499,
      "cour": 4500,
      "hash": 4501,
      "è¾": 4502,
      "Ĺæ®µ": 4503,
      "Ġrev": 4504,
      "utable": 4505,
      "Ġeight": 4506,
      "lying": 4507,
      "acing": 4508,
      "Ġstar": 4509,
      "umps": 4510,
      "ĠWest": 4511,
      "aret": 4512,
      "even": 4513,
      "Ġscar": 4514,
      "Ġdesire": 4515,
      "Ġuseful": 4516,
      "Ġslight": 4517,
      "hys": 4518,
      "Ġcounter": 4519,
      "Ġcontinued": 4520,
      "Ġdevice": 4521,
      "Ġcharacters": 4522,
      "ĠTypeError": 4523,
      "Performance": 4524,
      "ä¾ĭ": 4525,
      "Configuration": 4526,
      "ç¨ĭ": 4527,
      "Man": 4528,
      "Sh": 4529,
      "driver": 4530,
      "little": 4531,
      "ses": 4532,
      "worth": 4533,
      "Ñĭ": 4534,
      "Ġ----": 4535,
      "įåĬ¡": 4536,
      "Ġtakes": 4537,
      "orld": 4538,
      "itect": 4539,
      "illy": 4540,
      "search": 4541,
      "road": 4542,
      "Ġang": 4543,
      "Ġstore": 4544,
      "Ġshows": 4545,
      "loom": 4546,
      "anted": 4547,
      "oken": 4548,
      "Ġproceed": 4549,
      "Ġplaced": 4550,
      "kubelet": 4551,
      "æľįåĬ¡": 4552,
      "syml": 4553,
      "Ġwanted": 4554,
      "Ġstandard": 4555,
      "Trans": 4556,
      "package": 4557,
      "Ġtrees": 4558,
      "KE": 4559,
      "Sir": 4560,
      "null": 4561,
      "pick": 4562,
      "yr": 4563,
      "Ã£o": 4564,
      "erat": 4565,
      "orge": 4566,
      "Ġmel": 4567,
      "ingu": 4568,
      "Ġpri": 4569,
      "Ġpatch": 4570,
      "utils": 4571,
      "isted": 4572,
      "Ġ['": 4573,
      "ĠFrench": 4574,
      "ĠEd": 4575,
      "Ġimm": 4576,
      "earn": 4577,
      "Ġgrace": 4578,
      "Ġschedul": 4579,
      "Ġdestr": 4580,
      "Ġworking": 4581,
      "Ġcompat": 4582,
      "Ġsuppose": 4583,
      "Ġrequires": 4584,
      "Ġcaptain": 4585,
      "Ġeasily": 4586,
      "Ġshadow": 4587,
      "èĬĤçĤ¹": 4588,
      ".@": 4589,
      "bel": 4590,
      "core": 4591,
      "split": 4592,
      "arse": 4593,
      "Ġmil": 4594,
      "Ġlower": 4595,
      "amily": 4596,
      "Ġisn": 4597,
      "Ġ`\"": 4598,
      "platform": 4599,
      "oper": 4600,
      "aked": 4601,
      "Ġimpro": 4602,
      "Ġstraight": 4603,
      "ocker": 4604,
      "Info": 4605,
      "ĠìĦ": 4606,
      "\")}},": 4607,
      "Ġpoet": 4608,
      "Ġ@.@": 4609,
      "Ġwrote": 4610,
      "Ġforms": 4611,
      "Ġcompan": 4612,
      "Ġopinion": 4613,
      "Ġrespons": 4614,
      "Ġsomew": 4615,
      "Ġcorrect": 4616,
      "security": 4617,
      "Ġbeauty": 4618,
      "å¦Ĥæŀľ": 4619,
      "COM": 4620,
      "Dev": 4621,
      "Qu": 4622,
      "Volume": 4623,
      "[:": 4624,
      "site": 4625,
      "tuple": 4626,
      "çİ": 4627,
      "é¡": 4628,
      "Ġsin": 4629,
      "Ġfast": 4630,
      "aling": 4631,
      "Ġhun": 4632,
      "omet": 4633,
      "Ġla": 4634,
      "Ġlived": 4635,
      "rip": 4636,
      "();": 4637,
      "ibly": 4638,
      "ĠRob": 4639,
      "Ġjour": 4640,
      "ĠKub": 4641,
      "à¦ķ": 4642,
      "project": 4643,
      "container": 4644,
      "param": 4645,
      "ARD": 4646,
      "ĠChurch": 4647,
      "apiVersion": 4648,
      "Ġ'\\\\": 4649,
      "subTest": 4650,
      "Ġerrors": 4651,
      "called": 4652,
      "deployment": 4653,
      "ABC": 4654,
      "Ġcertainly": 4655,
      "ĠPython": 4656,
      "Ġbroad": 4657,
      "Ġestab": 4658,
      "zzzzzzzz": 4659,
      "èĢħ": 4660,
      "ç«¯": 4661,
      "Ġensure": 4662,
      ")]": 4663,
      "67": 4664,
      "Go": 4665,
      "coun": 4666,
      "mitted": 4667,
      "phe": 4668,
      "top": 4669,
      "ê³": 4670,
      "ļ©": 4671,
      "Ġsac": 4672,
      "ital": 4673,
      "Ġcost": 4674,
      "Ġdan": 4675,
      "Ġinfo": 4676,
      "utf": 4677,
      "Ġconstruct": 4678,
      "ĠDo": 4679,
      "Ġsaf": 4680,
      "ĠGo": 4681,
      "Ġjob": 4682,
      "Ġevil": 4683,
      "address": 4684,
      "Ġwarm": 4685,
      "--------------------------------": 4686,
      "Ġtransform": 4687,
      "Ġpurpose": 4688,
      "Ġhonour": 4689,
      "Ġsummer": 4690,
      "ieved": 4691,
      "åĩº": 4692,
      "possible": 4693,
      "Ġnatural": 4694,
      "æ±Ĥ": 4695,
      "Tim": 4696,
      "User": 4697,
      "fn": 4698,
      "ges": 4699,
      "lat": 4700,
      "ores": 4701,
      "parent": 4702,
      "Øª": 4703,
      "æ³": 4704,
      "ìŀ": 4705,
      "Ġir": 4706,
      "help": 4707,
      "erous": 4708,
      "Ġsusp": 4709,
      "alam": 4710,
      "ester": 4711,
      "ĠSpec": 4712,
      "application": 4713,
      "Ġanc": 4714,
      "osp": 4715,
      "assertNot": 4716,
      "Ġprogram": 4717,
      "ongue": 4718,
      "ĠJes": 4719,
      "shot": 4720,
      "weight": 4721,
      "Ġaccording": 4722,
      "Ġbreath": 4723,
      "ĠĠĠĠĠĠĠĠĠĠĠĠĠĠĠĠĠĠĠĠĠĠĠĠĠĠĠĠ": 4724,
      "Ġactual": 4725,
      "Ġpleasure": 4726,
      "Ġfailed": 4727,
      "Ġselected": 4728,
      "NOTE": 4729,
      "ĠPatty": 4730,
      "eratops": 4731,
      "Id": 4732,
      "Message": 4733,
      "Text": 4734,
      "ees": 4735,
      "ham": 4736,
      "kbd": 4737,
      "Ã³": 4738,
      "hex": 4739,
      "Ġopt": 4740,
      "istr": 4741,
      "istry": 4742,
      "Ġnarr": 4743,
      "Ġlatter": 4744,
      "otype": 4745,
      "iration": 4746,
      "irty": 4747,
      "ections": 4748,
      "Ġyouth": 4749,
      "Ġexception": 4750,
      "ĠBook": 4751,
      "ãģķãĤ": 4752,
      "ĠOR": 4753,
      "Ġspoke": 4754,
      "orses": 4755,
      "Ġwriting": 4756,
      "Ġspecial": 4757,
      "posed": 4758,
      "Ġfinal": 4759,
      "empty": 4760,
      "afford": 4761,
      "æĪ·": 4762,
      "Ġutter": 4763,
      "Ġdepend": 4764,
      "ĠResource": 4765,
      "æĮĩ": 4766,
      "éħįç½®": 4767,
      "development": 4768,
      "(_": 4769,
      "48": 4770,
      "lig": 4771,
      "â¡": 4772,
      "æĶ": 4773,
      "çķ": 4774,
      "Ġsite": 4775,
      "Ġfing": 4776,
      "Ġdoll": 4777,
      "Ġdelet": 4778,
      "stat": 4779,
      "ama": 4780,
      "access": 4781,
      "ĠAss": 4782,
      "Ġroll": 4783,
      "Ġ[!": 4784,
      "Ġchap": 4785,
      "controller": 4786,
      "Ġago": 4787,
      "ishing": 4788,
      "ĠUp": 4789,
      "Ġseek": 4790,
      "_.--": 4791,
      "teen": 4792,
      "Ġarguments": 4793,
      "Ġentered": 4794,
      "services": 4795,
      "ĠHowever": 4796,
      "OUR": 4797,
      "ãģĹãģ¾ãģĻ": 4798,
      "Ġeasy": 4799,
      "property": 4800,
      "39": 4801,
      "Fr": 4802,
      "bas": 4803,
      "bound": 4804,
      "ipped": 4805,
      "last": 4806,
      "ups": 4807,
      "|`": 4808,
      "â¢": 4809,
      "Ġwid": 4810,
      "Ġwarn": 4811,
      "Ġfixed": 4812,
      "arm": 4813,
      "Ġpack": 4814,
      "sty": 4815,
      "Ġlives": 4816,
      "ĠSet": 4817,
      "Ġstay": 4818,
      "ĠMad": 4819,
      "Ġkamu": 4820,
      "Ġsequence": 4821,
      "Ġtrav": 4822,
      "elling": 4823,
      "aceback": 4824,
      "Ġcloud": 4825,
      "Ġenjoy": 4826,
      "engan": 4827,
      "Ġintent": 4828,
      "trollers": 4829,
      "frame": 4830,
      "eger": 4831,
      "ublic": 4832,
      "Ġappearance": 4833,
      "expected": 4834,
      "æīĢ": 4835,
      "ĠDefaults": 4836,
      "è®¾ç½®": 4837,
      "38": 4838,
      "Global": 4839,
      "OCK": 4840,
      "PRE": 4841,
      "¸°": 4842,
      "Ãª": 4843,
      "åĳ": 4844,
      "inity": 4845,
      "Ġfool": 4846,
      "Ġnative": 4847,
      "Ġwhis": 4848,
      "ando": 4849,
      "ria": 4850,
      "ĠLin": 4851,
      "ĠFl": 4852,
      "Ġarmy": 4853,
      "Ġjoin": 4854,
      "Ġgrad": 4855,
      "Ġotherwise": 4856,
      "Ġhandler": 4857,
      "Ġcollect": 4858,
      "ĠĠĠĠĠĠĠĠĠĠĠĠĠĠĠĠĠĠĠĠĠĠĠĠĠ": 4859,
      "Ġrelative": 4860,
      "anks": 4861,
      "Ġmember": 4862,
      "Ġprovide": 4863,
      "button": 4864,
      "Ġzip": 4865,
      "Ġadvant": 4866,
      "Ġbuilding": 4867,
      "Ġoriginal": 4868,
      "Ġprefer": 4869,
      "clusive": 4870,
      "ãģķãĤĮ": 4871,
      "'.": 4872,
      "=(": 4873,
      "Base": 4874,
      "NAME": 4875,
      "RG": 4876,
      "YPE": 4877,
      "gt": 4878,
      "your": 4879,
      "Ãł": 4880,
      "Ġign": 4881,
      "inition": 4882,
      "eder": 4883,
      "Ġpul": 4884,
      "Ġthick": 4885,
      "iler": 4886,
      "ague": 4887,
      "apat": 4888,
      "Ġcomb": 4889,
      "Ġcompl": 4890,
      "oses": 4891,
      "ordin": 4892,
      "assertIn": 4893,
      "Ġupper": 4894,
      "ãĤ³": 4895,
      "Ġgoes": 4896,
      "ugg": 4897,
      "Ġgrand": 4898,
      "ĠìĪĺ": 4899,
      "Ġfruit": 4900,
      "REE": 4901,
      "Ġgenerally": 4902,
      "Ġprotocol": 4903,
      "68": 4904,
      "Here": 4905,
      "LI": 4906,
      "Source": 4907,
      "same": 4908,
      "uel": 4909,
      "uation": 4910,
      "åĽ": 4911,
      "Ġer": 4912,
      "Ġsection": 4913,
      "Ġfrequ": 4914,
      "Ġfloat": 4915,
      "Ġnetwork": 4916,
      "Ġgun": 4917,
      "ids": 4918,
      "Ġrich": 4919,
      "Ġconstr": 4920,
      "Ġconvers": 4921,
      "ĠBl": 4922,
      "Ġ{'": 4923,
      "together": 4924,
      "Ġupd": 4925,
      "ĠGu": 4926,
      "Ġ30": 4927,
      "upon": 4928,
      "Ġdesired": 4929,
      "contin": 4930,
      "schedul": 4931,
      "ikan": 4932,
      "Ġmembers": 4933,
      "Claim": 4934,
      "Ġnorth": 4935,
      "Ġdirectly": 4936,
      "missions": 4937,
      "Ġsilent": 4938,
      "response": 4939,
      "rael": 4940,
      "Array": 4941,
      "Ġobserved": 4942,
      "Ġcorresponding": 4943,
      "SI": 4944,
      "bing": 4945,
      "na": 4946,
      "åĿ": 4947,
      "Ġsem": 4948,
      "Ġcovered": 4949,
      "Ġbool": 4950,
      "Ġmere": 4951,
      "Ġtot": 4952,
      "Ġlin": 4953,
      "Ġrepl": 4954,
      "segment": 4955,
      "Ġ'-": 4956,
      "than": 4957,
      "ĠCor": 4958,
      "ries": 4959,
      "Ġvain": 4960,
      "ĠMin": 4961,
      "romise": 4962,
      "Ġsearch": 4963,
      "ĠLady": 4964,
      "Ġsup": 4965,
      "Ġdepart": 4966,
      "Ġusually": 4967,
      "ĠRun": 4968,
      "ĠJavaScript": 4969,
      "ondon": 4970,
      "ensive": 4971,
      "Ġhandle": 4972,
      "Ġbackend": 4973,
      "ĠState": 4974,
      "Ġ('*.": 4975,
      "Ġsmile": 4976,
      "Ġdrink": 4977,
      "system": 4978,
      "THE": 4979,
      "until": 4980,
      "Ġsouth": 4981,
      "Ġndarray": 4982,
      "through": 4983,
      "Ġduty": 4984,
      "+\"": 4985,
      "42": 4986,
      "Fe": 4987,
      "FOR": 4988,
      "OW": 4989,
      "Run": 4990,
      "`:": 4991,
      "job": 4992,
      "ooth": 4993,
      "zilla": 4994,
      "ç¾": 4995,
      "ĠØ": 4996,
      "Ġsand": 4997,
      "Ġsister": 4998,
      "attle": 4999,
      "Ġwide": 5000,
      "Ġcivil": 5001,
      "Ġmach": 5002,
      "Ġdest": 5003,
      "ston": 5004,
      "acity": 5005,
      "Ġrise": 5006,
      "Ġstatus": 5007,
      "ĠHen": 5008,
      "Ġkill": 5009,
      "osition": 5010,
      "ãĥ¥": 5011,
      "ĠThus": 5012,
      "Ġsett": 5013,
      "print": 5014,
      "ĠìĤ": 5015,
      "Ġremained": 5016,
      "addr": 5017,
      "Container": 5018,
      "Ġfilter": 5019,
      "Ġselector": 5020,
      "clean": 5021,
      "Ġchanged": 5022,
      "ãģĹãģ¦": 5023,
      "Ġwalked": 5024,
      "Ġanimals": 5025,
      "txt": 5026,
      "String": 5027,
      "ç¤º": 5028,
      "8000000000000000": 5029,
      "HT": 5030,
      "YW": 5031,
      "iam": 5032,
      "may": 5033,
      "message": 5034,
      "priv": 5035,
      "á»": 5036,
      "ĮĮ": 5037,
      "İãĥ¼ãĥī": 5038,
      "Ġtreat": 5039,
      "Ġtitle": 5040,
      "rees": 5041,
      "Ġwest": 5042,
      "Ġburn": 5043,
      "Ġfit": 5044,
      "Ġfro": 5045,
      "Ġdig": 5046,
      "acon": 5047,
      "ĠAm": 5048,
      "ĠSec": 5049,
      "agg": 5050,
      "unction": 5051,
      "ĠCheck": 5052,
      "ĠCYR": 5053,
      "umed": 5054,
      "except": 5055,
      "examples": 5056,
      "Ġusers": 5057,
      "Ġupdate": 5058,
      "Ġobt": 5059,
      "ogle": 5060,
      "tribution": 5061,
      "Ġways": 5062,
      "ĠChar": 5063,
      "without": 5064,
      "åĪĨ": 5065,
      "ciples": 5066,
      "Ġpoints": 5067,
      "Ġoccup": 5068,
      "æĪĸ": 5069,
      "Ġfeeling": 5070,
      "Ġsteps": 5071,
      "protocol": 5072,
      "Ġdevelopment": 5073,
      "ULL": 5074,
      "Ġsufficient": 5075,
      "æĿ¥": 5076,
      "APTER": 5077,
      "Ġinteger": 5078,
      "ILLIC": 5079,
      "itecture": 5080,
      "ĠCYRILLIC": 5081,
      "Get": 5082,
      "QU": 5083,
      "beta": 5084,
      "ware": 5085,
      "ëł": 5086,
      "Ġtag": 5087,
      "Ġmaint": 5088,
      "Ġhat": 5089,
      "Ġreject": 5090,
      "transport": 5091,
      "ĠAN": 5092,
      "Ġ'%": 5093,
      "apid": 5094,
      "ĠDes": 5095,
      "Ġproxy": 5096,
      "ãĤĬ": 5097,
      "Ġloop": 5098,
      "Ġ25": 5099,
      "Ġstruck": 5100,
      "Ġgrass": 5101,
      "ngth": 5102,
      "Ġscene": 5103,
      "ĠInst": 5104,
      "Ġgetattr": 5105,
      "ĠYet": 5106,
      "plicas": 5107,
      "Ġcontainers": 5108,
      "clude": 5109,
      "LElement": 5110,
      "Ġcourt": 5111,
      "Ġprovides": 5112,
      "Ġgiving": 5113,
      "Ġeffort": 5114,
      "Ġtried": 5115,
      "AAAA": 5116,
      "ä¸ŃçļĦ": 5117,
      "å¤ļ": 5118,
      "CHAPTER": 5119,
      "Ġprivate": 5120,
      "ividual": 5121,
      "tasks": 5122,
      "å®¹åĻ¨": 5123,
      "={": 5124,
      "HTM": 5125,
      "SE": 5126,
      "kit": 5127,
      "net": 5128,
      "nce": 5129,
      "win": 5130,
      "Ġice": 5131,
      "ara": 5132,
      "alanc": 5133,
      "lem": 5134,
      "stream": 5135,
      "ades": 5136,
      "aded": 5137,
      "olation": 5138,
      "acher": 5139,
      "Ġshown": 5140,
      "ustration": 5141,
      "ĠNorth": 5142,
      "update": 5143,
      "åĪĻ": 5144,
      "while": 5145,
      "Ġkeys": 5146,
      "rupt": 5147,
      "standard": 5148,
      "secret": 5149,
      "hello": 5150,
      "Ġheavy": 5151,
      "Ġcomplete": 5152,
      "Ġautomatically": 5153,
      "ìľ¼": 5154,
      "Ġdirection": 5155,
      "HTMLElement": 5156,
      ":`": 5157,
      "HR": 5158,
      "MA": 5159,
      "RTC": 5160,
      "^^": 5161,
      "bc": 5162,
      "ji": 5163,
      "tic": 5164,
      "wer": 5165,
      "Ġqual": 5166,
      "Ġ}}": 5167,
      "Ġtongue": 5168,
      "asing": 5169,
      "Ġlambda": 5170,
      "amber": 5171,
      "Ġran": 5172,
      "Ġrule": 5173,
      "Ġstorage": 5174,
      "ocus": 5175,
      "ĠĠĠĠĠĠĠĠĠĠĠĠĠĠĠĠĠĠĠĠĠĠ": 5176,
      "Ġviol": 5177,
      "Ġsharp": 5178,
      "Ġexclaimed": 5179,
      "ĠPe": 5180,
      "ãĤ°": 5181,
      "udo": 5182,
      "Ġenabled": 5183,
      "Ġplan": 5184,
      "kubeadm": 5185,
      "Ġdesc": 5186,
      "Ġdesign": 5187,
      "Ġsym": 5188,
      "plicate": 5189,
      "Ġ+=": 5190,
      "Ġcrow": 5191,
      "Ġ50": 5192,
      "flags": 5193,
      "Ġenter": 5194,
      "Ġglass": 5195,
      "Ġneeded": 5196,
      "curs": 5197,
      "Ġsilence": 5198,
      "Ġbooks": 5199,
      "Ġgirls": 5200,
      "expressions": 5201,
      "Ġissue": 5202,
      ")<": 5203,
      "/).": 5204,
      "70": 5205,
      "IX": 5206,
      "One": 5207,
      "OST": 5208,
      "dumps": 5209,
      "high": 5210,
      "post": 5211,
      "Ùĩ": 5212,
      "Ġsick": 5213,
      "isc": 5214,
      "arily": 5215,
      "Ġmut": 5216,
      "ana": 5217,
      "Ġdengan": 5218,
      "Ġtoward": 5219,
      "left": 5220,
      "othes": 5221,
      "Ġreach": 5222,
      "ĠSm": 5223,
      "aped": 5224,
      "Ġanx": 5225,
      "Ġconce": 5226,
      "ĠCaptain": 5227,
      "ĠPoly": 5228,
      "token": 5229,
      "Ġleaves": 5230,
      "ĠOther": 5231,
      "Ġproud": 5232,
      "Ġbrows": 5233,
      "Ġthank": 5234,
      "Ġgetting": 5235,
      "frames": 5236,
      "Ġguard": 5237,
      "IGHT": 5238,
      "Ġavoid": 5239,
      "åĬ¨": 5240,
      "requires": 5241,
      "Ġgentleman": 5242,
      "Ġpiece": 5243,
      "æłĩ": 5244,
      "Ġlikely": 5245,
      "Ġmonths": 5246,
      "Ġsociety": 5247,
      "ì§Ģ": 5248,
      "(*": 5249,
      "VAL": 5250,
      "ZG": 5251,
      "det": 5252,
      "eal": 5253,
      "ha": 5254,
      "mp": 5255,
      "Ñı": 5256,
      "æĽ´": 5257,
      "è°": 5258,
      "Ġess": 5259,
      "Ħë": 5260,
      "Ġtid": 5261,
      "Ġsal": 5262,
      "athe": 5263,
      "Ġbottom": 5264,
      "asons": 5265,
      "Ġpa": 5266,
      "Ġphys": 5267,
      "Ġloss": 5268,
      "Ġisland": 5269,
      "ifier": 5270,
      "roat": 5271,
      "Ġrules": 5272,
      "unch": 5273,
      "logg": 5274,
      "Ġweight": 5275,
      "ãĥİãĥ¼ãĥī": 5276,
      "Ġknows": 5277,
      "Ġrole": 5278,
      "Ġmengg": 5279,
      "Ġclasses": 5280,
      "(['": 5281,
      "è¯¥": 5282,
      "Ġserved": 5283,
      "Ġgrew": 5284,
      "clear": 5285,
      "ĠIsrael": 5286,
      "Platform": 5287,
      "Ġcircum": 5288,
      "apiserver": 5289,
      "æį®": 5290,
      "ç¾¤": 5291,
      "CT": 5292,
      "GET": 5293,
      "Rel": 5294,
      "ares": 5295,
      "pattern": 5296,
      "upp": 5297,
      "void": 5298,
      "ÑĮ": 5299,
      "áº": 5300,
      "åŁ": 5301,
      "heart": 5302,
      "Ġwin": 5303,
      "aly": 5304,
      "Ġdate": 5305,
      "Ġtool": 5306,
      "omic": 5307,
      "icate": 5308,
      "stances": 5309,
      "ĠIS": 5310,
      "aging": 5311,
      "resents": 5312,
      "ĠMary": 5313,
      "ĠHam": 5314,
      "Ġtrouble": 5315,
      "ĠEl": 5316,
      "ĠRoman": 5317,
      "Ġplaces": 5318,
      "Ġplatform": 5319,
      "short": 5320,
      "setup": 5321,
      "Ġapplied": 5322,
      "Ġattention": 5323,
      "Ġfinished": 5324,
      "Ġincluded": 5325,
      "Ġhappened": 5326,
      "annel": 5327,
      "Ġnumpy": 5328,
      "Ġdropped": 5329,
      "Ġurl": 5330,
      "Ġrepeated": 5331,
      "ĠPhil": 5332,
      "Ġassociated": 5333,
      "éĽĨç¾¤": 5334,
      "Look": 5335,
      "Learn": 5336,
      "OD": 5337,
      "Window": 5338,
      "]),": 5339,
      "`|": 5340,
      "bet": 5341,
      "cs": 5342,
      "eps": 5343,
      "vari": 5344,
      "Ġ):": 5345,
      "Ġwise": 5346,
      "Ġcult": 5347,
      "Ġmaid": 5348,
      "Ġmargin": 5349,
      "verb": 5350,
      "role": 5351,
      "quis": 5352,
      "resources": 5353,
      "ĠĠĠĠĠĠĠĠĠĠĠĠĠĠĠĠĠĠĠĠĠ": 5354,
      "ĠMAR": 5355,
      "ãģį": 5356,
      "Ġchance": 5357,
      "ĠOS": 5358,
      "Ġspot": 5359,
      "Ġremove": 5360,
      "Ġremains": 5361,
      "many": 5362,
      "Ġcommunic": 5363,
      "Ġinterface": 5364,
      "Ġendpoint": 5365,
      "errors": 5366,
      "Status": 5367,
      "Ġgives": 5368,
      "ĠåĴĮ": 5369,
      "Ġbehold": 5370,
      "ypes": 5371,
      "è¡¨": 5372,
      "eneath": 5373,
      "Implement": 5374,
      "å¿ħ": 5375,
      "ĠBritish": 5376,
      "Ġhigher": 5377,
      "Ġfigure": 5378,
      "Ġdestroy": 5379,
      ",)": 5380,
      ".)": 5381,
      "47": 5382,
      "95": 5383,
      "Br": 5384,
      "Int": 5385,
      "OF": 5386,
      "iqu": 5387,
      "lab": 5388,
      "normal": 5389,
      "wd": 5390,
      "yal": 5391,
      "Ð²": 5392,
      "íħ": 5393,
      "Ġtears": 5394,
      "Ġakan": 5395,
      "Ġwound": 5396,
      "Ġcool": 5397,
      "Ġbind": 5398,
      "Ġdrew": 5399,
      "Ġhel": 5400,
      "Ġ\"\"": 5401,
      "igg": 5402,
      "quot": 5403,
      "Ġexerc": 5404,
      "ĠLondon": 5405,
      "Ġtrad": 5406,
      "ĠRome": 5407,
      "ĠOpen": 5408,
      "Ġamount": 5409,
      "pute": 5410,
      "Ġfeed": 5411,
      "addEvent": 5412,
      "Ġheading": 5413,
      "rence": 5414,
      "åıĳ": 5415,
      "Tests": 5416,
      "è¿Ľ": 5417,
      "optional": 5418,
      "noon": 5419,
      "Ġ80": 5420,
      "remove": 5421,
      "Ġmetadata": 5422,
      "Ġseries": 5423,
      "Resource": 5424,
      "olean": 5425,
      "Ġdatabase": 5426,
      "Sequence": 5427,
      "prefix": 5428,
      "æıĲ": 5429,
      "ĠConfigMap": 5430,
      "Ġcompatibility": 5431,
      "PRESS": 5432,
      "ìľ¼ë¡ľ": 5433,
      "Ġmenggunakan": 5434,
      "addEventListener": 5435,
      "41": 5436,
      "?'": 5437,
      "SP": 5438,
      "Sample": 5439,
      "]])": 5440,
      "ball": 5441,
      "ding": 5442,
      "did": 5443,
      "font": 5444,
      "lay": 5445,
      "ride": 5446,
      "ya": 5447,
      "ðĲ": 5448,
      "Ġauth": 5449,
      "eros": 5450,
      "Ġdam": 5451,
      "Ġhorses": 5452,
      "icode": 5453,
      "stood": 5454,
      "Ġlat": 5455,
      "Ġearn": 5456,
      "Ġ\"'": 5457,
      "iring": 5458,
      "ifies": 5459,
      "Ġrow": 5460,
      "ational": 5461,
      "Ġseven": 5462,
      "Ġcharge": 5463,
      "Ġmeant": 5464,
      "Ġunittest": 5465,
      "ĠThou": 5466,
      "Ġsets": 5467,
      "Ġflow": 5468,
      "Ġpassing": 5469,
      "Ġwrit": 5470,
      "atterns": 5471,
      "Ġstarts": 5472,
      "Ġcertificate": 5473,
      "Ġstanding": 5474,
      "Ġmoved": 5475,
      "Ġteam": 5476,
      "æĪĲ": 5477,
      "Ġboys": 5478,
      "Ġmasked": 5479,
      "¬ìļ©": 5480,
      "Ġdeclared": 5481,
      "Ġsoldiers": 5482,
      "Ġquickly": 5483,
      "connection": 5484,
      "éĻĲ": 5485,
      "Ġinfluence": 5486,
      "çİ°": 5487,
      "ðĲĮ": 5488,
      "Hand": 5489,
      "Load": 5490,
      "hum": 5491,
      "jo": 5492,
      "memory": 5493,
      "ply": 5494,
      "som": 5495,
      "è¨": 5496,
      "Ġsock": 5497,
      "itation": 5498,
      "Ġctx": 5499,
      "Ġfle": 5500,
      "Ġpour": 5501,
      "lements": 5502,
      "omin": 5503,
      "strip": 5504,
      "ille": 5505,
      "aming": 5506,
      "Ġgaz": 5507,
      "reset": 5508,
      "usters": 5509,
      "ãĥŃ": 5510,
      "aks": 5511,
      "ĠRE": 5512,
      "ouses": 5513,
      "Ġclients": 5514,
      "compl": 5515,
      "ERT": 5516,
      "icked": 5517,
      "ĠUUID": 5518,
      "('-": 5519,
      "Ġ('(": 5520,
      "pytest": 5521,
      "Ġbuffer": 5522,
      "åĲİ": 5523,
      "Ġguide": 5524,
      "Ġwarning": 5525,
      "åº¦": 5526,
      "åı¯èĥ½": 5527,
      "Ġpromise": 5528,
      "Ġurllib": 5529,
      "2012": 5530,
      "Ġdescribed": 5531,
      "customer": 5532,
      "Ġprepared": 5533,
      "\"'": 5534,
      "06": 5535,
      "65": 5536,
      "SIG": 5537,
      "TO": 5538,
      "low": 5539,
      "lang": 5540,
      "must": 5541,
      "present": 5542,
      "said": 5543,
      "uced": 5544,
      "éľ": 5545,
      "render": 5546,
      "esh": 5547,
      "Ġborn": 5548,
      "Ġmad": 5549,
      "Ġmarried": 5550,
      "Ġdalam": 5551,
      "async": 5552,
      "Ġpor": 5553,
      "ompose": 5554,
      "Ġles": 5555,
      "Ġlabel": 5556,
      "Ġgard": 5557,
      "Ġequ": 5558,
      "acle": 5559,
      "Ġwhatever": 5560,
      "ulate": 5561,
      "ander": 5562,
      "ĠPath": 5563,
      "``,": 5564,
      "Ġcomfort": 5565,
      "click": 5566,
      "Ġleaving": 5567,
      "ĠOh": 5568,
      "Ġstrings": 5569,
      "Ġ).": 5570,
      "grade": 5571,
      "Ġsche": 5572,
      "Inline": 5573,
      "apped": 5574,
      "Ġpersons": 5575,
      "Ġvisible": 5576,
      "Ġserve": 5577,
      "affic": 5578,
      "webkit": 5579,
      "Ġmarked": 5580,
      "Ġcheek": 5581,
      "Ġstudy": 5582,
      "Ġchoose": 5583,
      "Head": 5584,
      "Ind": 5585,
      "Live": 5586,
      "Oper": 5587,
      "Return": 5588,
      "XR": 5589,
      "could": 5590,
      "hr": 5591,
      "lier": 5592,
      "whe": 5593,
      "âĸ": 5594,
      "ê°Ģ": 5595,
      "ĠÑģ": 5596,
      "Ġtab": 5597,
      "Ġafr": 5598,
      "Ġwit": 5599,
      "Ġwinter": 5600,
      "Ġcand": 5601,
      "Ġcatch": 5602,
      "Ġdapat": 5603,
      "echn": 5604,
      "imate": 5605,
      "root": 5606,
      "ĠAnt": 5607,
      "quire": 5608,
      "ems": 5609,
      "007": 5610,
      "ainers": 5611,
      "Ġring": 5612,
      "Ġvict": 5613,
      "ĠMark": 5614,
      "Ġbutton": 5615,
      "Ġsail": 5616,
      "izer": 5617,
      "Ġoblig": 5618,
      "ebr": 5619,
      "Ġneg": 5620,
      "ERR": 5621,
      "full": 5622,
      "Ġìķ": 5623,
      "Ġdesp": 5624,
      "tests": 5625,
      "ĠStorage": 5626,
      "Ġemploy": 5627,
      "super": 5628,
      "flict": 5629,
      "Ġthoughts": 5630,
      "selenium": 5631,
      "Ġskin": 5632,
      "Ġtransl": 5633,
      "losed": 5634,
      "Ġreceive": 5635,
      "Ġcentury": 5636,
      "Ġhonest": 5637,
      "ĠíĮĮ": 5638,
      "ĠHero": 5639,
      "Ġabsolute": 5640,
      "Ġlearned": 5641,
      "Ġexperience": 5642,
      "Ġbeginning": 5643,
      "Ġarrived": 5644,
      "Ġancient": 5645,
      "ĠJesus": 5646,
      "éľĢ": 5647,
      "-\"": 5648,
      "/*": 5649,
      "Bl": 5650,
      "EM": 5651,
      "UF": 5652,
      "capi": 5653,
      "delete": 5654,
      "lt": 5655,
      "nection": 5656,
      "pers": 5657,
      "paces": 5658,
      "sn": 5659,
      "uary": 5660,
      "â£": 5661,
      "ĥĿ": 5662,
      "rele": 5663,
      "itution": 5664,
      "edError": 5665,
      "Ġce": 5666,
      "star": 5667,
      "Ġreverse": 5668,
      "imary": 5669,
      "Ġforgot": 5670,
      "ros": 5671,
      "keep": 5672,
      "ums": 5673,
      "orted": 5674,
      "tooltip": 5675,
      "Ġprove": 5676,
      "ĠEach": 5677,
      "Ġmanager": 5678,
      "strings": 5679,
      "ĠJew": 5680,
      "Ġsetting": 5681,
      "onds": 5682,
      "prov": 5683,
      "produ": 5684,
      "Ġthrow": 5685,
      "Ġindepend": 5686,
      "ĠYour": 5687,
      "iki": 5688,
      "Ġsecure": 5689,
      "sued": 5690,
      "pressed": 5691,
      "0000000000000000": 5692,
      "mbed": 5693,
      "buah": 5694,
      "Ġzero": 5695,
      "Ġhttp": 5696,
      "ãĥ³ãĥ": 5697,
      "Ġmeaning": 5698,
      "Ø§ÛĮ": 5699,
      "Ġstreet": 5700,
      "Ġvalidation": 5701,
      "æĮģ": 5702,
      "Ġindicates": 5703,
      "UTF": 5704,
      "ä¿¡": 5705,
      "warnings": 5706,
      "Ġparser": 5707,
      "Ġcorner": 5708,
      "Ġnoble": 5709,
      "Ġversions": 5710,
      "è¯·æ±Ĥ": 5711,
      "Color": 5712,
      "CI": 5713,
      "Count": 5714,
      "DB": 5715,
      "Doc": 5716,
      "Ill": 5717,
      "aft": 5718,
      "based": 5719,
      "iant": 5720,
      "rup": 5721,
      "such": 5722,
      "hent": 5723,
      "recurs": 5724,
      "itary": 5725,
      "Ġbold": 5726,
      "Ġfly": 5727,
      "Ġfancy": 5728,
      "alu": 5729,
      "stop": 5730,
      "eces": 5731,
      "ĠID": 5732,
      "quaint": 5733,
      "Ġ'__": 5734,
      "Ġstorm": 5735,
      "Ġcontribut": 5736,
      "Ġconsc": 5737,
      "Ġconsole": 5738,
      "ĠCo": 5739,
      "ocr": 5740,
      "Ġshalt": 5741,
      "Ġattributes": 5742,
      "ĠBar": 5743,
      "osop": 5744,
      "indows": 5745,
      "ĠDis": 5746,
      "ideo": 5747,
      "à¦²": 5748,
      "events": 5749,
      "Ġcalling": 5750,
      "Ġcolour": 5751,
      "Ġcommunity": 5752,
      "Ġindividual": 5753,
      "ä»¬": 5754,
      "Ġletters": 5755,
      "interval": 5756,
      "Ġfilename": 5757,
      "ĠâĢľ": 5758,
      "Ġmodern": 5759,
      "register": 5760,
      "assertIsInstance": 5761,
      "echan": 5762,
      "ĠComm": 5763,
      "Only": 5764,
      "ĠReturns": 5765,
      "è¯ģä¹": 5766,
      "Ġslowly": 5767,
      "Ġexactly": 5768,
      "Ġreligious": 5769,
      "Ġdetermined": 5770,
      "ĠìĤ¬ìļ©": 5771,
      "è°ĥ": 5772,
      "LiveSample": 5773,
      "\"</": 5774,
      "62": 5775,
      "98": 5776,
      "FA": 5777,
      "Par": 5778,
      "SA": 5779,
      "Wr": 5780,
      "cely": 5781,
      "dr": 5782,
      "gen": 5783,
      "hib": 5784,
      "kt": 5785,
      "mat": 5786,
      "png": 5787,
      "tear": 5788,
      "xb": 5789,
      "çº": 5790,
      "Ġmotion": 5791,
      "Ġdriver": 5792,
      "otal": 5793,
      "uted": 5794,
      "ĠText": 5795,
      "ĠAuthor": 5796,
      "apes": 5797,
      "Ġstead": 5798,
      "ĠCEL": 5799,
      "Ġvul": 5800,
      "usal": 5801,
      "isting": 5802,
      "ĠWhe": 5803,
      "ĠWas": 5804,
      "Ġsebuah": 5805,
      "ĠFirst": 5806,
      "osity": 5807,
      "conf": 5808,
      "Ġdebug": 5809,
      "ãĤ£": 5810,
      "ĠOur": 5811,
      "Ġmanif": 5812,
      "izing": 5813,
      "Ġunivers": 5814,
      "Ġgrat": 5815,
      "Ġyourself": 5816,
      "ĠUser": 5817,
      "Ġdesert": 5818,
      "overnment": 5819,
      "browser": 5820,
      "Ġthinking": 5821,
      "Exception": 5822,
      "åħ¨": 5823,
      "compat": 5824,
      "views": 5825,
      "buffer": 5826,
      "Ġgrey": 5827,
      "Ġconditions": 5828,
      "ç»Ħ": 5829,
      "Ġholds": 5830,
      "Char": 5831,
      "ĠFrank": 5832,
      "board": 5833,
      "Ġdatetime": 5834,
      "ĠContainer": 5835,
      "two": 5836,
      "Ġauthority": 5837,
      "çī¹": 5838,
      "éĩı": 5839,
      "éĹ´": 5840,
      "Ġmentioned": 5841,
      "æŁ¥": 5842,
      "ĠìŀĪëĭ¤": 5843,
      "§åĪ¶åĻ¨": 5844,
      "Ġsomewhat": 5845,
      "COMPRESS": 5846,
      "Ġignor": 5847,
      "Illustration": 5848,
      "è¯ģä¹¦": 5849,
      "COMPRESSED": 5850,
      "\"},": 5851,
      "Cle": 5852,
      "Dis": 5853,
      "Ge": 5854,
      "Jo": 5855,
      "cing": 5856,
      "fold": 5857,
      "happ": 5858,
      "nor": 5859,
      "noc": 5860,
      "ov": 5861,
      "za": 5862,
      "Ġ],": 5863,
      "ĵį": 5864,
      "Ġtaste": 5865,
      "reated": 5866,
      "Ġcred": 5867,
      "oured": 5868,
      "Ġfashion": 5869,
      "Ġmult": 5870,
      "Ġlips": 5871,
      "Ġalph": 5872,
      "Ġrapid": 5873,
      "Ġexam": 5874,
      "Ġexpr": 5875,
      "Ġexceed": 5876,
      "Ġkw": 5877,
      "Ġkiss": 5878,
      "ĠDu": 5879,
      "ĠError": 5880,
      "Ġsav": 5881,
      "Ġloved": 5882,
      "ernal": 5883,
      "Ġhasattr": 5884,
      "shall": 5885,
      "Ġ32": 5886,
      "reek": 5887,
      "othing": 5888,
      "Ġformed": 5889,
      "Ġadditional": 5890,
      "Ġpara": 5891,
      "RED": 5892,
      "ifying": 5893,
      "ncle": 5894,
      "sidebar": 5895,
      "Ġdistingu": 5896,
      "Ġspeaking": 5897,
      "common": 5898,
      "command": 5899,
      "plicationController": 5900,
      "Ġauto": 5901,
      "Ġimplementation": 5902,
      "ä¿Ŀ": 5903,
      "Ġfully": 5904,
      "èĩª": 5905,
      "Extensions": 5906,
      "ç®¡": 5907,
      "MRS": 5908,
      "ĠGeorge": 5909,
      "Ġjourney": 5910,
      "Ġconversation": 5911,
      "SequenceEqual": 5912,
      ",))": 5913,
      "Gener": 5914,
      "NE": 5915,
      "aud": 5916,
      "cil": 5917,
      "gor": 5918,
      "lower": 5919,
      "ners": 5920,
      "oop": 5921,
      "tags": 5922,
      "erable": 5923,
      "ergy": 5924,
      "env": 5925,
      "Ġmass": 5926,
      "Ġinh": 5927,
      "etc": 5928,
      "olved": 5929,
      "ĠTom": 5930,
      "Ġ'.": 5931,
      "ĠSe": 5932,
      "istic": 5933,
      "Ġarea": 5934,
      "ĠForm": 5935,
      "ĠDOM": 5936,
      "ĠEQ": 5937,
      "ĠEndpoint": 5938,
      "ĠRef": 5939,
      "ĠGREE": 5940,
      "Ġspread": 5941,
      "Ġenable": 5942,
      "nginx": 5943,
      "nother": 5944,
      "ĠVilla": 5945,
      "parser": 5946,
      "classes": 5947,
      "plica": 5948,
      "Ġheaders": 5949,
      "Ġruns": 5950,
      "íķł": 5951,
      "Ġactiv": 5952,
      "Ġactually": 5953,
      "ĠÐ¸": 5954,
      "compan": 5955,
      "display": 5956,
      "Ġreflect": 5957,
      "pods": 5958,
      "ĠUnited": 5959,
      "Ġpublished": 5960,
      "Ġapproach": 5961,
      "Ġstrength": 5962,
      "ìĹĲìĦľ": 5963,
      "transform": 5964,
      "Regex": 5965,
      "Ġenemy": 5966,
      "çķ¥": 5967,
      "alancer": 5968,
      "mbedLiveSample": 5969,
      ")\"": 5970,
      "After": 5971,
      "BC": 5972,
      "DOM": 5973,
      "Elements": 5974,
      "XX": 5975,
      "every": 5976,
      "nan": 5977,
      "pet": 5978,
      "window": 5979,
      "Ð¿": 5980,
      "atives": 5981,
      "Ġbab": 5982,
      "Ġbarrier": 5983,
      "Ġmiddle": 5984,
      "Ġpaint": 5985,
      "Ġhence": 5986,
      "acious": 5987,
      "Ġanimal": 5988,
      "Ġconver": 5989,
      "rize": 5990,
      "Ġvan": 5991,
      "Ġshr": 5992,
      "Ġexplicit": 5993,
      "Ġbyte": 5994,
      "ãĤĪ": 5995,
      "Ġimages": 5996,
      "Ġdise": 5997,
      "iah": 5998,
      "INE": 5999,
      "Ġflight": 6000,
      "Ġafterwards": 6001,
      "ĠStates": 6002,
      "ĠStafford": 6003,
      "encies": 6004,
      "Ġapparent": 6005,
      "Ġcrown": 6006,
      "Ġkubeconfig": 6007,
      "åħ¥": 6008,
      "Ġsurface": 6009,
      "Ġsignal": 6010,
      "ĠAlso": 6011,
      "ĠWhile": 6012,
      "generated": 6013,
      "Ġexcell": 6014,
      "Ġfacts": 6015,
      "Ġleader": 6016,
      "Ġcomplex": 6017,
      "Ġproduced": 6018,
      "Ġoppos": 6019,
      "Ġcalc": 6020,
      "åĨħ": 6021,
      "Ġdegree": 6022,
      "networking": 6023,
      "éĿ¢": 6024,
      "Ġvillage": 6025,
      "ĠLinux": 6026,
      "ĠGREEK": 6027,
      "09": 6028,
      "Roles": 6029,
      "UP": 6030,
      "`)": 6031,
      "bn": 6032,
      "bus": 6033,
      "cor": 6034,
      "good": 6035,
      "lers": 6036,
      "might": 6037,
      "éĴ": 6038,
      "ìĭ": 6039,
      "Ġingress": 6040,
      "Ġwine": 6041,
      "itory": 6042,
      "Ġmess": 6043,
      "Ġmechan": 6044,
      "Ġhills": 6045,
      "Ġpot": 6046,
      "Ġng": 6047,
      "oming": 6048,
      "Ġrecomm": 6049,
      "amma": 6050,
      "Ġgh": 6051,
      "sep": 6052,
      "chron": 6053,
      "three": 6054,
      "Ġrid": 6055,
      "Ġnotice": 6056,
      "ateg": 6057,
      "ĠWar": 6058,
      "Ġseed": 6059,
      "Ġalloc": 6060,
      "Ġsuffer": 6061,
      "osen": 6062,
      "inder": 6063,
      "contribut": 6064,
      "ä¸»": 6065,
      "portion": 6066,
      "ĠAndy": 6067,
      "Ġhash": 6068,
      "Ġprev": 6069,
      "Ġsymb": 6070,
      "åĲĮ": 6071,
      "timeout": 6072,
      "Ġgeneric": 6073,
      "äºĽ": 6074,
      "ĠJohnson": 6075,
      "Ġ([#": 6076,
      "ACK": 6077,
      "decimal": 6078,
      "Ġforest": 6079,
      "Ġengine": 6080,
      "expression": 6081,
      "agraph": 6082,
      "Ġmeeting": 6083,
      "Ġannotation": 6084,
      "sequent": 6085,
      "Ġlimits": 6086,
      "Ġbirds": 6087,
      "Ġsuggest": 6088,
      "Ġproblem": 6089,
      "Transform": 6090,
      "ĠHenry": 6091,
      "íħĮ": 6092,
      "tearray": 6093,
      "\"])": 6094,
      "Bu": 6095,
      "Do": 6096,
      "Match": 6097,
      "Note": 6098,
      "bi": 6099,
      "blob": 6100,
      "hidden": 6101,
      "iance": 6102,
      "much": 6103,
      "tis": 6104,
      "²½": 6105,
      "æµ": 6106,
      "hest": 6107,
      "Ġsle": 6108,
      "once": 6109,
      "esc": 6110,
      "isl": 6111,
      "Ġfilled": 6112,
      "Ġmac": 6113,
      "Ġhang": 6114,
      "Ġpress": 6115,
      "ican": 6116,
      "verage": 6117,
      "ĠTH": 6118,
      "Ġ'*.": 6119,
      "erty": 6120,
      "ĠCome": 6121,
      "oreign": 6122,
      "ĠHad": 6123,
      "ĠNote": 6124,
      "Ġwear": 6125,
      "Ġprogress": 6126,
      "These": 6127,
      "Ġstrict": 6128,
      "Ġgrave": 6129,
      "Invalid": 6130,
      "encoding": 6131,
      "Ġreading": 6132,
      "ika": 6133,
      "ikasi": 6134,
      "Ġconsistent": 6135,
      "ointed": 6136,
      "Ġtrying": 6137,
      "Ġextension": 6138,
      "Ġsurround": 6139,
      "AND": 6140,
      "community": 6141,
      "Ġopening": 6142,
      "Ġdocumentation": 6143,
      "required": 6144,
      "Ġwaiting": 6145,
      "Ġinsert": 6146,
      "ãĤ¤ãĥ³": 6147,
      "Ġdetermine": 6148,
      "Ġlabels": 6149,
      "Ġordered": 6150,
      "Ġasyncio": 6151,
      "Ġduplicate": 6152,
      "Ġfloor": 6153,
      "Ġgods": 6154,
      "directory": 6155,
      "Ġfamiliar": 6156,
      "Ġlaughed": 6157,
      "ĠRichard": 6158,
      "+\"-\"": 6159,
      "+\"-\"+": 6160,
      "\"{": 6161,
      "46": 6162,
      "Dec": 6163,
      "FC": 6164,
      "[-": 6165,
      "dst": 6166,
      "gin": 6167,
      "hip": 6168,
      "mock": 6169,
      "made": 6170,
      "ogr": 6171,
      "volume": 6172,
      "~~": 6173,
      "éª": 6174,
      "Ġtone": 6175,
      "Ġsword": 6176,
      "Ġopport": 6177,
      "orough": 6178,
      "Ġcod": 6179,
      "Ġband": 6180,
      "Ġfem": 6181,
      "Ġpale": 6182,
      "Ġthirty": 6183,
      "Ġreasons": 6184,
      "ĠTim": 6185,
      "ĠServ": 6186,
      "Ġstone": 6187,
      "Ġvess": 6188,
      "exists": 6189,
      "ĠBel": 6190,
      "ĠWell": 6191,
      "Ġsugar": 6192,
      "ĠFirefox": 6193,
      "osaur": 6194,
      "Ġwealth": 6195,
      "Ġchain": 6196,
      "ĠDec": 6197,
      "ĠDev": 6198,
      "ãĥĩ": 6199,
      "iber": 6200,
      "cles": 6201,
      "ĠEven": 6202,
      "=\"/": 6203,
      "aved": 6204,
      "Ġspring": 6205,
      "Ġunset": 6206,
      "ugust": 6207,
      "ĠJack": 6208,
      "Ġworse": 6209,
      "gry": 6210,
      ")))": 6211,
      "Ġ>=": 6212,
      "Ġì»": 6213,
      "Ġblind": 6214,
      "ancing": 6215,
      "arser": 6216,
      "Ġdecided": 6217,
      "retched": 6218,
      "Ġdelay": 6219,
      "Ġappears": 6220,
      "Ġdifference": 6221,
      "Ġspeech": 6222,
      "ĠHoward": 6223,
      "Ġconduct": 6224,
      "Attribute": 6225,
      "Ġcomplet": 6226,
      "ĠOnly": 6227,
      "æĸ°": 6228,
      "Ġthreads": 6229,
      "Ġpopular": 6230,
      "Unless": 6231,
      "depr": 6232,
      "complete": 6233,
      "ĠDeployment": 6234,
      "avigation": 6235,
      "Ġbenef": 6236,
      "Ġladies": 6237,
      "symlinks": 6238,
      "style": 6239,
      "Ġafraid": 6240,
      "Ġnginx": 6241,
      "07": 6242,
      "CON": 6243,
      "FN": 6244,
      "ZE": 6245,
      "bb": 6246,
      "ccept": 6247,
      "draw": 6248,
      "ikube": 6249,
      "©º": 6250,
      "±¡": 6251,
      "·¸": 6252,
      "ç©º": 6253,
      "è±¡": 6254,
      "Ġiron": 6255,
      "inf": 6256,
      "Ġsor": 6257,
      "Ġbeneath": 6258,
      "Ġdread": 6259,
      "Ġhill": 6260,
      "Ġpadding": 6261,
      "Ġthine": 6262,
      "Ġnodes": 6263,
      "Ġgro": 6264,
      "Ġears": 6265,
      "seudo": 6266,
      "ural": 6267,
      "roken": 6268,
      "chars": 6269,
      "aper": 6270,
      "Ġru": 6271,
      "Ġshore": 6272,
      "Ġexit": 6273,
      "istance": 6274,
      "ĠBAR": 6275,
      "assertFalse": 6276,
      "assertSequenceEqual": 6277,
      "Ġtransport": 6278,
      "ĠEar": 6279,
      "Ġimpossible": 6280,
      "integer": 6281,
      "oft": 6282,
      "icks": 6283,
      "Ġamb": 6284,
      "Ġìł": 6285,
      "ä½ķ": 6286,
      "ORT": 6287,
      "ĠĠĠĠĠĠĠĠĠĠĠĠĠĠĠĠĠĠĠĠĠĠĠĠĠĠ": 6288,
      "Ġë³": 6289,
      "Ġë¡ľ": 6290,
      "Start": 6291,
      "Item": 6292,
      "Ġsimply": 6293,
      "Ġsilver": 6294,
      "Ġkingdom": 6295,
      "ĠIPv": 6296,
      "Ġdarkness": 6297,
      "Ġprefix": 6298,
      "ControllerConfiguration": 6299,
      "Ġlocation": 6300,
      "Who": 6301,
      "çŃ¾": 6302,
      "****************": 6303,
      "Ġpicture": 6304,
      "åīį": 6305,
      "æĮĩå®ļ": 6306,
      "51": 6307,
      "58": 6308,
      "AST": 6309,
      "Dict": 6310,
      "GPU": 6311,
      "His": 6312,
      "Mode": 6313,
      "Valid": 6314,
      "ZX": 6315,
      "]*": 6316,
      "eas": 6317,
      "por": 6318,
      "uuid": 6319,
      "ë²": 6320,
      "environment": 6321,
      "Ġball": 6322,
      "Ġbattle": 6323,
      "Ġmir": 6324,
      "Ġdinner": 6325,
      "Ġhint": 6326,
      "Ġpan": 6327,
      "leg": 6328,
      "Ġnod": 6329,
      "ette": 6330,
      "Ġretr": 6331,
      "olution": 6332,
      "Ġones": 6333,
      "Ġyellow": 6334,
      "Ġshared": 6335,
      "Ġattr": 6336,
      "istory": 6337,
      "ĠDon": 6338,
      "Ġtrust": 6339,
      "Ġ28": 6340,
      "__)": 6341,
      "Ġagree": 6342,
      "Ġ{{%": 6343,
      "Ġscr": 6344,
      "Ġscal": 6345,
      "hens": 6346,
      "Ġbecomes": 6347,
      "Ġworker": 6348,
      "Ġreader": 6349,
      "Ġrelation": 6350,
      "Ġemb": 6351,
      "Ġactive": 6352,
      "internal": 6353,
      "Ġterr": 6354,
      "compile": 6355,
      "ĠAny": 6356,
      "Ġarticle": 6357,
      "Ġedge": 6358,
      "Ġleading": 6359,
      "Ġnumbers": 6360,
      "ãģ§ãģį": 6361,
      "Enter": 6362,
      "certain": 6363,
      "Ġdemand": 6364,
      "Ġclosed": 6365,
      "sigs": 6366,
      "8859": 6367,
      "alpha": 6368,
      "åıĤæķ°": 6369,
      "against": 6370,
      "Ġadvantage": 6371,
      "Ġtotal": 6372,
      "49": 6373,
      "57": 6374,
      "72": 6375,
      "Ev": 6376,
      "HN": 6377,
      "Port": 6378,
      "bad": 6379,
      "differ": 6380,
      "eper": 6381,
      "follow": 6382,
      "iest": 6383,
      "watch": 6384,
      "wood": 6385,
      "ym": 6386,
      "ÃŃ": 6387,
      "éĺ": 6388,
      "Ġtender": 6389,
      "Ġsad": 6390,
      "Ġspl": 6391,
      "Ġsought": 6392,
      "reed": 6393,
      "onstr": 6394,
      "isk": 6395,
      "isters": 6396,
      "Ġcab": 6397,
      "Ġbank": 6398,
      "oul": 6399,
      "outer": 6400,
      "Ġdwell": 6401,
      "Ġholy": 6402,
      "Ġincl": 6403,
      "ilosop": 6404,
      "Ġreplace": 6405,
      "Ġge": 6406,
      "Ġglossary": 6407,
      "apshot": 6408,
      "Ġstars": 6409,
      "Ġ(_": 6410,
      "Ġvent": 6411,
      "Ġvast": 6412,
      "Ġ`--": 6413,
      "Ġ13": 6414,
      "usion": 6415,
      "plies": 6416,
      "ĠBO": 6417,
      "ĠBase": 6418,
      "Ġ[],": 6419,
      "Ġkilled": 6420,
      "',)),": 6421,
      "ustri": 6422,
      "Ġdefine": 6423,
      "tool": 6424,
      "Ġ<!--": 6425,
      "aval": 6426,
      "argument": 6427,
      "Ġpartial": 6428,
      "issues": 6429,
      "Ġgreatest": 6430,
      "Ġthrown": 6431,
      "Ġmeng": 6432,
      "Ġbuf": 6433,
      "Ġguess": 6434,
      "archive": 6435,
      "liament": 6436,
      "Ġspeed": 6437,
      "ĠController": 6438,
      "Ġfails": 6439,
      "Ġsurely": 6440,
      "numpy": 6441,
      "signal": 6442,
      "Ġmatters": 6443,
      "himself": 6444,
      "Ġmountain": 6445,
      "æİ¥": 6446,
      "Ġseparate": 6447,
      "åĮĸ": 6448,
      "################": 6449,
      "Ġlogger": 6450,
      "\"\\": 6451,
      ":</": 6452,
      "AF": 6453,
      "aN": 6454,
      "ba": 6455,
      "ii": 6456,
      "lished": 6457,
      "sed": 6458,
      "sock": 6459,
      "water": 6460,
      "æģ": 6461,
      "orse": 6462,
      "Ġbare": 6463,
      "Ġmarriage": 6464,
      "Ġdst": 6465,
      "Ġpun": 6466,
      "Ġinj": 6467,
      "icious": 6468,
      "Ġlot": 6469,
      "Ġlaugh": 6470,
      "Ġheat": 6471,
      "Ġep": 6472,
      "verify": 6473,
      "lyss": 6474,
      "trip": 6475,
      "Ġasc": 6476,
      "ĠAfr": 6477,
      "emed": 6478,
      "Ġ'_": 6479,
      "ĠST": 6480,
      "Ġnotes": 6481,
      "ĠCa": 6482,
      "ĠMc": 6483,
      "ĠPeter": 6484,
      "ĠPaul": 6485,
      "\",\"": 6486,
      "Ġmeat": 6487,
      "ellig": 6488,
      "Ġnovel": 6489,
      "ĠJan": 6490,
      "ĠKey": 6491,
      "aily": 6492,
      "Ġafternoon": 6493,
      "Ġpassion": 6494,
      "Ġ@,": 6495,
      "ĠYork": 6496,
      "åĪĹ": 6497,
      "Ġbreast": 6498,
      "Ġintended": 6499,
      "suff": 6500,
      "Ġattend": 6501,
      "Connection": 6502,
      "Ġglory": 6503,
      "Ġdiscover": 6504,
      "Ġdiscuss": 6505,
      "Ġincludes": 6506,
      "prec": 6507,
      "Ġpaths": 6508,
      "ABLE": 6509,
      "Ġcarefully": 6510,
      "ãĥ³ãĥĪ": 6511,
      "Ġeduc": 6512,
      "III": 6513,
      "Ġproduct": 6514,
      "Ġlibrary": 6515,
      "Ġcaused": 6516,
      "imental": 6517,
      "Ġidentity": 6518,
      "Ġmatches": 6519,
      "condition": 6520,
      "Prot": 6521,
      "children": 6522,
      "Ġmurder": 6523,
      "Ġdeleted": 6524,
      "Ġkwargs": 6525,
      "ç®¡çĲĨ": 6526,
      "lysses": 6527,
      "\"></": 6528,
      "66": 6529,
      "Create": 6530,
      "Sc": 6531,
      "bert": 6532,
      "ky": 6533,
      "kin": 6534,
      "sal": 6535,
      "section": 6536,
      "xe": 6537,
      "});": 6538,
      "¨¡": 6539,
      "ç¼": 6540,
      "ë³": 6541,
      "Ġtro": 6542,
      "orne": 6543,
      "itic": 6544,
      "Ġfetch": 6545,
      "Ġdouble": 6546,
      "Ġhabit": 6547,
      "Ġtools": 6548,
      "ionary": 6549,
      "stone": 6550,
      "adv": 6551,
      "Ġglobal": 6552,
      "Ġbeat": 6553,
      "acter": 6554,
      "ĠSim": 6555,
      "ĠSch": 6556,
      "ĠCreate": 6557,
      "rible": 6558,
      "Ġ`-": 6559,
      "ĠTheir": 6560,
      "username": 6561,
      "Ġexternal": 6562,
      "ortal": 6563,
      "ĠBen": 6564,
      "Ġ[-": 6565,
      "Ġseat": 6566,
      "Ġcompar": 6567,
      "Ġchair": 6568,
      "Ġtrade": 6569,
      "Ġenum": 6570,
      "à¦¸": 6571,
      "show": 6572,
      "Ġbrown": 6573,
      "Ġquant": 6574,
      "Ġourselves": 6575,
      "Ġaddition": 6576,
      "Ġlisten": 6577,
      "domain": 6578,
      "Ġheads": 6579,
      "ä»İ": 6580,
      "ìĿĢ": 6581,
      "Ġrecent": 6582,
      "([\"": 6583,
      "architecture": 6584,
      "Ġdistinct": 6585,
      "Ġturning": 6586,
      "Ġpossess": 6587,
      "Ġboard": 6588,
      "Ġfailure": 6589,
      "Ġsky": 6590,
      "ĠWhich": 6591,
      "Ġmoving": 6592,
      "current": 6593,
      "Ġetc": 6594,
      "handler": 6595,
      "ukan": 6596,
      "related": 6597,
      "gypt": 6598,
      "ĠAmerica": 6599,
      "Ġpytest": 6600,
      "Ġstopped": 6601,
      "Ġcalm": 6602,
      "ĠGenerator": 6603,
      "Ġpractice": 6604,
      "Ġescape": 6605,
      "Ġfavour": 6606,
      "ĠSIGN": 6607,
      "RGB": 6608,
      "hentic": 6609,
      "usalem": 6610,
      "John": 6611,
      "éªĮ": 6612,
      "Ġ@,@": 6613,
      "08": 6614,
      "96": 6615,
      "JSON": 6616,
      "ML": 6617,
      "ZW": 6618,
      "aire": 6619,
      "cap": 6620,
      "cpu": 6621,
      "fast": 6622,
      "git": 6623,
      "mary": 6624,
      "rid": 6625,
      "rics": 6626,
      "temp": 6627,
      "Ð´": 6628,
      "Ú©": 6629,
      "Ġsql": 6630,
      "arant": 6631,
      "Ġpure": 6632,
      "iced": 6633,
      "ador": 6634,
      "iments": 6635,
      "ĠSer": 6636,
      "herit": 6637,
      "expr": 6638,
      "allel": 6639,
      "ĠLove": 6640,
      "ells": 6641,
      "ĠRec": 6642,
      "ãĤĮ": 6643,
      "ĠOld": 6644,
      "Ġdost": 6645,
      "Ġsheep": 6646,
      "Ġpride": 6647,
      "Ġadmin": 6648,
      "à¦¤": 6649,
      "document": 6650,
      "Ġdescription": 6651,
      "Ġbless": 6652,
      "Ġpassage": 6653,
      "Ġoffice": 6654,
      "asked": 6655,
      "{{%": 6656,
      "Ġdecimal": 6657,
      "Ġë°": 6658,
      "Ġglance": 6659,
      "Ġstarting": 6660,
      "workloads": 6661,
      "åħ³": 6662,
      "Ġdeliver": 6663,
      "Ġrepresents": 6664,
      "Ġdiscovered": 6665,
      "serve": 6666,
      "party": 6667,
      "ETA": 6668,
      "Ġappropri": 6669,
      "ĠRequest": 6670,
      "åŃĹæ®µ": 6671,
      "proto": 6672,
      "Ð¾Ð²": 6673,
      "Ġsolid": 6674,
      "Ġpolitical": 6675,
      "Ġbeside": 6676,
      "ĠBritain": 6677,
      "ãĤ¯ãĥ©": 6678,
      "Ġentirely": 6679,
      "ĠìĿ´": 6680,
      "éĢļè¿ĩ": 6681,
      "è½½": 6682,
      "ãĥĨãĤ£": 6683,
      "athered": 6684,
      "ImplementedError": 6685,
      "77": 6686,
      "Ah": 6687,
      "Book": 6688,
      "CM": 6689,
      "Decimal": 6690,
      "PHA": 6691,
      "See": 6692,
      "URL": 6693,
      "VG": 6694,
      "double": 6695,
      "dims": 6696,
      "global": 6697,
      "maid": 6698,
      "âĶ": 6699,
      "ç¬": 6700,
      "ëĲ": 6701,
      "Ġíķ": 6702,
      "ĠÃ©": 6703,
      "itiz": 6704,
      "ald": 6705,
      "Ġpet": 6706,
      "Ġpity": 6707,
      "Ġnormal": 6708,
      "ceived": 6709,
      "Ġ\"%": 6710,
      "Ġbeast": 6711,
      "Ġforget": 6712,
      "thought": 6713,
      "agon": 6714,
      "agged": 6715,
      "Ġshot": 6716,
      "these": 6717,
      "Ġcomment": 6718,
      "outhern": 6719,
      "ordinary": 6720,
      "ĠDNS": 6721,
      "Ġusual": 6722,
      "astic": 6723,
      "Ġspent": 6724,
      "Ġplugin": 6725,
      "Ġsettle": 6726,
      "Ġflowers": 6727,
      "Ġsyntax": 6728,
      "Ġruntime": 6729,
      "ATE": 6730,
      "å®ŀ": 6731,
      "poses": 6732,
      "Ġpleased": 6733,
      "Ġencour": 6734,
      "Ġencoun": 6735,
      "partition": 6736,
      "Required": 6737,
      "Ġbookmark": 6738,
      "annotations": 6739,
      "ä¹ī": 6740,
      "ä¹ĭ": 6741,
      "Ġlaws": 6742,
      "Ġinteresting": 6743,
      "Ġconstant": 6744,
      "books": 6745,
      "Ġwaters": 6746,
      "å½ĵ": 6747,
      "resolve": 6748,
      "Ġearnest": 6749,
      "è°ĥåº¦": 6750,
      "Ġopposite": 6751,
      "(-": 6752,
      "93": 6753,
      ">,": 6754,
      "Cert": 6755,
      "PS": 6756,
      "View": 6757,
      "dy": 6758,
      "overy": 6759,
      "pull": 6760,
      "æ¯": 6761,
      "è·": 6762,
      "Ġing": 6763,
      "Ġtent": 6764,
      "Ġtend": 6765,
      "Ġsorrow": 6766,
      "Ġsitting": 6767,
      "ese": 6768,
      "esar": 6769,
      "orous": 6770,
      "editor": 6771,
      "Ġbill": 6772,
      "Ġfol": 6773,
      "Ġdance": 6774,
      "Ġinner": 6775,
      "Ġthreat": 6776,
      "Ġnull": 6777,
      "Ġreve": 6778,
      "ĠIr": 6779,
      "seek": 6780,
      "uliar": 6781,
      "ĠAre": 6782,
      "abilities": 6783,
      "Ġ(`": 6784,
      "ĠMer": 6785,
      "ãģĤ": 6786,
      "ãģĨ": 6787,
      "tools": 6788,
      "plex": 6789,
      "plete": 6790,
      "Ġtrain": 6791,
      "ĠEst": 6792,
      "Ġlearning": 6793,
      "Ġ..": 6794,
      "ãĤ¸": 6795,
      "Ġ255": 6796,
      "Ġclub": 6797,
      "ugins": 6798,
      "Ġprison": 6799,
      "ollows": 6800,
      "actions": 6801,
      "shut": 6802,
      "ĠUse": 6803,
      "Ġseeing": 6804,
      "Ġcouldn": 6805,
      "Ġcollection": 6806,
      "Ġadding": 6807,
      "1234": 6808,
      "åĲ¯": 6809,
      "unday": 6810,
      "files": 6811,
      "Ġearlier": 6812,
      "Ġextended": 6813,
      "Ġminute": 6814,
      "htmlelement": 6815,
      "Ġcoast": 6816,
      "Ġà¦ª": 6817,
      "Attributes": 6818,
      "Ġhardly": 6819,
      "Ġê°": 6820,
      "ISO": 6821,
      "Ġdrop": 6822,
      "Ġloaded": 6823,
      "password": 6824,
      "Ġexecution": 6825,
      "Ġpreviously": 6826,
      "ä¾Ľ": 6827,
      "Ġjudgment": 6828,
      "ìłķ": 6829,
      "Ġparticularly": 6830,
      "Ġresolved": 6831,
      "çŃĸ": 6832,
      "Ġlords": 6833,
      "Ġvirtue": 6834,
      "ĠSyntax": 6835,
      "Ġwalls": 6836,
      "Ġfifty": 6837,
      "Ġstructure": 6838,
      "Ġupdated": 6839,
      "Ġphysical": 6840,
      "Down": 6841,
      "Em": 6842,
      "EmbedLiveSample": 6843,
      "FO": 6844,
      "Ingress": 6845,
      "Parser": 6846,
      "Sign": 6847,
      "Where": 6848,
      "ZS": 6849,
      "family": 6850,
      "give": 6851,
      "ipe": 6852,
      "large": 6853,
      "mk": 6854,
      "morrow": 6855,
      "nec": 6856,
      "uf": 6857,
      "wo": 6858,
      "xff": 6859,
      "Ð¹": 6860,
      "æĦ": 6861,
      "Ġic": 6862,
      "Ġtor": 6863,
      "Ġain": 6864,
      "ino": 6865,
      "Ġsample": 6866,
      "onents": 6867,
      "itated": 6868,
      "Ġcy": 6869,
      "Ġbread": 6870,
      "Ġfond": 6871,
      "Ġfault": 6872,
      "Ġfaint": 6873,
      "Ġmaterial": 6874,
      "Ġdari": 6875,
      "leaf": 6876,
      "Ġeager": 6877,
      "Ġ\",": 6878,
      "Ġ\"-": 6879,
      "uries": 6880,
      "vey": 6881,
      "acc": 6882,
      "irits": 6883,
      "001": 6884,
      "efined": 6885,
      "Ġrain": 6886,
      "Ġrare": 6887,
      "Ġstatic": 6888,
      "Ġhistor": 6889,
      "ĠMac": 6890,
      "ĠMart": 6891,
      "Ġ`/": 6892,
      "Ġshowed": 6893,
      "ĠBab": 6894,
      "ĠBoy": 6895,
      "ĠHim": 6896,
      "``.": 6897,
      "article": 6898,
      "ĠFOR": 6899,
      "Ġwebs": 6900,
      "Ġmeas": 6901,
      "ĠDE": 6902,
      "Ġdeb": 6903,
      "ousin": 6904,
      "avy": 6905,
      "Ġ21": 6906,
      "Ġclusters": 6907,
      "Ġpraise": 6908,
      "ĠJSON": 6909,
      "ĠThr": 6910,
      "ĠThom": 6911,
      "ĠKe": 6912,
      "ĠKING": 6913,
      "ialect": 6914,
      "Ġacquaint": 6915,
      "assertRaisesRegex": 6916,
      "Exp": 6917,
      "front": 6918,
      "ciple": 6919,
      "Ġhearts": 6920,
      "standing": 6921,
      "Ġmerely": 6922,
      "Ġ128": 6923,
      "Ġoperations": 6924,
      "Ġoperator": 6925,
      "Ġquestions": 6926,
      "Ġwatching": 6927,
      "Ġdrawn": 6928,
      "Ġanimation": 6929,
      "Ġcreating": 6930,
      "Ġbitter": 6931,
      "è´Ł": 6932,
      "Ġlogging": 6933,
      "Ġneighbour": 6934,
      "å·¥": 6935,
      "æľįåĬ¡åĻ¨": 6936,
      "private": 6937,
      "íħĮìĿ´ë": 6938,
      "Can": 6939,
      "De": 6940,
      "Point": 6941,
      "UR": 6942,
      "Watch": 6943,
      "bec": 6944,
      "gate": 6945,
      "lst": 6946,
      "policy": 6947,
      "ye": 6948,
      "±»": 6949,
      "Ø¯": 6950,
      "ç±»": 6951,
      "ê·¸": 6952,
      "ĠÃł": 6953,
      "ĦĪ": 6954,
      "Ġwol": 6955,
      "enance": 6956,
      "ishes": 6957,
      "Ġcou": 6958,
      "Ġbark": 6959,
      "Ġfac": 6960,
      "Ġmot": 6961,
      "Ġhouses": 6962,
      "Ġpec": 6963,
      "lege": 6964,
      "Ġinstr": 6965,
      "oms": 6966,
      "eting": 6967,
      "etcd": 6968,
      "Ġgall": 6969,
      "ĠAugust": 6970,
      "quir": 6971,
      "ĠSw": 6972,
      "ĠSouth": 6973,
      "abases": 6974,
      "Ġstir": 6975,
      "unsafe": 6976,
      "allowed": 6977,
      "ĠNULL": 6978,
      "akap": 6979,
      "Ġdeploy": 6980,
      "ĠEgypt": 6981,
      "ĠRead": 6982,
      "ĠObject": 6983,
      "ipTest": 6984,
      "Ġouter": 6985,
      "Ġenv": 6986,
      "Ġprer": 6987,
      "ĠJud": 6988,
      "Ġjo": 6989,
      "cribed": 6990,
      "Ġdistr": 6991,
      "Ġ31": 6992,
      "pril": 6993,
      "ĠValid": 6994,
      "ĠĠĠĠĠĠĠĠĠĠĠĠĠĠĠĠĠĠĠĠĠĠĠĠĠĠĠĠĠĠĠĠĠĠ": 6995,
      "Ġgreatly": 6996,
      "paramet": 6997,
      "Ġnews": 6998,
      "Ġthrone": 6999,
      "Ġinstances": 7000,
      "scope": 7001,
      "Ġunderstood": 7002,
      "ìĿ¼": 7003,
      "Ġpresently": 7004,
      "Ġrequested": 7005,
      "å®ĥ": 7006,
      "dirs": 7007,
      "Ġbelieved": 7008,
      "Ġjustice": 7009,
      "ierce": 7010,
      "([[": 7011,
      "çĶ¨äºİ": 7012,
      "Ġarrays": 7013,
      "special": 7014,
      "Ġextrem": 7015,
      "ICAg": 7016,
      "ãĥ¼ãĥ«": 7017,
      "Ġpowerful": 7018,
      "Ġexists": 7019,
      "starts": 7020,
      "assertIsNone": 7021,
      "Ġmoral": 7022,
      "kwds": 7023,
      "joinpath": 7024,
      "éĢī": 7025,
      "ä»¥ä¸ĭ": 7026,
      "å®ļä¹ī": 7027,
      "Ġpopup": 7028,
      "Ġtalking": 7029,
      "Ġdivine": 7030,
      "Ġliberty": 7031,
      "Ġfortune": 7032,
      "Ġwoods": 7033,
      "locale": 7034,
      "Ã§Ã£o": 7035,
      "Ġmajor": 7036,
      "Ġimprove": 7037,
      "Google": 7038,
      "ê³ł": 7039,
      "Ġbrowsers": 7040,
      "recursive": 7041,
      "Ġinhabit": 7042,
      "toolbar": 7043,
      "çŃĸçķ¥": 7044,
      ")</": 7045,
      "63": 7046,
      "Be": 7047,
      "BETA": 7048,
      "Hel": 7049,
      "Meta": 7050,
      "OIN": 7051,
      "bind": 7052,
      "cm": 7053,
      "fake": 7054,
      "kg": 7055,
      "mas": 7056,
      "mac": 7057,
      "rad": 7058,
      "rhs": 7059,
      "random": 7060,
      "¨íħĮìĿ´ë": 7061,
      "ÙĪ": 7062,
      "å±": 7063,
      "åł": 7064,
      "ë©": 7065,
      "Ġtempt": 7066,
      "oned": 7067,
      "onel": 7068,
      "orary": 7069,
      "ndim": 7070,
      "Ġcel": 7071,
      "Ġclo": 7072,
      "Ġbul": 7073,
      "ouched": 7074,
      "Ġfurn": 7075,
      "Ġmeth": 7076,
      "anim": 7077,
      "always": 7078,
      "Ġinnoc": 7079,
      "icles": 7080,
      "Ġgar": 7081,
      "Ġhero": 7082,
      "Ġ\".": 7083,
      "rose": 7084,
      "quer": 7085,
      "ĠSince": 7086,
      "ĠMont": 7087,
      "ĠBefore": 7088,
      "ĠLike": 7089,
      "ardon": 7090,
      "Ġchosen": 7091,
      "consc": 7092,
      "Ġtransp": 7093,
      "oked": 7094,
      "aker": 7095,
      "pping": 7096,
      "ĠGl": 7097,
      "ĠOption": 7098,
      "Ġ24": 7099,
      "coming": 7100,
      "argaret": 7101,
      "ailing": 7102,
      "Ġassign": 7103,
      "grad": 7104,
      "ĠUlysses": 7105,
      "ĠHeaven": 7106,
      "\")}}.": 7107,
      "Ġgets": 7108,
      "ĠVh": 7109,
      "Ġroof": 7110,
      "Ġremaining": 7111,
      "Ġworked": 7112,
      "Ġinterval": 7113,
      "....": 7114,
      "ounced": 7115,
      "Ġinstant": 7116,
      "ATION": 7117,
      "Ġfright": 7118,
      "æľĢ": 7119,
      "Ġcharset": 7120,
      "company": 7121,
      "backend": 7122,
      "Ġdistant": 7123,
      "Ġåľ": 7124,
      "Ġæİ": 7125,
      "Ġrestart": 7126,
      "Ġà¦ķ": 7127,
      "åĬł": 7128,
      "Ġnumerous": 7129,
      "packages": 7130,
      "lineno": 7131,
      "crt": 7132,
      "Ġjudge": 7133,
      "ECON": 7134,
      "Ġremarked": 7135,
      "roundtrip": 7136,
      "ãģŁãĤ": 7137,
      "pipe": 7138,
      "svg": 7139,
      "sembly": 7140,
      "ĠGermany": 7141,
      "Ġperfectly": 7142,
      "Ġsurprise": 7143,
      "é»ĺè®¤åĢ¼": 7144,
      "course": 7145,
      "éľĢè¦ģ": 7146,
      "éªĮè¯ģ": 7147,
      "akapo": 7148,
      "parametrize": 7149,
      "¨íħĮìĿ´ëĦĪ": 7150,
      "Bund": 7151,
      "Don": 7152,
      "EXT": 7153,
      "Good": 7154,
      "MT": 7155,
      "Num": 7156,
      "SC": 7157,
      "Select": 7158,
      "capt": 7159,
      "gn": 7160,
      "oor": 7161,
      "rot": 7162,
      "sent": 7163,
      "templ": 7164,
      "tls": 7165,
      "éĥ": 7166,
      "Ġeld": 7167,
      "Ĳè¡Į": 7168,
      "ĺ¯": 7169,
      "Ġtechn": 7170,
      "Ġsel": 7171,
      "Ġsons": 7172,
      "Ġsession": 7173,
      "oring": 7174,
      "Ġcss": 7175,
      "Ġbent": 7176,
      "Ġfaces": 7177,
      "elcome": 7178,
      "ashed": 7179,
      "Ġthin": 7180,
      "Ġthorough": 7181,
      "Ġlies": 7182,
      "ado": 7183,
      "oder": 7184,
      "idently": 7185,
      "seen": 7186,
      "Ġforced": 7187,
      "ulous": 7188,
      "chief": 7189,
      "Ġaltern": 7190,
      "Ġant": 7191,
      "Ġrough": 7192,
      "ĠCr": 7193,
      "ĠCall": 7194,
      "ĠMor": 7195,
      "Ġshowing": 7196,
      "ushing": 7197,
      "opname": 7198,
      "Ġdefines": 7199,
      "Ġdefinition": 7200,
      "ante": 7201,
      "ords": 7202,
      "Ġtraffic": 7203,
      "Ġprosp": 7204,
      "ĠEast": 7205,
      "ĠEvery": 7206,
      "ĠGreat": 7207,
      "Ġlov": 7208,
      "Ġspan": 7209,
      "Ġshell": 7210,
      "erness": 7211,
      "ĠJuly": 7212,
      "erves": 7213,
      "ĠUncle": 7214,
      "Ġscale": 7215,
      "ĠInvalid": 7216,
      "ĠìĹ": 7217,
      "Ġgetargs": 7218,
      "Ġpartition": 7219,
      "Ġapart": 7220,
      "never": 7221,
      "Ġsupposed": 7222,
      "åıĸ": 7223,
      "STFN": 7224,
      "Ġcurious": 7225,
      "Ġentry": 7226,
      "collect": 7227,
      "Exit": 7228,
      "è¿Ĳè¡Į": 7229,
      "Ġsignific": 7230,
      "Ġnearer": 7231,
      "Ġæĺ¯": 7232,
      "Ġhappen": 7233,
      "ĠAtl": 7234,
      "initions": 7235,
      "Ġconfidence": 7236,
      "åºı": 7237,
      "prototype": 7238,
      "Ġcauses": 7239,
      "Ġbusy": 7240,
      "ĠWilliam": 7241,
      "eloper": 7242,
      "Ġgentlemen": 7243,
      "Image": 7244,
      "Ġpieces": 7245,
      "Ġsuccessful": 7246,
      "ynam": 7247,
      "Ġweeks": 7248,
      "è§£": 7249,
      "break": 7250,
      "appear": 7251,
      "Ġlarger": 7252,
      "Ġpleasant": 7253,
      "ordinate": 7254,
      "æģ¯": 7255,
      "startswith": 7256,
      "éĥ¨": 7257,
      "\"}": 7258,
      ")):": 7259,
      "61": 7260,
      ">`.": 7261,
      "Fal": 7262,
      "Job": 7263,
      "Log": 7264,
      "Your": 7265,
      "cal": 7266,
      "done": 7267,
      "hon": 7268,
      "iation": 7269,
      "king": 7270,
      "nom": 7271,
      "sleep": 7272,
      "wick": 7273,
      "xml": 7274,
      "£Ģ": 7275,
      "Ġtur": 7276,
      "Ġsplit": 7277,
      "real": 7278,
      "reland": 7279,
      "enge": 7280,
      "Ġcop": 7281,
      "Ġmigration": 7282,
      "eler": 7283,
      "aning": 7284,
      "alias": 7285,
      "Ġdelete": 7286,
      "Ġpix": 7287,
      "Ġini": 7288,
      "Ġinfer": 7289,
      "ionError": 7290,
      "ico": 7291,
      "enter": 7292,
      "ader": 7293,
      "Ġaside": 7294,
      "ĠSu": 7295,
      "effect": 7296,
      "Ġrub": 7297,
      "union": 7298,
      "ĠMany": 7299,
      "Ġshoot": 7300,
      "ĠBo": 7301,
      "ĠLook": 7302,
      "ĠFA": 7303,
      "ĠFather": 7304,
      "ĠFair": 7305,
      "controllers": 7306,
      "ĠDel": 7307,
      "ĠDav": 7308,
      "ĠRep": 7309,
      "Ġsake": 7310,
      "Ġ23": 7311,
      "Ġspoken": 7312,
      "Ġstrip": 7313,
      "Ġstranger": 7314,
      "pered": 7315,
      "ĠThy": 7316,
      "Ġjoint": 7317,
      "shard": 7318,
      "sett": 7319,
      "Ġtimeout": 7320,
      "ientific": 7321,
      "Ġrob": 7322,
      "Ġblow": 7323,
      "testcapi": 7324,
      "Ġapi": 7325,
      "Ġinteractive": 7326,
      "Ġinterpret": 7327,
      "Ġolder": 7328,
      "Ġsmooth": 7329,
      "Ġcruel": 7330,
      "Ġrespond": 7331,
      "Ġaccompl": 7332,
      "assertRaisesMessage": 7333,
      "Ġgenerated": 7334,
      "Ġsupports": 7335,
      "Ġ64": 7336,
      "ÐµÑĤ": 7337,
      "Ġminds": 7338,
      "\"].": 7339,
      "Ġaffect": 7340,
      "Ġportion": 7341,
      "Ġexistence": 7342,
      "Ġê¸°": 7343,
      "Ø§Ø": 7344,
      "description": 7345,
      "Process": 7346,
      "Propert": 7347,
      "Ġengaged": 7348,
      "skipUnless": 7349,
      "looking": 7350,
      "timeline": 7351,
      "ìĦ±": 7352,
      "Ġroute": 7353,
      "rsplit": 7354,
      "properties": 7355,
      "Ġdomain": 7356,
      "Ġgrowth": 7357,
      "ãĥķãĤ£": 7358,
      "Ġproperly": 7359,
      "ĠAgnes": 7360,
      "small": 7361,
      "ë¦¬ì": 7362,
      "Ġestablished": 7363,
      "Ġwarnings": 7364,
      "ĠMadame": 7365,
      "FORM": 7366,
      "logging": 7367,
      "Handler": 7368,
      "Ġgarden": 7369,
      "Ġobliged": 7370,
      "94": 7371,
      "Fil": 7372,
      "Mix": 7373,
      "Off": 7374,
      "Promise": 7375,
      "Some": 7376,
      "eav": 7377,
      "father": 7378,
      "ien": 7379,
      "mind": 7380,
      "rg": 7381,
      "sur": 7382,
      "spe": 7383,
      "times": 7384,
      "year": 7385,
      "¿ãĥ¼": 7386,
      "é¢": 7387,
      "éģ": 7388,
      "ëı": 7389,
      "Ģì": 7390,
      "inery": 7391,
      "req": 7392,
      "atr": 7393,
      "atively": 7394,
      "Ġwings": 7395,
      "Ġow": 7396,
      "Ġoath": 7397,
      "Ġcoll": 7398,
      "Ġcgroup": 7399,
      "Ġban": 7400,
      "Ġbrief": 7401,
      "Ġfold": 7402,
      "Ġfollows": 7403,
      "elve": 7404,
      "Ġdare": 7405,
      "Ġhither": 7406,
      "Ġpages": 7407,
      "Ġpowers": 7408,
      "Ġnine": 7409,
      "Ġnations": 7410,
      "Ġlinks": 7411,
      "Ġ\"__": 7412,
      "olut": 7413,
      "vere": 7414,
      "ĠTO": 7415,
      "iguous": 7416,
      "ĠSub": 7417,
      "throw": 7418,
      "Ġalive": 7419,
      "ĠMus": 7420,
      "ĠMoses": 7421,
      "ĠPRO": 7422,
      "ersistent": 7423,
      "ãģ¤": 7424,
      "\")),": 7425,
      "ivision": 7426,
      "too": 7427,
      "Ġmeasure": 7428,
      "Ġtrunc": 7429,
      "cloud": 7430,
      "Ġsaith": 7431,
      "Ġclothes": 7432,
      "uge": 7433,
      "Ġprote": 7434,
      "Ġ*,": 7435,
      "Ġplants": 7436,
      "Ġelection": 7437,
      "eph": 7438,
      "à¦¯": 7439,
      "contact": 7440,
      "Ġpoem": 7441,
      "../": 7442,
      "ä»ĸ": 7443,
      "Ġargval": 7444,
      "Ġargrepr": 7445,
      "vention": 7446,
      "Ġdoctor": 7447,
      "auto": 7448,
      "Ġ**`": 7449,
      "component": 7450,
      "ĠBrowser": 7451,
      "Ġpresented": 7452,
      "Ġservant": 7453,
      "Ġreferences": 7454,
      "Ġseconds": 7455,
      "Ġchanging": 7456,
      "ĠCluster": 7457,
      "Ġthreading": 7458,
      "ĠresourceVersion": 7459,
      "Ġdevelopers": 7460,
      "Ġprinted": 7461,
      "Ġeffects": 7462,
      "Environment": 7463,
      "æķ°æį®": 7464,
      "clusion": 7465,
      "Ġclosely": 7466,
      "ĠEuropean": 7467,
      "Admin": 7468,
      "svc": 7469,
      "Ġhighest": 7470,
      "ivalent": 7471,
      "ĠJerusalem": 7472,
      "ãģĵãģ¨": 7473,
      "Manager": 7474,
      "Ġsafety": 7475,
      "åĳ½": 7476,
      "lemn": 7477,
      "ä¿¡æģ¯": 7478,
      "Ġopportunity": 7479,
      "è´Łè½½": 7480,
      "\"><": 7481,
      "${": 7482,
      "53": 7483,
      "86": 7484,
      "Am": 7485,
      "Accept": 7486,
      "Dirs": 7487,
      "FI": 7488,
      "Foreign": 7489,
      "JP": 7490,
      "Su": 7491,
      "Using": 7492,
      "baz": 7493,
      "blog": 7494,
      "hi": 7495,
      "iel": 7496,
      "ko": 7497,
      "priority": 7498,
      "rb": 7499,
      "scription": 7500,
      "world": 7501,
      "zeros": 7502,
      "}.": 7503,
      "ìļ": 7504,
      "Ġtear": 7505,
      "Ġach": 7506,
      "enn": 7507,
      "encode": 7508,
      "Ġfired": 7509,
      "Ġmap": 7510,
      "anth": 7511,
      "another": 7512,
      "Ġda": 7513,
      "Ġded": 7514,
      "Ġinit": 7515,
      "Ġlang": 7516,
      "trace": 7517,
      "irth": 7518,
      "Ġasp": 7519,
      "apan": 7520,
      "Ġaltogether": 7521,
      "Ġrul": 7522,
      "Ġconvert": 7523,
      "ĠCH": 7524,
      "umns": 7525,
      "ĠMaj": 7526,
      "Ġshame": 7527,
      "Ġattract": 7528,
      "ĠBC": 7529,
      "ĠBet": 7530,
      "Ġkings": 7531,
      "Ġsevent": 7532,
      "ĠLou": 7533,
      "cli": 7534,
      "acked": 7535,
      "ĠRust": 7536,
      "ĠGovernment": 7537,
      "ĠOct": 7538,
      "Ġclim": 7539,
      "ĠThose": 7540,
      "Ġgrowing": 7541,
      "Ġwouldn": 7542,
      "ĠUsing": 7543,
      "Ġflesh": 7544,
      "being": 7545,
      "Ġsubprocess": 7546,
      "ARE": 7547,
      "words": 7548,
      "Ġframes": 7549,
      "Ġbuy": 7550,
      "Ġkubeadm": 7551,
      "asonable": 7552,
      "ĠÐ¿": 7553,
      "ÐµÑĢ": 7554,
      "generate": 7555,
      "Ġteeth": 7556,
      "ĠQue": 7557,
      "know": 7558,
      "Ġbroke": 7559,
      "Ġvariables": 7560,
      "ĠíĻ": 7561,
      "going": 7562,
      "æĢģ": 7563,
      "Ġdemonstr": 7564,
      "supported": 7565,
      "transition": 7566,
      "ĠSpirit": 7567,
      "Ġphilosop": 7568,
      "Ġmaximum": 7569,
      "Ġofficer": 7570,
      "eleases": 7571,
      "Ġintroduced": 7572,
      "resourceVersionMatch": 7573,
      "ĠEnter": 7574,
      "Ġtemper": 7575,
      "Ġdollars": 7576,
      "Ġcrowd": 7577,
      "Ġtidak": 7578,
      "layout": 7579,
      "Operation": 7580,
      "å·¥ä½ľ": 7581,
      "ĠAtlantic": 7582,
      "%,": 7583,
      "10000000000000000": 7584,
      "87": 7585,
      ">'": 7586,
      "Back": 7587,
      "PRO": 7588,
      "YX": 7589,
      "bell": 7590,
      "cut": 7591,
      "cke": 7592,
      "demo": 7593,
      "iate": 7594,
      "mut": 7595,
      "ping": 7596,
      "sources": 7597,
      "take": 7598,
      "xx": 7599,
      "æ¨¡": 7600,
      "íĦ": 7601,
      "íĶ": 7602,
      "Ġec": 7603,
      "inal": 7604,
      "Ġsides": 7605,
      "repe": 7606,
      "atory": 7607,
      "orious": 7608,
      "itter": 7609,
      "Ġfoo": 7610,
      "Ġha": 7611,
      "Ġtooltip": 7612,
      "entry": 7613,
      "ota": 7614,
      "ĠIreland": 7615,
      "Ġgames": 7616,
      "Ġglob": 7617,
      "idget": 7618,
      "Ġ\"<": 7619,
      "Ġ\"âł": 7620,
      "ĠTru": 7621,
      "ĠTLS": 7622,
      "ĠSunday": 7623,
      "Ġraw": 7624,
      "Ġrising": 7625,
      "ĠCity": 7626,
      "ĠCustom": 7627,
      "umph": 7628,
      "Ġvoc": 7629,
      "ĠMag": 7630,
      "ĠMidge": 7631,
      "Ġexamples": 7632,
      "ĠPR": 7633,
      "ĠPre": 7634,
      "ĠHom": 7635,
      "ĠHouse": 7636,
      "ãģĭ": 7637,
      "Ġ[])": 7638,
      "ĠFe": 7639,
      "ĠFort": 7640,
      "Ġchamber": 7641,
      "Ġchannel": 7642,
      "control": 7643,
      "Ġsolemn": 7644,
      "arest": 7645,
      "Ġspr": 7646,
      "Ġstroke": 7647,
      "Ġstrugg": 7648,
      "Ġjson": 7649,
      "Ġgrown": 7650,
      "Ġassume": 7651,
      "reading": 7652,
      "sets": 7653,
      "Ġ{{<": 7654,
      "await": 7655,
      "Ġamid": 7656,
      "ieur": 7657,
      "Ġpointer": 7658,
      "ALPHA": 7659,
      "Ġcommitted": 7660,
      "Ġinternal": 7661,
      "ONE": 7662,
      "Ġcompiler": 7663,
      "onsieur": 7664,
      "Ġended": 7665,
      "ä»»": 7666,
      "Ġparse": 7667,
      "Ġmighty": 7668,
      "çĶ±": 7669,
      "retch": 7670,
      "slice": 7671,
      "åħĪ": 7672,
      "Ġcourage": 7673,
      "Ġguarant": 7674,
      "Ġterse": 7675,
      "Ġterms": 7676,
      "subprocess": 7677,
      "IDR": 7678,
      "Ġminimum": 7679,
      "Ġsigner": 7680,
      "Ġhappiness": 7681,
      "Ġà¦ı": 7682,
      "Ġteach": 7683,
      "TEXT": 7684,
      "æĪĳ": 7685,
      "Ġexpressions": 7686,
      "second": 7687,
      "åºĵ": 7688,
      "ological": 7689,
      "Ġprompt": 7690,
      "ĠComp": 7691,
      "æĸ¹": 7692,
      "Ġverify": 7693,
      "checke": 7694,
      "Ġidentical": 7695,
      "Ġmarry": 7696,
      "Ġdrawing": 7697,
      "uitar": 7698,
      "querySelector": 7699,
      "agram": 7700,
      "Ġprivile": 7701,
      "Ġremarkable": 7702,
      "pkgdir": 7703,
      "Ġperformed": 7704,
      "Ġworthy": 7705,
      "Ġpickle": 7706,
      "Ġenemies": 7707,
      "Ġscarcely": 7708,
      "Ġfrequently": 7709,
      "ĠSmith": 7710,
      "Ġcircumstances": 7711,
      "Ġexercise": 7712,
      "gorith": 7713,
      "ĠFormat": 7714,
      "ĠServices": 7715,
      "checkequal": 7716,
      "!'": 7717,
      "74": 7718,
      ":\\": 7719,
      ">[": 7720,
      "Core": 7721,
      "EB": 7722,
      "Endpoint": 7723,
      "God": 7724,
      "GER": 7725,
      "IV": 7726,
      "LON": 7727,
      "MD": 7728,
      "TA": 7729,
      "TYPE": 7730,
      "don": 7731,
      "jal": 7732,
      "lass": 7733,
      "life": 7734,
      "mor": 7735,
      "mult": 7736,
      "mount": 7737,
      "rt": 7738,
      "save": 7739,
      "æ£Ģ": 7740,
      "ĠÑ": 7741,
      "Ġtax": 7742,
      "Ġsending": 7743,
      "ora": 7744,
      "edge": 7745,
      "Ġcitiz": 7746,
      "Ġflex": 7747,
      "Ġfirm": 7748,
      "Ġmal": 7749,
      "ellect": 7750,
      "alter": 7751,
      "Ġinquired": 7752,
      "Ġnice": 7753,
      "enth": 7754,
      "ented": 7755,
      "Ġluck": 7756,
      "ilst": 7757,
      "Ġrepr": 7758,
      "ĠIII": 7759,
      "Ġgrief": 7760,
      "Ġ'''": 7761,
      "ĠCal": 7762,
      "ĠMake": 7763,
      "ĠModel": 7764,
      "ĠMedia": 7765,
      "Ġshout": 7766,
      "ĠPart": 7767,
      "ĠPipTest": 7768,
      "ĠBay": 7769,
      "Ġkubernetes": 7770,
      "Ġkakapo": 7771,
      "ĠNature": 7772,
      "ĠNever": 7773,
      "Ġcomput": 7774,
      "iveness": 7775,
      "ãĥ¬": 7776,
      "ãĥĲ": 7777,
      "ĠRev": 7778,
      "ĠGOUR": 7779,
      "ĠGuitar": 7780,
      "ression": 7781,
      "ober": 7782,
      "Ġreset": 7783,
      "eval": 7784,
      "Ġsetup": 7785,
      "aware": 7786,
      "ixt": 7787,
      "parameters": 7788,
      "Ġflat": 7789,
      "...,": 7790,
      "Ġends": 7791,
      "success": 7792,
      "å®ī": 7793,
      "Ġthroughout": 7794,
      "ventions": 7795,
      "çĶ¨æĪ·": 7796,
      "ĠAPIs": 7797,
      "Ġstyles": 7798,
      "Ġpointed": 7799,
      "Ġskip": 7800,
      "Ġfamous": 7801,
      "black": 7802,
      "Ġhighly": 7803,
      "ĠArab": 7804,
      "Ġcurrently": 7805,
      "Ġsnow": 7806,
      "Ġneck": 7807,
      "Ġcheer": 7808,
      "linux": 7809,
      "9999": 7810,
      "Ġinstanceof": 7811,
      "Ġpersonal": 7812,
      "Ġpapers": 7813,
      "Ġregarded": 7814,
      "Ġstatement": 7815,
      "Ġoffered": 7816,
      "ãĥĹãĥ©": 7817,
      "Ġintegr": 7818,
      "========": 7819,
      "mozilla": 7820,
      "Ġsocial": 7821,
      "æĸĩä»¶": 7822,
      "Ġsacred": 7823,
      "ìŀĲ": 7824,
      "Ġnarrow": 7825,
      "Ġequivalent": 7826,
      "Ġcandid": 7827,
      "release": 7828,
      "Ġforgotten": 7829,
      "Document": 7830,
      "Ġmanifest": 7831,
      "ìĭľ": 7832,
      "æ¯ı": 7833,
      "è·¯": 7834,
      "æĦı": 7835,
      "Ġpeculiar": 7836,
      "Bundle": 7837,
      "íĦ°": 7838,
      "ĠPipTestEnvironment": 7839,
      ".+": 7840,
      ".[": 7841,
      "89": 7842,
      "Acc": 7843,
      "Cache": 7844,
      "Eng": 7845,
      "Miss": 7846,
      "Many": 7847,
      "Open": 7848,
      "Position": 7849,
      "SR": 7850,
      "UUID": 7851,
      "Will": 7852,
      "bag": 7853,
      "either": 7854,
      "live": 7855,
      "mis": 7856,
      "mother": 7857,
      "power": 7858,
      "rance": 7859,
      "total": 7860,
      "warning": 7861,
      "Ã¼": 7862,
      "Ġtall": 7863,
      "Ġast": 7864,
      "inions": 7865,
      "Ġwing": 7866,
      "Ġwished": 7867,
      "Ġcities": 7868,
      "Ġbot": 7869,
      "Ġpow": 7870,
      "Ġpair": 7871,
      "Ġpush": 7872,
      "Ġnurs": 7873,
      "stant": 7874,
      "Ġeast": 7875,
      "separ": 7876,
      "urg": 7877,
      "tran": 7878,
      "irc": 7879,
      "ĠAct": 7880,
      "ĠSuch": 7881,
      "changed": 7882,
      "Ġnoted": 7883,
      "Ġstage": 7884,
      "ĠCO": 7885,
      "external": 7886,
      "Ġatau": 7887,
      "ĠWork": 7888,
      "Ġ<<": 7889,
      "Ġtruly": 7890,
      "clock": 7891,
      "Ġprop": 7892,
      "Ġspirits": 7893,
      "ĠJe": 7894,
      "Ġplant": 7895,
      "ocked": 7896,
      "eping": 7897,
      "Ġworship": 7898,
      "Ġdiss": 7899,
      "Ġdesper": 7900,
      "âĢĮ": 7901,
      "Ġappre": 7902,
      "scr": 7903,
      "Ġsmiled": 7904,
      "Ġ%}": 7905,
      "orns": 7906,
      "Ġdefaults": 7907,
      "Ġregion": 7908,
      "Ġdoctr": 7909,
      "Ġwants": 7910,
      "ĠåŃ": 7911,
      "ĠException": 7912,
      "Ġreply": 7913,
      "rule": 7914,
      "ruption": 7915,
      "preter": 7916,
      "elta": 7917,
      "Ġpurposes": 7918,
      "initial": 7919,
      "Ġeditor": 7920,
      "ĠUnivers": 7921,
      "Ġmatching": 7922,
      "Ġproduce": 7923,
      "Ġconsiderable": 7924,
      "incip": 7925,
      "boolean": 7926,
      "stdin": 7927,
      "Timeout": 7928,
      "åĩĨ": 7929,
      "While": 7930,
      "åĮħ": 7931,
      "patcher": 7932,
      "Ġnaturally": 7933,
      "Ġsituation": 7934,
      "Security": 7935,
      "Ġsuggested": 7936,
      "å¸¸": 7937,
      "ĠQuery": 7938,
      "factory": 7939,
      "utorial": 7940,
      "Ġfingers": 7941,
      "Ġmachine": 7942,
      "Ġanxious": 7943,
      "between": 7944,
      "Ġendpoints": 7945,
      "ategory": 7946,
      "Ġì»¨íħĮìĿ´ëĦĪ": 7947,
      "ĠJanuary": 7948,
      "Ġappropriate": 7949,
      "Ġjoined": 7950,
      "ãģŁãĤģ": 7951,
      "Ġtersebut": 7952,
      ".\",": 7953,
      "/{": 7954,
      "456": 7955,
      "IST": 7956,
      "LY": 7957,
      "Op": 7958,
      "Options": 7959,
      "Tools": 7960,
      "]]": 7961,
      "away": 7962,
      "bon": 7963,
      "cases": 7964,
      "cannot": 7965,
      "closed": 7966,
      "ka": 7967,
      "law": 7968,
      "lhs": 7969,
      "mir": 7970,
      "mber": 7971,
      "selector": 7972,
      "tab": 7973,
      "xc": 7974,
      "}'": 7975,
      "´åĲĪ": 7976,
      "ìħ": 7977,
      "Ġtaught": 7978,
      "Ġapt": 7979,
      "Ġaud": 7980,
      "inent": 7981,
      "inite": 7982,
      "Ġwave": 7983,
      "esides": 7984,
      "edar": 7985,
      "Ġcow": 7986,
      "Ġmouse": 7987,
      "alian": 7988,
      "alues": 7989,
      "Ġpit": 7990,
      "Ġpoly": 7991,
      "Ġinstruct": 7992,
      "Ġlb": 7993,
      "Ġreview": 7994,
      "ĠInt": 7995,
      "Ġgently": 7996,
      "Ġgathered": 7997,
      "Ġ\"_": 7998,
      "Ġforb": 7999,
      "Ġforty": 8000,
      "Ġforces": 8001,
      "ifle": 8002,
      "Ġyes": 8003,
      "termin": 8004,
      "Ġrank": 8005,
      "Ġrhs": 8006,
      "Ġvideo": 8007,
      "exper": 8008,
      "Ġships": 8009,
      "Ġexclusive": 8010,
      "ĠHar": 8011,
      "ustr": 8012,
      "ĠLo": 8013,
      "ardener": 8014,
      "osing": 8015,
      "ãĥĥ": 8016,
      "oking": 8017,
      "ĠRom": 8018,
      "Ġsaved": 8019,
      "ãĤī": 8020,
      "Ġlose": 8021,
      "Ġreturning": 8022,
      "udget": 8023,
      "Ġwhence": 8024,
      "')}}": 8025,
      "Ġblessed": 8026,
      "othy": 8027,
      "Ġsyn": 8028,
      "ovember": 8029,
      "ounce": 8030,
      "Ġparagraph": 8031,
      "sures": 8032,
      "Cloud": 8033,
      "Ġå¯": 8034,
      "Ġdiscovery": 8035,
      "Ġmodified": 8036,
      "Ġports": 8037,
      "Ġsmaller": 8038,
      "Ġkeeping": 8039,
      "Ġtea": 8040,
      "Ð°Ñ": 8041,
      "Ġadvance": 8042,
      "Ġfourth": 8043,
      "Objects": 8044,
      "Ġdepth": 8045,
      "Ġinterested": 8046,
      "Ġverb": 8047,
      "ãĤ¹ãĥĪ": 8048,
      "Ġstreets": 8049,
      "indexOf": 8050,
      "Ġmountains": 8051,
      "Ġdescribe": 8052,
      "ÑģÑĤ": 8053,
      "Ġgenius": 8054,
      "Ġprinciples": 8055,
      "Ġsquare": 8056,
      "Syntax": 8057,
      "Ġwisdom": 8058,
      "ç§°": 8059,
      "Ġquarter": 8060,
      "IME": 8061,
      "æ³ķ": 8062,
      "Ġfinger": 8063,
      "scheduler": 8064,
      "Ġreplaced": 8065,
      "ãĤĬãģ¾ãģĻ": 8066,
      "ĠOpenAPI": 8067,
      "æıĲä¾Ľ": 8068,
      "Index": 8069,
      "ãĤ¯ãĥ©ãĤ¹ãĤ": 8070,
      "91": 8071,
      "92": 8072,
      "?--": 8073,
      "Bel": 8074,
      "Car": 8075,
      "Date": 8076,
      "Enc": 8077,
      "First": 8078,
      "LC": 8079,
      "Le": 8080,
      "Next": 8081,
      "Out": 8082,
      "URE": 8083,
      "border": 8084,
      "because": 8085,
      "hover": 8086,
      "oon": 8087,
      "oices": 8088,
      "sil": 8089,
      "ttp": 8090,
      "ua": 8091,
      "zk": 8092,
      "¢æĪ·": 8093,
      "´ë": 8094,
      "Äħ": 8095,
      "åģ": 8096,
      "éĶ": 8097,
      "éĸ": 8098,
      "ê²½": 8099,
      "ĠÚ©": 8100,
      "Ĭ¶": 8101,
      "Ġtyr": 8102,
      "Ġaid": 8103,
      "attributes": 8104,
      "Ġwond": 8105,
      "isher": 8106,
      "eding": 8107,
      "Ġcam": 8108,
      "Ġma": 8109,
      "Ġmulti": 8110,
      "elves": 8111,
      "ingle": 8112,
      "Ġdaily": 8113,
      "astr": 8114,
      "Ġpriority": 8115,
      "street": 8116,
      "ental": 8117,
      "cean": 8118,
      "ĠII": 8119,
      "Ġ\"/": 8120,
      "Ġ\"../": 8121,
      "ifice": 8122,
      "estic": 8123,
      "ĠAust": 8124,
      "ĠAng": 8125,
      "ĠApril": 8126,
      "Ġwasn": 8127,
      "those": 8128,
      "abling": 8129,
      "Ġrail": 8130,
      "Ġconcept": 8131,
      "ĠCle": 8132,
      "illo": 8133,
      "Ġ()": 8134,
      "Ġvig": 8135,
      "ĠMaster": 8136,
      "explicit": 8137,
      "ĠTherefore": 8138,
      "Ġshare": 8139,
      "ĠPet": 8140,
      "ĠPort": 8141,
      "ĠPost": 8142,
      "orthern": 8143,
      "ãģı": 8144,
      "Ġseized": 8145,
      "ĠNumber": 8146,
      "ĠList": 8147,
      "Ġproportion": 8148,
      "Ġmyst": 8149,
      "ĠGreek": 8150,
      "ounds": 8151,
      "refer": 8152,
      "eldom": 8153,
      "Ġunique": 8154,
      "Ġabund": 8155,
      "Ġability": 8156,
      "arged": 8157,
      "ĠJust": 8158,
      "Ġcontact": 8159,
      "à¦ª": 8160,
      "answer": 8161,
      "Ġbrave": 8162,
      "Ġevalu": 8163,
      "ERV": 8164,
      "ishment": 8165,
      "awn": 8166,
      "Ġamaz": 8167,
      "Ġflags": 8168,
      "Ġremo": 8169,
      "Ġcolon": 8170,
      "Ġlists": 8171,
      "ĠStreet": 8172,
      "beh": 8173,
      "attered": 8174,
      "ORS": 8175,
      "Ġsmoke": 8176,
      "ìĿ¸": 8177,
      "SSL": 8178,
      "white": 8179,
      "å®Ł": 8180,
      "å®¢æĪ·": 8181,
      "aham": 8182,
      "æľª": 8183,
      "Ġëĭ¤": 8184,
      "imitive": 8185,
      "features": 8186,
      "arrow": 8187,
      "Ġ60": 8188,
      "Ġdetect": 8189,
      "background": 8190,
      "Ġchecks": 8191
    },
    "merges": [
      [
        "Ġ",
        "Ġ"
      ],
      [
        "ĠĠ",
        "ĠĠ"
      ],
      [
        "Ġ",
        "t"
      ],
      [
        "h",
        "e"
      ],
      [
        "Ġ",
        "a"
      ],
      [
        "i",
        "n"
      ],
      [
        "e",
        "r"
      ],
      [
        "č",
        "Ċ"
      ],
      [
        "Ġ",
        "s"
      ],
      [
        "r",
        "e"
      ],
      [
        "Ġt",
        "he"
      ],
      [
        "o",
        "n"
      ],
      [
        "a",
        "t"
      ],
      [
        "Ġ",
        "w"
      ],
      [
        "e",
        "n"
      ],
      [
        "ĠĠ",
        "Ġ"
      ],
      [
        "Ġ",
        "o"
      ],
      [
        "e",
        "s"
      ],
      [
        "i",
        "s"
      ],
      [
        "o",
        "r"
      ],
      [
        "i",
        "t"
      ],
      [
        "n",
        "d"
      ],
      [
        "e",
        "d"
      ],
      [
        "Ġ",
        "c"
      ],
      [
        "ĠĠĠĠ",
        "ĠĠĠĠ"
      ],
      [
        "Ġ",
        "b"
      ],
      [
        "o",
        "u"
      ],
      [
        "Ġ",
        "f"
      ],
      [
        "a",
        "r"
      ],
      [
        "Ġ",
        "m"
      ],
      [
        "e",
        "l"
      ],
      [
        "a",
        "n"
      ],
      [
        "a",
        "l"
      ],
      [
        "in",
        "g"
      ],
      [
        "Ġ",
        "d"
      ],
      [
        "a",
        "s"
      ],
      [
        "Ġ",
        "h"
      ],
      [
        "Ġo",
        "f"
      ],
      [
        "Ġ",
        "p"
      ],
      [
        "Ġt",
        "o"
      ],
      [
        "l",
        "e"
      ],
      [
        "Ġa",
        "nd"
      ],
      [
        "Ġ",
        "in"
      ],
      [
        "Ġt",
        "h"
      ],
      [
        "ĠĠĠĠ",
        "ĠĠĠ"
      ],
      [
        "Ġ",
        "n"
      ],
      [
        "o",
        "m"
      ],
      [
        "i",
        "on"
      ],
      [
        "e",
        "t"
      ],
      [
        "i",
        "c"
      ],
      [
        "s",
        "t"
      ],
      [
        "en",
        "t"
      ],
      [
        "Ġ",
        "l"
      ],
      [
        "i",
        "l"
      ],
      [
        "a",
        "d"
      ],
      [
        "o",
        "t"
      ],
      [
        "Ġ",
        "re"
      ],
      [
        "a",
        "m"
      ],
      [
        "e",
        "c"
      ],
      [
        "u",
        "t"
      ],
      [
        "i",
        "m"
      ],
      [
        "o",
        "w"
      ],
      [
        "o",
        "d"
      ],
      [
        "c",
        "e"
      ],
      [
        "Ġ",
        "I"
      ],
      [
        "Ġ",
        "g"
      ],
      [
        "Ġ",
        "he"
      ],
      [
        "i",
        "d"
      ],
      [
        "-",
        "-"
      ],
      [
        "Ġ",
        "e"
      ],
      [
        "s",
        "e"
      ],
      [
        "Ġ",
        "\""
      ],
      [
        "el",
        "f"
      ],
      [
        "Ġ",
        "u"
      ],
      [
        "o",
        "l"
      ],
      [
        "u",
        "r"
      ],
      [
        "Ġb",
        "e"
      ],
      [
        "v",
        "er"
      ],
      [
        "Ġ",
        "T"
      ],
      [
        "v",
        "e"
      ],
      [
        "i",
        "g"
      ],
      [
        "l",
        "y"
      ],
      [
        "t",
        "r"
      ],
      [
        "it",
        "h"
      ],
      [
        "Ġ",
        "is"
      ],
      [
        "Ġ",
        "="
      ],
      [
        "a",
        "c"
      ],
      [
        "Ġf",
        "or"
      ],
      [
        "a",
        "y"
      ],
      [
        "i",
        "r"
      ],
      [
        "i",
        "f"
      ],
      [
        "Ġth",
        "at"
      ],
      [
        "ĠĠĠĠĠĠĠĠ",
        "ĠĠĠ"
      ],
      [
        "Ġa",
        "s"
      ],
      [
        "es",
        "t"
      ],
      [
        "Ġ",
        "on"
      ],
      [
        "r",
        "o"
      ],
      [
        "Ġ",
        "y"
      ],
      [
        "Ġ",
        "it"
      ],
      [
        "Ġw",
        "h"
      ],
      [
        "t",
        "er"
      ],
      [
        "Ġw",
        "ith"
      ],
      [
        "u",
        "l"
      ],
      [
        "Ġ",
        "A"
      ],
      [
        "q",
        "u"
      ],
      [
        "e",
        "m"
      ],
      [
        "Ġ",
        "'"
      ],
      [
        "Ġ",
        "S"
      ],
      [
        "h",
        "t"
      ],
      [
        "ec",
        "t"
      ],
      [
        "as",
        "s"
      ],
      [
        "0",
        "0"
      ],
      [
        "Ġw",
        "as"
      ],
      [
        "c",
        "h"
      ],
      [
        "t",
        "h"
      ],
      [
        "e",
        "f"
      ],
      [
        "a",
        "b"
      ],
      [
        "Ġs",
        "elf"
      ],
      [
        "a",
        "nd"
      ],
      [
        "a",
        "g"
      ],
      [
        "a",
        "p"
      ],
      [
        "Ġa",
        "l"
      ],
      [
        "a",
        "in"
      ],
      [
        "Ġa",
        "n"
      ],
      [
        "Ġ",
        "r"
      ],
      [
        "at",
        "ion"
      ],
      [
        "<",
        "/"
      ],
      [
        "Ġn",
        "ot"
      ],
      [
        "he",
        "r"
      ],
      [
        "l",
        "d"
      ],
      [
        "Ġy",
        "ou"
      ],
      [
        "er",
        "t"
      ],
      [
        "Ġs",
        "t"
      ],
      [
        "Ġc",
        "on"
      ],
      [
        "u",
        "n"
      ],
      [
        "k",
        "e"
      ],
      [
        "Ġ",
        "C"
      ],
      [
        "re",
        "s"
      ],
      [
        "am",
        "e"
      ],
      [
        "o",
        "c"
      ],
      [
        "u",
        "b"
      ],
      [
        "u",
        "m"
      ],
      [
        "il",
        "l"
      ],
      [
        "ĠĠĠĠĠĠĠĠ",
        "ĠĠĠĠĠĠĠĠ"
      ],
      [
        "p",
        "t"
      ],
      [
        "r",
        "i"
      ],
      [
        "es",
        "s"
      ],
      [
        "at",
        "e"
      ],
      [
        "Ġ",
        "("
      ],
      [
        "Ġ",
        "v"
      ],
      [
        "Ġh",
        "is"
      ],
      [
        "Ġ",
        "M"
      ],
      [
        "r",
        "om"
      ],
      [
        "Ġ",
        "`"
      ],
      [
        "e",
        "x"
      ],
      [
        "p",
        "e"
      ],
      [
        "u",
        "e"
      ],
      [
        "ĠT",
        "he"
      ],
      [
        "Ġs",
        "h"
      ],
      [
        "Ġ",
        "1"
      ],
      [
        "u",
        "s"
      ],
      [
        "al",
        "l"
      ],
      [
        "Ġe",
        "x"
      ],
      [
        "Ġ",
        "P"
      ],
      [
        "Ġo",
        "r"
      ],
      [
        "p",
        "l"
      ],
      [
        "o",
        "re"
      ],
      [
        "Ġa",
        "t"
      ],
      [
        "er",
        "s"
      ],
      [
        "is",
        "t"
      ],
      [
        "a",
        "ve"
      ],
      [
        "or",
        "t"
      ],
      [
        "s",
        "elf"
      ],
      [
        "en",
        "d"
      ],
      [
        ")",
        ":"
      ],
      [
        "Ġ",
        "B"
      ],
      [
        "Ġ",
        "H"
      ],
      [
        "Ġb",
        "y"
      ],
      [
        "ou",
        "ld"
      ],
      [
        "c",
        "t"
      ],
      [
        "ig",
        "ht"
      ],
      [
        "`",
        "`"
      ],
      [
        "ou",
        "r"
      ],
      [
        "o",
        "p"
      ],
      [
        ")",
        ","
      ],
      [
        "ã",
        "ģ"
      ],
      [
        "Ġ",
        "W"
      ],
      [
        "ic",
        "h"
      ],
      [
        "Ġ",
        "["
      ],
      [
        "Ġ",
        "k"
      ],
      [
        "t",
        "d"
      ],
      [
        "'",
        ","
      ],
      [
        "'",
        "s"
      ],
      [
        "u",
        "st"
      ],
      [
        "l",
        "o"
      ],
      [
        "n",
        "t"
      ],
      [
        "Ġ",
        "if"
      ],
      [
        "\"",
        ","
      ],
      [
        "Ġs",
        "e"
      ],
      [
        "Ġf",
        "rom"
      ],
      [
        "Ġd",
        "ef"
      ],
      [
        "Ġ",
        "N"
      ],
      [
        "Ġh",
        "ad"
      ],
      [
        "Ġ",
        "#"
      ],
      [
        "Ġal",
        "l"
      ],
      [
        "t",
        "he"
      ],
      [
        "Ġc",
        "om"
      ],
      [
        "Ġ",
        "L"
      ],
      [
        "Ġa",
        "re"
      ],
      [
        "ar",
        "t"
      ],
      [
        "on",
        "e"
      ],
      [
        "ar",
        "d"
      ],
      [
        "in",
        "e"
      ],
      [
        "Ġth",
        "is"
      ],
      [
        "Ġs",
        "u"
      ],
      [
        "Ġ",
        "F"
      ],
      [
        "#",
        "#"
      ],
      [
        "Ġhe",
        "r"
      ],
      [
        "o",
        "s"
      ],
      [
        "Ġw",
        "e"
      ],
      [
        "Ġh",
        "ave"
      ],
      [
        "ou",
        "t"
      ],
      [
        "od",
        "e"
      ],
      [
        "ĠĠĠĠĠĠĠĠ",
        "ĠĠĠĠĠĠĠ"
      ],
      [
        "Ġ",
        "{"
      ],
      [
        "Ġwh",
        "ich"
      ],
      [
        "an",
        "g"
      ],
      [
        "\"",
        ")"
      ],
      [
        "e",
        "w"
      ],
      [
        "i",
        "v"
      ],
      [
        "Ġc",
        "h"
      ],
      [
        "in",
        "d"
      ],
      [
        "an",
        "t"
      ],
      [
        "Ġ",
        "_"
      ],
      [
        "c",
        "on"
      ],
      [
        "ur",
        "n"
      ],
      [
        "(",
        "\""
      ],
      [
        "Ġw",
        "he"
      ],
      [
        "or",
        "d"
      ],
      [
        "ab",
        "le"
      ],
      [
        "t",
        "o"
      ],
      [
        "Ġm",
        "e"
      ],
      [
        "(",
        ")"
      ],
      [
        "Ġ",
        "<"
      ],
      [
        "ass",
        "ert"
      ],
      [
        "p",
        "le"
      ],
      [
        "m",
        "ent"
      ],
      [
        "it",
        "y"
      ],
      [
        "Ġ",
        "D"
      ],
      [
        "u",
        "re"
      ],
      [
        "ã",
        "ĥ"
      ],
      [
        "i",
        "ve"
      ],
      [
        "i",
        "b"
      ],
      [
        "Ġ",
        ","
      ],
      [
        "Ġb",
        "ut"
      ],
      [
        "Ġt",
        "r"
      ],
      [
        "c",
        "l"
      ],
      [
        "o",
        "k"
      ],
      [
        "a",
        "k"
      ],
      [
        "ag",
        "e"
      ],
      [
        "Ġp",
        "ro"
      ],
      [
        "el",
        "l"
      ],
      [
        "er",
        "e"
      ],
      [
        "ou",
        "g"
      ],
      [
        "Ġd",
        "e"
      ],
      [
        "Ġu",
        "s"
      ],
      [
        "s",
        "p"
      ],
      [
        "Ġ",
        "0"
      ],
      [
        "Ġs",
        "o"
      ],
      [
        "y",
        "pe"
      ],
      [
        "ul",
        "t"
      ],
      [
        "Ġm",
        "y"
      ],
      [
        "Ġu",
        "p"
      ],
      [
        "Ġh",
        "im"
      ],
      [
        "a",
        "ce"
      ],
      [
        "Ġ",
        "E"
      ],
      [
        "ac",
        "k"
      ],
      [
        "Ġ",
        "-"
      ],
      [
        "i",
        "le"
      ],
      [
        "Ġ",
        "R"
      ],
      [
        "ou",
        "s"
      ],
      [
        "=",
        "\""
      ],
      [
        "Ġ",
        "le"
      ],
      [
        "on",
        "g"
      ],
      [
        "ĠĠĠĠ",
        "Ġ"
      ],
      [
        "Ġs",
        "a"
      ],
      [
        "Ġa",
        "r"
      ],
      [
        "p",
        "p"
      ],
      [
        "Ġ",
        "."
      ],
      [
        "i",
        "re"
      ],
      [
        "as",
        "t"
      ],
      [
        "a",
        "re"
      ],
      [
        "--",
        "--"
      ],
      [
        "j",
        "ect"
      ],
      [
        "Ġ",
        "G"
      ],
      [
        "Ġthe",
        "y"
      ],
      [
        ".",
        "\""
      ],
      [
        "Ġw",
        "ill"
      ],
      [
        "ã",
        "Ĥ"
      ],
      [
        "Ġl",
        "o"
      ],
      [
        "f",
        "or"
      ],
      [
        "a",
        "v"
      ],
      [
        "i",
        "es"
      ],
      [
        "om",
        "e"
      ],
      [
        "Ġ",
        "O"
      ],
      [
        "Ġd",
        "o"
      ],
      [
        "ex",
        "t"
      ],
      [
        "at",
        "h"
      ],
      [
        "Ġc",
        "an"
      ],
      [
        "ou",
        "nd"
      ],
      [
        "en",
        "ce"
      ],
      [
        "im",
        "e"
      ],
      [
        "T",
        "he"
      ],
      [
        "Ġ",
        "im"
      ],
      [
        "ion",
        "s"
      ],
      [
        "r",
        "or"
      ],
      [
        "qu",
        "al"
      ],
      [
        "f",
        "f"
      ],
      [
        "Ġm",
        "an"
      ],
      [
        "i",
        "p"
      ],
      [
        "Ġ",
        "2"
      ],
      [
        "_",
        "_"
      ],
      [
        "Ġs",
        "p"
      ],
      [
        "Ġs",
        "he"
      ],
      [
        "t",
        "urn"
      ],
      [
        "an",
        "ce"
      ],
      [
        "Ġon",
        "e"
      ],
      [
        "Ġc",
        "l"
      ],
      [
        "res",
        "s"
      ],
      [
        "er",
        "n"
      ],
      [
        "o",
        "st"
      ],
      [
        "at",
        "ed"
      ],
      [
        "Ġthe",
        "m"
      ],
      [
        "ic",
        "e"
      ],
      [
        "ow",
        "n"
      ],
      [
        "Ġs",
        "tr"
      ],
      [
        "Ġw",
        "ere"
      ],
      [
        "]",
        "("
      ],
      [
        "Ġthe",
        "ir"
      ],
      [
        "re",
        "f"
      ],
      [
        "c",
        "om"
      ],
      [
        "ver",
        "y"
      ],
      [
        "o",
        "b"
      ],
      [
        ">",
        "<"
      ],
      [
        "p",
        "er"
      ],
      [
        "Ġre",
        "turn"
      ],
      [
        "Ġo",
        "ut"
      ],
      [
        "al",
        "ue"
      ],
      [
        "t",
        "her"
      ],
      [
        "el",
        "d"
      ],
      [
        "Ġ",
        "|"
      ],
      [
        "i",
        "z"
      ],
      [
        "Ġwh",
        "o"
      ],
      [
        "Ġu",
        "n"
      ],
      [
        "u",
        "d"
      ],
      [
        "Ġg",
        "o"
      ],
      [
        "}",
        "}"
      ],
      [
        "Ġa",
        "b"
      ],
      [
        "u",
        "g"
      ],
      [
        "st",
        "r"
      ],
      [
        "Ġn",
        "o"
      ],
      [
        "id",
        "e"
      ],
      [
        "Ġ",
        "en"
      ],
      [
        "ar",
        "g"
      ],
      [
        "p",
        "s"
      ],
      [
        "i",
        "eld"
      ],
      [
        "Ġt",
        "est"
      ],
      [
        "a",
        "ke"
      ],
      [
        "Ġwhe",
        "n"
      ],
      [
        "Ġp",
        "r"
      ],
      [
        ",",
        "\""
      ],
      [
        "e",
        "ar"
      ],
      [
        "ä",
        "¸"
      ],
      [
        "Ġ",
        "*"
      ],
      [
        "ol",
        "l"
      ],
      [
        "Ġ",
        "J"
      ],
      [
        "Ġp",
        "l"
      ],
      [
        "it",
        "t"
      ],
      [
        "in",
        "t"
      ],
      [
        "ĠT",
        "h"
      ],
      [
        "oug",
        "h"
      ],
      [
        "ig",
        "n"
      ],
      [
        "Ġ",
        "j"
      ],
      [
        "as",
        "e"
      ],
      [
        "er",
        "v"
      ],
      [
        "p",
        "ort"
      ],
      [
        "Ġa",
        "d"
      ],
      [
        "Ġ",
        "el"
      ],
      [
        "oc",
        "k"
      ],
      [
        "Ġo",
        "b"
      ],
      [
        "al",
        "ly"
      ],
      [
        "he",
        "d"
      ],
      [
        "Ġcon",
        "t"
      ],
      [
        "e",
        "p"
      ],
      [
        "for",
        "m"
      ],
      [
        "``",
        "`"
      ],
      [
        "e",
        "b"
      ],
      [
        "c",
        "ri"
      ],
      [
        "Ġsa",
        "id"
      ],
      [
        "n",
        "ame"
      ],
      [
        "it",
        "e"
      ],
      [
        "/",
        "/"
      ],
      [
        "re",
        "at"
      ],
      [
        "Ġ",
        "K"
      ],
      [
        "'",
        ")"
      ],
      [
        "Ġm",
        "ore"
      ],
      [
        "a",
        "is"
      ],
      [
        "g",
        "et"
      ],
      [
        "ac",
        "t"
      ],
      [
        "Ġk",
        "n"
      ],
      [
        "Ġ",
        "Ċ"
      ],
      [
        "Ġw",
        "or"
      ],
      [
        "à",
        "¦"
      ],
      [
        "E",
        "qual"
      ],
      [
        "a",
        "il"
      ],
      [
        "ã",
        "Ģ"
      ],
      [
        "ĠA",
        "nd"
      ],
      [
        "c",
        "c"
      ],
      [
        "an",
        "s"
      ],
      [
        "Ġh",
        "as"
      ],
      [
        "Ġre",
        "s"
      ],
      [
        "Ġg",
        "r"
      ],
      [
        "'",
        "t"
      ],
      [
        "Ġw",
        "ould"
      ],
      [
        "r",
        "ror"
      ],
      [
        "i",
        "ke"
      ],
      [
        "l",
        "l"
      ],
      [
        "o",
        "se"
      ],
      [
        "Ġan",
        "y"
      ],
      [
        "s",
        "h"
      ],
      [
        "Ġd",
        "is"
      ],
      [
        "Ġbe",
        "en"
      ],
      [
        "et",
        "es"
      ],
      [
        "Ġo",
        "ther"
      ],
      [
        ">",
        "</"
      ],
      [
        "00",
        "00"
      ],
      [
        "k",
        "ub"
      ],
      [
        "ar",
        "y"
      ],
      [
        "Ġb",
        "r"
      ],
      [
        "ern",
        "etes"
      ],
      [
        "Ġthe",
        "re"
      ],
      [
        "E",
        "rror"
      ],
      [
        "Ġa",
        "g"
      ],
      [
        "at",
        "a"
      ],
      [
        "c",
        "k"
      ],
      [
        "in",
        "k"
      ],
      [
        "Ġe",
        "v"
      ],
      [
        "pt",
        "ion"
      ],
      [
        "Ġn",
        "e"
      ],
      [
        "\"",
        "\""
      ],
      [
        "s",
        "s"
      ],
      [
        "ol",
        "d"
      ],
      [
        "et",
        "h"
      ],
      [
        "Ġyou",
        "r"
      ],
      [
        "ï",
        "¼"
      ],
      [
        "ing",
        "s"
      ],
      [
        "Ġas",
        "s"
      ],
      [
        "Ġ",
        "qu"
      ],
      [
        "d",
        "oc"
      ],
      [
        "re",
        "ad"
      ],
      [
        "assert",
        "Equal"
      ],
      [
        "ent",
        "s"
      ],
      [
        "b",
        "er"
      ],
      [
        "e",
        "v"
      ],
      [
        "Ġ",
        ")"
      ],
      [
        "E",
        "R"
      ],
      [
        "c",
        "ode"
      ],
      [
        "ac",
        "h"
      ],
      [
        "r",
        "ay"
      ],
      [
        "Ġs",
        "et"
      ],
      [
        "n",
        "g"
      ],
      [
        "o",
        "y"
      ],
      [
        "il",
        "d"
      ],
      [
        "o",
        "f"
      ],
      [
        "ver",
        "s"
      ],
      [
        "i",
        "al"
      ],
      [
        "on",
        "d"
      ],
      [
        "is",
        "h"
      ],
      [
        "it",
        "ion"
      ],
      [
        "n",
        "ot"
      ],
      [
        "s",
        "et"
      ],
      [
        "t",
        "ype"
      ],
      [
        "g",
        "r"
      ],
      [
        "ic",
        "t"
      ],
      [
        "ct",
        "ion"
      ],
      [
        "el",
        "y"
      ],
      [
        "en",
        "er"
      ],
      [
        ".",
        "_"
      ],
      [
        "Ġth",
        "an"
      ],
      [
        "w",
        "ay"
      ],
      [
        "ic",
        "k"
      ],
      [
        "Ġ",
        "U"
      ],
      [
        "Ġin",
        "to"
      ],
      [
        "Ġo",
        "ur"
      ],
      [
        "i",
        "ed"
      ],
      [
        "ç",
        "ļ"
      ],
      [
        "çļ",
        "Ħ"
      ],
      [
        "Ġt",
        "ime"
      ],
      [
        ")",
        ")"
      ],
      [
        "ir",
        "st"
      ],
      [
        "f",
        "ter"
      ],
      [
        "Ġ{",
        "{"
      ],
      [
        "Ġs",
        "ome"
      ],
      [
        "Ġsh",
        "ould"
      ],
      [
        "Ġ",
        "3"
      ],
      [
        "i",
        "ous"
      ],
      [
        "ar",
        "k"
      ],
      [
        "at",
        "ch"
      ],
      [
        "doc",
        "s"
      ],
      [
        "Ġon",
        "ly"
      ],
      [
        "ad",
        "e"
      ],
      [
        "a",
        "w"
      ],
      [
        "*",
        "*"
      ],
      [
        "ĠH",
        "e"
      ],
      [
        "u",
        "p"
      ],
      [
        "Ġa",
        "m"
      ],
      [
        "Ġp",
        "er"
      ],
      [
        "ĠI",
        "t"
      ],
      [
        "ou",
        "nt"
      ],
      [
        "or",
        "y"
      ],
      [
        "Ġit",
        "s"
      ],
      [
        "f",
        "er"
      ],
      [
        ":",
        "//"
      ],
      [
        "f",
        "ul"
      ],
      [
        "p",
        "ro"
      ],
      [
        "P",
        "I"
      ],
      [
        "on",
        "t"
      ],
      [
        "re",
        "e"
      ],
      [
        "Ġm",
        "ay"
      ],
      [
        "a",
        "ult"
      ],
      [
        "Ġo",
        "ver"
      ],
      [
        "Ġp",
        "re"
      ],
      [
        "ãĢ",
        "Ĥ"
      ],
      [
        "s",
        "o"
      ],
      [
        "Ġt",
        "w"
      ],
      [
        "i",
        "a"
      ],
      [
        "Ġn",
        "ame"
      ],
      [
        "ĠĠĠĠĠĠĠĠ",
        "ĠĠĠĠĠĠĠĠĠĠĠ"
      ],
      [
        "p",
        "ut"
      ],
      [
        "ow",
        "s"
      ],
      [
        "Ġs",
        "c"
      ],
      [
        "ĠI",
        "n"
      ],
      [
        "ke",
        "y"
      ],
      [
        "]",
        ","
      ],
      [
        "r",
        "y"
      ],
      [
        "p",
        "r"
      ],
      [
        "ot",
        "her"
      ],
      [
        "Ġwh",
        "at"
      ],
      [
        "I",
        "n"
      ],
      [
        "ap",
        "p"
      ],
      [
        "f",
        "o"
      ],
      [
        "Ġ",
        ">"
      ],
      [
        "t",
        "ps"
      ],
      [
        "w",
        "e"
      ],
      [
        "Ġ",
        "ì"
      ],
      [
        "Ġd",
        "es"
      ],
      [
        "\")",
        "}}"
      ],
      [
        "en",
        "s"
      ],
      [
        "Ġg",
        "et"
      ],
      [
        "Ġp",
        "art"
      ],
      [
        "Ġn",
        "ow"
      ],
      [
        "Ġl",
        "ike"
      ],
      [
        "u",
        "se"
      ],
      [
        "Ġ",
        "V"
      ],
      [
        "I",
        "N"
      ],
      [
        "\"",
        ":"
      ],
      [
        "Ġthe",
        "n"
      ],
      [
        "Ġf",
        "e"
      ],
      [
        "i",
        "ent"
      ],
      [
        "cri",
        "pt"
      ],
      [
        "nd",
        "er"
      ],
      [
        "qu",
        "est"
      ],
      [
        "i",
        "e"
      ],
      [
        "Ġ",
        "ro"
      ],
      [
        "ation",
        "s"
      ],
      [
        "Ġse",
        "e"
      ],
      [
        "g",
        "e"
      ],
      [
        "ce",
        "pt"
      ],
      [
        "ĠĠĠĠĠĠĠĠĠĠĠĠĠĠĠĠ",
        "ĠĠĠĠĠĠĠĠĠĠĠĠĠĠĠĠ"
      ],
      [
        "re",
        "d"
      ],
      [
        "is",
        "s"
      ],
      [
        "](",
        "/"
      ],
      [
        "U",
        "S"
      ],
      [
        "iz",
        "e"
      ],
      [
        "?",
        "\""
      ],
      [
        "o",
        "ok"
      ],
      [
        "h",
        "at"
      ],
      [
        "Ġ",
        "very"
      ],
      [
        "Ġb",
        "l"
      ],
      [
        "ang",
        "e"
      ],
      [
        "am",
        "ple"
      ],
      [
        "i",
        "x"
      ],
      [
        "con",
        "t"
      ],
      [
        "ĠĠĠĠ",
        "ĠĠ"
      ],
      [
        "itt",
        "le"
      ],
      [
        "Ġm",
        "ust"
      ],
      [
        "an",
        "c"
      ],
      [
        "----",
        "----"
      ],
      [
        "n",
        "ing"
      ],
      [
        "Ġc",
        "ould"
      ],
      [
        "our",
        "ce"
      ],
      [
        "Ġv",
        "alue"
      ],
      [
        "Ġ",
        ":"
      ],
      [
        "Ġg",
        "reat"
      ],
      [
        "Ġ\"",
        "\"\""
      ],
      [
        "p",
        "ar"
      ],
      [
        "a",
        "x"
      ],
      [
        "t",
        "y"
      ],
      [
        "is",
        "e"
      ],
      [
        "al",
        "se"
      ],
      [
        "f",
        "ig"
      ],
      [
        "Ġf",
        "l"
      ],
      [
        "Ġf",
        "irst"
      ],
      [
        "\"",
        ">"
      ],
      [
        "i",
        "o"
      ],
      [
        "u",
        "ch"
      ],
      [
        "Ġc",
        "all"
      ],
      [
        "ĠN",
        "one"
      ],
      [
        "Ġlo",
        "ok"
      ],
      [
        "Ġh",
        "and"
      ],
      [
        "_",
        "."
      ],
      [
        "od",
        "el"
      ],
      [
        "oug",
        "ht"
      ],
      [
        "Ġre",
        "m"
      ],
      [
        "Ġp",
        "o"
      ],
      [
        "Ġn",
        "ew"
      ],
      [
        "(",
        "'"
      ],
      [
        "he",
        "n"
      ],
      [
        "od",
        "y"
      ],
      [
        "m",
        "an"
      ],
      [
        "Ġab",
        "out"
      ],
      [
        "Ġa",
        "fter"
      ],
      [
        "Ġp",
        "ass"
      ],
      [
        "t",
        "est"
      ],
      [
        "ot",
        "h"
      ],
      [
        "Ġex",
        "p"
      ],
      [
        "at",
        "her"
      ],
      [
        "A",
        "L"
      ],
      [
        "Ġu",
        "nt"
      ],
      [
        "Ġc",
        "ol"
      ],
      [
        "or",
        "s"
      ],
      [
        "ï¼",
        "Į"
      ],
      [
        "Ġd",
        "id"
      ],
      [
        "Ġup",
        "on"
      ],
      [
        "Ġa",
        "p"
      ],
      [
        "n",
        "e"
      ],
      [
        "w",
        "ard"
      ],
      [
        "Ġob",
        "ject"
      ],
      [
        "Ġcom",
        "m"
      ],
      [
        "w",
        "n"
      ],
      [
        "v",
        "al"
      ],
      [
        "ht",
        "tps"
      ],
      [
        "l",
        "ed"
      ],
      [
        "Ġag",
        "ain"
      ],
      [
        "Ġth",
        "r"
      ],
      [
        "Ġb",
        "ec"
      ],
      [
        "Ġ",
        "@"
      ],
      [
        "am",
        "es"
      ],
      [
        "l",
        "ine"
      ],
      [
        "Ġh",
        "ow"
      ],
      [
        "m",
        "in"
      ],
      [
        "o",
        "ver"
      ],
      [
        "Ġw",
        "r"
      ],
      [
        "ĠTh",
        "is"
      ],
      [
        "Ġass",
        "ert"
      ],
      [
        "Ġl",
        "ittle"
      ],
      [
        "Ġthe",
        "se"
      ],
      [
        ")",
        "."
      ],
      [
        "'",
        "d"
      ],
      [
        "Ġfor",
        "m"
      ],
      [
        "ĠI",
        "f"
      ],
      [
        "Ġu",
        "se"
      ],
      [
        "T",
        "T"
      ],
      [
        "o",
        "g"
      ],
      [
        "Ġkn",
        "ow"
      ],
      [
        "Ġsu",
        "ch"
      ],
      [
        "Ġm",
        "en"
      ],
      [
        "Ġin",
        "d"
      ],
      [
        "o",
        "od"
      ],
      [
        "Ġtw",
        "o"
      ],
      [
        "if",
        "e"
      ],
      [
        "if",
        "ic"
      ],
      [
        "ub",
        "ernetes"
      ],
      [
        "Ġim",
        "port"
      ],
      [
        "Ġad",
        "d"
      ],
      [
        "t",
        "e"
      ],
      [
        "Ġ",
        "Y"
      ],
      [
        "r",
        "ue"
      ],
      [
        "d",
        "ef"
      ],
      [
        "cl",
        "ass"
      ],
      [
        "f",
        "ore"
      ],
      [
        "Ġwor",
        "k"
      ],
      [
        "tr",
        "ib"
      ],
      [
        "re",
        "ate"
      ],
      [
        "od",
        "u"
      ],
      [
        "em",
        "ent"
      ],
      [
        "Ġs",
        "y"
      ],
      [
        "Ġin",
        "ter"
      ],
      [
        "Ġl",
        "ist"
      ],
      [
        "Ġd",
        "ay"
      ],
      [
[...]
