{
  "version": "1.0",
  "truncation": null,
  "padding": null,
  "added_tokens": [],
  "normalizer": null,
  "pre_tokenizer": {
    "type": "ByteLevel",
    "add_prefix_space": false,
    "trim_offsets": true,
    "use_regex": true
  },
  "post_processor": null,
  "decoder": {
    "type": "ByteLevel",
    "add_prefix_space": true,
    "trim_offsets": true,
    "use_regex": true
  },
  "model": {
    "type": "BPE",
    "dropout": null,
    "unk_token": null,
    "continuing_subword_prefix": null,
    "end_of_word_suffix": null,
    "fuse_unk": false,
    "byte_fallback": false,
    "ignore_merges": false,
    "vocab": {
      "!": 0,
      "\"": 1,
      "#": 2,
      "$": 3,
      "%": 4,
      "&": 5,
      "'": 6,
      "(": 7,
      ")": 8,
      "*": 9,
      "+": 10,
      ",": 11,
      "-": 12,
      ".": 13,
      "/": 14,
      "0": 15,
      "1": 16,
      "2": 17,
      "3": 18,
      "4": 19,
      "5": 20,
      "6": 21,
      "7": 22,
      "8": 23,
      "9": 24,
      ":": 25,
      ";": 26,
      "<": 27,
      "=": 28,
      ">": 29,
      "?": 30,
      "@": 31,
      "A": 32,
      "B": 33,
      "C": 34,
      "D": 35,
      "E": 36,
      "F": 37,
      "G": 38,
      "H": 39,
      "I": 40,
      "J": 41,
      "K": 42,
      "L": 43,
      "M": 44,
      "N": 45,
      "O": 46,
      "P": 47,
      "Q": 48,
      "R": 49,
      "S": 50,
      "T": 51,
      "U": 52,
      "V": 53,
      "W": 54,
      "X": 55,
      "Y": 56,
      "Z": 57,
      "[": 58,
      "\\": 59,
      "]": 60,
      "^": 61,
      "_": 62,
      "`": 63,
      "a": 64,
      "b": 65,
      "c": 66,
      "d": 67,
      "e": 68,
      "f": 69,
      "g": 70,
      "h": 71,
      "i": 72,
      "j": 73,
      "k": 74,
      "l": 75,
      "m": 76,
      "n": 77,
      "o": 78,
      "p": 79,
      "q": 80,
      "r": 81,
      "s": 82,
      "t": 83,
      "u": 84,
      "v": 85,
      "w": 86,
      "x": 87,
      "y": 88,
      "z": 89,
      "{": 90,
      "|": 91,
      "}": 92,
      "~": 93,
      "¡": 94,
      "¢": 95,
      "£": 96,
      "¤": 97,
      "¥": 98,
      "¦": 99,
      "§": 100,
      "¨": 101,
      "©": 102,
      "ª": 103,
      "«": 104,
      "¬": 105,
      "®": 106,
      "¯": 107,
      "°": 108,
      "±": 109,
      "²": 110,
      "³": 111,
      "´": 112,
      "µ": 113,
      "¶": 114,
      "·": 115,
      "¸": 116,
      "¹": 117,
      "º": 118,
      "»": 119,
      "¼": 120,
      "½": 121,
      "¾": 122,
      "¿": 123,
      "À": 124,
      "Á": 125,
      "Â": 126,
      "Ã": 127,
      "Ä": 128,
      "Å": 129,
      "Æ": 130,
      "Ç": 131,
      "È": 132,
      "É": 133,
      "Ê": 134,
      "Ë": 135,
      "Ì": 136,
      "Í": 137,
      "Î": 138,
      "Ï": 139,
      "Ð": 140,
      "Ñ": 141,
      "Ò": 142,
      "Ó": 143,
      "Ô": 144,
      "Õ": 145,
      "Ö": 146,
      "×": 147,
      "Ø": 148,
      "Ù": 149,
      "Ú": 150,
      "Û": 151,
      "Ü": 152,
      "Ý": 153,
      "Þ": 154,
      "ß": 155,
      "à": 156,
      "á": 157,
      "â": 158,
      "ã": 159,
      "ä": 160,
      "å": 161,
      "æ": 162,
      "ç": 163,
      "è": 164,
      "é": 165,
      "ê": 166,
      "ë": 167,
      "ì": 168,
      "í": 169,
      "î": 170,
      "ï": 171,
      "ð": 172,
      "ñ": 173,
      "ò": 174,
      "ó": 175,
      "ô": 176,
      "õ": 177,
      "ö": 178,
      "÷": 179,
      "ø": 180,
      "ù": 181,
      "ú": 182,
      "û": 183,
      "ü": 184,
      "ý": 185,
      "þ": 186,
      "ÿ": 187,
      "Ā": 188,
      "ā": 189,
      "Ă": 190,
      "ă": 191,
      "Ą": 192,
      "ą": 193,
      "Ć": 194,
      "ć": 195,
      "Ĉ": 196,
      "ĉ": 197,
      "Ċ": 198,
      "ċ": 199,
      "Č": 200,
      "č": 201,
      "Ď": 202,
      "ď": 203,
      "Đ": 204,
      "đ": 205,
      "Ē": 206,
      "ē": 207,
      "Ĕ": 208,
      "ĕ": 209,
      "Ė": 210,
      "ė": 211,
      "Ę": 212,
      "ę": 213,
      "Ě": 214,
      "ě": 215,
      "Ĝ": 216,
      "ĝ": 217,
      "Ğ": 218,
      "ğ": 219,
      "Ġ": 220,
      "ġ": 221,
      "Ģ": 222,
      "ģ": 223,
      "Ĥ": 224,
      "ĥ": 225,
      "Ħ": 226,
      "ħ": 227,
      "Ĩ": 228,
      "ĩ": 229,
      "Ī": 230,
      "ī": 231,
      "Ĭ": 232,
      "ĭ": 233,
      "Į": 234,
      "į": 235,
      "İ": 236,
      "ı": 237,
      "Ĳ": 238,
      "ĳ": 239,
      "Ĵ": 240,
      "ĵ": 241,
      "Ķ": 242,
      "ķ": 243,
      "ĸ": 244,
      "Ĺ": 245,
      "ĺ": 246,
      "Ļ": 247,
      "ļ": 248,
      "Ľ": 249,
      "ľ": 250,
      "Ŀ": 251,
      "ŀ": 252,
      "Ł": 253,
      "ł": 254,
      "Ń": 255,
      "Ġe": 256,
      "Ġt": 257,
      "Ġa": 258,
      "Ġo": 259,
      "Ġs": 260,
      "Ġn": 261,
      "Ġi": 262,
      "Ġr": 263,
      "ĠĠ": 264,
      "ee": 265,
      "Ġh": 266,
      "Ġl": 267,
      "Ġd": 268,
      "et": 269,
      "Ġc": 270,
      "Ġu": 271,
      "ĠĊ": 272,
      "te": 273,
      "Ġm": 274,
      "ea": 275,
      "Ġf": 276,
      "eo": 277,
      "Ġp": 278,
      "es": 279,
      "en": 280,
      "ei": 281,
      "er": 282,
      "tt": 283,
      "Ġ,": 284,
      "Ġg": 285,
      "ta": 286,
      "Ġy": 287,
      "Ġw": 288,
      "to": 289,
      "Ġ.": 290,
      "ts": 291,
      "Ġb": 292,
      "eh": 293,
      "tn": 294,
      "aa": 295,
      "ti": 296,
      "tr": 297,
      "el": 298,
      "ao": 299,
      "ed": 300,
      "as": 301,
      "oo": 302,
      "an": 303,
      "ar": 304,
      "ae": 305,
      "ai": 306,
      "ss": 307,
      "no": 308,
      "th": 309,
      "so": 310,
      "ni": 311,
      "ro": 312,
      "ne": 313,
      "tl": 314,
      "io": 315,
      "ns": 316,
      "Ġv": 317,
      "re": 318,
      "rs": 319,
      "ri": 320,
      "Ġ\"": 321,
      "td": 322,
      "se": 323,
      "nn": 324,
      "ie": 325,
      "at": 326,
      "ah": 327,
      "oe": 328,
      "Ġ-": 329,
      "ii": 330,
      "Ġ_": 331,
      "rr": 332,
      "is": 333,
      "al": 334,
      "os": 335,
      "rn": 336,
      "Ġk": 337,
      "ad": 338,
      "oi": 339,
      "on": 340,
      "ec": 341,
      "in": 342,
      "ĠĠĠ": 343,
      "Ġ)": 344,
      "sn": 345,
      "he": 346,
      "Ġ(": 347,
      "rt": 348,
      "si": 349,
      "eu": 350,
      "rh": 351,
      "rl": 352,
      "ra": 353,
      "ot": 354,
      "nt": 355,
      "oh": 356,
      "rd": 357,
      "Ġ'": 358,
      "le": 359,
      "st": 360,
      "sh": 361,
      "nh": 362,
      "oa": 363,
      "ol": 364,
      "it": 365,
      "sa": 366,
      "ih": 367,
      "sl": 368,
      "na": 369,
      "em": 370,
      "nl": 371,
      "od": 372,
      "ia": 373,
      "sd": 374,
      "nd": 375,
      "or": 376,
      "ef": 377,
      "il": 378,
      "ep": 379,
      "tu": 380,
      "nr": 381,
      "id": 382,
      "tc": 383,
      "ĠĠĊ": 384,
      "Ġ/": 385,
      "sr": 386,
      "ĠI": 387,
      "ĠT": 388,
      "ir": 389,
      "Ġ:": 390,
      "Ġee": 391,
      "ac": 392,
      "au": 393,
      "tm": 394,
      "Ġx": 395,
      "Ġ0": 396,
      "ãģ": 397,
      "tf": 398,
      "de": 399,
      "hh": 400,
      "eg": 401,
      "oc": 402,
      "ou": 403,
      "Ġ=": 404,
      "ĠA": 405,
      "su": 406,
      "tp": 407,
      "sc": 408,
      "nc": 409,
      "nu": 410,
      "am": 411,
      "Ġ`": 412,
      "ic": 413,
      "Ġeh": 414,
      "af": 415,
      "ru": 416,
      "Ġeo": 417,
      "rc": 418,
      "ĠS": 419,
      "lo": 420,
      "iu": 421,
      "ho": 422,
      "ey": 423,
      "Ġ>": 424,
      "ew": 425,
      "Ġel": 426,
      "hl": 427,
      "Ġes": 428,
      "ĠE": 429,
      "Ġed": 430,
      "ha": 431,
      "ht": 432,
      "hn": 433,
      "hd": 434,
      "hs": 435,
      "Ġei": 436,
      "Ġen": 437,
      "hi": 438,
      "Ġet": 439,
      "eb": 440,
      "Ġea": 441,
      "ãĥ": 442,
      "ld": 443,
      "ls": 444,
      "hr": 445,
      "lt": 446,
      "Ġer": 447,
      "Ġ1": 448,
      "ln": 449,
      "li": 450,
      "ap": 451,
      "Ġ<": 452,
      "om": 453,
      "lr": 454,
      "of": 455,
      "ds": 456,
      "la": 457,
      "tg": 458,
      "ce": 459,
      "Ġte": 460,
      "me": 461,
      "ue": 462,
      "nf": 463,
      "sf": 464,
      "sm": 465,
      "dt": 466,
      "ãĤ": 467,
      "do": 468,
      "nm": 469,
      "if": 470,
      "ĠC": 471,
      "dr": 472,
      "im": 473,
      "np": 474,
      "rf": 475,
      "rm": 476,
      "di": 477,
      "tw": 478,
      "ty": 479,
      "ll": 480,
      "da": 481,
      "op": 482,
      "sp": 483,
      "hc": 484,
      "dn": 485,
      "Ġec": 486,
      "ag": 487,
      "ip": 488,
      "rp": 489,
      "ĠP": 490,
      "fe": 491,
      "tb": 492,
      "ĠR": 493,
      "Ġeu": 494,
      "dl": 495,
      "Ġč": 496,
      "Ġto": 497,
      "hu": 498,
      "Ġae": 499,
      "co": 500,
      "uo": 501,
      "lh": 502,
      "ĠN": 503,
      "Ġoe": 504,
      "dd": 505,
      "ay": 506,
      "aw": 507,
      "pe": 508,
      "us": 509,
      "Ġts": 510,
      "dh": 511,
      "ge": 512,
      "Ġse": 513,
      "Ġ2": 514,
      "Ġtn": 515,
      "Ġti": 516,
      "cs": 517,
      "Ġtt": 518,
      "Ġtr": 519,
      "un": 520,
      "Ġne": 521,
      "ä¸": 522,
      "ĠM": 523,
      "cn": 524,
      "mo": 525,
      "ĠL": 526,
      "Ġre": 527,
      "fo": 528,
      "Ġta": 529,
      "ct": 530,
      "ye": 531,
      "ci": 532,
      "Ġao": 533,
      "Ġ#": 534,
      "ur": 535,
      "ut": 536,
      "we": 537,
      "ui": 538,
      "ab": 539,
      "Ġem": 540,
      "Ġie": 541,
      "ua": 542,
      "fs": 543,
      "hm": 544,
      "cr": 545,
      "Ġoo": 546,
      "ng": 547,
      "Ġas": 548,
      "ca": 549,
      "ig": 550,
      "cl": 551,
      "Ġef": 552,
      "Ġ;": 553,
      "sg": 554,
      "Ġep": 555,
      "rg": 556,
      "be": 557,
      "ch": 558,
      "ĠO": 559,
      "Ġtl": 560,
      "Ġå": 561,
      "ul": 562,
      "Ġos": 563,
      "og": 564,
      "Ġq": 565,
      "ms": 566,
      "Ġtd": 567,
      "Ġth": 568,
      "Ġat": 569,
      "ny": 570,
      "mt": 571,
      "Ġot": 572,
      "Ġno": 573,
      "mi": 574,
      "à¦": 575,
      "po": 576,
      "Ġaa": 577,
      "ãĢ": 578,
      "cd": 579,
      "ft": 580,
      "mn": 581,
      "ĠD": 582,
      "fi": 583,
      "Ġai": 584,
      "Ġso": 585,
      "čĠ": 586,
      "Ġan": 587,
      "Ġss": 588,
      "uh": 589,
      "fn": 590,
      "ps": 591,
      "Ġio": 592,
      "ry": 593,
      "fa": 594,
      "ma": 595,
      "ĠB": 596,
      "Ġ]": 597,
      "ud": 598,
      "Ġon": 599,
      "rw": 600,
      "Ġro": 601,
      "ĠH": 602,
      "Ġoi": 603,
      "Ġar": 604,
      "Ġst": 605,
      "Ġns": 606,
      "Ġal": 607,
      "pn": 608,
      "Ġoa": 609,
      "Ġsn": 610,
      "ĠW": 611,
      "fr": 612,
      "fl": 613,
      "wo": 614,
      "ï¼": 615,
      "Ġ[": 616,
      "ml": 617,
      "pt": 618,
      "Ġj": 619,
      "pi": 620,
      "Ġsi": 621,
      "pa": 622,
      "Ġsa": 623,
      "Ġnn": 624,
      "Ġol": 625,
      "go": 626,
      "Ġna": 627,
      "ĠF": 628,
      "Ġnt": 629,
      "fh": 630,
      "Ġit": 631,
      "mr": 632,
      "yo": 633,
      "Ġis": 634,
      "Ġrs": 635,
      "Ġah": 636,
      "md": 637,
      "Ġni": 638,
      "Ġor": 639,
      "Ġrn": 640,
      "mh": 641,
      "pr": 642,
      "fd": 643,
      "lu": 644,
      "Ġia": 645,
      "Ġsr": 646,
      "ys": 647,
      "Ġin": 648,
      "Ġhe": 649,
      "Ġoh": 650,
      "Ġeg": 651,
      "ws": 652,
      "Ġri": 653,
      "Ġad": 654,
      "bs": 655,
      "Ġrt": 656,
      "bt": 657,
      "yt": 658,
      "ph": 659,
      "bo": 660,
      "Ġsl": 661,
      "Ġod": 662,
      "eee": 663,
      "wt": 664,
      "Ġra": 665,
      "pd": 666,
      "gt": 667,
      "'t": 668,
      "ya": 669,
      "Ġnr": 670,
      "Ġsh": 671,
      "bn": 672,
      "çļ": 673,
      "çļĦ": 674,
      "ĠĠĠĠ": 675,
      "Ġsd": 676,
      "Ġir": 677,
      "lc": 678,
      "Ġ3": 679,
      "Ġ{": 680,
      "yi": 681,
      "gs": 682,
      "yn": 683,
      "Ġ}": 684,
      "Ġrr": 685,
      "Ġii": 686,
      "gi": 687,
      "Ġle": 688,
      "wn": 689,
      "wi": 690,
      "pl": 691,
      "Ġnl": 692,
      "ev": 693,
      "Ġtc": 694,
      "gn": 695,
      "Ġnd": 696,
      "wr": 697,
      "wa": 698,
      "ga": 699,
      "Ġnh": 700,
      "Ġrd": 701,
      "ãĢĤ": 702,
      "čĊ": 703,
      "Ġtu": 704,
      "gr": 705,
      "bi": 706,
      "Ġih": 707,
      "yr": 708,
      "ba": 709,
      "Ġrl": 710,
      "Ġrh": 711,
      "Ġid": 712,
      "Ġde": 713,
      "br": 714,
      "Ġil": 715,
      "cu": 716,
      "yh": 717,
      "ĠG": 718,
      "ve": 719,
      "yl": 720,
      "uu": 721,
      "bh": 722,
      "wl": 723,
      "dc": 724,
      "Ġ*": 725,
      "bl": 726,
      "wh": 727,
      "Ġho": 728,
      "gh": 729,
      "ĠU": 730,
      "gl": 731,
      "wd": 732,
      "Ġac": 733,
      "gd": 734,
      "yd": 735,
      "Ġz": 736,
      "cc": 737,
      "Ġtf": 738,
      "Ġæ": 739,
      "Ġau": 740,
      "tee": 741,
      "bd": 742,
      "Ġey": 743,
      "Ġ4": 744,
      "Ġlo": 745,
      "Ġhi": 746,
      "Ġou": 747,
      "Ġtm": 748,
      "hf": 749,
      "eeo": 750,
      "Ġha": 751,
      "ke": 752,
      "Ġew": 753,
      "Ġhs": 754,
      "'s": 755,
      "vo": 756,
      "Ġdo": 757,
      "fu": 758,
      "Ġoc": 759,
      "ees": 760,
      "Ġla": 761,
      "Ġhn": 762,
      "fc": 763,
      "mc": 764,
      "ï¼Į": 765,
      "mu": 766,
      ",,": 767,
      "Ġtp": 768,
      "Ġht": 769,
      "du": 770,
      "Ġlt": 771,
      "Ġls": 772,
      "Ġnc": 773,
      "Ġeb": 774,
      "Ġln": 775,
      "ek": 776,
      "uc": 777,
      "Ġsc": 778,
      "iw": 779,
      "vs": 780,
      "eea": 781,
      "eet": 782,
      "Ġ5": 783,
      "hp": 784,
      "lf": 785,
      "ete": 786,
      "Ġhr": 787,
      "een": 788,
      "oy": 789,
      "Ġli": 790,
      "ĠĠĠĊ": 791,
      "pc": 792,
      "Ġds": 793,
      "Ġnu": 794,
      "Ġdt": 795,
      "lm": 796,
      "ob": 797,
      "Ġsu": 798,
      "ow": 799,
      "nw": 800,
      "Ġam": 801,
      "Ġhh": 802,
      "Ġue": 803,
      "tv": 804,
      "Ġrc": 805,
      "df": 806,
      "Ġdi": 807,
      "eei": 808,
      "pu": 809,
      "sw": 810,
      "Ġll": 811,
      "rb": 812,
      "dm": 813,
      "va": 814,
      "sy": 815,
      "âĢ": 816,
      "Ġhl": 817,
      "Ġda": 818,
      "Ġce": 819,
      "ìĿ": 820,
      "iy": 821,
      "nb": 822,
      "Ġlr": 823,
      "fm": 824,
      "Ġdr": 825,
      "Ġic": 826,
      "Ġru": 827,
      "eer": 828,
      "vn": 829,
      "Ġiu": 830,
      "Ġtg": 831,
      "Ġom": 832,
      "lp": 833,
      "vt": 834,
      "Ġdn": 835,
      "vr": 836,
      "dp": 837,
      ".,": 838,
      "ib": 839,
      "Ġdh": 840,
      "sb": 841,
      "Ġld": 842,
      "ä»": 843,
      ",.": 844,
      "Ġ6": 845,
      "Ġ8": 846,
      "Ġlh": 847,
      "vi": 848,
      "eel": 849,
      "Ġhd": 850,
      "ko": 851,
      "gu": 852,
      "Ġap": 853,
      "mf": 854,
      "gc": 855,
      "yc": 856,
      "Ġãģ": 857,
      "eeh": 858,
      "ä½": 859,
      "Ġaf": 860,
      "Ġop": 861,
      "mm": 862,
      "vh": 863,
      "Ġsf": 864,
      "Ġè": 865,
      "Ġdl": 866,
      "aee": 867,
      "wu": 868,
      "Ġsm": 869,
      "tet": 870,
      "Ġme": 871,
      "Ġif": 872,
      "Ġfe": 873,
      "ks": 874,
      "pm": 875,
      "Ġnm": 876,
      "teo": 877,
      "yu": 878,
      "eae": 879,
      "Ġ9": 880,
      "wc": 881,
      "Ġof": 882,
      "Ġnf": 883,
      "ka": 884,
      "Ġ!": 885,
      "Ġdd": 886,
      "pf": 887,
      "Ġrf": 888,
      "vl": 889,
      "tea": 890,
      "tei": 891,
      "gm": 892,
      "vd": 893,
      "Ġeee": 894,
      "bc": 895,
      "Ġty": 896,
      "kn": 897,
      "Ġrm": 898,
      "uf": 899,
      "Ġim": 900,
      "eto": 901,
      "eoe": 902,
      "ki": 903,
      "Te": 904,
      "Ie": 905,
      "Ġui": 906,
      "bu": 907,
      "ĠK": 908,
      "Ġsp": 909,
      "Ġuo": 910,
      "cf": 911,
      "Ġç": 912,
      "hg": 913,
      "etn": 914,
      "tes": 915,
      "lg": 916,
      "Ġco": 917,
      "ese": 918,
      "Ġtb": 919,
      "Ġip": 920,
      "Ġca": 921,
      "Ġtw": 922,
      "cm": 923,
      "Ġag": 924,
      "Ġpe": 925,
      "nee": 926,
      "ĠV": 927,
      "'d": 928,
      "Ġus": 929,
      "eti": 930,
      "ets": 931,
      "Ġ7": 932,
      "Ġnp": 933,
      "Ġrp": 934,
      "kt": 935,
      "eta": 936,
      "..": 937,
      "Ġcs": 938,
      "ten": 939,
      "eed": 940,
      "ff": 941,
      "Ġhu": 942,
      "Ġcn": 943,
      "Ġ?": 944,
      "cp": 945,
      "kr": 946,
      "hw": 947,
      "um": 948,
      "Ġsg": 949,
      "hy": 950,
      "Ġut": 951,
      "Ġ|": 952,
      "Ġct": 953,
      "Ġun": 954,
      "etr": 955,
      "ett": 956,
      "eie": 957,
      "up": 958,
      "ene": 959,
      "ãĥ¼": 960,
      "ly": 961,
      "av": 962,
      "Ġog": 963,
      "Ġev": 964,
      "Ġlc": 965,
      "Ġci": 966,
      "Ġcr": 967,
      "eai": 968,
      "ere": 969,
      "dg": 970,
      "åı": 971,
      "ym": 972,
      "íķ": 973,
      "lw": 974,
      "eao": 975,
      "ter": 976,
      "bm": 977,
      "Ġhc": 978,
      "Ġfo": 979,
      "kd": 980,
      "fp": 981,
      "ĠJ": 982,
      "ĠY": 983,
      "hb": 984,
      "Ġua": 985,
      "kl": 986,
      "oee": 987,
      "dw": 988,
      "Ġfs": 989,
      "etl": 990,
      "åĪ": 991,
      "ĠÐ": 992,
      "Ġoy": 993,
      "eas": 994,
      "Ġng": 995,
      "ree": 996,
      "tel": 997,
      "Ġdc": 998,
      "Ġma": 999,
      "Ġì": 1000,
      "Io": 1001,
      "Ġë": 1002,
      "wm": 1003,
      "teh": 1004,
      "yf": 1005,
      "eT": 1006,
      "wp": 1007,
      "Ġig": 1008,
      "Ġul": 1009,
      "Ġms": 1010,
      "kh": 1011,
      "Ġab": 1012,
      "see": 1013,
      "Ġay": 1014,
      "Ġmo": 1015,
      "Ġur": 1016,
      "Ķ¨": 1017,
      "eth": 1018,
      "Ġud": 1019,
      "eos": 1020,
      "Ġcl": 1021,
      "Ġfn": 1022,
      "iee": 1023,
      "Ġow": 1024,
      "eso": 1025,
      "vc": 1026,
      "xe": 1027,
      "Ġmn": 1028,
      "pp": 1029,
      "Ġsy": 1030,
      "ean": 1031,
      "Ġge": 1032,
      "å®": 1033,
      "Ġny": 1034,
      "ĠãĤ": 1035,
      "ess": 1036,
      "Ġaw": 1037,
      "Ġsw": 1038,
      "mp": 1039,
      "æľ": 1040,
      "Ġfi": 1041,
      "dy": 1042,
      "Ġ\\": 1043,
      "Ġlu": 1044,
      "bf": 1045,
      "In": 1046,
      "Ġrg": 1047,
      "eoi": 1048,
      "bp": 1049,
      "Ġhf": 1050,
      "mg": 1051,
      "Ġmt": 1052,
      "ero": 1053,
      "Ġeet": 1054,
      "eoa": 1055,
      "cg": 1056,
      "eon": 1057,
      "tk": 1058,
      "yp": 1059,
      "Ġiw": 1060,
      "Ġwe": 1061,
      "Ġete": 1062,
      "Ġye": 1063,
      "Ġdu": 1064,
      "eoo": 1065,
      "Ġpa": 1066,
      "eio": 1067,
      "Ġft": 1068,
      "eat": 1069,
      "Ġpo": 1070,
      "rv": 1071,
      "To": 1072,
      "Ġek": 1073,
      "Ġuh": 1074,
      "etd": 1075,
      "eot": 1076,
      "Ġpn": 1077,
      "Ġhm": 1078,
      "eaa": 1079,
      "lb": 1080,
      "Ġtee": 1081,
      "gf": 1082,
      "wf": 1083,
      "sv": 1084,
      "Ġps": 1085,
      "Ġfa": 1086,
      "Ġmi": 1087,
      "Ġpt": 1088,
      "_,": 1089,
      "äº": 1090,
      "eni": 1091,
      "eI": 1092,
      "Ġpi": 1093,
      "Ġch": 1094,
      "Ġfr": 1095,
      "åĲ": 1096,
      "ted": 1097,
      ",\"": 1098,
      "ug": 1099,
      "enn": 1100,
      "Ġiy": 1101,
      "eec": 1102,
      "ear": 1103,
      "esn": 1104,
      "Ġlf": 1105,
      "eno": 1106,
      "Ae": 1107,
      "Ġcd": 1108,
      "Ti": 1109,
      "Ġob": 1110,
      "Ġnb": 1111,
      "Ġlm": 1112,
      "Ġmr": 1113,
      "tae": 1114,
      "Ġãĥ": 1115,
      "esa": 1116,
      "Ġnw": 1117,
      "Ġmd": 1118,
      "esi": 1119,
      "eit": 1120,
      "Is": 1121,
      "à§": 1122,
      "Ġrw": 1123,
      "eeu": 1124,
      "nv": 1125,
      "Ġsb": 1126,
      "Ġry": 1127,
      "toe": 1128,
      "Ġgo": 1129,
      "Ts": 1130,
      "tte": 1131,
      "eor": 1132,
      "eri": 1133,
      "tti": 1134,
      "cy": 1135,
      "est": 1136,
      "Ii": 1137,
      "ens": 1138,
      "ehe": 1139,
      "gp": 1140,
      "eah": 1141,
      "Se": 1142,
      "Ġml": 1143,
      "esr": 1144,
      "\",": 1145,
      "ak": 1146,
      "Ġaee": 1147,
      "Ġlp": 1148,
      "Ġdf": 1149,
      "ern": 1150,
      "It": 1151,
      "tto": 1152,
      "eis": 1153,
      "ers": 1154,
      "Ġhp": 1155,
      "Ġib": 1156,
      "Ġfh": 1157,
      "eia": 1158,
      "tts": 1159,
      "xo": 1160,
      "tta": 1161,
      "çĶ¨": 1162,
      "-,": 1163,
      "fg": 1164,
      "cw": 1165,
      "db": 1166,
      "ena": 1167,
      "enr": 1168,
      "Ġwo": 1169,
      "Ġrb": 1170,
      "Ġdm": 1171,
      "xs": 1172,
      "uy": 1173,
      "ein": 1174,
      "ent": 1175,
      "Tr": 1176,
      "Ġfl": 1177,
      "ttt": 1178,
      "åħ": 1179,
      "ert": 1180,
      "Ġtv": 1181,
      "ttn": 1182,
      "ele": 1183,
      "Ee": 1184,
      "Ġeea": 1185,
      "tse": 1186,
      "ov": 1187,
      "Ġbe": 1188,
      "Ir": 1189,
      "ãģ®": 1190,
      "eoh": 1191,
      "Ġpr": 1192,
      "tao": 1193,
      "tre": 1194,
      "ãĢģ": 1195,
      "err": 1196,
      "Ġgs": 1197,
      "Tn": 1198,
      "tie": 1199,
      ",-": 1200,
      "Ta": 1201,
      "Ġhg": 1202,
      "tne": 1203,
      "ttr": 1204,
      "Tt": 1205,
      "ub": 1206,
      "Ġfd": 1207,
      "\".": 1208,
      "iv": 1209,
      "è¯": 1210,
      "Ġeen": 1211,
      "aae": 1212,
      "è¿": 1213,
      "Ġdp": 1214,
      "eir": 1215,
      "era": 1216,
      "Tl": 1217,
      "Ġä¸": 1218,
      "ead": 1219,
      "Ao": 1220,
      "eem": 1221,
      "too": 1222,
      "Ġcc": 1223,
      "tas": 1224,
      "Ġeeo": 1225,
      "etu": 1226,
      "Ġmh": 1227,
      "tat": 1228,
      ",_": 1229,
      "Ia": 1230,
      "hv": 1231,
      "Ġpl": 1232,
      "eii": 1233,
      "eal": 1234,
      "esl": 1235,
      "ãģĻ": 1236,
      "erh": 1237,
      "Ġgn": 1238,
      "eih": 1239,
      "Ġgi": 1240,
      "uw": 1241,
      "xt": 1242,
      "aet": 1243,
      "Ġyo": 1244,
      "Th": 1245,
      "py": 1246,
      "mw": 1247,
      "cb": 1248,
      "xn": 1249,
      "gg": 1250,
      "pw": 1251,
      "enh": 1252,
      "set": 1253,
      "esh": 1254,
      "my": 1255,
      "Ġé": 1256,
      "eol": 1257,
      "Id": 1258,
      "vm": 1259,
      "xr": 1260,
      "aoe": 1261,
      "Ġcu": 1262,
      "tan": 1263,
      "tec": 1264,
      "Ġgt": 1265,
      "Ġws": 1266,
      ".\"": 1267,
      "An": 1268,
      "ttl": 1269,
      "xa": 1270,
      "Ã©": 1271,
      "pg": 1272,
      "ĭ¤": 1273,
      "Ġlg": 1274,
      "eil": 1275,
      "ede": 1276,
      "Ġoee": 1277,
      "xi": 1278,
      "Ġph": 1279,
      "ase": 1280,
      "fw": 1281,
      "Ġav": 1282,
      "tos": 1283,
      "Ġys": 1284,
      "noe": 1285,
      "fy": 1286,
      "Ġsee": 1287,
      "esd": 1288,
      "erl": 1289,
      "Ġgr": 1290,
      "Ġwi": 1291,
      "Ðµ": 1292,
      "Ġ%": 1293,
      "ku": 1294,
      "eid": 1295,
      "Ġyi": 1296,
      "ehs": 1297,
      "ane": 1298,
      "aeo": 1299,
      "wg": 1300,
      "Ġuc": 1301,
      "Ġyt": 1302,
      "tni": 1303,
      "'m": 1304,
      "Ġyn": 1305,
      "tso": 1306,
      "tno": 1307,
      "hee": 1308,
      "Ġeei": 1309,
      "Ġwn": 1310,
      "eha": 1311,
      "ĠeT": 1312,
      "taa": 1313,
      "As": 1314,
      "bg": 1315,
      "vu": 1316,
      "teu": 1317,
      "ìĿ´": 1318,
      "enl": 1319,
      "-.": 1320,
      "Ġees": 1321,
      "vf": 1322,
      "tot": 1323,
      "etc": 1324,
      "tro": 1325,
      "._": 1326,
      "Ġets": 1327,
      "tth": 1328,
      "At": 1329,
      "So": 1330,
      "Ġiee": 1331,
      "Ġwt": 1332,
      "Ġà¦": 1333,
      "Ġhy": 1334,
      "Ġbo": 1335,
      "pb": 1336,
      "aea": 1337,
      "Ġ@": 1338,
      "Ġpd": 1339,
      "eod": 1340,
      "),": 1341,
      "Eo": 1342,
      "Ss": 1343,
      "Ġeta": 1344,
      "ooe": 1345,
      "ik": 1346,
      "Ġtk": 1347,
      "end": 1348,
      "ret": 1349,
      "toi": 1350,
      "_.": 1351,
      "xl": 1352,
      "Ġbt": 1353,
      "trs": 1354,
      "Ai": 1355,
      "ate": 1356,
      "yy": 1357,
      "are": 1358,
      "aie": 1359,
      ",)": 1360,
      "Ġeel": 1361,
      "Ġtet": 1362,
      "Ġhw": 1363,
      "Ġlw": 1364,
      "eho": 1365,
      "Ce": 1366,
      "mb": 1367,
      "Ġwr": 1368,
      "tai": 1369,
      "ttd": 1370,
      "Ġga": 1371,
      "Ar": 1372,
      "net": 1373,
      "ÑĤ": 1374,
      "Td": 1375,
      "Ġeer": 1376,
      "Ġnee": 1377,
      "Ġyr": 1378,
      "Aa": 1379,
      "Il": 1380,
      "gy": 1381,
      ".-": 1382,
      "Ih": 1383,
      "Sn": 1384,
      "Ġya": 1385,
      "rse": 1386,
      "Sa": 1387,
      "Ġeeh": 1388,
      "Ġum": 1389,
      "Ġbs": 1390,
      "tit": 1391,
      "trn": 1392,
      "fb": 1393,
      "Ġ+": 1394,
      "tns": 1395,
      "nie": 1396,
      "kc": 1397,
      "Ġdg": 1398,
      "Ġyd": 1399,
      "Ea": 1400,
      "vp": 1401,
      "Ġett": 1402,
      ",'": 1403,
      "Es": 1404,
      "km": 1405,
      "lee": 1406,
      "sse": 1407,
      "(,": 1408,
      "Re": 1409,
      "by": 1410,
      "eac": 1411,
      "tio": 1412,
      "xh": 1413,
      "Ġly": 1414,
      "Ġba": 1415,
      "tna": 1416,
      "tir": 1417,
      "wy": 1418,
      "Ġwl": 1419,
      "Ġgl": 1420,
      "ton": 1421,
      "Si": 1422,
      "St": 1423,
      "Ð¾": 1424,
      "Ġeaa": 1425,
      "Ġuu": 1426,
      "Ġbn": 1427,
      "Ġeas": 1428,
      "tef": 1429,
      "tsn": 1430,
      "kp": 1431,
      "erd": 1432,
      "Ġree": 1433,
      "tem": 1434,
      "Ġwa": 1435,
      "tnn": 1436,
      "åľ": 1437,
      "è®": 1438,
      "eoc": 1439,
      "ehi": 1440,
      "Ġcf": 1441,
      "tsi": 1442,
      "tnt": 1443,
      "Ġmu": 1444,
      "aoo": 1445,
      "čĠĠ": 1446,
      "eau": 1447,
      "tnr": 1448,
      ",(": 1449,
      "iet": 1450,
      "eef": 1451,
      "eep": 1452,
      "ehr": 1453,
      "Ġaet": 1454,
      "Ġgd": 1455,
      "tar": 1456,
      "toa": 1457,
      "ass": 1458,
      "tle": 1459,
      "ãĤĴ": 1460,
      "Ġyl": 1461,
      "tin": 1462,
      "aes": 1463,
      "the": 1464,
      "yg": 1465,
      "ĠeI": 1466,
      "Ġhb": 1467,
      "tsr": 1468,
      "eht": 1469,
      "soe": 1470,
      "Ġve": 1471,
      "Ġmc": 1472,
      "els": 1473,
      "Pe": 1474,
      "nea": 1475,
      "Ð¸": 1476,
      "Ġov": 1477,
      "Ġwd": 1478,
      "roe": 1479,
      "nse": 1480,
      "kf": 1481,
      "Ġcm": 1482,
      "Ġbr": 1483,
      "aeu": 1484,
      "tad": 1485,
      "tor": 1486,
      "tis": 1487,
      "edo": 1488,
      "bw": 1489,
      "tT": 1490,
      "xd": 1491,
      "ĠĠč": 1492,
      "Ġyh": 1493,
      "toh": 1494,
      "ehn": 1495,
      "ĠčĠ": 1496,
      "tia": 1497,
      "tri": 1498,
      "Sr": 1499,
      "gw": 1500,
      "oet": 1501,
      "ela": 1502,
      "eln": 1503,
      "aon": 1504,
      "(.": 1505,
      "Ġteo": 1506,
      "En": 1507,
      "Ġbi": 1508,
      "aos": 1509,
      "ioe": 1510,
      "Sh": 1511,
      "Ġgh": 1512,
      "tal": 1513,
      "tsa": 1514,
      "ĠX": 1515,
      "Ġdb": 1516,
      "Ġuf": 1517,
      "enu": 1518,
      "oos": 1519,
      "aec": 1520,
      "Ġfc": 1521,
      "Ġpu": 1522,
      "aot": 1523,
      "Er": 1524,
      "ëĭ¤": 1525,
      "eds": 1526,
      "gb": 1527,
      "ok": 1528,
      "aas": 1529,
      "ä¸Ģ": 1530,
      "',": 1531,
      "wb": 1532,
      "Ġtte": 1533,
      "Ġnv": 1534,
      "rie": 1535,
      "Ne": 1536,
      "Sl": 1537,
      "tI": 1538,
      "Ah": 1539,
      "Ei": 1540,
      "Ġcp": 1541,
      "trr": 1542,
      "elo": 1543,
      ".)": 1544,
      "Ad": 1545,
      "aei": 1546,
      "Ġear": 1547,
      "Ġfu": 1548,
      "tst": 1549,
      "aer": 1550,
      "Ġetn": 1551,
      "Ġset": 1552,
      "tsl": 1553,
      "tss": 1554,
      "ehh": 1555,
      "åĬ": 1556,
      "Ġoet": 1557,
      "Ġsv": 1558,
      "Ġdy": 1559,
      "oea": 1560,
      "Et": 1561,
      "tah": 1562,
      "Ġwh": 1563,
      "aai": 1564,
      "aor": 1565,
      "edi": 1566,
      "ani": 1567,
      ".(": 1568,
      "âł": 1569,
      "Ļ¨": 1570,
      "Ġess": 1571,
      "Ġiv": 1572,
      "Ġrv": 1573,
      "ä¸ª": 1574,
      "nk": 1575,
      "yw": 1576,
      "æĪ": 1577,
      "ç»": 1578,
      "Ġeoo": 1579,
      "tra": 1580,
      "Sd": 1581,
      "aat": 1582,
      "ait": 1583,
      "ä¹": 1584,
      "aaa": 1585,
      "aao": 1586,
      "elt": 1587,
      "aso": 1588,
      "yb": 1589,
      "Ġtea": 1590,
      "sk": 1591,
      "Ġfm": 1592,
      "eou": 1593,
      "enc": 1594,
      "Ġlb": 1595,
      "Ġdw": 1596,
      "Ġmf": 1597,
      "trt": 1598,
      "elr": 1599,
      "edn": 1600,
      "tde": 1601,
      "Ġero": 1602,
      "Ġup": 1603,
      "tod": 1604,
      "eli": 1605,
      "rk": 1606,
      "ann": 1607,
      "aem": 1608,
      "âĢĻ": 1609,
      "Ct": 1610,
      "lv": 1611,
      "Ġex": 1612,
      "Ġak": 1613,
      "esu": 1614,
      "asi": 1615,
      "ssn": 1616,
      "Ġok": 1617,
      "ãĥ³": 1618,
      "Ġeai": 1619,
      "edr": 1620,
      "edt": 1621,
      "ä»¥": 1622,
      "uee": 1623,
      "ĠçļĦ": 1624,
      "eic": 1625,
      "tnl": 1626,
      "til": 1627,
      "eda": 1628,
      ").": 1629,
      "Cn": 1630,
      "El": 1631,
      "eom": 1632,
      "Ġbh": 1633,
      "tnh": 1634,
      "tii": 1635,
      "neu": 1636,
      "ä½¿": 1637,
      "bb": 1638,
      "Ø§": 1639,
      "soi": 1640,
      "ex": 1641,
      "æĺ": 1642,
      "Ġeoe": 1643,
      "tol": 1644,
      "Ġpc": 1645,
      "edl": 1646,
      "ari": 1647,
      ":,": 1648,
      "Al": 1649,
      "ww": 1650,
      "trh": 1651,
      "Co": 1652,
      "Eh": 1653,
      "kg": 1654,
      "ehd": 1655,
      "aar": 1656,
      "tid": 1657,
      "not": 1658,
      "rec": 1659,
      "ite": 1660,
      "Ġetl": 1661,
      "ros": 1662,
      "Ġeae": 1663,
      "aan": 1664,
      "ooo": 1665,
      "nis": 1666,
      "Tc": 1667,
      "Ġese": 1668,
      "tsh": 1669,
      "aen": 1670,
      "nte": 1671,
      "ehl": 1672,
      "fee": 1673,
      "aoi": 1674,
      "ans": 1675,
      "ä¸º": 1676,
      ",/": 1677,
      "Ġtes": 1678,
      "aad": 1679,
      "aoh": 1680,
      "aro": 1681,
      "nio": 1682,
      "ä¸Ń": 1683,
      "cee": 1684,
      "Ġens": 1685,
      "Ġate": 1686,
      "tsd": 1687,
      "Ġbd": 1688,
      "Ca": 1689,
      "Ġeto": 1690,
      "Ġeos": 1691,
      "Ġcg": 1692,
      "aal": 1693,
      "Cs": 1694,
      "å°": 1695,
      "Ġene": 1696,
      "Ġtei": 1697,
      "eeg": 1698,
      "oot": 1699,
      "ars": 1700,
      "Ed": 1701,
      "Iu": 1702,
      "iea": 1703,
      "Ġetr": 1704,
      "Ġeio": 1705,
      "ĠtI": 1706,
      "tep": 1707,
      "Ġbl": 1708,
      "asa": 1709,
      "asn": 1710,
      "asr": 1711,
      "ano": 1712,
      "ain": 1713,
      "ãģ«": 1714,
      "reo": 1715,
      "Ġeti": 1716,
      "Ġnet": 1717,
      "Le": 1718,
      "rea": 1719,
      "Ð½": 1720,
      "åº": 1721,
      "Ġeth": 1722,
      "eld": 1723,
      "ell": 1724,
      "ãģ¾": 1725,
      "å¤": 1726,
      "ĠãĢĤ": 1727,
      "Ġik": 1728,
      "aol": 1729,
      "edh": 1730,
      "ast": 1731,
      "reu": 1732,
      "ies": 1733,
      "vg": 1734,
      "Ġeni": 1735,
      "etf": 1736,
      "enf": 1737,
      "aoa": 1738,
      "ale": 1739,
      "'.": 1740,
      "¡ľ": 1741,
      "¦Ĥ": 1742,
      "æĸ": 1743,
      "è¡": 1744,
      "ĠĠĠĠĠ": 1745,
      "eru": 1746,
      "Ġgc": 1747,
      "tnd": 1748,
      "ant": 1749,
      "Mo": 1750,
      "ses": 1751,
      "ĠeA": 1752,
      "Ġmm": 1753,
      "sst": 1754,
      "/,": 1755,
      "nes": 1756,
      "Ġoeo": 1757,
      "ttu": 1758,
      "non": 1759,
      "åľ¨": 1760,
      "art": 1761,
      "aio": 1762,
      "nos": 1763,
      "tht": 1764,
      "iot": 1765,
      "Rt": 1766,
      "Ġten": 1767,
      "elh": 1768,
      "son": 1769,
      "Ci": 1770,
      "Ro": 1771,
      "Ð°": 1772,
      "ìĹ": 1773,
      "Ġeoi": 1774,
      "erc": 1775,
      "aah": 1776,
      "atc": 1777,
      "Ġcy": 1778,
      "tih": 1779,
      "Ic": 1780,
      "Ġeed": 1781,
      "ooi": 1782,
      "ade": 1783,
      "fv": 1784,
      "ren": 1785,
      "oon": 1786,
      "ÑĢ": 1787,
      "Ġeso": 1788,
      "Ġsk": 1789,
      "Ġiet": 1790,
      "aod": 1791,
      "ara": 1792,
      "åı¯": 1793,
      "mv": 1794,
      "xu": 1795,
      "Ġeec": 1796,
      "Ġnea": 1797,
      "noi": 1798,
      "rsn": 1799,
      "sec": 1800,
      "ï¼ļ": 1801,
      "Be": 1802,
      "oes": 1803,
      "seo": 1804,
      "ÛĮ": 1805,
      "iec": 1806,
      "Tu": 1807,
      "čĠĊ": 1808,
      "sss": 1809,
      "nec": 1810,
      "dee": 1811,
      "ä¼": 1812,
      "ìĦ": 1813,
      "Ġttt": 1814,
      "Ġsea": 1815,
      "etm": 1816,
      "edd": 1817,
      "Pn": 1818,
      "Ps": 1819,
      "ote": 1820,
      "pee": 1821,
      "éĢ": 1822,
      "ĠeE": 1823,
      "Ġret": 1824,
      "ais": 1825,
      "rem": 1826,
      "ris": 1827,
      "ieu": 1828,
      "ahe": 1829,
      "De": 1830,
      "att": 1831,
      "yee": 1832,
      "åŃ": 1833,
      "Ġeon": 1834,
      "aii": 1835,
      "ths": 1836,
      "\"\"": 1837,
      "oeo": 1838,
      "ĬĶ": 1839,
      "Ġaes": 1840,
      "Ġnk": 1841,
      "Ġrk": 1842,
      "Ġpm": 1843,
      "arn": 1844,
      "Me": 1845,
      "rte": 1846,
      "Ġcw": 1847,
      "Ġff": 1848,
      "noh": 1849,
      "Ġvs": 1850,
      "Ġke": 1851,
      ".'": 1852,
      "ĠeS": 1853,
      "Ġean": 1854,
      "Ġeii": 1855,
      "Ġote": 1856,
      "nsn": 1857,
      "Ns": 1858,
      "Po": 1859,
      "Ġoes": 1860,
      "aia": 1861,
      "roi": 1862,
      "/.": 1863,
      "eA": 1864,
      "uv": 1865,
      "Ġeao": 1866,
      "Ġite": 1867,
      "Ġuw": 1868,
      "eof": 1869,
      "sos": 1870,
      "rst": 1871,
      "pv": 1872,
      "ĠtT": 1873,
      "Ġtta": 1874,
      "Ġste": 1875,
      "Ġmp": 1876,
      "ooa": 1877,
      "sso": 1878,
      "tho": 1879,
      "ron": 1880,
      "Im": 1881,
      "Rn": 1882,
      "res": 1883,
      "åĻ¨": 1884,
      "eew": 1885,
      "trl": 1886,
      "ash": 1887,
      "asl": 1888,
      "ooh": 1889,
      "mee": 1890,
      "Ġter": 1891,
      "trd": 1892,
      "asd": 1893,
      "nsr": 1894,
      "oeu": 1895,
      "ĠčĊ": 1896,
      "Ġenn": 1897,
      "Ġfg": 1898,
      "thi": 1899,
      "nit": 1900,
      "Cr": 1901,
      "Ni": 1902,
      "Ri": 1903,
      "arr": 1904,
      "aid": 1905,
      "Pt": 1906,
      "sea": 1907,
      "xc": 1908,
      "Ġaeo": 1909,
      "ana": 1910,
      "aef": 1911,
      "aep": 1912,
      "tlo": 1913,
      ",:": 1914,
      "vy": 1915,
      "Ġeis": 1916,
      "Ġhee": 1917,
      "Ġwc": 1918,
      "sor": 1919,
      "rot": 1920,
      "Cl": 1921,
      "qe": 1922,
      "Ġbc": 1923,
      "air": 1924,
      "soa": 1925,
      "nii": 1926,
      "nef": 1927,
      "nst": 1928,
      "\"-": 1929,
      ",=": 1930,
      "Au": 1931,
      "Rs": 1932,
      "Ġeno": 1933,
      "Ġoea": 1934,
      "eiu": 1935,
      "ttc": 1936,
      "tau": 1937,
      "toc": 1938,
      "tls": 1939,
      "tdo": 1940,
      ",`": 1941,
      "ati": 1942,
      "nen": 1943,
      "etp": 1944,
      "Ġfp": 1945,
      "ioi": 1946,
      "rsi": 1947,
      "Ġeeu": 1948,
      "Ġyc": 1949,
      "ssi": 1950,
      "eS": 1951,
      "neo": 1952,
      "ĥ½": 1953,
      "Ġgu": 1954,
      "roa": 1955,
      "nsi": 1956,
      "nsl": 1957,
      "tds": 1958,
      "å®ļ": 1959,
      "eim": 1960,
      "anh": 1961,
      "anl": 1962,
      "nir": 1963,
      "nsa": 1964,
      "rii": 1965,
      "tdn": 1966,
      "à§ĩ": 1967,
      "gee": 1968,
      "Ġpp": 1969,
      "ssr": 1970,
      "rin": 1971,
      "nnn": 1972,
      "He": 1973,
      "aI": 1974,
      "ste": 1975,
      "½®": 1976,
      "Ġere": 1977,
      "Ġses": 1978,
      "Ġnte": 1979,
      "Ġhv": 1980,
      "erm": 1981,
      "ehc": 1982,
      "oor": 1983,
      "nem": 1984,
      "seu": 1985,
      "atu": 1986,
      "¥¼": 1987,
      "å¯": 1988,
      "Ġuy": 1989,
      "esf": 1990,
      "enp": 1991,
      "ool": 1992,
      "sod": 1993,
      "Ġvt": 1994,
      "rrt": 1995,
      "rnt": 1996,
      "íķľ": 1997,
      "Ch": 1998,
      "Oe": 1999,
      "__": 2000,
      "æī": 2001,
      "Ġieo": 2002,
      "ior": 2003,
      "ãĤĭ": 2004,
      "æĺ¯": 2005,
      "eif": 2006,
      "tlt": 2007,
      "eue": 2008,
      "Fe": 2009,
      "If": 2010,
      "_\"": 2011,
      "ata": 2012,
      "hk": 2013,
      "sen": 2014,
      "eam": 2015,
      "Ġpf": 2016,
      "Ġgf": 2017,
      "tln": 2018,
      "isi": 2019,
      "tx": 2020,
      "Ð²": 2021,
      "Ġeie": 2022,
      "Ġdee": 2023,
      "esc": 2024,
      "anr": 2025,
      "aew": 2026,
      ".:": 2027,
      "Tm": 2028,
      "ê°": 2029,
      "Ġaei": 2030,
      "Ġott": 2031,
      "Ġvo": 2032,
      "ost": 2033,
      "Nn": 2034,
      "Tf": 2035,
      "ser": 2036,
      "ìł": 2037,
      "ĠZ": 2038,
      "Ġesn": 2039,
      "Ġrea": 2040,
      "thn": 2041,
      "tdi": 2042,
      "Na": 2043,
      "dv": 2044,
      "oen": 2045,
      "oer": 2046,
      "ë¡ľ": 2047
    },
    "merges": [
      [
        "Ġ",
        "e"
      ],
      [
        "Ġ",
        "t"
      ],
      [
        "Ġ",
        "a"
      ],
      [
        "Ġ",
        "o"
      ],
      [
        "Ġ",
        "s"
      ],
      [
        "Ġ",
        "n"
      ],
      [
        "Ġ",
        "i"
      ],
      [
        "Ġ",
        "r"
      ],
      [
        "Ġ",
        "Ġ"
      ],
      [
        "e",
        "e"
      ],
      [
        "Ġ",
        "h"
      ],
      [
        "Ġ",
        "l"
      ],
      [
        "Ġ",
        "d"
      ],
      [
        "e",
        "t"
      ],
      [
        "Ġ",
        "c"
      ],
      [
        "Ġ",
        "u"
      ],
      [
        "Ġ",
        "Ċ"
      ],
      [
        "t",
        "e"
      ],
      [
        "Ġ",
        "m"
      ],
      [
        "e",
        "a"
      ],
      [
        "Ġ",
        "f"
      ],
      [
        "e",
        "o"
      ],
      [
        "Ġ",
        "p"
      ],
      [
        "e",
        "s"
      ],
      [
        "e",
        "n"
      ],
      [
        "e",
        "i"
      ],
      [
        "e",
        "r"
      ],
      [
        "t",
        "t"
      ],
      [
        "Ġ",
        ","
      ],
      [
        "Ġ",
        "g"
      ],
      [
        "t",
        "a"
      ],
      [
        "Ġ",
        "y"
      ],
      [
        "Ġ",
        "w"
      ],
      [
        "t",
        "o"
      ],
      [
        "Ġ",
        "."
      ],
      [
        "t",
        "s"
      ],
      [
        "Ġ",
        "b"
      ],
      [
        "e",
        "h"
      ],
      [
        "t",
        "n"
      ],
      [
        "a",
        "a"
      ],
      [
        "t",
        "i"
      ],
      [
        "t",
        "r"
      ],
      [
        "e",
        "l"
      ],
      [
        "a",
        "o"
      ],
      [
        "e",
        "d"
      ],
      [
        "a",
        "s"
      ],
      [
        "o",
        "o"
      ],
      [
        "a",
        "n"
      ],
      [
        "a",
        "r"
      ],
      [
        "a",
        "e"
      ],
      [
        "a",
        "i"
      ],
      [
        "s",
        "s"
      ],
      [
        "n",
        "o"
      ],
      [
        "t",
        "h"
      ],
      [
        "s",
        "o"
      ],
      [
        "n",
        "i"
      ],
      [
        "r",
        "o"
      ],
      [
        "n",
        "e"
      ],
      [
        "t",
        "l"
      ],
      [
        "i",
        "o"
      ],
      [
        "n",
        "s"
      ],
      [
        "Ġ",
        "v"
      ],
      [
        "r",
        "e"
      ],
      [
        "r",
        "s"
      ],
      [
        "r",
        "i"
      ],
      [
        "Ġ",
        "\""
      ],
      [
        "t",
        "d"
      ],
      [
        "s",
        "e"
      ],
      [
        "n",
        "n"
      ],
      [
        "i",
        "e"
      ],
      [
        "a",
        "t"
      ],
      [
        "a",
        "h"
      ],
      [
        "o",
        "e"
      ],
      [
        "Ġ",
        "-"
      ],
      [
        "i",
        "i"
      ],
      [
        "Ġ",
        "_"
      ],
      [
        "r",
        "r"
      ],
      [
        "i",
        "s"
      ],
      [
        "a",
        "l"
      ],
      [
        "o",
        "s"
      ],
      [
        "r",
        "n"
      ],
      [
        "Ġ",
        "k"
      ],
      [
        "a",
        "d"
      ],
      [
        "o",
        "i"
      ],
      [
        "o",
        "n"
      ],
      [
        "e",
        "c"
      ],
      [
        "i",
        "n"
      ],
      [
        "ĠĠ",
        "Ġ"
      ],
      [
        "Ġ",
        ")"
      ],
      [
        "s",
        "n"
      ],
      [
        "h",
        "e"
      ],
      [
        "Ġ",
        "("
      ],
      [
        "r",
        "t"
      ],
      [
        "s",
        "i"
      ],
      [
        "e",
        "u"
      ],
      [
        "r",
        "h"
      ],
      [
        "r",
        "l"
      ],
      [
        "r",
        "a"
      ],
      [
        "o",
        "t"
      ],
      [
        "n",
        "t"
      ],
      [
        "o",
        "h"
      ],
      [
        "r",
        "d"
      ],
      [
        "Ġ",
        "'"
      ],
      [
        "l",
        "e"
      ],
      [
        "s",
        "t"
      ],
      [
        "s",
        "h"
      ],
      [
        "n",
        "h"
      ],
      [
        "o",
        "a"
      ],
      [
        "o",
        "l"
      ],
      [
        "i",
        "t"
      ],
      [
        "s",
        "a"
      ],
      [
        "i",
        "h"
      ],
      [
        "s",
        "l"
      ],
      [
        "n",
        "a"
      ],
      [
        "e",
        "m"
      ],
      [
        "n",
        "l"
      ],
      [
        "o",
        "d"
      ],
      [
        "i",
        "a"
      ],
      [
        "s",
        "d"
      ],
      [
        "n",
        "d"
      ],
      [
        "o",
        "r"
      ],
      [
        "e",
        "f"
      ],
      [
        "i",
        "l"
      ],
      [
        "e",
        "p"
      ],
      [
        "t",
        "u"
      ],
      [
        "n",
        "r"
      ],
      [
        "i",
        "d"
      ],
      [
        "t",
        "c"
      ],
      [
        "ĠĠ",
        "Ċ"
      ],
      [
        "Ġ",
        "/"
      ],
      [
        "s",
        "r"
      ],
      [
        "Ġ",
        "I"
      ],
      [
        "Ġ",
        "T"
      ],
      [
        "i",
        "r"
      ],
      [
        "Ġ",
        ":"
      ],
      [
        "Ġe",
        "e"
      ],
      [
        "a",
        "c"
      ],
      [
        "a",
        "u"
      ],
      [
        "t",
        "m"
      ],
      [
        "Ġ",
        "x"
      ],
      [
        "Ġ",
        "0"
      ],
      [
        "ã",
        "ģ"
      ],
      [
        "t",
        "f"
      ],
      [
        "d",
        "e"
      ],
      [
        "h",
        "h"
      ],
      [
        "e",
        "g"
      ],
      [
        "o",
        "c"
      ],
      [
        "o",
        "u"
      ],
      [
        "Ġ",
        "="
      ],
      [
        "Ġ",
        "A"
      ],
      [
        "s",
        "u"
      ],
      [
        "t",
        "p"
      ],
      [
        "s",
        "c"
      ],
      [
        "n",
        "c"
      ],
      [
        "n",
        "u"
      ],
      [
        "a",
        "m"
      ],
      [
        "Ġ",
        "`"
      ],
      [
        "i",
        "c"
      ],
      [
        "Ġe",
        "h"
      ],
      [
        "a",
        "f"
      ],
      [
        "r",
        "u"
      ],
      [
        "Ġe",
        "o"
      ],
      [
        "r",
        "c"
      ],
      [
        "Ġ",
        "S"
      ],
      [
        "l",
        "o"
      ],
      [
        "i",
        "u"
      ],
      [
        "h",
        "o"
      ],
      [
        "e",
        "y"
      ],
      [
        "Ġ",
        ">"
      ],
      [
        "e",
        "w"
      ],
      [
        "Ġe",
        "l"
      ],
      [
        "h",
        "l"
      ],
      [
        "Ġe",
        "s"
      ],
      [
        "Ġ",
        "E"
      ],
      [
        "Ġe",
        "d"
      ],
      [
        "h",
        "a"
      ],
      [
        "h",
        "t"
      ],
      [
        "h",
        "n"
      ],
      [
        "h",
        "d"
      ],
      [
        "h",
        "s"
      ],
      [
        "Ġe",
        "i"
      ],
      [
        "Ġe",
        "n"
      ],
      [
        "h",
        "i"
      ],
      [
        "Ġe",
        "t"
      ],
      [
        "e",
        "b"
      ],
      [
        "Ġe",
        "a"
      ],
      [
        "ã",
        "ĥ"
      ],
      [
        "l",
        "d"
      ],
      [
        "l",
        "s"
      ],
      [
        "h",
        "r"
      ],
      [
        "l",
        "t"
      ],
      [
        "Ġe",
        "r"
      ],
      [
        "Ġ",
        "1"
      ],
      [
        "l",
        "n"
      ],
      [
        "l",
        "i"
      ],
      [
        "a",
        "p"
      ],
      [
        "Ġ",
        "<"
      ],
      [
        "o",
        "m"
      ],
      [
        "l",
        "r"
      ],
      [
        "o",
        "f"
      ],
      [
        "d",
        "s"
      ],
      [
        "l",
        "a"
      ],
      [
        "t",
        "g"
      ],
      [
        "c",
        "e"
      ],
      [
        "Ġt",
        "e"
      ],
      [
        "m",
        "e"
      ],
      [
        "u",
        "e"
      ],
      [
        "n",
        "f"
      ],
      [
        "s",
        "f"
      ],
      [
        "s",
        "m"
      ],
      [
        "d",
        "t"
      ],
      [
        "ã",
        "Ĥ"
      ],
      [
        "d",
        "o"
      ],
      [
        "n",
        "m"
      ],
      [
        "i",
        "f"
      ],
      [
        "Ġ",
        "C"
      ],
      [
        "d",
        "r"
      ],
      [
        "i",
        "m"
      ],
      [
        "n",
        "p"
      ],
      [
        "r",
        "f"
      ],
      [
        "r",
        "m"
      ],
      [
        "d",
        "i"
      ],
      [
        "t",
        "w"
      ],
      [
        "t",
        "y"
      ],
      [
        "l",
        "l"
      ],
      [
        "d",
        "a"
      ],
      [
        "o",
        "p"
      ],
      [
        "s",
        "p"
      ],
      [
        "h",
        "c"
      ],
      [
        "d",
        "n"
      ],
      [
        "Ġe",
        "c"
      ],
      [
        "a",
        "g"
      ],
      [
        "i",
        "p"
      ],
      [
        "r",
        "p"
      ],
      [
        "Ġ",
        "P"
      ],
      [
        "f",
        "e"
      ],
      [
        "t",
        "b"
      ],
      [
        "Ġ",
        "R"
      ],
      [
        "Ġe",
        "u"
      ],
      [
        "d",
        "l"
      ],
      [
        "Ġ",
        "č"
      ],
      [
        "Ġt",
        "o"
      ],
      [
        "h",
        "u"
      ],
      [
        "Ġa",
        "e"
      ],
      [
        "c",
        "o"
      ],
      [
        "u",
        "o"
      ],
      [
        "l",
        "h"
      ],
      [
        "Ġ",
        "N"
      ],
      [
        "Ġo",
        "e"
      ],
      [
        "d",
        "d"
      ],
      [
        "a",
        "y"
      ],
      [
        "a",
        "w"
      ],
      [
        "p",
        "e"
      ],
      [
        "u",
        "s"
      ],
      [
        "Ġt",
        "s"
      ],
      [
        "d",
        "h"
      ],
      [
        "g",
        "e"
      ],
      [
        "Ġs",
        "e"
      ],
      [
        "Ġ",
        "2"
      ],
      [
        "Ġt",
        "n"
      ],
      [
        "Ġt",
        "i"
      ],
      [
        "c",
        "s"
      ],
      [
        "Ġt",
        "t"
      ],
      [
        "Ġt",
        "r"
      ],
      [
        "u",
        "n"
      ],
      [
        "Ġn",
        "e"
      ],
      [
        "ä",
        "¸"
      ],
      [
        "Ġ",
        "M"
      ],
      [
        "c",
        "n"
      ],
      [
        "m",
        "o"
      ],
      [
        "Ġ",
        "L"
      ],
      [
        "Ġr",
        "e"
      ],
      [
        "f",
        "o"
      ],
      [
        "Ġt",
        "a"
      ],
      [
        "c",
        "t"
      ],
      [
        "y",
        "e"
      ],
      [
        "c",
        "i"
      ],
      [
        "Ġa",
        "o"
      ],
      [
        "Ġ",
        "#"
      ],
      [
        "u",
        "r"
      ],
      [
        "u",
        "t"
      ],
      [
        "w",
        "e"
      ],
      [
        "u",
        "i"
      ],
      [
        "a",
        "b"
      ],
      [
        "Ġe",
        "m"
      ],
      [
        "Ġi",
        "e"
      ],
      [
        "u",
        "a"
      ],
      [
        "f",
        "s"
      ],
      [
        "h",
        "m"
      ],
      [
        "c",
        "r"
      ],
      [
        "Ġo",
        "o"
      ],
      [
        "n",
        "g"
      ],
      [
        "Ġa",
        "s"
      ],
      [
        "c",
        "a"
      ],
      [
        "i",
        "g"
      ],
      [
        "c",
        "l"
      ],
      [
        "Ġe",
        "f"
      ],
      [
        "Ġ",
        ";"
      ],
      [
        "s",
        "g"
      ],
      [
        "Ġe",
        "p"
      ],
      [
        "r",
        "g"
      ],
      [
        "b",
        "e"
      ],
      [
        "c",
        "h"
      ],
      [
        "Ġ",
        "O"
      ],
      [
        "Ġt",
        "l"
      ],
      [
        "Ġ",
        "å"
      ],
      [
        "u",
        "l"
      ],
      [
        "Ġo",
        "s"
      ],
      [
        "o",
        "g"
      ],
      [
        "Ġ",
        "q"
      ],
      [
        "m",
        "s"
      ],
      [
        "Ġt",
        "d"
      ],
      [
        "Ġt",
        "h"
      ],
      [
        "Ġa",
        "t"
      ],
      [
        "n",
        "y"
      ],
      [
        "m",
        "t"
      ],
      [
        "Ġo",
        "t"
      ],
      [
        "Ġn",
        "o"
      ],
      [
        "m",
        "i"
      ],
      [
        "à",
        "¦"
      ],
      [
        "p",
        "o"
      ],
      [
        "Ġa",
        "a"
      ],
      [
        "ã",
        "Ģ"
      ],
      [
        "c",
        "d"
      ],
      [
        "f",
        "t"
      ],
      [
        "m",
        "n"
      ],
      [
        "Ġ",
        "D"
      ],
      [
        "f",
        "i"
      ],
      [
        "Ġa",
        "i"
      ],
      [
        "Ġs",
        "o"
      ],
      [
        "č",
        "Ġ"
      ],
      [
        "Ġa",
        "n"
      ],
      [
        "Ġs",
        "s"
      ],
      [
        "u",
        "h"
      ],
      [
        "f",
        "n"
      ],
      [
        "p",
        "s"
      ],
      [
        "Ġi",
        "o"
      ],
      [
        "r",
        "y"
      ],
      [
        "f",
        "a"
      ],
      [
        "m",
        "a"
      ],
      [
        "Ġ",
        "B"
      ],
      [
        "Ġ",
        "]"
      ],
      [
        "u",
        "d"
      ],
      [
        "Ġo",
        "n"
      ],
      [
        "r",
        "w"
      ],
      [
        "Ġr",
        "o"
      ],
      [
        "Ġ",
        "H"
      ],
      [
        "Ġo",
        "i"
      ],
      [
        "Ġa",
        "r"
      ],
      [
        "Ġs",
        "t"
      ],
      [
        "Ġn",
        "s"
      ],
      [
        "Ġa",
        "l"
      ],
      [
        "p",
        "n"
      ],
      [
        "Ġo",
        "a"
      ],
      [
        "Ġs",
        "n"
      ],
      [
        "Ġ",
        "W"
      ],
      [
        "f",
        "r"
      ],
      [
        "f",
        "l"
      ],
      [
        "w",
        "o"
      ],
      [
        "ï",
        "¼"
      ],
      [
        "Ġ",
        "["
      ],
      [
        "m",
        "l"
      ],
      [
        "p",
        "t"
      ],
      [
        "Ġ",
        "j"
      ],
      [
        "p",
        "i"
      ],
      [
        "Ġs",
        "i"
      ],
      [
        "p",
        "a"
      ],
      [
        "Ġs",
        "a"
      ],
      [
        "Ġn",
        "n"
      ],
      [
        "Ġo",
        "l"
      ],
      [
        "g",
        "o"
      ],
      [
        "Ġn",
        "a"
      ],
      [
        "Ġ",
        "F"
      ],
      [
        "Ġn",
        "t"
      ],
      [
        "f",
        "h"
      ],
      [
        "Ġi",
        "t"
      ],
      [
        "m",
        "r"
      ],
      [
        "y",
        "o"
      ],
      [
        "Ġi",
        "s"
      ],
      [
        "Ġr",
        "s"
      ],
      [
        "Ġa",
        "h"
      ],
      [
        "m",
        "d"
      ],
      [
        "Ġn",
        "i"
      ],
      [
        "Ġo",
        "r"
      ],
      [
        "Ġr",
        "n"
      ],
      [
        "m",
        "h"
      ],
      [
        "p",
        "r"
      ],
      [
        "f",
        "d"
      ],
      [
        "l",
        "u"
      ],
      [
        "Ġi",
        "a"
      ],
      [
        "Ġs",
        "r"
      ],
      [
        "y",
        "s"
      ],
      [
        "Ġi",
        "n"
      ],
      [
        "Ġh",
        "e"
      ],
      [
        "Ġo",
        "h"
      ],
      [
        "Ġe",
        "g"
      ],
      [
        "w",
        "s"
      ],
      [
        "Ġr",
        "i"
      ],
      [
        "Ġa",
        "d"
      ],
      [
        "b",
        "s"
      ],
      [
        "Ġr",
        "t"
      ],
      [
        "b",
        "t"
      ],
      [
        "y",
        "t"
      ],
      [
        "p",
        "h"
      ],
      [
        "b",
        "o"
      ],
      [
        "Ġs",
        "l"
      ],
      [
        "Ġo",
        "d"
      ],
      [
        "ee",
        "e"
      ],
      [
        "w",
        "t"
      ],
      [
        "Ġr",
        "a"
      ],
      [
        "p",
        "d"
      ],
      [
        "g",
        "t"
      ],
      [
        "'",
        "t"
      ],
      [
        "y",
        "a"
      ],
      [
        "Ġn",
        "r"
      ],
      [
        "Ġs",
        "h"
      ],
      [
        "b",
        "n"
      ],
      [
        "ç",
        "ļ"
      ],
      [
        "çļ",
        "Ħ"
      ],
      [
        "ĠĠ",
        "ĠĠ"
      ],
      [
        "Ġs",
        "d"
      ],
      [
        "Ġi",
        "r"
      ],
      [
        "l",
        "c"
      ],
      [
        "Ġ",
        "3"
      ],
      [
        "Ġ",
        "{"
      ],
      [
        "y",
        "i"
      ],
      [
        "g",
        "s"
      ],
      [
        "y",
        "n"
      ],
      [
        "Ġ",
        "}"
      ],
      [
        "Ġr",
        "r"
      ],
      [
        "Ġi",
        "i"
      ],
      [
        "g",
        "i"
      ],
      [
        "Ġl",
        "e"
      ],
      [
        "w",
        "n"
      ],
      [
        "w",
        "i"
      ],
      [
        "p",
        "l"
      ],
      [
        "Ġn",
        "l"
      ],
      [
        "e",
        "v"
      ],
      [
        "Ġt",
        "c"
      ],
      [
        "g",
        "n"
      ],
      [
        "Ġn",
        "d"
      ],
      [
        "w",
        "r"
      ],
      [
        "w",
        "a"
      ],
      [
        "g",
        "a"
      ],
      [
        "Ġn",
        "h"
      ],
      [
        "Ġr",
        "d"
      ],
      [
        "ãĢ",
        "Ĥ"
      ],
      [
        "č",
        "Ċ"
      ],
      [
        "Ġt",
        "u"
      ],
      [
        "g",
        "r"
      ],
      [
        "b",
        "i"
      ],
      [
        "Ġi",
        "h"
      ],
      [
        "y",
        "r"
      ],
      [
        "b",
        "a"
      ],
      [
        "Ġr",
        "l"
      ],
      [
        "Ġr",
        "h"
      ],
      [
        "Ġi",
        "d"
      ],
      [
        "Ġd",
        "e"
      ],
      [
        "b",
        "r"
      ],
      [
        "Ġi",
        "l"
      ],
      [
        "c",
        "u"
      ],
      [
        "y",
        "h"
      ],
      [
        "Ġ",
        "G"
      ],
      [
        "v",
        "e"
      ],
      [
        "y",
        "l"
      ],
      [
        "u",
        "u"
      ],
      [
        "b",
        "h"
      ],
      [
        "w",
        "l"
      ],
      [
        "d",
        "c"
      ],
      [
        "Ġ",
        "*"
      ],
      [
        "b",
        "l"
      ],
      [
        "w",
        "h"
      ],
      [
        "Ġh",
        "o"
      ],
      [
        "g",
        "h"
      ],
      [
        "Ġ",
        "U"
      ],
      [
        "g",
        "l"
      ],
      [
        "w",
        "d"
      ],
      [
        "Ġa",
        "c"
      ],
      [
        "g",
        "d"
      ],
      [
        "y",
        "d"
      ],
      [
        "Ġ",
        "z"
      ],
      [
        "c",
        "c"
      ],
      [
        "Ġt",
        "f"
      ],
      [
        "Ġ",
        "æ"
      ],
      [
        "Ġa",
        "u"
      ],
      [
        "t",
        "ee"
      ],
      [
        "b",
        "d"
      ],
      [
        "Ġe",
        "y"
      ],
      [
        "Ġ",
        "4"
      ],
      [
        "Ġl",
        "o"
      ],
      [
        "Ġh",
        "i"
      ],
      [
        "Ġo",
        "u"
      ],
      [
        "Ġt",
        "m"
      ],
      [
        "h",
        "f"
      ],
      [
        "ee",
        "o"
      ],
      [
        "Ġh",
        "a"
      ],
      [
        "k",
        "e"
      ],
      [
        "Ġe",
        "w"
      ],
      [
        "Ġh",
        "s"
      ],
      [
        "'",
        "s"
      ],
      [
        "v",
        "o"
      ],
      [
        "Ġd",
        "o"
      ],
      [
        "f",
        "u"
      ],
      [
        "Ġo",
        "c"
      ],
      [
        "ee",
        "s"
      ],
      [
        "Ġl",
        "a"
      ],
      [
        "Ġh",
        "n"
      ],
      [
        "f",
        "c"
      ],
      [
        "m",
        "c"
      ],
      [
        "ï¼",
        "Į"
      ],
      [
        "m",
        "u"
      ],
      [
        ",",
        ","
      ],
      [
        "Ġt",
        "p"
      ],
      [
        "Ġh",
        "t"
      ],
      [
        "d",
        "u"
      ],
      [
        "Ġl",
        "t"
      ],
      [
        "Ġl",
        "s"
      ],
      [
        "Ġn",
        "c"
      ],
      [
        "Ġe",
        "b"
      ],
      [
        "Ġl",
        "n"
      ],
      [
        "e",
        "k"
      ],
      [
        "u",
        "c"
      ],
      [
        "Ġs",
        "c"
      ],
      [
        "i",
        "w"
      ],
      [
        "v",
        "s"
      ],
      [
        "ee",
        "a"
      ],
      [
        "ee",
        "t"
      ],
      [
        "Ġ",
        "5"
      ],
      [
        "h",
        "p"
      ],
      [
        "l",
        "f"
      ],
      [
        "et",
        "e"
      ],
      [
        "Ġh",
        "r"
      ],
      [
        "ee",
        "n"
      ],
      [
        "o",
        "y"
      ],
      [
        "Ġl",
        "i"
      ],
      [
        "ĠĠ",
        "ĠĊ"
      ],
      [
        "p",
        "c"
      ],
      [
        "Ġd",
        "s"
      ],
      [
        "Ġn",
        "u"
      ],
      [
        "Ġd",
        "t"
      ],
      [
        "l",
        "m"
      ],
      [
        "o",
        "b"
      ],
      [
        "Ġs",
        "u"
      ],
      [
        "o",
        "w"
      ],
      [
        "n",
        "w"
      ],
      [
        "Ġa",
        "m"
      ],
      [
        "Ġh",
        "h"
      ],
      [
        "Ġu",
        "e"
      ],
      [
        "t",
        "v"
      ],
      [
        "Ġr",
        "c"
      ],
      [
        "d",
        "f"
      ],
      [
        "Ġd",
        "i"
      ],
      [
        "ee",
        "i"
      ],
      [
        "p",
        "u"
      ],
      [
        "s",
        "w"
      ],
      [
        "Ġl",
        "l"
      ],
      [
        "r",
        "b"
      ],
      [
        "d",
        "m"
      ],
      [
        "v",
        "a"
      ],
      [
        "s",
        "y"
      ],
      [
        "â",
        "Ģ"
      ],
      [
        "Ġh",
        "l"
      ],
      [
        "Ġd",
        "a"
      ],
      [
        "Ġc",
        "e"
      ],
      [
        "ì",
        "Ŀ"
      ],
      [
        "i",
        "y"
      ],
      [
        "n",
        "b"
      ],
      [
        "Ġl",
        "r"
      ],
      [
        "f",
        "m"
      ],
      [
        "Ġd",
        "r"
      ],
      [
        "Ġi",
        "c"
      ],
      [
        "Ġr",
        "u"
      ],
      [
        "ee",
        "r"
      ],
      [
        "v",
        "n"
      ],
      [
        "Ġi",
        "u"
      ],
      [
        "Ġt",
        "g"
      ],
      [
        "Ġo",
        "m"
      ],
      [
        "l",
        "p"
      ],
      [
        "v",
        "t"
      ],
      [
        "Ġd",
        "n"
      ],
      [
        "v",
        "r"
      ],
      [
        "d",
        "p"
      ],
      [
        ".",
        ","
      ],
      [
        "i",
        "b"
      ],
      [
        "Ġd",
        "h"
      ],
      [
        "s",
        "b"
      ],
      [
        "Ġl",
        "d"
      ],
      [
        "ä",
        "»"
      ],
      [
        ",",
        "."
      ],
      [
        "Ġ",
        "6"
      ],
      [
        "Ġ",
        "8"
      ],
      [
        "Ġl",
        "h"
      ],
      [
        "v",
        "i"
      ],
      [
        "ee",
        "l"
      ],
      [
        "Ġh",
        "d"
      ],
      [
        "k",
        "o"
      ],
      [
        "g",
        "u"
      ],
      [
        "Ġa",
        "p"
      ],
      [
        "m",
        "f"
      ],
      [
        "g",
        "c"
      ],
      [
        "y",
        "c"
      ],
      [
        "Ġ",
        "ãģ"
      ],
      [
        "ee",
        "h"
      ],
      [
        "ä",
        "½"
      ],
      [
        "Ġa",
        "f"
      ],
      [
        "Ġo",
        "p"
      ],
      [
        "m",
        "m"
      ],
      [
        "v",
        "h"
      ],
      [
        "Ġs",
        "f"
      ],
      [
        "Ġ",
        "è"
      ],
      [
        "Ġd",
        "l"
      ],
      [
        "a",
        "ee"
      ],
      [
        "w",
        "u"
      ],
      [
        "Ġs",
        "m"
      ],
      [
        "t",
        "et"
      ],
      [
        "Ġm",
        "e"
      ],
      [
        "Ġi",
        "f"
      ],
      [
        "Ġf",
        "e"
      ],
      [
        "k",
        "s"
      ],
      [
        "p",
        "m"
      ],
      [
        "Ġn",
        "m"
      ],
      [
        "te",
        "o"
      ],
      [
        "y",
        "u"
      ],
      [
        "ea",
        "e"
      ],
      [
        "Ġ",
        "9"
      ],
      [
        "w",
        "c"
      ],
      [
        "Ġo",
        "f"
      ],
      [
        "Ġn",
        "f"
      ],
      [
        "k",
        "a"
      ],
      [
        "Ġ",
        "!"
      ],
      [
        "Ġd",
        "d"
      ],
      [
        "p",
        "f"
      ],
      [
        "Ġr",
        "f"
      ],
      [
        "v",
        "l"
      ],
      [
        "te",
        "a"
      ],
      [
        "te",
        "i"
      ],
      [
        "g",
        "m"
      ],
      [
        "v",
        "d"
      ],
      [
        "Ġe",
        "ee"
      ],
      [
        "b",
        "c"
      ],
      [
        "Ġt",
        "y"
      ],
      [
        "k",
        "n"
      ],
      [
        "Ġr",
        "m"
      ],
      [
        "u",
        "f"
      ],
      [
        "Ġi",
        "m"
      ],
      [
        "et",
        "o"
      ],
      [
        "eo",
        "e"
      ],
      [
        "k",
        "i"
      ],
      [
        "T",
        "e"
      ],
      [
        "I",
        "e"
      ],
      [
        "Ġu",
        "i"
      ],
      [
        "b",
        "u"
      ],
      [
        "Ġ",
        "K"
      ],
      [
        "Ġs",
        "p"
      ],
      [
        "Ġu",
        "o"
      ],
      [
        "c",
        "f"
      ],
      [
        "Ġ",
        "ç"
      ],
      [
        "h",
        "g"
      ],
      [
        "et",
        "n"
      ],
      [
        "te",
        "s"
      ],
      [
        "l",
        "g"
      ],
      [
        "Ġc",
        "o"
      ],
      [
        "es",
        "e"
      ],
      [
        "Ġt",
        "b"
      ],
      [
        "Ġi",
        "p"
      ],
      [
        "Ġc",
        "a"
      ],
      [
        "Ġt",
        "w"
      ],
      [
        "c",
        "m"
      ],
      [
        "Ġa",
        "g"
      ],
      [
        "Ġp",
        "e"
      ],
      [
        "n",
        "ee"
      ],
      [
        "Ġ",
        "V"
      ],
      [
        "'",
        "d"
      ],
      [
        "Ġu",
        "s"
      ],
      [
        "et",
        "i"
      ],
      [
        "et",
        "s"
      ],
      [
        "Ġ",
        "7"
      ],
      [
        "Ġn",
        "p"
      ],
      [
        "Ġr",
        "p"
      ],
      [
        "k",
        "t"
      ],
      [
        "et",
        "a"
      ],
      [
        ".",
        "."
      ],
      [
        "Ġc",
        "s"
      ],
      [
        "te",
        "n"
      ],
      [
        "ee",
        "d"
      ],
      [
        "f",
        "f"
      ],
      [
        "Ġh",
        "u"
      ],
      [
        "Ġc",
        "n"
      ],
      [
        "Ġ",
        "?"
      ],
      [
        "c",
        "p"
      ],
      [
        "k",
        "r"
      ],
      [
        "h",
        "w"
      ],
      [
        "u",
        "m"
      ],
      [
        "Ġs",
        "g"
      ],
      [
        "h",
        "y"
      ],
      [
        "Ġu",
        "t"
      ],
      [
        "Ġ",
        "|"
      ],
      [
        "Ġc",
        "t"
      ],
      [
        "Ġu",
        "n"
      ],
      [
        "et",
        "r"
      ],
      [
        "et",
        "t"
      ],
      [
        "ei",
        "e"
      ],
      [
        "u",
        "p"
      ],
      [
        "en",
        "e"
      ],
      [
        "ãĥ",
        "¼"
      ],
      [
        "l",
        "y"
      ],
      [
        "a",
        "v"
      ],
      [
        "Ġo",
        "g"
      ],
      [
        "Ġe",
        "v"
      ],
      [
        "Ġl",
        "c"
      ],
      [
        "Ġc",
        "i"
      ],
      [
        "Ġc",
        "r"
      ],
      [
        "ea",
        "i"
      ],
      [
        "er",
        "e"
      ],
      [
        "d",
        "g"
      ],
      [
        "å",
        "ı"
      ],
      [
        "y",
        "m"
      ],
      [
        "í",
        "ķ"
      ],
      [
        "l",
        "w"
      ],
      [
        "ea",
        "o"
      ],
      [
        "te",
        "r"
      ],
      [
        "b",
        "m"
      ],
      [
        "Ġh",
        "c"
      ],
      [
        "Ġf",
        "o"
      ],
      [
        "k",
        "d"
      ],
      [
        "f",
        "p"
      ],
      [
        "Ġ",
        "J"
      ],
      [
        "Ġ",
        "Y"
      ],
      [
        "h",
        "b"
      ],
      [
        "Ġu",
        "a"
      ],
      [
        "k",
        "l"
      ],
      [
        "o",
        "ee"
      ],
      [
        "d",
        "w"
      ],
      [
        "Ġf",
        "s"
      ],
      [
        "et",
        "l"
      ],
      [
        "å",
        "Ī"
      ],
      [
        "Ġ",
        "Ð"
      ],
      [
        "Ġo",
        "y"
      ],
      [
        "ea",
        "s"
      ],
      [
        "Ġn",
        "g"
      ],
      [
        "r",
        "ee"
      ],
      [
        "te",
        "l"
      ],
      [
        "Ġd",
        "c"
      ],
      [
        "Ġm",
        "a"
      ],
      [
        "Ġ",
        "ì"
      ],
      [
        "I",
        "o"
      ],
      [
        "Ġ",
        "ë"
      ],
      [
        "w",
        "m"
      ],
      [
        "te",
        "h"
      ],
      [
        "y",
        "f"
      ],
      [
        "e",
        "T"
      ],
      [
        "w",
        "p"
      ],
      [
        "Ġi",
        "g"
      ],
      [
        "Ġu",
        "l"
      ],
      [
        "Ġm",
        "s"
      ],
      [
        "k",
        "h"
      ],
      [
        "Ġa",
        "b"
      ],
      [
        "s",
        "ee"
      ],
      [
        "Ġa",
        "y"
      ],
      [
        "Ġm",
        "o"
      ],
      [
        "Ġu",
        "r"
      ],
      [
        "Ķ",
        "¨"
      ],
      [
        "et",
        "h"
      ],
      [
        "Ġu",
        "d"
      ],
      [
        "eo",
        "s"
      ],
      [
        "Ġc",
        "l"
      ],
      [
        "Ġf",
        "n"
      ],
      [
        "i",
        "ee"
      ],
      [
        "Ġo",
        "w"
      ],
      [
        "es",
        "o"
      ],
      [
        "v",
        "c"
      ],
      [
        "x",
        "e"
      ],
      [
        "Ġm",
        "n"
      ],
      [
        "p",
        "p"
      ],
      [
        "Ġs",
        "y"
      ],
      [
        "ea",
        "n"
      ],
      [
        "Ġg",
        "e"
      ],
      [
        "å",
        "®"
      ],
      [
        "Ġn",
        "y"
      ],
      [
        "Ġ",
        "ãĤ"
      ],
      [
        "es",
        "s"
      ],
      [
        "Ġa",
        "w"
      ],
      [
        "Ġs",
        "w"
      ],
      [
        "m",
        "p"
      ],
      [
        "æ",
        "ľ"
      ],
      [
        "Ġf",
        "i"
      ],
      [
        "d",
        "y"
      ],
      [
        "Ġ",
        "\\"
      ],
      [
        "Ġl",
        "u"
      ],
      [
        "b",
        "f"
      ],
      [
        "I",
        "n"
      ],
      [
        "Ġr",
        "g"
      ],
      [
        "eo",
        "i"
      ],
      [
        "b",
        "p"
      ],
      [
        "Ġh",
        "f"
      ],
      [
        "m",
        "g"
      ],
      [
        "Ġm",
        "t"
      ],
      [
        "er",
        "o"
      ],
      [
        "Ġe",
        "et"
      ],
      [
        "eo",
        "a"
      ],
      [
        "c",
        "g"
      ],
      [
        "eo",
        "n"
      ],
      [
        "t",
        "k"
      ],
      [
        "y",
        "p"
      ],
      [
        "Ġi",
        "w"
      ],
      [
        "Ġw",
        "e"
      ],
      [
        "Ġe",
        "te"
      ],
      [
        "Ġy",
        "e"
      ],
      [
        "Ġd",
        "u"
      ],
      [
        "eo",
        "o"
      ],
      [
        "Ġp",
        "a"
      ],
      [
        "ei",
        "o"
      ],
      [
        "Ġf",
        "t"
      ],
      [
        "ea",
        "t"
      ],
      [
        "Ġp",
        "o"
      ],
      [
        "r",
        "v"
      ],
      [
        "T",
        "o"
      ],
      [
        "Ġe",
        "k"
      ],
      [
        "Ġu",
        "h"
      ],
      [
        "et",
        "d"
      ],
      [
        "eo",
        "t"
      ],
      [
        "Ġp",
        "n"
      ],
      [
        "Ġh",
        "m"
      ],
      [
        "ea",
        "a"
      ],
      [
        "l",
        "b"
      ],
      [
        "Ġt",
        "ee"
      ],
      [
        "g",
        "f"
      ],
      [
        "w",
        "f"
      ],
      [
        "s",
        "v"
      ],
      [
        "Ġp",
        "s"
      ],
      [
        "Ġf",
        "a"
      ],
      [
        "Ġm",
        "i"
      ],
      [
        "Ġp",
        "t"
      ],
      [
        "_",
        ","
      ],
      [
        "ä",
        "º"
      ],
      [
        "en",
        "i"
      ],
      [
        "e",
        "I"
      ],
      [
        "Ġp",
        "i"
      ],
      [
        "Ġc",
        "h"
      ],
      [
        "Ġf",
        "r"
      ],
      [
        "å",
        "Ĳ"
      ],
      [
        "te",
        "d"
      ],
      [
        ",",
        "\""
      ],
      [
        "u",
        "g"
      ],
      [
        "en",
        "n"
      ],
      [
        "Ġi",
        "y"
      ],
      [
        "ee",
        "c"
      ],
      [
        "ea",
        "r"
      ],
      [
        "es",
        "n"
      ],
      [
        "Ġl",
        "f"
      ],
      [
        "en",
        "o"
      ],
      [
        "A",
        "e"
      ],
      [
        "Ġc",
        "d"
      ],
      [
        "T",
        "i"
      ],
      [
        "Ġo",
        "b"
      ],
      [
        "Ġn",
        "b"
      ],
      [
        "Ġl",
        "m"
      ],
      [
        "Ġm",
        "r"
      ],
      [
        "ta",
        "e"
      ],
      [
        "Ġ",
        "ãĥ"
      ],
      [
        "es",
        "a"
      ],
      [
        "Ġn",
        "w"
      ],
      [
        "Ġm",
        "d"
      ],
      [
        "es",
        "i"
      ],
      [
        "ei",
        "t"
      ],
      [
        "I",
        "s"
      ],
      [
        "à",
        "§"
      ],
      [
        "Ġr",
        "w"
      ],
      [
        "ee",
        "u"
      ],
      [
        "n",
        "v"
      ],
      [
        "Ġs",
        "b"
      ],
      [
        "Ġr",
        "y"
      ],
      [
        "to",
        "e"
      ],
      [
        "Ġg",
        "o"
      ],
      [
        "T",
        "s"
      ],
      [
        "t",
        "te"
      ],
      [
        "eo",
        "r"
      ],
      [
        "er",
        "i"
      ],
      [
        "tt",
        "i"
      ],
      [
        "c",
        "y"
      ],
      [
        "es",
        "t"
      ],
      [
        "I",
        "i"
      ],
      [
        "en",
        "s"
      ],
      [
        "eh",
        "e"
      ],
      [
        "g",
        "p"
      ],
      [
        "ea",
        "h"
      ],
      [
        "S",
        "e"
      ],
      [
        "Ġm",
        "l"
      ],
      [
        "es",
        "r"
      ],
      [
        "\"",
        ","
      ],
      [
        "a",
        "k"
      ],
      [
        "Ġa",
        "ee"
      ],
      [
        "Ġl",
        "p"
      ],
      [
        "Ġd",
        "f"
      ],
      [
        "er",
        "n"
      ],
      [
        "I",
        "t"
      ],
      [
        "tt",
        "o"
      ],
      [
        "ei",
        "s"
      ],
      [
        "er",
        "s"
      ],
      [
        "Ġh",
        "p"
      ],
      [
        "Ġi",
        "b"
      ],
      [
        "Ġf",
        "h"
      ],
      [
        "ei",
        "a"
      ],
      [
        "tt",
        "s"
      ],
      [
        "x",
        "o"
      ],
      [
        "tt",
        "a"
      ],
      [
        "ç",
        "Ķ¨"
      ],
      [
        "-",
        ","
      ],
      [
        "f",
        "g"
      ],
      [
        "c",
        "w"
      ],
      [
        "d",
        "b"
      ],
      [
        "en",
        "a"
      ],
      [
        "en",
        "r"
      ],
      [
        "Ġw",
        "o"
      ],
      [
        "Ġr",
        "b"
      ],
      [
        "Ġd",
        "m"
      ],
      [
        "x",
        "s"
      ],
      [
        "u",
        "y"
      ],
      [
        "ei",
        "n"
      ],
      [
        "en",
        "t"
      ],
      [
        "T",
        "r"
      ],
      [
        "Ġf",
        "l"
      ],
      [
        "tt",
        "t"
      ],
      [
        "å",
        "ħ"
      ],
      [
        "er",
        "t"
      ],
      [
        "Ġt",
        "v"
      ],
      [
        "tt",
        "n"
      ],
      [
        "el",
        "e"
      ],
      [
        "E",
        "e"
      ],
      [
        "Ġe",
        "ea"
      ],
      [
        "ts",
        "e"
      ],
      [
        "o",
        "v"
      ],
      [
        "Ġb",
        "e"
      ],
      [
        "I",
        "r"
      ],
      [
        "ãģ",
        "®"
      ],
      [
        "eo",
        "h"
      ],
      [
        "Ġp",
        "r"
      ],
      [
        "ta",
        "o"
      ],
      [
        "tr",
        "e"
      ],
      [
        "ãĢ",
        "ģ"
      ],
      [
        "er",
        "r"
      ],
      [
        "Ġg",
        "s"
      ],
      [
        "T",
        "n"
      ],
      [
        "ti",
        "e"
      ],
      [
        ",",
        "-"
      ],
      [
        "T",
        "a"
      ],
      [
        "Ġh",
        "g"
      ],
      [
        "tn",
        "e"
      ],
      [
        "tt",
        "r"
      ],
      [
        "T",
        "t"
      ],
      [
        "u",
        "b"
      ],
      [
        "Ġf",
        "d"
      ],
      [
        "\"",
        "."
      ],
      [
        "i",
        "v"
      ],
      [
        "è",
        "¯"
      ],
      [
        "Ġe",
        "en"
      ],
      [
        "aa",
        "e"
      ],
      [
        "è",
        "¿"
      ],
      [
        "Ġd",
        "p"
      ],
      [
        "ei",
        "r"
      ],
      [
        "er",
        "a"
      ],
      [
        "T",
        "l"
      ],
      [
        "Ġ",
        "ä¸"
      ],
      [
        "ea",
        "d"
      ],
      [
        "A",
        "o"
      ],
      [
        "ee",
        "m"
      ],
      [
        "to",
        "o"
      ],
      [
        "Ġc",
        "c"
      ],
      [
        "ta",
        "s"
      ],
      [
        "Ġe",
        "eo"
      ],
      [
        "et",
        "u"
      ],
      [
        "Ġm",
        "h"
      ],
      [
        "ta",
        "t"
      ],
      [
        ",",
        "_"
      ],
      [
        "I",
        "a"
      ],
      [
        "h",
        "v"
      ],
      [
        "Ġp",
        "l"
      ],
      [
        "ei",
        "i"
      ],
      [
        "ea",
        "l"
      ],
      [
        "es",
        "l"
      ],
      [
        "ãģ",
        "Ļ"
      ],
      [
        "er",
        "h"
      ],
      [
        "Ġg",
        "n"
      ],
      [
        "ei",
        "h"
      ],
      [
        "Ġg",
        "i"
      ],
      [
        "u",
        "w"
      ],
      [
        "x",
        "t"
      ],
      [
        "a",
        "et"
      ],
      [
        "Ġy",
        "o"
      ],
      [
        "T",
        "h"
      ],
      [
        "p",
        "y"
      ],
      [
        "m",
        "w"
      ],
      [
        "c",
        "b"
      ],
      [
        "x",
        "n"
      ],
      [
        "g",
        "g"
      ],
      [
        "p",
        "w"
      ],
      [
        "en",
        "h"
      ],
      [
        "s",
        "et"
      ],
      [
        "es",
        "h"
      ],
      [
        "m",
        "y"
      ],
      [
        "Ġ",
        "é"
      ],
      [
        "eo",
        "l"
      ],
      [
        "I",
        "d"
      ],
      [
        "v",
        "m"
      ],
      [
        "x",
        "r"
      ],
      [
        "ao",
        "e"
      ],
      [
        "Ġc",
        "u"
      ],
      [
        "ta",
        "n"
      ],
      [
        "te",
        "c"
      ],
      [
        "Ġg",
        "t"
      ],
      [
        "Ġw",
        "s"
      ],
      [
        ".",
        "\""
      ],
      [
        "A",
        "n"
      ],
      [
        "tt",
        "l"
      ],
      [
        "x",
        "a"
      ],
      [
        "Ã",
        "©"
      ],
      [
        "p",
        "g"
      ],
      [
        "ĭ",
        "¤"
      ],
      [
        "Ġl",
        "g"
      ],
      [
        "ei",
        "l"
      ],
      [
        "ed",
        "e"
      ],
      [
        "Ġo",
        "ee"
      ],
      [
        "x",
        "i"
      ],
      [
        "Ġp",
        "h"
      ],
      [
        "as",
        "e"
      ],
      [
        "f",
        "w"
      ],
      [
        "Ġa",
        "v"
      ],
      [
        "to",
        "s"
      ],
      [
        "Ġy",
        "s"
      ],
      [
        "no",
        "e"
      ],
      [
        "f",
        "y"
      ],
      [
        "Ġs",
        "ee"
      ],
      [
        "es",
        "d"
      ],
      [
        "er",
        "l"
      ],
      [
        "Ġg",
        "r"
      ],
      [
        "Ġw",
        "i"
      ],
      [
        "Ð",
        "µ"
      ],
      [
        "Ġ",
        "%"
      ],
      [
        "k",
        "u"
      ],
      [
        "ei",
        "d"
      ],
      [
        "Ġy",
        "i"
      ],
      [
        "eh",
        "s"
      ],
      [
        "an",
        "e"
      ],
      [
        "a",
        "eo"
      ],
      [
        "w",
        "g"
      ],
      [
        "Ġu",
        "c"
      ],
      [
        "Ġy",
        "t"
      ],
      [
        "tn",
        "i"
      ],
      [
        "'",
        "m"
      ],
      [
        "Ġy",
        "n"
      ],
      [
        "ts",
        "o"
      ],
      [
        "tn",
        "o"
      ],
      [
        "h",
        "ee"
      ],
      [
        "Ġe",
        "ei"
      ],
      [
        "Ġw",
        "n"
      ],
      [
        "eh",
        "a"
      ],
      [
        "Ġe",
        "T"
      ],
      [
        "ta",
        "a"
      ],
      [
        "A",
        "s"
      ],
      [
        "b",
        "g"
      ],
      [
        "v",
        "u"
      ],
      [
        "te",
        "u"
      ],
      [
        "ìĿ",
        "´"
      ],
      [
        "en",
        "l"
      ],
      [
        "-",
        "."
      ],
      [
        "Ġe",
        "es"
      ],
      [
        "v",
        "f"
      ],
      [
        "to",
        "t"
      ],
      [
        "et",
        "c"
      ],
      [
        "tr",
        "o"
      ],
      [
        ".",
        "_"
      ],
      [
        "Ġe",
        "ts"
      ],
      [
        "tt",
        "h"
      ],
      [
        "A",
        "t"
      ],
      [
        "S",
        "o"
      ],
      [
        "Ġi",
        "ee"
      ],
      [
        "Ġw",
        "t"
      ],
      [
        "Ġ",
        "à¦"
      ],
      [
        "Ġh",
        "y"
      ],
      [
        "Ġb",
        "o"
      ],
      [
        "p",
        "b"
      ],
      [
        "a",
        "ea"
      ],
      [
        "Ġ",
        "@"
      ],
      [
        "Ġp",
        "d"
      ],
      [
        "eo",
        "d"
      ],
      [
        ")",
        ","
      ],
      [
        "E",
        "o"
      ],
      [
        "S",
        "s"
      ],
      [
        "Ġe",
        "ta"
      ],
      [
        "oo",
        "e"
      ],
      [
        "i",
        "k"
      ],
      [
        "Ġt",
        "k"
      ],
      [
        "en",
        "d"
      ],
      [
        "r",
        "et"
      ],
      [
        "to",
        "i"
      ],
      [
        "_",
        "."
      ],
      [
        "x",
        "l"
      ],
      [
        "Ġb",
        "t"
      ],
      [
        "tr",
        "s"
      ],
      [
        "A",
        "i"
      ],
      [
        "a",
        "te"
      ],
      [
        "y",
        "y"
      ],
      [
        "ar",
        "e"
      ],
      [
        "ai",
        "e"
      ],
      [
        ",",
        ")"
      ],
      [
        "Ġe",
        "el"
      ],
      [
        "Ġt",
        "et"
      ],
      [
        "Ġh",
        "w"
      ],
      [
        "Ġl",
        "w"
      ],
      [
        "eh",
        "o"
      ],
      [
        "C",
        "e"
      ],
      [
        "m",
        "b"
      ],
      [
        "Ġw",
        "r"
      ],
      [
        "ta",
        "i"
      ],
      [
        "tt",
        "d"
      ],
      [
        "Ġg",
        "a"
      ],
      [
        "A",
        "r"
      ],
      [
        "n",
        "et"
      ],
      [
        "Ñ",
        "Ĥ"
      ],
      [
        "T",
        "d"
      ],
      [
        "Ġe",
        "er"
      ],
      [
        "Ġn",
        "ee"
      ],
      [
        "Ġy",
        "r"
      ],
      [
        "A",
        "a"
      ],
      [
        "I",
        "l"
      ],
      [
        "g",
        "y"
      ],
      [
        ".",
        "-"
      ],
      [
        "I",
        "h"
      ],
      [
        "S",
        "n"
      ],
      [
        "Ġy",
        "a"
      ],
      [
        "rs",
        "e"
      ],
      [
        "S",
        "a"
      ],
      [
        "Ġe",
        "eh"
      ],
      [
        "Ġu",
        "m"
      ],
      [
        "Ġb",
        "s"
      ],
      [
        "ti",
        "t"
      ],
      [
        "tr",
        "n"
      ],
      [
        "f",
        "b"
      ],
      [
        "Ġ",
        "+"
      ],
      [
        "tn",
        "s"
      ],
      [
        "ni",
        "e"
      ],
      [
        "k",
        "c"
      ],
      [
        "Ġd",
        "g"
      ],
      [
        "Ġy",
        "d"
      ],
      [
        "E",
        "a"
      ],
      [
        "v",
        "p"
      ],
      [
        "Ġe",
        "tt"
      ],
      [
        ",",
        "'"
      ],
      [
        "E",
        "s"
      ],
      [
        "k",
        "m"
      ],
      [
        "l",
        "ee"
      ],
      [
        "ss",
        "e"
      ],
      [
        "(",
        ","
      ],
      [
        "R",
        "e"
      ],
      [
        "b",
        "y"
      ],
      [
        "ea",
        "c"
      ],
      [
        "ti",
        "o"
      ],
      [
        "x",
        "h"
      ],
      [
        "Ġl",
        "y"
      ],
      [
        "Ġb",
        "a"
      ],
      [
        "tn",
        "a"
      ],
      [
        "ti",
        "r"
      ],
      [
        "w",
        "y"
      ],
      [
        "Ġw",
        "l"
      ],
      [
        "Ġg",
        "l"
      ],
      [
        "to",
        "n"
      ],
      [
        "S",
        "i"
      ],
      [
        "S",
        "t"
      ],
      [
        "Ð",
        "¾"
      ],
      [
        "Ġe",
        "aa"
      ],
      [
        "Ġu",
        "u"
      ],
      [
        "Ġb",
        "n"
      ],
      [
        "Ġe",
        "as"
      ],
      [
        "te",
        "f"
      ],
      [
        "ts",
        "n"
      ],
      [
        "k",
        "p"
      ],
      [
        "er",
        "d"
      ],
      [
        "Ġr",
        "ee"
      ],
      [
        "te",
        "m"
      ],
      [
        "Ġw",
        "a"
      ],
      [
        "tn",
        "n"
      ],
      [
        "å",
        "ľ"
      ],
      [
        "è",
        "®"
      ],
      [
        "eo",
        "c"
      ],
      [
        "eh",
        "i"
      ],
      [
        "Ġc",
        "f"
      ],
      [
        "ts",
        "i"
      ],
      [
        "tn",
        "t"
      ],
      [
        "Ġm",
        "u"
      ],
      [
        "ao",
        "o"
      ],
      [
        "č",
        "ĠĠ"
      ],
      [
        "ea",
        "u"
      ],
      [
        "tn",
        "r"
      ],
      [
        ",",
        "("
      ],
      [
        "i",
        "et"
      ],
      [
        "ee",
        "f"
      ],
      [
        "ee",
        "p"
      ],
      [
        "eh",
        "r"
      ],
      [
        "Ġa",
        "et"
      ],
      [
        "Ġg",
        "d"
      ],
      [
        "ta",
        "r"
      ],
      [
        "to",
        "a"
      ],
      [
        "as",
        "s"
      ],
      [
        "tl",
        "e"
      ],
      [
        "ãĤ",
        "Ĵ"
      ],
      [
        "Ġy",
        "l"
      ],
      [
        "ti",
        "n"
      ],
      [
        "a",
        "es"
      ],
      [
        "th",
        "e"
      ],
      [
        "y",
        "g"
      ],
      [
        "Ġe",
        "I"
      ],
      [
        "Ġh",
        "b"
      ],
      [
        "ts",
        "r"
      ],
      [
        "eh",
        "t"
      ],
      [
        "so",
        "e"
      ],
      [
        "Ġv",
        "e"
      ],
      [
        "Ġm",
        "c"
      ],
      [
        "el",
        "s"
      ],
      [
        "P",
        "e"
      ],
      [
        "n",
        "ea"
      ],
      [
        "Ð",
        "¸"
      ],
      [
        "Ġo",
        "v"
      ],
      [
        "Ġw",
        "d"
      ],
      [
        "ro",
        "e"
      ],
      [
        "ns",
        "e"
      ],
      [
        "k",
        "f"
      ],
      [
        "Ġc",
        "m"
      ],
      [
        "Ġb",
        "r"
      ],
      [
        "ae",
        "u"
      ],
      [
        "ta",
        "d"
      ],
      [
        "to",
        "r"
      ],
      [
        "ti",
        "s"
      ],
      [
        "ed",
        "o"
      ],
      [
        "b",
        "w"
      ],
      [
        "t",
        "T"
      ],
      [
        "x",
        "d"
      ],
      [
        "ĠĠ",
        "č"
      ],
      [
        "Ġy",
        "h"
      ],
      [
        "to",
        "h"
      ],
      [
        "eh",
        "n"
      ],
      [
        "Ġč",
        "Ġ"
      ],
      [
        "ti",
        "a"
      ],
      [
        "tr",
        "i"
      ],
      [
        "S",
        "r"
      ],
      [
        "g",
        "w"
      ],
      [
        "o",
        "et"
      ],
      [
        "el",
        "a"
      ],
      [
        "el",
        "n"
      ],
      [
        "ao",
        "n"
      ],
      [
        "(",
        "."
      ],
      [
        "Ġt",
        "eo"
      ],
      [
        "E",
        "n"
      ],
      [
        "Ġb",
        "i"
      ],
      [
        "ao",
        "s"
      ],
      [
        "io",
        "e"
      ],
      [
        "S",
        "h"
      ],
      [
        "Ġg",
        "h"
      ],
      [
        "ta",
        "l"
      ],
      [
        "ts",
        "a"
      ],
      [
        "Ġ",
        "X"
      ],
      [
        "Ġd",
        "b"
      ],
      [
        "Ġu",
        "f"
      ],
      [
        "en",
        "u"
      ],
      [
        "oo",
        "s"
      ],
      [
        "ae",
        "c"
      ],
      [
        "Ġf",
        "c"
      ],
      [
        "Ġp",
        "u"
      ],
      [
        "ao",
        "t"
      ],
      [
        "E",
        "r"
      ],
      [
        "ë",
        "ĭ¤"
      ],
      [
        "ed",
        "s"
      ],
      [
        "g",
        "b"
      ],
      [
        "o",
        "k"
      ],
      [
        "aa",
        "s"
      ],
      [
        "ä¸",
        "Ģ"
      ],
      [
        "'",
        ","
      ],
      [
        "w",
        "b"
      ],
      [
        "Ġt",
        "te"
      ],
      [
        "Ġn",
        "v"
      ],
      [
        "ri",
        "e"
      ],
      [
        "N",
        "e"
      ],
      [
        "S",
        "l"
      ],
      [
        "t",
        "I"
      ],
      [
        "A",
        "h"
      ],
      [
        "E",
        "i"
      ],
      [
        "Ġc",
        "p"
      ],
      [
        "tr",
        "r"
      ],
      [
        "el",
        "o"
      ],
      [
        ".",
        ")"
      ],
      [
        "A",
        "d"
      ],
      [
        "a",
        "ei"
      ],
      [
        "Ġe",
        "ar"
      ],
      [
        "Ġf",
        "u"
      ],
      [
        "ts",
        "t"
      ],
      [
        "a",
        "er"
      ],
      [
        "Ġe",
        "tn"
      ],
      [
        "Ġs",
        "et"
      ],
      [
        "ts",
        "l"
      ],
      [
        "ts",
        "s"
      ],
      [
        "eh",
        "h"
      ],
      [
        "å",
        "Ĭ"
      ],
      [
        "Ġo",
        "et"
      ],
      [
        "Ġs",
        "v"
      ],
      [
        "Ġd",
        "y"
      ],
      [
        "o",
        "ea"
      ],
      [
        "E",
        "t"
      ],
      [
        "ta",
        "h"
      ],
      [
        "Ġw",
        "h"
      ],
      [
        "aa",
        "i"
      ],
      [
        "ao",
        "r"
      ],
      [
        "ed",
        "i"
      ],
      [
        "an",
        "i"
      ],
      [
        ".",
        "("
      ],
      [
        "â",
        "ł"
      ],
      [
        "Ļ",
        "¨"
      ],
      [
        "Ġe",
        "ss"
      ],
      [
        "Ġi",
        "v"
      ],
      [
        "Ġr",
        "v"
      ],
      [
        "ä¸",
        "ª"
      ],
      [
        "n",
        "k"
      ],
      [
        "y",
        "w"
      ],
      [
        "æ",
        "Ī"
      ],
      [
        "ç",
        "»"
      ],
      [
        "Ġe",
        "oo"
      ],
      [
        "tr",
        "a"
      ],
      [
        "S",
        "d"
      ],
      [
        "aa",
        "t"
      ],
      [
        "ai",
        "t"
      ],
      [
        "ä",
        "¹"
      ],
      [
        "aa",
        "a"
      ],
      [
        "aa",
        "o"
      ],
      [
        "el",
        "t"
      ],
      [
        "as",
        "o"
      ],
      [
        "y",
        "b"
      ],
      [
        "Ġt",
        "ea"
      ],
      [
        "s",
        "k"
      ],
      [
        "Ġf",
        "m"
      ],
      [
        "eo",
        "u"
      ],
      [
        "en",
        "c"
      ],
      [
        "Ġl",
        "b"
      ],
      [
        "Ġd",
        "w"
      ],
      [
        "Ġm",
        "f"
      ],
      [
        "tr",
        "t"
      ],
      [
        "el",
        "r"
      ],
      [
        "ed",
        "n"
      ],
      [
        "td",
        "e"
      ],
      [
        "Ġe",
        "ro"
      ],
      [
        "Ġu",
        "p"
      ],
      [
        "to",
        "d"
      ],
      [
        "el",
        "i"
      ],
      [
        "r",
        "k"
      ],
      [
        "an",
        "n"
      ],
      [
        "ae",
        "m"
      ],
      [
        "âĢ",
        "Ļ"
      ],
      [
        "C",
        "t"
      ],
      [
        "l",
        "v"
      ],
      [
        "Ġe",
        "x"
      ],
      [
        "Ġa",
        "k"
      ],
      [
        "es",
        "u"
      ],
      [
        "as",
        "i"
      ],
      [
        "ss",
        "n"
      ],
      [
        "Ġo",
        "k"
      ],
      [
        "ãĥ",
        "³"
      ],
      [
        "Ġe",
        "ai"
      ],
      [
        "ed",
        "r"
      ],
      [
        "ed",
        "t"
      ],
      [
        "ä»",
        "¥"
      ],
      [
        "u",
        "ee"
      ],
      [
        "Ġ",
        "çļĦ"
      ],
      [
        "ei",
        "c"
      ],
      [
        "tn",
        "l"
      ],
      [
        "ti",
        "l"
      ],
      [
        "ed",
        "a"
      ],
      [
        ")",
        "."
      ],
      [
        "C",
        "n"
      ],
      [
        "E",
        "l"
      ],
      [
        "eo",
        "m"
      ],
      [
        "Ġb",
        "h"
      ],
      [
        "tn",
        "h"
      ],
      [
        "ti",
        "i"
      ],
      [
        "ne",
        "u"
      ],
      [
        "ä½",
        "¿"
      ],
      [
        "b",
        "b"
      ],
      [
        "Ø",
        "§"
      ],
      [
        "so",
        "i"
      ],
      [
        "e",
        "x"
      ],
      [
        "æ",
        "ĺ"
      ],
      [
        "Ġe",
        "oe"
      ],
      [
        "to",
        "l"
      ],
      [
        "Ġp",
        "c"
      ],
      [
        "ed",
        "l"
      ],
      [
        "ar",
        "i"
      ],
      [
        ":",
        ","
      ],
      [
        "A",
        "l"
      ],
      [
        "w",
        "w"
      ],
      [
        "tr",
        "h"
      ],
      [
        "C",
        "o"
      ],
      [
        "E",
        "h"
      ],
      [
        "k",
        "g"
      ],
      [
        "eh",
        "d"
      ],
      [
        "aa",
        "r"
      ],
      [
        "ti",
        "d"
      ],
      [
        "no",
        "t"
      ],
      [
        "re",
        "c"
      ],
      [
        "i",
        "te"
      ],
      [
        "Ġe",
        "tl"
      ],
      [
        "ro",
        "s"
      ],
      [
        "Ġe",
        "ae"
      ],
      [
        "aa",
        "n"
      ],
      [
        "oo",
        "o"
      ],
      [
        "ni",
        "s"
      ],
      [
        "T",
        "c"
      ],
      [
        "Ġe",
        "se"
      ],
      [
        "ts",
        "h"
      ],
      [
        "a",
        "en"
      ],
      [
        "n",
        "te"
      ],
      [
        "eh",
        "l"
      ],
      [
        "f",
        "ee"
      ],
      [
        "ao",
        "i"
      ],
      [
        "an",
        "s"
      ],
      [
        "ä¸",
        "º"
      ],
      [
        ",",
        "/"
      ],
      [
        "Ġt",
        "es"
      ],
      [
        "aa",
        "d"
      ],
      [
        "ao",
        "h"
      ],
      [
        "ar",
        "o"
      ],
      [
        "ni",
        "o"
      ],
      [
        "ä¸",
        "Ń"
      ],
      [
        "c",
        "ee"
      ],
      [
        "Ġe",
        "ns"
      ],
      [
        "Ġa",
        "te"
      ],
      [
        "ts",
        "d"
      ],
      [
        "Ġb",
        "d"
      ],
      [
        "C",
        "a"
      ],
      [
        "Ġe",
        "to"
      ],
      [
        "Ġe",
        "os"
      ],
      [
        "Ġc",
        "g"
      ],
      [
        "aa",
        "l"
      ],
      [
        "C",
        "s"
      ],
      [
        "å",
        "°"
      ],
      [
        "Ġe",
        "ne"
      ],
      [
        "Ġt",
        "ei"
      ],
      [
        "ee",
        "g"
      ],
      [
        "oo",
        "t"
      ],
      [
        "ar",
        "s"
      ],
      [
        "E",
        "d"
      ],
      [
        "I",
        "u"
      ],
      [
        "i",
        "ea"
      ],
      [
        "Ġe",
        "tr"
      ],
      [
        "Ġe",
        "io"
      ],
      [
        "Ġt",
        "I"
      ],
      [
        "te",
        "p"
      ],
      [
        "Ġb",
        "l"
      ],
      [
        "as",
        "a"
      ],
      [
        "as",
        "n"
      ],
      [
        "as",
        "r"
      ],
      [
        "an",
        "o"
      ],
      [
        "ai",
        "n"
      ],
      [
        "ãģ",
        "«"
      ],
      [
        "r",
        "eo"
      ],
      [
        "Ġe",
        "ti"
      ],
      [
        "Ġn",
        "et"
      ],
      [
        "L",
        "e"
      ],
      [
        "r",
        "ea"
      ],
      [
        "Ð",
        "½"
      ],
      [
        "å",
        "º"
      ],
      [
        "Ġe",
        "th"
      ],
      [
        "el",
        "d"
      ],
      [
        "el",
        "l"
      ],
      [
        "ãģ",
        "¾"
      ],
      [
        "å",
        "¤"
      ],
      [
        "Ġ",
        "ãĢĤ"
      ],
      [
        "Ġi",
        "k"
      ],
      [
        "ao",
        "l"
      ],
      [
        "ed",
        "h"
      ],
      [
        "as",
        "t"
      ],
      [
        "re",
        "u"
      ],
      [
        "i",
        "es"
      ],
      [
        "v",
        "g"
      ],
      [
        "Ġe",
        "ni"
      ],
      [
        "et",
        "f"
      ],
      [
        "en",
        "f"
      ],
      [
        "ao",
        "a"
      ],
      [
        "al",
        "e"
      ],
      [
        "'",
        "."
      ],
      [
        "¡",
        "ľ"
      ],
      [
        "¦",
        "Ĥ"
      ],
      [
        "æ",
        "ĸ"
      ],
      [
        "è",
        "¡"
      ],
      [
        "ĠĠ",
        "ĠĠĠ"
      ],
      [
        "er",
        "u"
      ],
      [
        "Ġg",
        "c"
      ],
      [
        "tn",
        "d"
      ],
      [
        "an",
        "t"
      ],
      [
        "M",
        "o"
      ],
      [
        "s",
        "es"
      ],
      [
        "Ġe",
        "A"
      ],
      [
        "Ġm",
        "m"
      ],
      [
        "ss",
        "t"
      ],
      [
        "/",
        ","
      ],
      [
        "n",
        "es"
      ],
      [
        "Ġo",
        "eo"
      ],
      [
        "tt",
        "u"
      ],
      [
        "no",
        "n"
      ],
      [
        "åľ",
        "¨"
      ],
      [
        "ar",
        "t"
      ],
      [
        "ai",
        "o"
      ],
      [
        "no",
        "s"
      ],
      [
        "th",
        "t"
      ],
      [
        "io",
        "t"
      ],
      [
        "R",
        "t"
      ],
      [
        "Ġt",
        "en"
      ],
      [
        "el",
        "h"
      ],
      [
        "so",
        "n"
      ],
      [
        "C",
        "i"
      ],
      [
        "R",
        "o"
      ],
      [
        "Ð",
        "°"
      ],
      [
        "ì",
        "Ĺ"
      ],
      [
        "Ġe",
        "oi"
      ],
      [
        "er",
        "c"
      ],
      [
        "aa",
        "h"
      ],
      [
        "at",
        "c"
      ],
      [
        "Ġc",
        "y"
      ],
      [
        "ti",
        "h"
      ],
      [
        "I",
        "c"
      ],
      [
        "Ġe",
        "ed"
      ],
      [
        "oo",
        "i"
      ],
      [
        "ad",
        "e"
      ],
      [
        "f",
        "v"
      ],
      [
        "r",
        "en"
      ],
      [
        "oo",
        "n"
      ],
      [
        "Ñ",
        "Ģ"
      ],
      [
        "Ġe",
        "so"
      ],
      [
        "Ġs",
        "k"
      ],
      [
        "Ġi",
        "et"
      ],
      [
        "ao",
        "d"
      ],
      [
        "ar",
        "a"
      ],
      [
        "åı",
        "¯"
      ],
      [
        "m",
        "v"
      ],
      [
        "x",
        "u"
      ],
      [
        "Ġe",
        "ec"
      ],
      [
        "Ġn",
        "ea"
      ],
      [
        "no",
        "i"
      ],
      [
        "rs",
        "n"
      ],
      [
        "se",
        "c"
      ],
      [
        "ï¼",
        "ļ"
      ],
      [
        "B",
        "e"
      ],
      [
        "o",
        "es"
      ],
      [
        "s",
        "eo"
      ],
      [
        "Û",
        "Į"
      ],
      [
        "ie",
        "c"
      ],
      [
        "T",
        "u"
      ],
      [
        "č",
        "ĠĊ"
      ],
      [
        "ss",
        "s"
      ],
      [
        "ne",
        "c"
      ],
      [
        "d",
        "ee"
      ],
      [
        "ä",
        "¼"
      ],
      [
        "ì",
        "Ħ"
      ],
      [
        "Ġt",
        "tt"
      ],
      [
        "Ġs",
        "ea"
      ],
      [
        "et",
        "m"
      ],
      [
        "ed",
        "d"
      ],
      [
        "P",
        "n"
      ],
      [
        "P",
        "s"
      ],
      [
        "o",
        "te"
      ],
      [
        "p",
        "ee"
      ],
      [
        "é",
        "Ģ"
      ],
      [
        "Ġe",
        "E"
      ],
      [
        "Ġr",
        "et"
      ],
      [
        "ai",
        "s"
      ],
      [
        "re",
        "m"
      ],
      [
        "ri",
        "s"
      ],
      [
        "ie",
        "u"
      ],
      [
        "ah",
        "e"
      ],
      [
        "D",
        "e"
      ],
      [
        "a",
        "tt"
      ],
      [
        "y",
        "ee"
      ],
      [
        "å",
        "Ń"
      ],
      [
        "Ġe",
        "on"
      ],
      [
        "ai",
        "i"
      ],
      [
        "th",
        "s"
      ],
      [
        "\"",
        "\""
      ],
      [
        "o",
        "eo"
      ],
      [
        "Ĭ",
        "Ķ"
      ],
      [
        "Ġa",
        "es"
      ],
      [
        "Ġn",
        "k"
      ],
      [
        "Ġr",
        "k"
      ],
      [
        "Ġp",
        "m"
      ],
      [
        "ar",
        "n"
      ],
      [
        "M",
        "e"
      ],
      [
        "r",
        "te"
      ],
      [
        "Ġc",
        "w"
      ],
      [
        "Ġf",
        "f"
      ],
      [
        "no",
        "h"
      ],
      [
        "Ġv",
        "s"
      ],
      [
        "Ġk",
        "e"
      ],
      [
        ".",
        "'"
      ],
      [
        "Ġe",
        "S"
      ],
      [
        "Ġe",
        "an"
      ],
      [
        "Ġe",
        "ii"
      ],
      [
        "Ġo",
        "te"
      ],
      [
        "ns",
        "n"
      ],
      [
        "N",
        "s"
      ],
      [
        "P",
        "o"
      ],
      [
        "Ġo",
        "es"
      ],
      [
        "ai",
        "a"
      ],
      [
        "ro",
        "i"
      ],
      [
        "/",
        "."
      ],
      [
        "e",
        "A"
      ],
      [
        "u",
        "v"
      ],
      [
        "Ġe",
        "ao"
      ],
      [
        "Ġi",
        "te"
      ],
      [
        "Ġu",
        "w"
      ],
      [
        "eo",
        "f"
      ],
      [
        "so",
        "s"
      ],
      [
        "rs",
        "t"
      ],
      [
        "p",
        "v"
      ],
      [
        "Ġt",
        "T"
      ],
      [
        "Ġt",
        "ta"
      ],
      [
        "Ġs",
        "te"
      ],
      [
        "Ġm",
        "p"
      ],
      [
        "oo",
        "a"
      ],
      [
        "ss",
        "o"
      ],
      [
        "th",
        "o"
      ],
      [
        "ro",
        "n"
      ],
      [
        "I",
        "m"
      ],
      [
        "R",
        "n"
      ],
      [
        "r",
        "es"
      ],
      [
        "å",
        "Ļ¨"
      ],
      [
        "ee",
        "w"
      ],
      [
        "tr",
        "l"
      ],
      [
        "as",
        "h"
      ],
      [
        "as",
        "l"
      ],
      [
        "oo",
        "h"
      ],
      [
        "m",
        "ee"
      ],
      [
        "Ġt",
        "er"
      ],
      [
        "tr",
        "d"
      ],
      [
        "as",
        "d"
      ],
      [
        "ns",
        "r"
      ],
      [
        "oe",
        "u"
      ],
      [
        "Ġč",
        "Ċ"
      ],
      [
        "Ġe",
        "nn"
      ],
      [
        "Ġf",
        "g"
      ],
      [
        "th",
        "i"
      ],
      [
        "ni",
        "t"
      ],
      [
        "C",
        "r"
      ],
      [
        "N",
        "i"
      ],
      [
        "R",
        "i"
      ],
      [
        "ar",
        "r"
      ],
      [
        "ai",
        "d"
      ],
      [
        "P",
        "t"
      ],
      [
        "s",
        "ea"
      ],
      [
        "x",
        "c"
      ],
      [
        "Ġa",
        "eo"
      ],
      [
        "an",
        "a"
      ],
      [
        "ae",
        "f"
      ],
      [
        "ae",
        "p"
      ],
      [
        "tl",
        "o"
      ],
      [
        ",",
        ":"
      ],
      [
        "v",
        "y"
      ],
      [
        "Ġe",
        "is"
      ],
      [
        "Ġh",
        "ee"
      ],
      [
        "Ġw",
        "c"
      ],
      [
        "so",
        "r"
      ],
      [
        "ro",
        "t"
      ],
      [
        "C",
        "l"
      ],
      [
        "q",
        "e"
      ],
      [
        "Ġb",
        "c"
      ],
      [
        "ai",
        "r"
      ],
      [
        "so",
        "a"
      ],
      [
        "ni",
        "i"
      ],
      [
        "ne",
        "f"
      ],
      [
        "ns",
        "t"
      ],
      [
        "\"",
        "-"
      ],
      [
        ",",
        "="
      ],
      [
        "A",
        "u"
      ],
      [
        "R",
        "s"
      ],
      [
        "Ġe",
        "no"
      ],
      [
        "Ġo",
        "ea"
      ],
      [
        "ei",
        "u"
      ],
      [
        "tt",
        "c"
      ],
      [
        "ta",
        "u"
      ],
      [
        "to",
        "c"
      ],
      [
        "tl",
        "s"
      ],
      [
        "td",
        "o"
      ],
      [
        ",",
        "`"
      ],
      [
        "a",
        "ti"
      ],
      [
        "n",
        "en"
      ],
      [
        "et",
        "p"
      ],
      [
        "Ġf",
        "p"
      ],
      [
        "io",
        "i"
      ],
      [
        "rs",
        "i"
      ],
      [
        "Ġe",
        "eu"
      ],
      [
        "Ġy",
        "c"
      ],
      [
        "ss",
        "i"
      ],
      [
        "e",
        "S"
      ],
      [
        "n",
        "eo"
      ],
      [
        "ĥ",
        "½"
      ],
      [
        "Ġg",
        "u"
      ],
      [
        "ro",
        "a"
      ],
      [
        "ns",
        "i"
      ],
      [
        "ns",
        "l"
      ],
      [
        "td",
        "s"
      ],
      [
        "å®",
        "ļ"
      ],
      [
        "ei",
        "m"
      ],
      [
        "an",
        "h"
      ],
      [
        "an",
        "l"
      ],
      [
        "ni",
        "r"
      ],
      [
        "ns",
        "a"
      ],
      [
        "ri",
        "i"
      ],
      [
        "td",
        "n"
      ],
      [
        "à§",
        "ĩ"
      ],
      [
        "g",
        "ee"
      ],
      [
        "Ġp",
        "p"
      ],
      [
        "ss",
        "r"
      ],
      [
        "ri",
        "n"
      ],
      [
        "nn",
        "n"
      ],
      [
        "H",
        "e"
      ],
      [
        "a",
        "I"
      ],
      [
        "s",
        "te"
      ],
      [
        "½",
        "®"
      ],
      [
        "Ġe",
        "re"
      ],
      [
        "Ġs",
        "es"
      ],
      [
        "Ġn",
        "te"
      ],
      [
        "Ġh",
        "v"
      ],
      [
        "er",
        "m"
      ],
      [
        "eh",
        "c"
      ],
      [
        "oo",
        "r"
      ],
      [
        "ne",
        "m"
      ],
      [
        "se",
        "u"
      ],
      [
        "at",
        "u"
      ],
      [
        "¥",
        "¼"
      ],
      [
        "å",
        "¯"
      ],
      [
        "Ġu",
        "y"
      ],
      [
        "es",
        "f"
      ],
      [
        "en",
        "p"
      ],
      [
        "oo",
        "l"
      ],
      [
        "so",
        "d"
      ],
      [
        "Ġv",
        "t"
      ],
      [
        "rr",
        "t"
      ],
      [
        "rn",
        "t"
      ],
      [
        "íķ",
        "ľ"
      ],
      [
        "C",
        "h"
      ],
      [
        "O",
        "e"
      ],
      [
        "_",
        "_"
      ],
      [
        "æ",
        "ī"
      ],
      [
        "Ġi",
        "eo"
      ],
      [
        "io",
        "r"
      ],
      [
        "ãĤ",
        "ĭ"
      ],
      [
        "æĺ",
        "¯"
      ],
      [
        "ei",
        "f"
      ],
      [
        "tl",
        "t"
      ],
      [
        "eu",
        "e"
      ],
      [
        "F",
        "e"
      ],
      [
        "I",
        "f"
      ],
      [
        "_",
        "\""
      ],
      [
        "a",
        "ta"
      ],
      [
        "h",
        "k"
      ],
      [
        "s",
        "en"
      ],
      [
        "ea",
        "m"
      ],
      [
        "Ġp",
        "f"
      ],
      [
        "Ġg",
        "f"
      ],
      [
        "tl",
        "n"
      ],
      [
        "is",
        "i"
      ],
      [
        "t",
        "x"
      ],
      [
        "Ð",
        "²"
      ],
      [
        "Ġe",
        "ie"
      ],
      [
        "Ġd",
        "ee"
      ],
      [
        "es",
        "c"
      ],
      [
        "an",
        "r"
      ],
      [
        "ae",
        "w"
      ],
      [
        ".",
        ":"
      ],
      [
        "T",
        "m"
      ],
      [
        "ê",
        "°"
      ],
      [
        "Ġa",
        "ei"
      ],
      [
        "Ġo",
        "tt"
      ],
      [
        "Ġv",
        "o"
      ],
      [
        "os",
        "t"
      ],
      [
        "N",
        "n"
      ],
      [
        "T",
        "f"
      ],
      [
        "s",
        "er"
      ],
      [
        "ì",
        "ł"
      ],
      [
        "Ġ",
        "Z"
      ],
      [
        "Ġe",
        "sn"
      ],
      [
        "Ġr",
        "ea"
      ],
      [
        "th",
        "n"
      ],
      [
        "td",
        "i"
      ],
      [
        "N",
        "a"
      ],
      [
        "d",
        "v"
      ],
      [
        "o",
        "en"
      ],
      [
        "o",
        "er"
      ],
      [
        "ë",
        "¡ľ"
      ]
    ]
  }
}