{
  "version": "1.0",
  "truncation": null,
  "padding": null,
  "added_tokens": [],
  "normalizer": null,
  "pre_tokenizer": {
    "type": "ByteLevel",
    "add_prefix_space": false,
    "trim_offsets": true,
    "use_regex": true
  },
  "post_processor": null,
  "decoder": {
    "type": "ByteLevel",
    "add_prefix_space": true,
    "trim_offsets": true,
    "use_regex": true
  },
  "model": {
    "type": "BPE",
    "dropout": null,
    "unk_token": null,
    "continuing_subword_prefix": null,
    "end_of_word_suffix": null,
    "fuse_unk": false,
    "byte_fallback": false,
    "ignore_merges": false,
    "vocab": {
      "!": 0,
      "\"": 1,
      "#": 2,
      "$": 3,
      "%": 4,
      "&": 5,
      "'": 6,
      "(": 7,
      ")": 8,
      "*": 9,
      "+": 10,
      ",": 11,
      "-": 12,
      ".": 13,
      "/": 14,
      "0": 15,
      "1": 16,
      "2": 17,
      "3": 18,
      "4": 19,
      "5": 20,
      "6": 21,
      "7": 22,
      "8": 23,
      "9": 24,
      ":": 25,
      ";": 26,
      "<": 27,
      "=": 28,
      ">": 29,
      "?": 30,
      "@": 31,
      "A": 32,
      "B": 33,
      "C": 34,
      "D": 35,
      "E": 36,
      "F": 37,
      "G": 38,
      "H": 39,
      "I": 40,
      "J": 41,
      "K": 42,
      "L": 43,
      "M": 44,
      "N": 45,
      "O": 46,
      "P": 47,
      "Q": 48,
      "R": 49,
      "S": 50,
      "T": 51,
      "U": 52,
      "V": 53,
      "W": 54,
      "X": 55,
      "Y": 56,
      "Z": 57,
      "[": 58,
      "\\": 59,
      "]": 60,
      "^": 61,
      "_": 62,
      "`": 63,
      "a": 64,
      "b": 65,
      "c": 66,
      "d": 67,
      "e": 68,
      "f": 69,
      "g": 70,
      "h": 71,
      "i": 72,
      "j": 73,
      "k": 74,
      "l": 75,
      "m": 76,
      "n": 77,
      "o": 78,
      "p": 79,
      "q": 80,
      "r": 81,
      "s": 82,
      "t": 83,
      "u": 84,
      "v": 85,
      "w": 86,
      "x": 87,
      "y": 88,
      "z": 89,
      "{": 90,
      "|": 91,
      "}": 92,
      "~": 93,
      "¡": 94,
      "¢": 95,
      "£": 96,
      "¤": 97,
      "¥": 98,
      "¦": 99,
      "§": 100,
      "¨": 101,
      "©": 102,
      "ª": 103,
      "«": 104,
      "¬": 105,
      "®": 106,
      "¯": 107,
      "°": 108,
      "±": 109,
      "²": 110,
      "³": 111,
      "´": 112,
      "µ": 113,
      "¶": 114,
      "·": 115,
      "¸": 116,
      "¹": 117,
      "º": 118,
      "»": 119,
      "¼": 120,
      "½": 121,
      "¾": 122,
      "¿": 123,
      "À": 124,
      "Á": 125,
      "Â": 126,
      "Ã": 127,
      "Ä": 128,
      "Å": 129,
      "Æ": 130,
      "Ç": 131,
      "È": 132,
      "É": 133,
      "Ê": 134,
      "Ë": 135,
      "Ì": 136,
      "Í": 137,
      "Î": 138,
      "Ï": 139,
      "Ð": 140,
      "Ñ": 141,
      "Ò": 142,
      "Ó": 143,
      "Ô": 144,
      "Õ": 145,
      "Ö": 146,
      "×": 147,
      "Ø": 148,
      "Ù": 149,
      "Ú": 150,
      "Û": 151,
      "Ü": 152,
      "Ý": 153,
      "Þ": 154,
      "ß": 155,
      "à": 156,
      "á": 157,
      "â": 158,
      "ã": 159,
      "ä": 160,
      "å": 161,
      "æ": 162,
      "ç": 163,
      "è": 164,
      "é": 165,
      "ê": 166,
      "ë": 167,
      "ì": 168,
      "í": 169,
      "î": 170,
      "ï": 171,
      "ð": 172,
      "ñ": 173,
      "ò": 174,
      "ó": 175,
      "ô": 176,
      "õ": 177,
      "ö": 178,
      "÷": 179,
      "ø": 180,
      "ù": 181,
      "ú": 182,
      "û": 183,
      "ü": 184,
      "ý": 185,
      "þ": 186,
      "ÿ": 187,
      "Ā": 188,
      "ā": 189,
      "Ă": 190,
      "ă": 191,
      "Ą": 192,
      "ą": 193,
      "Ć": 194,
      "ć": 195,
      "Ĉ": 196,
      "ĉ": 197,
      "Ċ": 198,
      "ċ": 199,
      "Č": 200,
      "č": 201,
      "Ď": 202,
      "ď": 203,
      "Đ": 204,
      "đ": 205,
      "Ē": 206,
      "ē": 207,
      "Ĕ": 208,
      "ĕ": 209,
      "Ė": 210,
      "ė": 211,
      "Ę": 212,
      "ę": 213,
      "Ě": 214,
      "ě": 215,
      "Ĝ": 216,
      "ĝ": 217,
      "Ğ": 218,
      "ğ": 219,
      "Ġ": 220,
      "ġ": 221,
      "Ģ": 222,
      "ģ": 223,
      "Ĥ": 224,
      "ĥ": 225,
      "Ħ": 226,
      "ħ": 227,
      "Ĩ": 228,
      "ĩ": 229,
      "Ī": 230,
      "ī": 231,
      "Ĭ": 232,
      "ĭ": 233,
      "Į": 234,
      "į": 235,
      "İ": 236,
      "ı": 237,
      "Ĳ": 238,
      "ĳ": 239,
      "Ĵ": 240,
      "ĵ": 241,
      "Ķ": 242,
      "ķ": 243,
      "ĸ": 244,
      "Ĺ": 245,
      "ĺ": 246,
      "Ļ": 247,
      "ļ": 248,
      "Ľ": 249,
      "ľ": 250,
      "Ŀ": 251,
      "ŀ": 252,
      "Ł": 253,
      "ł": 254,
      "Ń": 255,
      "Ġe": 256,
      "Ġt": 257,
      "Ġa": 258,
      "Ġo": 259,
      "Ġs": 260,
      "Ġn": 261,
      "Ġi": 262,
      "Ġr": 263,
      "ĠĠ": 264,
      "ee": 265,
      "Ġh": 266,
      "Ġl": 267,
      "Ġd": 268,
      "et": 269,
      "Ġc": 270,
      "Ġu": 271,
      "ĠĊ": 272,
      "te": 273,
      "Ġm": 274,
      "Ġf": 275,
      "ea": 276,
      "eo": 277,
      "es": 278,
      "Ġp": 279,
      "en": 280,
      "ei": 281,
      "er": 282,
      "tt": 283,
      "Ġ,": 284,
      "Ġg": 285,
      "ta": 286,
      "Ġw": 287,
      "Ġy": 288,
      "to": 289,
      "Ġ.": 290,
      "ts": 291,
      "eh": 292,
      "tn": 293,
      "Ġb": 294,
      "aa": 295,
      "ti": 296,
      "tr": 297,
      "el": 298,
      "ed": 299,
      "ao": 300,
      "as": 301,
      "oo": 302,
      "an": 303,
      "ae": 304,
      "ai": 305,
      "ar": 306,
      "os": 307,
      "on": 308,
      "ss": 309,
      "th": 310,
      "oi": 311,
      "oe": 312,
      "or": 313,
      "nn": 314,
      "tl": 315,
      "Ġ\"": 316,
      "Ġv": 317,
      "ns": 318,
      "is": 319,
      "rs": 320,
      "ne": 321,
      "ie": 322,
      "re": 323,
      "td": 324,
      "ni": 325,
      "Ġ_": 326,
      "ah": 327,
      "at": 328,
      "ri": 329,
      "Ġ-": 330,
      "se": 331,
      "nr": 332,
      "al": 333,
      "ii": 334,
      "no": 335,
      "rr": 336,
      "Ġk": 337,
      "ad": 338,
      "oh": 339,
      "ot": 340,
      "si": 341,
      "ec": 342,
      "ĠĠĠ": 343,
      "Ġ(": 344,
      "Ġ)": 345,
      "eu": 346,
      "nh": 347,
      "sr": 348,
      "ol": 349,
      "nt": 350,
      "oa": 351,
      "ir": 352,
      "od": 353,
      "nl": 354,
      "na": 355,
      "em": 356,
      "sh": 357,
      "ãģ": 358,
      "st": 359,
      "nd": 360,
      "ef": 361,
      "ih": 362,
      "rh": 363,
      "it": 364,
      "rt": 365,
      "sl": 366,
      "Ġ'": 367,
      "sa": 368,
      "so": 369,
      "il": 370,
      "ia": 371,
      "rl": 372,
      "ĠĠĊ": 373,
      "sd": 374,
      "ep": 375,
      "sn": 376,
      "io": 377,
      "ra": 378,
      "ro": 379,
      "tc": 380,
      "tu": 381,
      "in": 382,
      "id": 383,
      "rn": 384,
      "rd": 385,
      "ĠT": 386,
      "ĠI": 387,
      "he": 388,
      "Ġ/": 389,
      "Ġ:": 390,
      "Ġee": 391,
      "le": 392,
      "ac": 393,
      "au": 394,
      "tm": 395,
      "tf": 396,
      "de": 397,
      "Ġx": 398,
      "oc": 399,
      "hh": 400,
      "ou": 401,
      "eg": 402,
      "Ġ=": 403,
      "hs": 404,
      "nc": 405,
      "ãĥ": 406,
      "Ġes": 407,
      "tp": 408,
      "nu": 409,
      "ĠA": 410,
      "ls": 411,
      "Ġ0": 412,
      "ãĤ": 413,
      "Ġeh": 414,
      "am": 415,
      "ĠS": 416,
      "ic": 417,
      "rc": 418,
      "lh": 419,
      "af": 420,
      "iu": 421,
      "ru": 422,
      "ey": 423,
      "ew": 424,
      "sc": 425,
      "om": 426,
      "Ġ`": 427,
      "su": 428,
      "ĠE": 429,
      "Ġed": 430,
      "Ġel": 431,
      "of": 432,
      "Ġet": 433,
      "Ġen": 434,
      "Ġ>": 435,
      "Ġei": 436,
      "Ġea": 437,
      "ll": 438,
      "hd": 439,
      "Ġer": 440,
      "Ġeo": 441,
      "ht": 442,
      "hi": 443,
      "hn": 444,
      "hl": 445,
      "eb": 446,
      "hr": 447,
      "ha": 448,
      "ho": 449,
      "ds": 450,
      "nm": 451,
      "Ġ1": 452,
      "ap": 453,
      "lt": 454,
      "li": 455,
      "nf": 456,
      "ld": 457,
      "ce": 458,
      "lr": 459,
      "Ġte": 460,
      "tg": 461,
      "lo": 462,
      "Ġ<": 463,
      "ue": 464,
      "la": 465,
      "sm": 466,
      "ln": 467,
      "im": 468,
      "rm": 469,
      "sf": 470,
      "op": 471,
      "dd": 472,
      "if": 473,
      "rf": 474,
      "dt": 475,
      "ĠC": 476,
      "da": 477,
      "np": 478,
      "di": 479,
      "tw": 480,
      "do": 481,
      "ty": 482,
      "dr": 483,
      "Ġec": 484,
      "dn": 485,
      "me": 486,
      "sp": 487,
      "Ġeu": 488,
      "fe": 489,
      "Ġč": 490,
      "ag": 491,
      "hc": 492,
      "ip": 493,
      "Ġae": 494,
      "hu": 495,
      "rp": 496,
      "ĠR": 497,
      "og": 498,
      "Ġoe": 499,
      "Ġts": 500,
      "tb": 501,
      "ĠP": 502,
      "ĠN": 503,
      "lc": 504,
      "lu": 505,
      "Ġ#": 506,
      "dh": 507,
      "pe": 508,
      "Ġta": 509,
      "Ġse": 510,
      "cs": 511,
      "Ġtn": 512,
      "Ġti": 513,
      "Ġto": 514,
      "us": 515,
      "ge": 516,
      "aw": 517,
      "ay": 518,
      "Ġtt": 519,
      "Ġtr": 520,
      "Ġne": 521,
      "Ġem": 522,
      "ĠM": 523,
      "dl": 524,
      "Ġie": 525,
      "Ġef": 526,
      "à¦": 527,
      "ow": 528,
      "Ġ2": 529,
      "Ġre": 530,
      "ãĢ": 531,
      "oy": 532,
      "ci": 533,
      "cn": 534,
      "ĠL": 535,
      "ui": 536,
      "cr": 537,
      "ct": 538,
      "ca": 539,
      "un": 540,
      "ut": 541,
      "ur": 542,
      "hm": 543,
      "we": 544,
      "Ġas": 545,
      "ye": 546,
      "co": 547,
      "hf": 548,
      "uo": 549,
      "ng": 550,
      "Ġq": 551,
      "ua": 552,
      "ms": 553,
      "ĠO": 554,
      "Ġ;": 555,
      "fs": 556,
      "be": 557,
      "Ġep": 558,
      "Ġos": 559,
      "Ġai": 560,
      "Ġth": 561,
      "Ġtd": 562,
      "rg": 563,
      "ä¸": 564,
      "čĠ": 565,
      "lm": 566,
      "Ġat": 567,
      "ig": 568,
      "Ġar": 569,
      "Ġan": 570,
      "Ġaa": 571,
      "lf": 572,
      "ĠD": 573,
      "Ġss": 574,
      "Ġao": 575,
      "Ġå": 576,
      "ĠH": 577,
      "Ġns": 578,
      "nw": 579,
      "ab": 580,
      "ny": 581,
      "cd": 582,
      "ch": 583,
      "ps": 584,
      "Ġtl": 585,
      "Ġoi": 586,
      "mi": 587,
      "Ġot": 588,
      "mt": 589,
      "ud": 590,
      "uh": 591,
      "fi": 592,
      "Ġor": 593,
      "ft": 594,
      "Ġis": 595,
      "mr": 596,
      "ob": 597,
      "Ġst": 598,
      "Ġ[": 599,
      "Ġoa": 600,
      "fr": 601,
      "Ġrs": 602,
      "Ġ]": 603,
      "ma": 604,
      "ĠB": 605,
      "Ġsi": 606,
      "Ġon": 607,
      "ĠF": 608,
      "mo": 609,
      "fa": 610,
      "Ġoo": 611,
      "mn": 612,
      "fo": 613,
      "cl": 614,
      "fn": 615,
      "ĠW": 616,
      "gs": 617,
      "pi": 618,
      "Ġnt": 619,
      "pt": 620,
      "Ġsr": 621,
      "Ġni": 622,
      "ul": 623,
      "Ġnr": 624,
      "Ġad": 625,
      "Ġsa": 626,
      "Ġah": 627,
      "Ġit": 628,
      "Ġsn": 629,
      "Ġso": 630,
      "Ġj": 631,
      "pr": 632,
      "Ġna": 633,
      "Ġeg": 634,
      "ys": 635,
      "ws": 636,
      "Ġno": 637,
      "Ġii": 638,
      "Ġhe": 639,
      "pa": 640,
      "Ġir": 641,
      "Ġnn": 642,
      "po": 643,
      "pn": 644,
      "Ġri": 645,
      "ĠĠĠĠ": 646,
      "Ġrt": 647,
      "ï¼": 648,
      "mh": 649,
      "dc": 650,
      "Ġrr": 651,
      "Ġia": 652,
      "Ġio": 653,
      "Ġal": 654,
      "Ġoh": 655,
      "fh": 656,
      "Ġra": 657,
      "du": 658,
      "Ġin": 659,
      "sg": 660,
      "Ġro": 661,
      "Ġ{": 662,
      "Ġ}": 663,
      "Ġrn": 664,
      "ãĢĤ": 665,
      "ev": 666,
      "wt": 667,
      "md": 668,
      "wi": 669,
      "Ġod": 670,
      "yt": 671,
      "bs": 672,
      "Ġle": 673,
      "Ġsh": 674,
      "gt": 675,
      "gi": 676,
      "yi": 677,
      "fd": 678,
      "Ġtc": 679,
      "wr": 680,
      "çļ": 681,
      "çļĦ": 682,
      "gr": 683,
      "eee": 684,
      "yr": 685,
      "ga": 686,
      "Ġtu": 687,
      "Ġol": 688,
      "ml": 689,
      "ph": 690,
      "čĊ": 691,
      "ìĿ": 692,
      "Ġnh": 693,
      "wo": 694,
      "fl": 695,
      "ya": 696,
      "wa": 697,
      "wn": 698,
      "Ġsd": 699,
      "'t": 700,
      "yn": 701,
      "yo": 702,
      "Ġnd": 703,
      "go": 704,
      "pd": 705,
      "Ġih": 706,
      "gn": 707,
      "Ġde": 708,
      "Ġsl": 709,
      "bi": 710,
      "bt": 711,
      "Ġrh": 712,
      "Ġid": 713,
      "br": 714,
      "ve": 715,
      "Ġnl": 716,
      "pl": 717,
      "Ġ*": 718,
      "Ġrd": 719,
      "cc": 720,
      "Ġil": 721,
      "bo": 722,
      "Ġ3": 723,
      "ba": 724,
      "ĠG": 725,
      "bn": 726,
      "Ġrl": 727,
      "wh": 728,
      "yh": 729,
      "uu": 730,
      "tee": 731,
      "Ġhs": 732,
      "gh": 733,
      "Ġtm": 734,
      "yd": 735,
      "Ġãģ": 736,
      "cu": 737,
      "wd": 738,
      "Ġæ": 739,
      "Ġtf": 740,
      "gd": 741,
      "Ġey": 742,
      "Ġew": 743,
      "uc": 744,
      "Ġls": 745,
      "bh": 746,
      "Ġhi": 747,
      "Ġz": 748,
      "Ġac": 749,
      "gl": 750,
      "ĠÐ": 751,
      "wl": 752,
      "yl": 753,
      "Ġht": 754,
      "Ġau": 755,
      "Ġhr": 756,
      "ees": 757,
      "Ġha": 758,
      "Ġho": 759,
      "Ġhn": 760,
      "bd": 761,
      "Ġli": 762,
      "Ġoc": 763,
      "Ġds": 764,
      "ĠU": 765,
      "Ġou": 766,
      "bl": 767,
      "ek": 768,
      "tv": 769,
      "fc": 770,
      "mc": 771,
      "Ġlr": 772,
      "'s": 773,
      "mu": 774,
      "eei": 775,
      "Ġtp": 776,
      "Ġsc": 777,
      ",,": 778,
      "Ġlt": 779,
      "Ġla": 780,
      "eer": 781,
      "Ġlo": 782,
      "Ġ4": 783,
      "ĠĠĠĊ": 784,
      "fu": 785,
      "Ġln": 786,
      "een": 787,
      "Ġnu": 788,
      "Ġeb": 789,
      "Ġsu": 790,
      "Ġdi": 791,
      "Ġnc": 792,
      "Ġdr": 793,
      "eea": 794,
      "vs": 795,
      "ete": 796,
      "eet": 797,
      "Ġhh": 798,
      "eeo": 799,
      "ke": 800,
      "pc": 801,
      "Ġam": 802,
      "Ġda": 803,
      "Ġdn": 804,
      "Ġue": 805,
      "pu": 806,
      "Ġdt": 807,
      "âĢ": 808,
      "íķ": 809,
      "sy": 810,
      "rw": 811,
      "dm": 812,
      "sw": 813,
      "Ġdo": 814,
      "Ġrc": 815,
      "Ġce": 816,
      "ä»": 817,
      "iy": 818,
      "Ġic": 819,
      "Ġaf": 820,
      "ry": 821,
      "iw": 822,
      "Ġiu": 823,
      "Ġru": 824,
      "df": 825,
      "hp": 826,
      "Ġhl": 827,
      "vn": 828,
      "vi": 829,
      "Ġom": 830,
      "Ġhd": 831,
      "Ġì": 832,
      "vo": 833,
      "va": 834,
      "Ġof": 835,
      "Ġ5": 836,
      "vt": 837,
      ".,": 838,
      "nb": 839,
      "Ġlh": 840,
      "vr": 841,
      "lp": 842,
      "gc": 843,
      "Ġsm": 844,
      "ä½": 845,
      "Ġë": 846,
      "eeh": 847,
      "gu": 848,
      ",.": 849,
      "ï¼Į": 850,
      "sb": 851,
      "Ġsf": 852,
      "Ġdh": 853,
      "Ġap": 854,
      "ib": 855,
      "Ġld": 856,
      "Ġll": 857,
      "mm": 858,
      "Ġtg": 859,
      "eed": 860,
      "Ġ8": 861,
      "rb": 862,
      "Ġnf": 863,
      "eel": 864,
      "yc": 865,
      "Ġnm": 866,
      "Ġdd": 867,
      "Ġme": 868,
      "tet": 869,
      "wc": 870,
      "Ġ!": 871,
      "ãĥ¼": 872,
      "Ġif": 873,
      "wu": 874,
      "Ġim": 875,
      "Ġop": 876,
      "vh": 877,
      "Ġrf": 878,
      "Ġdl": 879,
      "cf": 880,
      "yu": 881,
      "Ġrm": 882,
      "ks": 883,
      "eae": 884,
      "çĶ": 885,
      "Ġè": 886,
      "cm": 887,
      "dp": 888,
      "à¤": 889,
      "Ġfe": 890,
      "um": 891,
      "Ġty": 892,
      "Ġ6": 893,
      "Ġtw": 894,
      "fm": 895,
      "tes": 896,
      "Ġsp": 897,
      "tk": 898,
      "ets": 899,
      "Ġeee": 900,
      "aee": 901,
      "ff": 902,
      "..": 903,
      "Ġnp": 904,
      "hg": 905,
      "eoe": 906,
      "vl": 907,
      "Ġcs": 908,
      "ĠãĤ": 909,
      "uf": 910,
      "vd": 911,
      "pm": 912,
      "tea": 913,
      "Ġus": 914,
      "oee": 915,
      "tei": 916,
      "ko": 917,
      "Ġag": 918,
      "Ġ9": 919,
      "ki": 920,
      "ese": 921,
      "ka": 922,
      "bc": 923,
      "teo": 924,
      "ten": 925,
      "Ð¾": 926,
      "Ġip": 927,
      "ene": 928,
      "lg": 929,
      "ter": 930,
      "åı": 931,
      "Ġpe": 932,
      "Ġtb": 933,
      "Ġrp": 934,
      "eti": 935,
      "mf": 936,
      "Ġco": 937,
      "Ġcn": 938,
      "kr": 939,
      "kn": 940,
      "ĠV": 941,
      "Ġci": 942,
      "Ġct": 943,
      "eto": 944,
      "eta": 945,
      "ett": 946,
      "kt": 947,
      "Ġhc": 948,
      "Ġca": 949,
      "Ġhu": 950,
      "etr": 951,
      "Ie": 952,
      "Ġua": 953,
      "bu": 954,
      "etn": 955,
      "Ġui": 956,
      "Ġur": 957,
      "hw": 958,
      "Ġcr": 959,
      "Te": 960,
      "Ġ\\": 961,
      "Ġog": 962,
      "hy": 963,
      "Ġ?": 964,
      "Ġut": 965,
      "pf": 966,
      "eie": 967,
      "çĶ¨": 968,
      "Ġuo": 969,
      "Ġev": 970,
      "Ġay": 971,
      "gm": 972,
      "Ġun": 973,
      "cp": 974,
      "Ġaw": 975,
      "gf": 976,
      "ere": 977,
      "up": 978,
      "wm": 979,
      "yf": 980,
      "ym": 981,
      "dg": 982,
      "nee": 983,
      "ãĢģ": 984,
      "Ġms": 985,
      "ãģ®": 986,
      "ĠK": 987,
      "Ġlc": 988,
      "'d": 989,
      "av": 990,
      "Ġsg": 991,
      "wf": 992,
      "å®": 993,
      "Ġlu": 994,
      "Ġ7": 995,
      "kh": 996,
      "see": 997,
      "teh": 998,
      "ÑĤ": 999,
      "Ġãĥ": 1000,
      "ĠY": 1001,
      "Ġng": 1002,
      "Ðµ": 1003,
      "lw": 1004,
      "eth": 1005,
      "ly": 1006,
      "eas": 1007,
      "Ġfs": 1008,
      "iee": 1009,
      "æľ": 1010,
      "Ġdc": 1011,
      "mp": 1012,
      "Ġge": 1013,
      "Ġoy": 1014,
      "ov": 1015,
      "ĠJ": 1016,
      "Ġab": 1017,
      "ree": 1018,
      "Ġç": 1019,
      "Ġig": 1020,
      "fp": 1021,
      "Ġch": 1022,
      "Ġow": 1023,
      "ted": 1024,
      "hb": 1025,
      "Ġdu": 1026,
      "Ġmi": 1027,
      "eT": 1028,
      "Ġma": 1029,
      "Ġeet": 1030,
      "kd": 1031,
      "åĪ": 1032,
      "Ġmt": 1033,
      "Ġrg": 1034,
      "Ġuh": 1035,
      "Ġmr": 1036,
      "kl": 1037,
      "Ġfn": 1038,
      "tel": 1039,
      "Ġft": 1040,
      "eI": 1041,
      "Ġhf": 1042,
      "Ġfr": 1043,
      "Ġmo": 1044,
      "Ġsw": 1045,
      "Ġfi": 1046,
      "Ġeea": 1047,
      "Ġfa": 1048,
      "Ġhm": 1049,
      "bm": 1050,
      "Ġmn": 1051,
      "xe": 1052,
      "Ġcl": 1053,
      "dw": 1054,
      "Ġfo": 1055,
      "pp": 1056,
      "eos": 1057,
      "ĭ¤": 1058,
      "bf": 1059,
      "dy": 1060,
      "Ġsy": 1061,
      "ear": 1062,
      "Ġnw": 1063,
      "etl": 1064,
      "ess": 1065,
      "Ġud": 1066,
      "eaa": 1067,
      "eai": 1068,
      "tae": 1069,
      "eat": 1070,
      "ean": 1071,
      "Ġcd": 1072,
      "Ġny": 1073,
      "cg": 1074,
      "etd": 1075,
      "Ġps": 1076,
      "ens": 1077,
      "eao": 1078,
      "Ġlm": 1079,
      "Ġeeo": 1080,
      "Ġul": 1081,
      "à§": 1082,
      "Ġtee": 1083,
      "åĲ": 1084,
      "Ġob": 1085,
      "Ð°": 1086,
      ",\"": 1087,
      "ug": 1088,
      "Ġwe": 1089,
      "nv": 1090,
      "äº": 1091,
      "Ġiw": 1092,
      "Ġiy": 1093,
      "eec": 1094,
      "eot": 1095,
      "Ġlf": 1096,
      "Ġye": 1097,
      "Ts": 1098,
      "\",": 1099,
      "eoi": 1100,
      "Ġek": 1101,
      "Ġrw": 1102,
      "lb": 1103,
      "eor": 1104,
      "Ġees": 1105,
      "ìĿ´": 1106,
      "eoa": 1107,
      "gp": 1108,
      "toe": 1109,
      "Ð¸": 1110,
      "eoo": 1111,
      "Ġry": 1112,
      "ãģĻ": 1113,
      "vc": 1114,
      "tte": 1115,
      "tts": 1116,
      "eis": 1117,
      "Se": 1118,
      "Ġpi": 1119,
      "eeu": 1120,
      "Ġpa": 1121,
      "Ġpo": 1122,
      "Ae": 1123,
      "ers": 1124,
      "Ġpr": 1125,
      "Ġhp": 1126,
      "eon": 1127,
      "Ġsb": 1128,
      "Ġpt": 1129,
      "Is": 1130,
      "eso": 1131,
      "esa": 1132,
      "Ġ|": 1133,
      "esi": 1134,
      "vu": 1135,
      "Ġdf": 1136,
      "yp": 1137,
      "ena": 1138,
      "esr": 1139,
      "Ġdm": 1140,
      "ent": 1141,
      "est": 1142,
      "enr": 1143,
      "Ġnb": 1144,
      "wp": 1145,
      "Ġmh": 1146,
      "eni": 1147,
      "enn": 1148,
      "Ġpn": 1149,
      "Ii": 1150,
      "tne": 1151,
      "eno": 1152,
      "tse": 1153,
      "db": 1154,
      "esn": 1155,
      "Ta": 1156,
      "ehe": 1157,
      "Ir": 1158,
      "Tt": 1159,
      "Ġfh": 1160,
      "Ġbe": 1161,
      "Ti": 1162,
      "ert": 1163,
      "eit": 1164,
      "cw": 1165,
      "cy": 1166,
      "Ia": 1167,
      "eii": 1168,
      "era": 1169,
      "To": 1170,
      "eia": 1171,
      "tti": 1172,
      "ttr": 1173,
      "In": 1174,
      "Tr": 1175,
      "Ġete": 1176,
      "eir": 1177,
      "è¿": 1178,
      "Io": 1179,
      "Ġmd": 1180,
      "mg": 1181,
      "It": 1182,
      "eri": 1183,
      "Ġlp": 1184,
      "Tn": 1185,
      "Ġml": 1186,
      "tto": 1187,
      "err": 1188,
      "eio": 1189,
      "ttn": 1190,
      "Ġib": 1191,
      "eah": 1192,
      "aet": 1193,
      "Ee": 1194,
      "tie": 1195,
      "uw": 1196,
      "ero": 1197,
      "_,": 1198,
      "Ġrb": 1199,
      "ein": 1200,
      "Ð½": 1201,
      "Ġfl": 1202,
      "tta": 1203,
      "uy": 1204,
      "ÑĢ": 1205,
      "tre": 1206,
      "ern": 1207,
      "ttt": 1208,
      "Ġfd": 1209,
      "fg": 1210,
      "ele": 1211,
      "iv": 1212,
      "Ġgs": 1213,
      "Ġ@": 1214,
      ",_": 1215,
      ".\"": 1216,
      "Ġtv": 1217,
      "Ġaee": 1218,
      "bp": 1219,
      "sv": 1220,
      "-,": 1221,
      "oet": 1222,
      "Ã©": 1223,
      "eal": 1224,
      "eoh": 1225,
      "rv": 1226,
      "Ġdp": 1227,
      "ak": 1228,
      "ead": 1229,
      "xs": 1230,
      "Ġé": 1231,
      "Ġph": 1232,
      "\".": 1233,
      "aae": 1234,
      ",-": 1235,
      "eem": 1236,
      "ede": 1237,
      "tas": 1238,
      "Ġgn": 1239,
      "Ġgi": 1240,
      "ãĤĴ": 1241,
      "Ġgt": 1242,
      "è¯": 1243,
      "pg": 1244,
      "eod": 1245,
      "ok": 1246,
      "esh": 1247,
      "Ġcc": 1248,
      "Ġeen": 1249,
      "mw": 1250,
      "Ñģ": 1251,
      "fy": 1252,
      "Ġhg": 1253,
      "Ġgo": 1254,
      "ub": 1255,
      "Ġga": 1256,
      "Ġws": 1257,
      "eol": 1258,
      "Ġgr": 1259,
      "Ġys": 1260,
      "ëĭ¤": 1261,
      "aoe": 1262,
      "my": 1263,
      "Ġuc": 1264,
      "xi": 1265,
      "xn": 1266,
      "eef": 1267,
      "Ġà¦": 1268,
      "Th": 1269,
      "gg": 1270,
      "Ġeei": 1271,
      "enh": 1272,
      "tec": 1273,
      "xt": 1274,
      "ase": 1275,
      "fw": 1276,
      "Ġpd": 1277,
      "Ih": 1278,
      "Ġoee": 1279,
      "Ġeer": 1280,
      "xo": 1281,
      "Ġuu": 1282,
      "xr": 1283,
      "teu": 1284,
      "net": 1285,
      "Ġcu": 1286,
      "cb": 1287,
      "Ġpl": 1288,
      "xa": 1289,
      "tth": 1290,
      "åħ": 1291,
      "tos": 1292,
      "Ĭ¤": 1293,
      "eih": 1294,
      "tai": 1295,
      "vm": 1296,
      "esd": 1297,
      "._": 1298,
      "As": 1299,
      "Ġwr": 1300,
      "yg": 1301,
      "kc": 1302,
      "tan": 1303,
      "ane": 1304,
      "Tl": 1305,
      "esl": 1306,
      "erh": 1307,
      "Ġlg": 1308,
      "Td": 1309,
      "tar": 1310,
      "Ġyi": 1311,
      "wg": 1312,
      "tat": 1313,
      "Id": 1314,
      "ate": 1315,
      "(,": 1316,
      "tao": 1317,
      "Ġyt": 1318,
      "etc": 1319,
      "Ġwi": 1320,
      "Ġ%": 1321,
      "_.": 1322,
      "vf": 1323,
      "),": 1324,
      "Ss": 1325,
      "enl": 1326,
      "-.": 1327,
      "pw": 1328,
      "ooe": 1329,
      "ku": 1330,
      "ìĹ": 1331,
      "taa": 1332,
      "Ġhw": 1333,
      "Ġwa": 1334,
      "tss": 1335,
      "hee": 1336,
      "Ġeto": 1337,
      ",(": 1338,
      "py": 1339,
      "end": 1340,
      "Ġett": 1341,
      "Ġnee": 1342,
      "Ġwt": 1343,
      "Ġwn": 1344,
      "'m": 1345,
      "etu": 1346,
      "Il": 1347,
      "ehs": 1348,
      ",)": 1349,
      "Ġsee": 1350,
      "Ġwo": 1351,
      "Ġyr": 1352,
      "aea": 1353,
      "Ġyn": 1354,
      ".-": 1355,
      "Ġav": 1356,
      "ãģ«": 1357,
      "Ġbs": 1358,
      "Ai": 1359,
      "Ġtet": 1360,
      "Ġdg": 1361,
      "eid": 1362,
      "Ġhy": 1363,
      "Si": 1364,
      "ĠĠč": 1365,
      "mb": 1366,
      "Ġä¸": 1367,
      "eil": 1368,
      "ttl": 1369,
      "ttd": 1370,
      "aie": 1371,
      "Ġyo": 1372,
      "Ġya": 1373,
      "are": 1374,
      "tot": 1375,
      "bg": 1376,
      "âĢĻ": 1377,
      "toi": 1378,
      "tns": 1379,
      "tis": 1380,
      "At": 1381,
      "Ġtk": 1382,
      "Ġgh": 1383,
      "So": 1384,
      "Ar": 1385,
      "ĬĶ": 1386,
      "An": 1387,
      "Ce": 1388,
      "too": 1389,
      "tor": 1390,
      "erl": 1391,
      "Ao": 1392,
      "Ġeeh": 1393,
      "Sn": 1394,
      "ose": 1395,
      "æĪ": 1396,
      "fb": 1397,
      "Ġiee": 1398,
      "St": 1399,
      "Es": 1400,
      "aeo": 1401,
      "tsi": 1402,
      "erd": 1403,
      "Ġov": 1404,
      "ľ¨": 1405,
      "Ġcm": 1406,
      "čĠĠ": 1407,
      "Sr": 1408,
      "Ġree": 1409,
      "ton": 1410,
      "Ġlw": 1411,
      "ĠeI": 1412,
      "oea": 1413,
      "tsr": 1414,
      "Ġly": 1415,
      "ĠeT": 1416,
      "lee": 1417,
      "ãĥ³": 1418,
      "Sa": 1419,
      "Ġetn": 1420,
      "toa": 1421,
      "Ġeaa": 1422,
      "Aa": 1423,
      "Ġbn": 1424,
      "Ġmc": 1425,
      "tsa": 1426,
      "tst": 1427,
      "trs": 1428,
      "gy": 1429,
      "ãģĹ": 1430,
      "xh": 1431,
      "gw": 1432,
      "ãĤĭ": 1433,
      "ote": 1434,
      "pb": 1435,
      "Ġcf": 1436,
      "ret": 1437,
      "ãģ¾": 1438,
      "Ġmu": 1439,
      "one": 1440,
      "Ġeta": 1441,
      "è®": 1442,
      "ĠčĠ": 1443,
      "Ġbi": 1444,
      "ehi": 1445,
      "nk": 1446,
      "Ġum": 1447,
      "yy": 1448,
      "tso": 1449,
      "ww": 1450,
      "els": 1451,
      "tni": 1452,
      "Ei": 1453,
      "Ġfc": 1454,
      "Ġbo": 1455,
      "tsn": 1456,
      "the": 1457,
      "oie": 1458,
      "Et": 1459,
      "tem": 1460,
      "Ea": 1461,
      "Ġgd": 1462,
      "eht": 1463,
      "eho": 1464,
      "Ġetr": 1465,
      "tii": 1466,
      "Ġgl": 1467,
      "tnt": 1468,
      "íķľ": 1469,
      "ehr": 1470,
      "Ġdy": 1471,
      ").": 1472,
      "eep": 1473,
      "Ġbt": 1474,
      "Eo": 1475,
      "Er": 1476,
      "Ġhb": 1477,
      "ìĦ": 1478,
      "Ġuf": 1479,
      "Ġdw": 1480,
      "ìł": 1481,
      "tnr": 1482,
      "åĬ": 1483,
      "tno": 1484,
      "ä½¿": 1485,
      "elt": 1486,
      "(.": 1487,
      "Ġtea": 1488,
      "Ġeao": 1489,
      "tah": 1490,
      "ehn": 1491,
      "ore": 1492,
      "Ġbr": 1493,
      "aes": 1494,
      "wy": 1495,
      "tnn": 1496,
      "Ġeti": 1497,
      "Ġwh": 1498,
      "km": 1499,
      "Ġyh": 1500,
      "xl": 1501,
      "sse": 1502,
      "iet": 1503,
      "Ġsv": 1504,
      "Ġba": 1505,
      "Re": 1506,
      "Ġfu": 1507,
      ".(": 1508,
      "xd": 1509,
      "tef": 1510,
      ".)": 1511,
      "tna": 1512,
      "Ð²": 1513,
      "aas": 1514,
      "kf": 1515,
      "nse": 1516,
      "Ġnv": 1517,
      "aec": 1518,
      "Ġeel": 1519,
      "eds": 1520,
      "íķĺ": 1521,
      "tri": 1522,
      "dee": 1523,
      "trt": 1524,
      "è¡": 1525,
      "ê°": 1526,
      "tit": 1527,
      "nea": 1528,
      "ise": 1529,
      "Ġlb": 1530,
      "vp": 1531,
      "eha": 1532,
      "yw": 1533,
      "aos": 1534,
      "Ġaet": 1535,
      "nne": 1536,
      "tT": 1537,
      "Ġtte": 1538,
      "ä»¥": 1539,
      "rse": 1540,
      "tio": 1541,
      "Ah": 1542,
      "set": 1543,
      "tin": 1544,
      "aeu": 1545,
      "Ġwd": 1546,
      "eli": 1547,
      "En": 1548,
      "aai": 1549,
      "oeo": 1550,
      "tia": 1551,
      "Ġeoo": 1552,
      "trr": 1553,
      "tir": 1554,
      "ìĬ¤": 1555,
      "ass": 1556,
      "elr": 1557,
      "toh": 1558,
      "Ġyd": 1559,
      "Sh": 1560,
      "Ġwl": 1561,
      "tal": 1562,
      "Ġve": 1563,
      "aat": 1564,
      "Ġyl": 1565,
      "aen": 1566,
      "ìŀ": 1567,
      "trn": 1568,
      "Ġean": 1569,
      "Ġiv": 1570,
      "tro": 1571,
      "Ġets": 1572,
      "eac": 1573,
      "gb": 1574,
      "tle": 1575,
      "elo": 1576,
      "tol": 1577,
      "Ne": 1578,
      "tra": 1579,
      "Ġcp": 1580,
      "',": 1581,
      "Ġeed": 1582,
      "Pe": 1583,
      "Ġrv": 1584,
      "ãģ¯": 1585,
      "Ġup": 1586,
      "rk": 1587,
      "ela": 1588,
      "tad": 1589,
      "eau": 1590,
      "Ġpc": 1591,
      "aan": 1592,
      "Ġeas": 1593,
      "bw": 1594,
      "by": 1595,
      "aao": 1596,
      "Ġpu": 1597,
      "Ġeos": 1598,
      "Ġteo": 1599,
      "eln": 1600,
      "ik": 1601,
      "sk": 1602,
      "aar": 1603,
      "Ġeai": 1604,
      "tsh": 1605,
      "Ġmm": 1606,
      "Al": 1607,
      "tI": 1608,
      "ëĵ": 1609,
      "Eh": 1610,
      "nte": 1611,
      "etm": 1612,
      "oeu": 1613,
      "cee": 1614,
      "aaa": 1615,
      "Sl": 1616,
      "eou": 1617,
      "ëĬĶ": 1618,
      "hv": 1619,
      "æĸ": 1620,
      "tde": 1621,
      "etf": 1622,
      "oen": 1623,
      "edi": 1624,
      "aoi": 1625,
      ",'": 1626,
      "Ġdb": 1627,
      "aei": 1628,
      "Ġtes": 1629,
      "Ġear": 1630,
      "Ġeon": 1631,
      "Ġfm": 1632,
      "Ġak": 1633,
      "tod": 1634,
      "Ġex": 1635,
      "ans": 1636,
      "oec": 1637,
      "Ġbh": 1638,
      "aer": 1639,
      "oes": 1640,
      "edt": 1641,
      "Ad": 1642,
      "ex": 1643,
      "Ġí": 1644,
      "ãĤ¹": 1645,
      "edo": 1646,
      "aor": 1647,
      "åľ¨": 1648,
      "Ġ+": 1649,
      "wb": 1650,
      "Ġff": 1651,
      "aot": 1652,
      "Me": 1653,
      "Ġeae": 1654,
      "eoc": 1655,
      "ĠãĢĤ": 1656,
      "tnh": 1657,
      "¥¼": 1658,
      "ãģ§": 1659,
      "Ġten": 1660,
      "å¤": 1661,
      "edn": 1662,
      "ehh": 1663,
      "yb": 1664,
      "tsd": 1665,
      "Sd": 1666,
      "Ġmf": 1667,
      "Ġok": 1668,
      "Ġoet": 1669,
      "tih": 1670,
      "ttc": 1671,
      "edr": 1672,
      "ï¼ļ": 1673,
      "aon": 1674,
      "tep": 1675,
      "Ġess": 1676,
      "ast": 1677,
      "Ġter": 1678,
      "lv": 1679,
      "aoa": 1680,
      "oos": 1681,
      "esc": 1682,
      "ars": 1683,
      "Ġtei": 1684,
      "ais": 1685,
      "Cs": 1686,
      "uee": 1687,
      "enc": 1688,
      "Ġeoi": 1689,
      "åı¯": 1690,
      "æĺ": 1691,
      "ĠçļĦ": 1692,
      "aef": 1693,
      "\"\"": 1694,
      "ä¸Ģ": 1695,
      "Tc": 1696,
      "aoo": 1697,
      "tnd": 1698,
      "asi": 1699,
      "asr": 1700,
      "ant": 1701,
      "Ic": 1702,
      "eda": 1703,
      "Le": 1704,
      "Ġbl": 1705,
      "El": 1706,
      "ahe": 1707,
      "Tu": 1708,
      "esu": 1709,
      "Ġeoe": 1710,
      "asn": 1711,
      "aem": 1712,
      "Ġese": 1713,
      "Ġbd": 1714,
      "Ġeor": 1715,
      "ani": 1716,
      "oer": 1717,
      "ttu": 1718,
      "oei": 1719,
      "ehd": 1720,
      "Ġset": 1721,
      "tnl": 1722,
      "rea": 1723,
      "eeg": 1724,
      "neo": 1725,
      "elh": 1726,
      "Ðº": 1727,
      "Ļ¨": 1728,
      "tsl": 1729,
      "asa": 1730,
      "à¥": 1731,
      "Ġsk": 1732,
      "enu": 1733,
      "Ð»": 1734,
      "Ġene": 1735,
      "ehl": 1736,
      "Ġenn": 1737,
      "Iu": 1738,
      "ite": 1739,
      "ĠĠĠĠĠ": 1740,
      "Ed": 1741,
      "trh": 1742,
      "oss": 1743,
      "ĠeS": 1744,
      "Ġens": 1745,
      "qe": 1746,
      "Ġcg": 1747,
      "čĠĊ": 1748,
      "'.": 1749,
      "aah": 1750,
      "Ñĥ": 1751,
      "ãģ¦": 1752,
      "ths": 1753,
      "ĠeA": 1754,
      "til": 1755,
      "ann": 1756,
      "anr": 1757,
      "eic": 1758,
      "Ġgc": 1759,
      "Ġnet": 1760,
      "aso": 1761,
      "Ġmp": 1762,
      "Ġaea": 1763,
      "ooi": 1764,
      "tid": 1765,
      "iec": 1766,
      "trd": 1767,
      "kp": 1768,
      "ait": 1769,
      "ĠX": 1770,
      "ë¡": 1771,
      "ons": 1772,
      "rte": 1773,
      "eiu": 1774,
      "ç»": 1775,
      "mee": 1776,
      "ari": 1777,
      "Ġiet": 1778,
      "Ci": 1779,
      "ieu": 1780,
      "ell": 1781,
      "ìļ": 1782,
      "eA": 1783,
      "ois": 1784,
      "eru": 1785,
      "oot": 1786,
      "aii": 1787,
      "att": 1788,
      "nes": 1789,
      "erc": 1790,
      "Ġhee": 1791,
      "ĠčĊ": 1792,
      "ãĥĪ": 1793,
      "Ġate": 1794,
      "ano": 1795,
      "fee": 1796,
      "ìĿĦ": 1797,
      "Ġpm": 1798,
      "art": 1799,
      "vg": 1800,
      "eld": 1801,
      "Ġnk": 1802,
      "ste": 1803,
      "Ġttt": 1804,
      "Ġeis": 1805,
      "eS": 1806,
      "oor": 1807,
      "Ct": 1808,
      "rec": 1809,
      "Ġret": 1810,
      "ooa": 1811,
      "eam": 1812,
      "bb": 1813,
      "neu": 1814,
      "nec": 1815,
      "osi": 1816,
      "eaf": 1817,
      "edh": 1818,
      "Ġpf": 1819,
      "ana": 1820,
      "trl": 1821,
      ",/": 1822,
      "Ġeni": 1823,
      "Ġers": 1824,
      "oon": 1825,
      "aio": 1826,
      "Ġeth": 1827,
      "Ġug": 1828,
      "Ġgu": 1829,
      ".'": 1830,
      "dv": 1831,
      "air": 1832,
      "ost": 1833,
      "arn": 1834,
      "aT": 1835,
      "Ġfp": 1836,
      "Ġlee": 1837,
      "arr": 1838,
      "ors": 1839,
      "ìĹĲ": 1840,
      "ale": 1841,
      "etp": 1842,
      "Ġrk": 1843,
      "Oe": 1844,
      "aad": 1845,
      "reu": 1846,
      "eom": 1847,
      "Cr": 1848,
      "ä¸ª": 1849,
      ",:": 1850,
      "aoh": 1851,
      "ĠeE": 1852,
      "ain": 1853,
      "Cn": 1854,
      "ont": 1855,
      "ĠtT": 1856,
      "Ġaes": 1857,
      "oni": 1858,
      "Ġoea": 1859,
      "Ġik": 1860,
      "osn": 1861,
      "\"_": 1862,
      "Ġaeo": 1863,
      "/,": 1864,
      "ooo": 1865,
      "ëĵľ": 1866,
      "De": 1867,
      "osr": 1868,
      "Rs": 1869,
      "æī": 1870,
      "oef": 1871,
      "aod": 1872,
      "ono": 1873,
      "not": 1874,
      "aI": 1875,
      "pee": 1876,
      "Ġere": 1877,
      "¦Ĥ": 1878,
      "sea": 1879,
      "Ġote": 1880,
      ":,": 1881,
      "nen": 1882,
      "Ġste": 1883,
      "Ġke": 1884,
      "-\"": 1885,
      "iea": 1886,
      "aia": 1887,
      "seo": 1888,
      "å°": 1889,
      "ott": 1890,
      "åŃ": 1891,
      "thi": 1892,
      "Ġesi": 1893,
      "ĠÃ": 1894,
      "Co": 1895,
      "Ġ,,": 1896,
      "reo": 1897,
      "vw": 1898,
      "Ġcy": 1899,
      "ata": 1900,
      "ash": 1901,
      "ä¸Ń": 1902,
      "aep": 1903,
      "å®ļ": 1904,
      "Ġeii": 1905,
      "Ġeeu": 1906,
      "aal": 1907,
      "ĠtI": 1908,
      "sss": 1909,
      "Ri": 1910,
      "Ġeec": 1911,
      "xu": 1912,
      "aro": 1913,
      "Ca": 1914,
      "Ġwc": 1915,
      "oem": 1916,
      "Ĭ¸": 1917,
      "thr": 1918,
      "xc": 1919,
      "ies": 1920,
      "edd": 1921,
      "He": 1922,
      "eew": 1923,
      "onr": 1924,
      "ieo": 1925,
      "Ġoeo": 1926,
      "tht": 1927,
      "ä¹": 1928,
      "Ġyc": 1929,
      "oT": 1930,
      "Ġaen": 1931,
      "ort": 1932,
      "ara": 1933,
      "het": 1934,
      "ade": 1935,
      "edl": 1936,
      "Ġeie": 1937,
      "Ġetl": 1938,
      "atc": 1939,
      "oit": 1940,
      "Ġwu": 1941,
      "Ġtta": 1942,
      "osa": 1943,
      "æķ": 1944,
      "Ns": 1945,
      "ë¥¼": 1946,
      "_\"": 1947,
      "nei": 1948,
      "Ps": 1949,
      "Ġcw": 1950,
      "Ġenr": 1951,
      "ner": 1952,
      "vy": 1953,
      "aol": 1954,
      "Ġsea": 1955,
      "ĥ½": 1956,
      "sec": 1957,
      "Ġvs": 1958,
      "oso": 1959,
      "åº": 1960,
      "eey": 1961,
      "Ġuy": 1962,
      "Tf": 1963,
      "è¡Į": 1964,
      "oir": 1965,
      "¦ģ": 1966,
      "onn": 1967,
      "Ø§": 1968,
      "ien": 1969,
      "nst": 1970,
      "esm": 1971,
      "Ġyu": 1972,
      "anh": 1973,
      "ãģĦ": 1974,
      "ona": 1975,
      "ä¸º": 1976,
      "tls": 1977,
      "oii": 1978,
      "Ġesr": 1979,
      "Ġpp": 1980,
      "å¯": 1981,
      "tau": 1982,
      "thn": 1983,
      "ohe": 1984,
      "Rt": 1985,
      "ssr": 1986,
      "Ġuw": 1987,
      "eof": 1988,
      "Ġnea": 1989,
      "sst": 1990,
      "nns": 1991,
      "Ġgm": 1992,
      "tds": 1993,
      "orr": 1994,
      "ttm": 1995,
      "ooh": 1996,
      "eE": 1997,
      "ä¾": 1998,
      "rst": 1999,
      "eim": 2000,
      "Ġite": 2001,
      "nnt": 2002,
      "tha": 2003,
      "\"-": 2004,
      "Ġeri": 2005,
      "éĢ": 2006,
      "enm": 2007,
      "Ġdee": 2008,
      "ist": 2009,
      "Ġnte": 2010,
      "and": 2011,
      "nsi": 2012,
      "Ġrte": 2013,
      "arh": 2014,
      "asd": 2015,
      "tlt": 2016,
      "tho": 2017,
      "Ġiea": 2018,
      "atu": 2019,
      "ece": 2020,
      "Ġaei": 2021,
      "noa": 2022,
      "Ms": 2023,
      "isi": 2024,
      "Ð¼": 2025,
      "gee": 2026,
      "Ġoes": 2027,
      "ãģĮ": 2028,
      "Pt": 2029,
      "oio": 2030,
      "Ġvr": 2031,
      "erm": 2032,
      "ole": 2033,
      "ãģ¨": 2034,
      "Ġhv": 2035,
      "aih": 2036,
      "ìĿĺ": 2037,
      "seu": 2038,
      "Ġseo": 2039,
      "sso": 2040,
      "asl": 2041,
      "ori": 2042,
      "rsi": 2043,
      "½®": 2044,
      "Tm": 2045,
      "nsr": 2046,
      "Ġneo": 2047,
      "Rn": 2048,
      "Ġrea": 2049,
      "Ro": 2050,
      "Ra": 2051,
      "Ġtto": 2052,
      "/.": 2053,
      "tac": 2054,
      "nni": 2055,
      "Ch": 2056,
      "oin": 2057,
      "Pi": 2058,
      "ssi": 2059,
      "Nr": 2060,
      "oI": 2061,
      "ses": 2062,
      "åĻ¨": 2063,
      "æĹ": 2064,
      "Ġerr": 2065,
      "ora": 2066,
      "Cd": 2067,
      "Ġvt": 2068,
      "Ġvi": 2069,
      "Ġoen": 2070,
      "Nt": 2071,
      "Ġetd": 2072,
      "We": 2073,
      "cv": 2074,
      "nsn": 2075,
      "rsr": 2076,
      "ool": 2077,
      "anl": 2078,
      "osh": 2079,
      "isn": 2080,
      "Ġgf": 2081,
      "ssa": 2082,
      "Fe": 2083,
      "isr": 2084,
      "Po": 2085,
      "Rr": 2086,
      "eue": 2087,
      ":.": 2088,
      "Su": 2089,
      "Ġses": 2090,
      "ttf": 2091,
      "Au": 2092,
      "Ġaer": 2093,
      "Ni": 2094,
      "à§į": 2095,
      "oia": 2096,
      "âĢĶ": 2097,
      "aid": 2098,
      "tlr": 2099,
      "hk": 2100,
      "Ġcb": 2101,
      "Ġmg": 2102,
      "./": 2103,
      "Ġoer": 2104,
      "nef": 2105,
      "Ġeah": 2106,
      "Ð´": 2107,
      "rit": 2108,
      "teg": 2109,
      "Ġvo": 2110,
      "rem": 2111,
      "iem": 2112,
      "ief": 2113,
      "Sc": 2114,
      "Ac": 2115,
      "let": 2116,
      "__": 2117,
      "wee": 2118,
      "tln": 2119,
      "Nn": 2120,
      "toc": 2121,
      "nhe": 2122,
      "Ġeir": 2123,
      "orn": 2124,
      "Im": 2125,
      "ssn": 2126,
      "nnr": 2127,
      "ä½ľ": 2128,
      "Pr": 2129,
      "nem": 2130,
      "Pn": 2131,
      "tx": 2132,
      "Ġfg": 2133,
      "rsn": 2134,
      "Na": 2135,
      "sen": 2136,
      "oro": 2137,
      "Ġeno": 2138,
      "oep": 2139,
      "Be": 2140,
      "Pa": 2141,
      "tou": 2142,
      "ood": 2143,
      "fv": 2144,
      "Ġtts": 2145,
      ",=": 2146,
      "ê³": 2147,
      "ehc": 2148,
      "isa": 2149,
      "ãĤĮ": 2150,
      "yee": 2151,
      "Ġeat": 2152,
      "à¦°": 2153,
      "If": 2154,
      "iso": 2155,
      ".:": 2156,
      "æĺ¯": 2157,
      "Ġeoh": 2158,
      "eif": 2159,
      "Ġieo": 2160,
      "kg": 2161,
      "Ġub": 2162,
      "ard": 2163,
      "æľī": 2164,
      "vb": 2165,
      "Ġttn": 2166,
      "Ġnes": 2167,
      "res": 2168,
      "ë¡ľ": 2169,
      "Ġnen": 2170,
      "Ġatt": 2171,
      "onh": 2172,
      "Ġym": 2173,
      "tli": 2174,
      "pv": 2175,
      "nit": 2176,
      "tdi": 2177,
      "tsu": 2178,
      "ail": 2179,
      "oih": 2180,
      "=,": 2181,
      "Ð¿": 2182,
      "Ġeot": 2183,
      "Ġsen": 2184,
      "arl": 2185,
      "ä¼": 2186,
      "rsa": 2187,
      "osl": 2188,
      "Ġoei": 2189,
      "Ġbu": 2190,
      "No": 2191,
      "nrt": 2192,
      "tsc": 2193,
      "nsa": 2194,
      "ond": 2195,
      "nso": 2196,
      "Cl": 2197,
      "rso": 2198,
      "nna": 2199,
      "Ġreo": 2200,
      "à¦¾": 2201,
      "nia": 2202,
      "Ġ,.": 2203,
      "nle": 2204,
      "à§ĩ": 2205,
      "Ġva": 2206,
      "nir": 2207,
      "Ġvn": 2208,
      "ë¦": 2209,
      "Ls": 2210,
      "Mt": 2211,
      "osd": 2212,
      "_-": 2213,
      "tla": 2214,
      ")\"": 2215,
      "thh": 2216,
      "eeb": 2217,
      "rir": 2218,
      "noh": 2219,
      "Ġbc": 2220,
      "ode": 2221,
      "erf": 2222,
      "ãĤ¯": 2223,
      "etg": 2224,
      "Ġwm": 2225,
      "Ġ.,": 2226,
      "esf": 2227,
      "rii": 2228,
      "Mi": 2229,
      "Ġtx": 2230,
      "ref": 2231,
      "Ġeal": 2232,
      "Ġlv": 2233,
      "ota": 2234,
      "-_": 2235,
      "Tp": 2236,
      "(\"": 2237,
      "nii": 2238,
      "tdr": 2239,
      "aeg": 2240,
      "nio": 2241,
      "enf": 2242,
      "tlo": 2243,
      "onl": 2244,
      "Ġ&": 2245,
      "uv": 2246,
      "nno": 2247,
      "ahs": 2248,
      "Ġtaa": 2249,
      "Ġeef": 2250,
      "nin": 2251,
      "Ġteh": 2252,
      "ky": 2253,
      "Ġest": 2254,
      "qs": 2255,
      "tnc": 2256,
      "Mn": 2257,
      "tdt": 2258,
      "ĠaT": 2259,
      "nnn": 2260,
      "je": 2261,
      "Ġmw": 2262,
      "Ġeem": 2263,
      "Ġmy": 2264,
      "Ġdv": 2265,
      "eap": 2266,
      "iei": 2267,
      "Ġott": 2268,
      "ĠĠĠĠĊ": 2269,
      "kw": 2270,
      "ren": 2271,
      "ĠÑ": 2272,
      "Ġfw": 2273,
      "ä¿": 2274,
      "\"(": 2275,
      "tic": 2276,
      "Ġesh": 2277,
      "Ġies": 2278,
      "ê°Ģ": 2279,
      "Ġien": 2280,
      "Ġtao": 2281,
      "ntt": 2282,
      "nrr": 2283,
      "nde": 2284,
      "Ġyf": 2285,
      "aht": 2286,
      "tiu": 2287,
      "Ġfy": 2288,
      "Ġser": 2289,
      "rin": 2290,
      "xm": 2291,
      "ord": 2292,
      "tdn": 2293,
      "Lt": 2294,
      "Ġner": 2295,
      "Ġres": 2296,
      "Rh": 2297,
      "--": 2298,
      "ier": 2299,
      "ĠaI": 2300,
      "Ġgp": 2301,
      "\")": 2302,
      "Mr": 2303,
      "sei": 2304,
      "Ġttr": 2305,
      "Ġsei": 2306,
      "nrn": 2307,
      "Ġpg": 2308,
      "Ġead": 2309,
      "ato": 2310,
      "Ġtel": 2311,
      "Ġnei": 2312,
      "oid": 2313,
      "nol": 2314,
      "ser": 2315,
      "Ġeoa": 2316,
      "íĬ¸": 2317,
      "Ph": 2318,
      "ê²": 2319,
      "ssh": 2320,
      "mv": 2321,
      "tey": 2322,
      "nra": 2323,
      "thd": 2324,
      "orh": 2325,
      "thl": 2326,
      "tnu": 2327,
      "Li": 2328,
      "Ġent": 2329,
      "ahi": 2330,
      "atf": 2331,
      "Ġesl": 2332,
      "Ec": 2333,
      "tA": 2334,
      "Ġhet": 2335,
      "tew": 2336,
      "æŃ": 2337,
      "ria": 2338,
      "nro": 2339,
      "efe": 2340,
      "åĨ": 2341,
      "æĮ": 2342,
      "tdo": 2343,
      "Ġwf": 2344,
      "§Ģ": 2345,
      "otc": 2346,
      "ä»¶": 2347,
      "bee": 2348,
      "tru": 2349,
      "als": 2350,
      "xf": 2351,
      "ä½ł": 2352,
      "lk": 2353,
      "Ġren": 2354,
      "ehu": 2355,
      "qt": 2356,
      "nsh": 2357,
      "ĠeC": 2358,
      "Ġenh": 2359,
      "tlh": 2360,
      "eme": 2361,
      "she": 2362,
      "Eu": 2363,
      "Rl": 2364,
      "Ġtti": 2365,
      "oil": 2366,
      "sem": 2367,
      "Mo": 2368,
      "å¦Ĥ": 2369,
      "tS": 2370,
      "elu": 2371,
      "ahr": 2372,
      "Ġata": 2373,
      "nT": 2374,
      "ĠoI": 2375,
      "atm": 2376,
      "Ġiei": 2377,
      "ish": 2378,
      "å¼": 2379,
      "iep": 2380,
      "Rd": 2381,
      "Ġeol": 2382,
      "eop": 2383,
      "ĠoT": 2384,
      "rio": 2385,
      "Nd": 2386,
      "rei": 2387,
      "esp": 2388,
      "tda": 2389,
      "Os": 2390,
      "rer": 2391,
      "otu": 2392,
      "`,": 2393,
      "aau": 2394,
      "nod": 2395,
      "nta": 2396,
      "Lo": 2397,
      "gv": 2398,
      "nep": 2399,
      "tdh": 2400,
      "Ġesa": 2401,
      "Ġvh": 2402,
      "itt": 2403,
      "nnh": 2404,
      "Ma": 2405,
      "ĴĮ": 2406,
      "Ġeit": 2407,
      "ãģŁ": 2408,
      "rhe": 2409,
      "Ġeih": 2410,
      "rsh": 2411,
      "Ġtae": 2412,
      "rih": 2413,
      "Ip": 2414,
      "Ġert": 2415,
      "sef": 2416,
      "Ġena": 2417,
      "Nh": 2418,
      "Ġstt": 2419,
      "isd": 2420,
      "ntc": 2421,
      "äºİ": 2422,
      "Ľ´": 2423,
      "rsd": 2424,
      "Ġks": 2425,
      "ï¼Ī": 2426,
      "Ġrer": 2427,
      "aac": 2428,
      "elc": 2429,
      "Ot": 2430,
      "ety": 2431,
      "Ġhk": 2432,
      "ï¼ī": 2433,
      ",`": 2434,
      "etw": 2435,
      "trc": 2436,
      "rrt": 2437,
      "La": 2438,
      "ssd": 2439,
      "Ġesd": 2440,
      ".=": 2441,
      "isl": 2442,
      "sit": 2443,
      "aho": 2444,
      "orl": 2445,
      "tam": 2446,
      "Ġvd": 2447,
      "ahn": 2448,
      "ile": 2449,
      "ssl": 2450,
      "Ġeso": 2451,
      "Ġesn": 2452,
      "Oi": 2453,
      "çī": 2454,
      "aou": 2455,
      "aey": 2456,
      "Lr": 2457,
      "nih": 2458,
      "Ġrei": 2459,
      "Ġvl": 2460,
      "rrr": 2461,
      "å¿": 2462,
      "edc": 2463,
      "srt": 2464,
      "ats": 2465,
      "oeg": 2466,
      "rep": 2467,
      "rro": 2468,
      "Ds": 2469,
      "_(": 2470,
      "Ġeod": 2471,
      "æĢ": 2472,
      "ĠtA": 2473,
      "ntu": 2474,
      "nsd": 2475,
      "Pd": 2476,
      "Ġier": 2477,
      "ttp": 2478,
      "Ġeia": 2479,
      "Ġato": 2480,
      "Ġbf": 2481,
      "iit": 2482,
      "rrn": 2483,
      "Hs": 2484,
      "Ġtse": 2485,
      "oto": 2486,
      "taf": 2487,
      "Mh": 2488,
      "qi": 2489,
      "nrh": 2490,
      "Ġmb": 2491,
      "edu": 2492,
      "ĠeR": 2493,
      "Ġerh": 2494,
      "alt": 2495,
      "Ġeio": 2496,
      "nI": 2497,
      "ĠtS": 2498,
      "nnd": 2499,
      "nsl": 2500,
      "Ġtas": 2501,
      "ÛĮ": 2502,
      "Ġwp": 2503,
      "aha": 2504,
      ",>": 2505,
      "Ġfb": 2506,
      "Ln": 2507,
      "è¦ģ": 2508,
      "tld": 2509,
      "qr": 2510,
      "rra": 2511,
      "-(": 2512,
      "Ġats": 2513,
      "irt": 2514,
      "enp": 2515,
      "erp": 2516,
      "Ġbm": 2517,
      "qo": 2518,
      "iir": 2519,
      "Dt": 2520,
      "nnl": 2521,
      "ãģª": 2522,
      "Ġntt": 2523,
      "Hi": 2524,
      "æİ": 2525,
      "sin": 2526,
      "ç½®": 2527,
      "Ġtoe": 2528,
      "rle": 2529,
      "Pl": 2530,
      "iin": 2531,
      "Ġtoo": 2532,
      "ĠsI": 2533,
      "rsl": 2534,
      "atn": 2535,
      "aoc": 2536,
      "aeh": 2537,
      "Ġtan": 2538,
      "_)": 2539,
      "yv": 2540,
      "Ġ..": 2541,
      "nil": 2542,
      "æķ°": 2543,
      "ãģķ": 2544,
      "sT": 2545,
      "ihe": 2546,
      "=.": 2547,
      "Ht": 2548,
      "ĠsT": 2549,
      "iii": 2550,
      "sle": 2551,
      "Ġero": 2552,
      "sro": 2553,
      "wv": 2554,
      "Oo": 2555,
      "tll": 2556,
      "Ġkt": 2557,
      "-)": 2558,
      "ħį": 2559,
      "qa": 2560,
      "teb": 2561,
      "iia": 2562,
      "Or": 2563,
      "Sf": 2564,
      "sir": 2565,
      "Sm": 2566,
      "tdd": 2567,
      "Ġpw": 2568,
      "Ġaeh": 2569,
      "aew": 2570,
      "ãĥª": 2571,
      ")_": 2572,
      "cet": 2573,
      "qn": 2574,
      "otm": 2575,
      "Ġåı": 2576,
      "ax": 2577,
      "tsm": 2578,
      "tom": 2579,
      "Af": 2580,
      "iT": 2581,
      "Ġlet": 2582,
      "Ġyp": 2583,
      "(-": 2584,
      "Ġeil": 2585,
      "Ġenl": 2586,
      "ĠnT": 2587,
      "tof": 2588,
      "ads": 2589,
      "Ġeep": 2590,
      "On": 2591,
      "Nl": 2592,
      "Ġitt": 2593,
      "atp": 2594,
      "iio": 2595,
      "ael": 2596,
      "Ġpy": 2597,
      "Ġend": 2598,
      "ĠÐ¾": 2599,
      "det": 2600,
      "Am": 2601,
      "Ġï¼Į": 2602,
      "Ġein": 2603,
      "sio": 2604,
      "rT": 2605,
      ">,": 2606,
      "Ġota": 2607,
      "ĠnI": 2608,
      "Oa": 2609,
      "nid": 2610,
      "Ġtos": 2611,
      "alo": 2612,
      "Ġatn": 2613,
      "Ef": 2614,
      "ohs": 2615,
      "Ġteu": 2616,
      "tsf": 2617,
      "eag": 2618,
      "Hr": 2619,
      "Ġetc": 2620,
      "Ġted": 2621,
      "dk": 2622,
      "ril": 2623,
      "eog": 2624,
      "ali": 2625,
      "xp": 2626,
      "Ġrtt": 2627,
      "Ġtie": 2628,
      "sde": 2629,
      "ĮĮ": 2630,
      "Ġetu": 2631,
      "Ġki": 2632,
      "Lh": 2633,
      "adi": 2634,
      "stt": 2635,
      "Di": 2636,
      "srn": 2637,
      ")-": 2638,
      "Ġton": 2639,
      "rtt": 2640,
      "ahh": 2641,
      "Ĥ¬": 2642,
      "Ġerl": 2643,
      "Ġerd": 2644,
      "aln": 2645,
      "sI": 2646,
      "tnm": 2647,
      "Ġtne": 2648,
      "alr": 2649,
      "ãĤ¤": 2650,
      "(_": 2651,
      "Hn": 2652,
      "ìĦľ": 2653,
      "ĠeP": 2654,
      "oht": 2655,
      "uet": 2656,
      "ĠZ": 2657,
      "Ġsta": 2658,
      "tim": 2659,
      "Em": 2660,
      "Ġeid": 2661,
      "Ġern": 2662,
      "hte": 2663,
      "rid": 2664,
      "Md": 2665,
      "kb": 2666,
      "asc": 2667,
      "ehf": 2668,
      "sia": 2669,
      "adt": 2670,
      "iro": 2671,
      "ĠrI": 2672,
      "Ġkn": 2673,
      "otf": 2674,
      "Ge": 2675,
      "Do": 2676,
      "Ġtai": 2677,
      "Ġoto": 2678,
      "epe": 2679,
      "nrd": 2680,
      "ecs": 2681,
      "Ġlk": 2682,
      "ĠiT": 2683,
      "nrl": 2684,
      "Da": 2685,
      "eip": 2686,
      "Ġaaa": 2687,
      "Fs": 2688,
      "ehm": 2689,
      "eC": 2690,
      "Ġtss": 2691,
      "ĠeN": 2692,
      "rI": 2693,
      "asu": 2694,
      "æĿ": 2695,
      "Ġgg": 2696,
      "trm": 2697,
      "Ġka": 2698,
      "Īĺ": 2699,
      "hea": 2700,
      "sep": 2701,
      "Ġax": 2702,
      "stu": 2703,
      "ect": 2704,
      "Bs": 2705,
      "Ml": 2706,
      "`.": 2707,
      "aeb": 2708,
      "tnf": 2709,
      "tif": 2710,
      "tce": 2711,
      "Dn": 2712,
      "anc": 2713,
      "Ġko": 2714,
      "Ġera": 2715,
      "ala": 2716,
      "nhs": 2717,
      "Ġcee": 2718,
      "Ġnta": 2719,
      "Ġtar": 2720,
      "eci": 2721,
      "tdl": 2722,
      "Dr": 2723,
      "Ws": 2724,
      "Ho": 2725,
      "tE": 2726,
      "á»": 2727,
      "Ġots": 2728,
      "oau": 2729,
      "ĠiI": 2730,
      "rrl": 2731,
      "Ġkr": 2732,
      "\"'": 2733,
      "ãĥ«": 2734,
      "åĲį": 2735,
      "ĠtE": 2736,
      "Ġtor": 2737,
      "ĠrT": 2738,
      "rrd": 2739,
      "eus": 2740,
      "trf": 2741,
      "èĥ½": 2742,
      "sra": 2743,
      "rta": 2744,
      "ots": 2745,
      "oac": 2746,
      "adn": 2747,
      "lte": 2748,
      "æł": 2749,
      "Ġãĥ¼": 2750,
      "Fi": 2751,
      "Sp": 2752,
      "Bt": 2753,
      "ãĥī": 2754,
      "Ġdet": 2755,
      "ols": 2756,
      "ä¸į": 2757,
      "Ġtoi": 2758,
      "ieg": 2759,
      "Oh": 2760,
      "Ll": 2761,
      "ide": 2762,
      "sih": 2763,
      "qh": 2764,
      ".`": 2765,
      "Ġbp": 2766,
      "oew": 2767,
      "ohi": 2768,
      "bv": 2769,
      "neg": 2770,
      "tue": 2771,
      "Ġtre": 2772,
      "irn": 2773,
      "ìķ": 2774,
      "Ġrta": 2775,
      "Ġotn": 2776,
      "Ĥ¹": 2777,
      "eut": 2778,
      "Ġati": 2779,
      "Ġehe": 2780,
      "Ģ¼": 2781,
      "rrh": 2782,
      "oey": 2783,
      "ëĲ": 2784,
      "ì§Ģ": 2785,
      "elf": 2786,
      "ooc": 2787,
      "Ft": 2788,
      "ĠeM": 2789,
      "Ġhea": 2790,
      "ira": 2791,
      "ohr": 2792,
      "Ġuee": 2793,
      "ìľ": 2794,
      "arc": 2795,
      "nto": 2796,
      "Ġoeh": 2797,
      "Ld": 2798,
      "Ġhte": 2799,
      "ĠTe": 2800,
      "Ġtnn": 2801,
      "Ġsto": 2802,
      "Ġdk": 2803,
      "'\"": 2804,
      "æŀ": 2805,
      "aaf": 2806,
      "oou": 2807,
      "ãĥ©": 2808,
      "Cc": 2809,
      "iI": 2810,
      "qd": 2811,
      "aru": 2812,
      "Ġheo": 2813,
      "Br": 2814,
      "anu": 2815,
      "Ġita": 2816,
      "ecn": 2817,
      "ãģĵ": 2818,
      "à¦¨": 2819,
      "aom": 2820,
      "nht": 2821,
      "ado": 2822,
      "ati": 2823,
      "Ġnto": 2824,
      "Ġpb": 2825,
      "ĠQ": 2826,
      "srh": 2827,
      "rtc": 2828,
      "ahd": 2829,
      "alh": 2830,
      "pet": 2831,
      "rde": 2832,
      "aam": 2833,
      "ĠIe": 2834,
      "Ġito": 2835,
      "aic": 2836,
      "ox": 2837,
      "eay": 2838,
      "aiu": 2839,
      "iih": 2840,
      "ntm": 2841,
      "Ha": 2842,
      "ada": 2843,
      "stc": 2844,
      "elm": 2845,
      "ohn": 2846,
      "eui": 2847,
      ".>": 2848,
      "edm": 2849,
      "Fr": 2850,
      "ĠaA": 2851,
      "ecr": 2852,
      "ql": 2853,
      "sid": 2854,
      "åĩ": 2855,
      "ë¦¬": 2856,
      "Ġà¤": 2857,
      "oeh": 2858,
      "sta": 2859,
      "Ġwg": 2860,
      ")(": 2861,
      "Ġæľ": 2862,
      "osc": 2863,
      "ahl": 2864,
      "éĹ": 2865,
      "esg": 2866,
      "eca": 2867,
      "Ġox": 2868,
      "adr": 2869,
      "åĴĮ": 2870,
      "oha": 2871,
      "Bi": 2872,
      "edf": 2873,
      "ntf": 2874,
      "Ġsts": 2875,
      "Ġãģ®": 2876,
      "Ġatr": 2877,
      "eaw": 2878,
      "âĢĵ": 2879,
      "js": 2880,
      "Wt": 2881,
      "reg": 2882,
      "Ġseh": 2883,
      "onc": 2884,
      "heo": 2885,
      "Ġtns": 2886,
      "oho": 2887,
      "ê¸": 2888,
      "rtu": 2889,
      "Ġsx": 2890,
      "ney": 2891,
      "nhi": 2892,
      "olt": 2893,
      ">.": 2894,
      "srl": 2895,
      "Ġkh": 2896,
      "Ġael": 2897,
      "etb": 2898,
      "eco": 2899,
      "åĮ": 2900,
      "ĠÐµ": 2901,
      "å°Ĩ": 2902,
      "Ġå®": 2903,
      "Ġoae": 2904,
      "<,": 2905,
      "Dh": 2906,
      "itc": 2907,
      "Od": 2908,
      "Ġele": 2909,
      "ze": 2910,
      "sto": 2911,
      "irh": 2912,
      "Ġoel": 2913,
      "eng": 2914,
      "Ġtrs": 2915,
      "Ġnts": 2916,
      "Fo": 2917,
      "ìĿ¸": 2918,
      "Tg": 2919,
      "ita": 2920,
      "ìĭ": 2921,
      "Ġaao": 2922,
      "å¯¹": 2923,
      "Cu": 2924,
      "jt": 2925,
      "Ġntn": 2926,
      "Ġneh": 2927,
      "Ġlea": 2928,
      "nau": 2929,
      "adh": 2930,
      "itu": 2931,
      "Ap": 2932,
      "Bn": 2933,
      "nhr": 2934,
      "otr": 2935,
      "Ġrto": 2936,
      "atr": 2937,
      "Ð·": 2938,
      "Ġstn": 2939,
      "Ġtis": 2940,
      "Ġnx": 2941,
      "Ol": 2942,
      "Ġgw": 2943,
      "otn": 2944,
      "eeee": 2945,
      "Ġkl": 2946,
      "ttg": 2947,
      ",<": 2948,
      "éĻ": 2949,
      "nts": 2950,
      "osu": 2951,
      "oli": 2952,
      "nac": 2953,
      "Bo": 2954,
      "ĠaS": 2955,
      "Ġtni": 2956,
      "Ġoti": 2957,
      "les": 2958,
      "iey": 2959,
      "ĠeL": 2960,
      "new": 2961,
      "oam": 2962,
      "Ġase": 2963,
      "))": 2964,
      "Ġaed": 2965,
      "Ġaae": 2966,
      "iid": 2967,
      "Ġtth": 2968,
      "Ġeau": 2969,
      "aed": 2970,
      "Wr": 2971,
      "Ig": 2972,
      "ods": 2973,
      "ald": 2974,
      "rew": 2975,
      "äºĨ": 2976,
      "()": 2977,
      "uk": 2978,
      "Ġetf": 2979,
      "lea": 2980,
      "vee": 2981,
      "ji": 2982,
      "eoy": 2983,
      "Ġoao": 2984,
      "met": 2985,
      "Ġaoe": 2986,
      "Ġyg": 2987,
      "eur": 2988,
      "ck": 2989,
      "Wn": 2990,
      "oaa": 2991,
      "Ġaan": 2992,
      "Ġoaa": 2993,
      "iew": 2994,
      "Fn": 2995,
      "Ġotr": 2996,
      "sts": 2997,
      "Ġkd": 2998,
      "æĹ¶": 2999,
      "otp": 3000,
      "((": 3001,
      "aA": 3002,
      "iil": 3003,
      "nlt": 3004,
      "fet": 3005,
      "onu": 3006,
      "aS": 3007,
      "ito": 3008,
      "erg": 3009,
      "yet": 3010,
      "Ġits": 3011,
      "Ġhes": 3012,
      "nho": 3013,
      "eig": 3014,
      "orc": 3015,
      "Ñı": 3016,
      "jr": 3017,
      "oti": 3018,
      "Ġaas": 3019,
      "Ġaoo": 3020,
      "ntn": 3021,
      "ace": 3022,
      "ĠåĪ": 3023,
      "Wi": 3024,
      "sil": 3025,
      "Ã³": 3026,
      "Ġlte": 3027,
      "nls": 3028,
      "olr": 3029,
      "hen": 3030,
      "Ġttl": 3031,
      "oae": 3032,
      "ìļ©": 3033,
      "Ġeq": 3034,
      "Ġgy": 3035,
      "Ue": 3036,
      "è¿Ļ": 3037,
      "Ġsao": 3038,
      "esw": 3039,
      "oic": 3040,
      "srd": 3041,
      "_'": 3042,
      "ìĿĢ": 3043,
      "Ep": 3044,
      "Dd": 3045,
      "Ġtno": 3046,
      "rto": 3047,
      "Ġoas": 3048,
      "tap": 3049,
      "olo": 3050,
      "Ã¡": 3051,
      "Ġsaa": 3052,
      "Ġrts": 3053,
      "Ġtat": 3054,
      "eun": 3055,
      "Fa": 3056,
      "Ġtec": 3057,
      "odt": 3058,
      "ola": 3059,
      "Ġcv": 3060,
      "Hh": 3061,
      "oln": 3062,
      "ems": 3063,
      "Rc": 3064,
      "Ġstr": 3065,
      "Ġnaa": 3066,
      "Ġieh": 3067,
      "get": 3068,
      "Ġitn": 3069,
      "Ġetm": 3070,
      "Ba": 3071,
      "Ġtsh": 3072,
      "mk": 3073,
      "Ġede": 3074,
      "Hd": 3075,
      "Ġehh": 3076,
      "Wo": 3077,
      "aof": 3078,
      "Ġass": 3079,
      "all": 3080,
      "Ġose": 3081,
      "Ġaos": 3082,
      "Ġdte": 3083,
      "nhn": 3084,
      "Ġtef": 3085,
      "Ġhei": 3086,
      "Ġdea": 3087,
      "rts": 3088,
      "Ru": 3089,
      "ĠoS": 3090,
      "nds": 3091,
      "hes": 3092,
      "oA": 3093,
      "Ġeac": 3094,
      "'_": 3095,
      "wet": 3096,
      "fk": 3097,
      "Ġtsi": 3098,
      "Ġreh": 3099,
      "ĠaE": 3100,
      "ntp": 3101,
      "Ġleo": 3102,
      "Ġgb": 3103,
      "thc": 3104,
      "leo": 3105,
      "noc": 3106,
      "ê¸°": 3107,
      "pk": 3108,
      "Ġtsa": 3109,
      "eua": 3110,
      "Ġoed": 3111,
      "åĪ¶": 3112,
      "å¹": 3113,
      "ä¼ļ": 3114,
      "à¦¿": 3115,
      "éħį": 3116,
      "ohh": 3117,
      "Ġtii": 3118,
      "Ġhen": 3119,
      "bet": 3120,
      "eN": 3121,
      "elp": 3122,
      "ird": 3123,
      "íĮĮ": 3124,
      "Ġfee": 3125,
      "adl": 3126,
      "odr": 3127,
      "rhs": 3128,
      "Ġles": 3129,
      "ç§": 3130,
      "Ġeoc": 3131,
      "Ġsti": 3132,
      "ĠeD": 3133,
      "Wa": 3134,
      "its": 3135,
      "Ġtem": 3136,
      "Ġtst": 3137,
      "Ġuv": 3138,
      "top": 3139,
      "<.": 3140,
      "Ġtnr": 3141,
      "thu": 3142,
      "nlo": 3143,
      "oru": 3144,
      "Ġtri": 3145,
      "Ġntr": 3146,
      "euo": 3147,
      "neh": 3148,
      "Ġnti": 3149,
      "tme": 3150,
      "Tw": 3151,
      "Ġooo": 3152,
      "Ġvu": 3153,
      "atg": 3154,
      "nou": 3155,
      "odi": 3156,
      "-'": 3157,
      "oiu": 3158,
      "à¦ķ": 3159,
      "Ġsoe": 3160,
      "Fh": 3161,
      "Hl": 3162,
      "Ġane": 3163,
      "eny": 3164,
      "Ġxe": 3165,
      "tty": 3166,
      "nha": 3167,
      "irl": 3168,
      "ĠoA": 3169,
      "Ġmee": 3170,
      "Ġoan": 3171,
      "asm": 3172,
      "iaa": 3173,
      "Ġtih": 3174,
      "Ġaon": 3175,
      "aue": 3176,
      "ohd": 3177,
      "rey": 3178,
      "ìĤ¬": 3179,
      "ãĤ³": 3180,
      "Ġaar": 3181,
      "rsu": 3182,
      "eow": 3183,
      "Ġsse": 3184,
      "enw": 3185,
      "ix": 3186,
      "nx": 3187,
      "ĠsA": 3188,
      "Ġsae": 3189,
      "shs": 3190,
      "'-": 3191,
      "nhh": 3192,
      "ãĥĹ": 3193,
      "odo": 3194,
      "åį": 3195,
      "nsc": 3196,
      "Dl": 3197,
      "Ty": 3198,
      "Ġix": 3199,
      "oda": 3200,
      "oaf": 3201,
      "Ġiti": 3202,
      "naa": 3203,
      "asf": 3204,
      "Ġww": 3205,
      "ĲĨ": 3206,
      "Ġeou": 3207,
      "nlr": 3208,
      "jo": 3209,
      "Ġyw": 3210,
      "oom": 3211,
      "sht": 3212,
      "ndt": 3213,
      "Ġaai": 3214,
      "ech": 3215,
      "seh": 3216,
      "Ł¥": 3217,
      "Ġnae": 3218,
      "Ġtot": 3219,
      "Ġrtr": 3220,
      "Pc": 3221,
      "ìĪĺ": 3222,
      "åĳ": 3223,
      "Ġher": 3224,
      "eiw": 3225,
      "/\"": 3226,
      "tfe": 3227,
      "nti": 3228,
      "oS": 3229,
      "ĠçĶ¨": 3230,
      "arm": 3231,
      "Ġwy": 3232,
      "ssc": 3233,
      "eab": 3234,
      "Ġyy": 3235,
      "add": 3236,
      "Ġtsr": 3237,
      "ĠnS": 3238,
      "ãĥĨ": 3239,
      "Ġoai": 3240,
      "Ġsel": 3241,
      "Ġrx": 3242,
      "tnp": 3243,
      "Iy": 3244,
      "ĠsS": 3245,
      ".<": 3246,
      "ntr": 3247,
      "Ġttd": 3248,
      "ĠeO": 3249,
      "Nu": 3250,
      "Wh": 3251,
      "nli": 3252,
      "Ġnse": 3253,
      "reh": 3254,
      "osm": 3255,
      "tlc": 3256,
      "dte": 3257,
      "jn": 3258,
      "ttw": 3259,
      "Ġiaa": 3260,
      "nnc": 3261,
      "Ġooe": 3262,
      "Ġned": 3263,
      "Ġtso": 3264,
      "Ġare": 3265,
      "Ġitr": 3266,
      "eiy": 3267,
      "ohl": 3268,
      "stf": 3269,
      "ihs": 3270,
      "isc": 3271,
      "ĠÐ°": 3272,
      "Pu": 3273,
      "eR": 3274,
      "tsp": 3275,
      "rsc": 3276,
      "gk": 3277,
      "å®¹": 3278,
      "ëĦ": 3279,
      "ĠãģĻ": 3280,
      "\"/": 3281,
      "ĠtC": 3282,
      "Ġnel": 3283,
      "stm": 3284,
      "Ġsed": 3285,
      "arf": 3286,
      "rac": 3287,
      "Ġrti": 3288,
      "Ġdeo": 3289,
      "oed": 3290,
      "Ġsan": 3291,
      "Bd": 3292,
      "euh": 3293,
      "Ġnao": 3294,
      "Ġnan": 3295,
      "ndi": 3296,
      "eft": 3297,
      "ĠåĲ": 3298,
      ":\"": 3299,
      "oel": 3300,
      "yk": 3301,
      "Ġiel": 3302,
      "olh": 3303,
      "shi": 3304,
      "Ġbg": 3305,
      "Ġler": 3306,
      "tlu": 3307,
      "nsu": 3308,
      "wk": 3309,
      "Ġoos": 3310,
      "ehp": 3311,
      "efs": 3312,
      "len": 3313,
      "åĢ¼": 3314,
      "ssu": 3315,
      "aE": 3316,
      "ieb": 3317,
      "ecd": 3318,
      "emt": 3319,
      "nae": 3320,
      "oao": 3321,
      "ë³": 3322,
      "nnu": 3323,
      "Ġnas": 3324,
      "Ġraa": 3325,
      "Ġrae": 3326,
      "rtn": 3327,
      "æĢ§": 3328,
      "dea": 3329,
      "rx": 3330,
      "Ġetp": 3331,
      "ĠnA": 3332,
      "ĠÐ¸": 3333,
      "isu": 3334,
      "ĠeH": 3335,
      "ĠoE": 3336,
      "oeb": 3337,
      "Ġsas": 3338,
      "aif": 3339,
      "Ġvc": 3340,
      "Ġiao": 3341,
      "Ġrtn": 3342,
      "esy": 3343,
      "odn": 3344,
      "\":": 3345,
      "±Ĥ": 3346,
      "Mc": 3347,
      "ja": 3348,
      "Ġaoi": 3349,
      "oan": 3350,
      "iti": 3351,
      "Ġtsn": 3352,
      "erw": 3353,
      "sls": 3354,
      "Ġtna": 3355,
      "aim": 3356,
      "eP": 3357,
      "æı": 3358,
      "ĠØ": 3359,
      "Ġone": 3360,
      "stn": 3361,
      "nA": 3362,
      "æĸĩ": 3363,
      "ieh": 3364,
      "sae": 3365,
      "Ġtrr": 3366,
      "Ġtio": 3367,
      "Ñĭ": 3368,
      "Ġtir": 3369,
      "oof": 3370,
      "Ġoon": 3371,
      "ecl": 3372,
      "Bl": 3373,
      "Ġtoa": 3374,
      "ĠiA": 3375,
      "Fd": 3376,
      "Ġoar": 3377,
      "Bh": 3378,
      "Ġans": 3379,
      "seg": 3380,
      "Nc": 3381,
      "eud": 3382,
      "efi": 3383,
      "Ġenu": 3384,
      "Ġtah": 3385,
      "nao": 3386,
      "Ġenc": 3387,
      "Ġ,\"": 3388,
      "ÑĮ": 3389,
      "ĠãĢģ": 3390,
      "Ġtrt": 3391,
      "Ġrel": 3392,
      "sau": 3393,
      "iac": 3394,
      "Ġaie": 3395,
      "Ġnoe": 3396,
      "nru": 3397,
      "Ġaor": 3398,
      "nhd": 3399,
      "èĢ": 3400,
      "ãĤĬ": 3401,
      "Ġoss": 3402,
      "Ġtrh": 3403,
      "ĠiS": 3404,
      "odh": 3405,
      "iht": 3406,
      "xg": 3407,
      "eev": 3408,
      "oue": 3409,
      "str": 3410,
      "ege": 3411,
      "rti": 3412,
      "Ġtsl": 3413,
      "Ġiae": 3414,
      "reb": 3415,
      "Ġels": 3416,
      "nel": 3417,
      "ĠeW": 3418,
      "oce": 3419,
      "iau": 3420,
      "Ġnoo": 3421,
      "íķ´": 3422,
      "çĤ¹": 3423,
      "nic": 3424,
      "sac": 3425,
      "Iw": 3426,
      "Ġtit": 3427,
      "itr": 3428,
      "emr": 3429,
      "Ġehs": 3430,
      "ĠsE": 3431,
      "hei": 3432,
      "åıĤ": 3433,
      "Ġoie": 3434,
      "Ġ\",": 3435,
      "aty": 3436,
      "atw": 3437,
      "itn": 3438,
      "mte": 3439,
      "nla": 3440,
      "Ġlen": 3441,
      "Ġasi": 3442,
      "ä¾ĭ": 3443,
      "her": 3444,
      "saa": 3445,
      "ĠrA": 3446,
      "Fl": 3447,
      "eob": 3448,
      "asp": 3449,
      "ĽĨ": 3450,
      "Ġtil": 3451,
      "Ġwb": 3452,
      "edp": 3453,
      "eM": 3454,
      "Ġden": 3455,
      "Ġnos": 3456,
      "éĩ": 3457,
      "ðŁ": 3458,
      "anf": 3459,
      "ĬĤ": 3460,
      "old": 3461,
      "Ġerc": 3462,
      "ric": 3463,
      "Ġdes": 3464,
      "neb": 3465,
      "nln": 3466,
      "nam": 3467,
      "Ġtnt": 3468,
      "Ġson": 3469,
      "ĠrS": 3470,
      "nom": 3471,
      "naf": 3472,
      "shr": 3473,
      "tdc": 3474,
      "rtm": 3475,
      "slt": 3476,
      "Ġtep": 3477,
      "anm": 3478,
      "Ġeic": 3479,
      "Ġsai": 3480,
      "ĠAe": 3481,
      "Ġsar": 3482,
      "emi": 3483,
      "pea": 3484,
      "emo": 3485,
      "rau": 3486,
      "Ġeam": 3487,
      "Ġeiu": 3488,
      "Ġann": 3489,
      "ĠTs": 3490,
      "jh": 3491,
      "oll": 3492,
      "nlh": 3493,
      "Ġrse": 3494,
      "Ġath": 3495,
      "rhr": 3496,
      "rlt": 3497,
      "nS": 3498,
      "Ð±": 3499,
      "Ġfv": 3500,
      "æīĢ": 3501,
      "Ġtsd": 3502,
      "rht": 3503,
      "ĠTt": 3504,
      "itm": 3505,
      "ĠSe": 3506,
      "å¾": 3507,
      "sou": 3508,
      "ĠÑĤ": 3509,
      "Ġsss": 3510,
      "ery": 3511,
      "Tb": 3512,
      "Ġbw": 3513,
      "Cm": 3514,
      "pte": 3515,
      "rls": 3516,
      "ĠIt": 3517,
      "efr": 3518,
      "noe": 3519,
      "tdu": 3520,
      "åĬ¡": 3521,
      "èµ": 3522,
      "nrc": 3523,
      "oai": 3524,
      "Ġlei": 3525,
      "Ġnne": 3526,
      "sx": 3527,
      "iae": 3528,
      "noo": 3529,
      "tag": 3530,
      "eul": 3531,
      "Ġeru": 3532,
      "ĠtR": 3533,
      "Ġasr": 3534,
      "Ġioo": 3535,
      "sao": 3536,
      "Ġars": 3537,
      "Ġied": 3538,
      "Ġroe": 3539,
      "Ġani": 3540,
      "Ib": 3541,
      "esb": 3542,
      "rtr": 3543,
      "Ġise": 3544,
      "çĽ": 3545,
      "Ġnon": 3546,
      "nhl": 3547,
      "Ġnie": 3548,
      "Cf": 3549,
      "Ġred": 3550,
      "riu": 3551,
      "efo": 3552,
      "Mu": 3553,
      "Ġian": 3554,
      "rtf": 3555,
      "»ĺ": 3556,
      "Ġioe": 3557,
      "ndr": 3558,
      "vv": 3559,
      "Ġtal": 3560,
      "Ġooi": 3561,
      "tip": 3562,
      "ema": 3563,
      "roc": 3564,
      ",#": 3565,
      "Ġrao": 3566,
      "Ġhtt": 3567,
      "Ag": 3568,
      "aap": 3569,
      "ìŀĪ": 3570,
      "Ġsos": 3571,
      "thf": 3572,
      "Ġtia": 3573,
      "sel": 3574,
      "nce": 3575,
      "Ġonn": 3576,
      "tpe": 3577,
      "ned": 3578,
      "ĠeF": 3579,
      "nld": 3580,
      "oas": 3581,
      "Ġsoo": 3582,
      "Ġsne": 3583,
      "Sg": 3584,
      "è§": 3585,
      "Ġltt": 3586,
      "Ġore": 3587,
      "Wl": 3588,
      "Ġnar": 3589,
      "ĠrE": 3590,
      "ëł": 3591,
      "Ġelh": 3592,
      "nue": 3593,
      "ĠnE": 3594,
      "efa": 3595,
      "ice": 3596,
      "sA": 3597,
      "ĠhT": 3598,
      "ndo": 3599,
      "Ġran": 3600,
      "Lc": 3601,
      "Ġtoh": 3602,
      "des": 3603,
      "#,": 3604,
      "nas": 3605,
      "ëŁ": 3606,
      "æŀľ": 3607,
      ")'": 3608,
      "fte": 3609,
      "iel": 3610,
      "Ġttu": 3611,
      "iao": 3612,
      "rae": 3613,
      "trp": 3614,
      "onm": 3615,
      "bk": 3616,
      "Ġroo": 3617,
      "('": 3618,
      "deo": 3619,
      "oE": 3620,
      "Ã£": 3621,
      "ils": 3622,
      "sdt": 3623,
      "ĠeB": 3624,
      "ĠtP": 3625,
      "Ġcet": 3626,
      "Ġtrn": 3627,
      "ihn": 3628,
      "íģ": 3629,
      "Ġtrd": 3630,
      "Ġais": 3631,
      "Ġosi": 3632,
      "stp": 3633,
      "idt": 3634,
      "soc": 3635,
      "snc": 3636,
      "Ġnss": 3637,
      "Ġiai": 3638,
      "iou": 3639,
      "Ġeaf": 3640,
      "sti": 3641,
      "ÙĨ": 3642,
      "ewe": 3643,
      "Gt": 3644,
      "odd": 3645,
      "osf": 3646,
      "nll": 3647,
      "iha": 3648,
      "htt": 3649,
      "Ġtin": 3650,
      "emn": 3651,
      "rou": 3652,
      "rao": 3653,
      "Ġttc": 3654,
      "Ġnoi": 3655,
      "iA": 3656,
      "Ġias": 3657,
      "íķł": 3658,
      "å½": 3659,
      "Ġtra": 3660,
      "Ġoor": 3661,
      "Ġsnn": 3662,
      "Ġsie": 3663,
      "Ġder": 3664,
      "ame": 3665,
      "Ġej": 3666,
      "Ġtad": 3667,
      "thm": 3668,
      "lei": 3669,
      "nof": 3670,
      "rS": 3671,
      "Ġeom": 3672,
      "Ġpee": 3673,
      "enb": 3674,
      "ĠiE": 3675,
      "kee": 3676,
      "Ġtrl": 3677,
      "niu": 3678,
      "oar": 3679,
      "Ġaot": 3680,
      "sha": 3681,
      "Wd": 3682,
      "Ġyb": 3683,
      "rru": 3684,
      ":_": 3685,
      "ĠhI": 3686,
      "ĠÐ½": 3687,
      "slr": 3688,
      "Ġè¿": 3689,
      "Ġnre": 3690,
      "ias": 3691,
      "Ġsoi": 3692,
      "Ġras": 3693,
      "nda": 3694,
      "nan": 3695,
      "Ġnai": 3696,
      "Ġvm": 3697,
      "shh": 3698,
      "eps": 3699,
      "tC": 3700,
      "Ġ.\"": 3701,
      "Ġuet": 3702,
      "ler": 3703,
      "Ġnor": 3704,
      "rel": 3705,
      "Ġsns": 3706,
      "sew": 3707,
      "æĽ´": 3708,
      "onf": 3709,
      "raa": 3710,
      "Ġons": 3711,
      "Ġvf": 3712,
      "'(": 3713,
      "Ġine": 3714,
      "Ġsor": 3715,
      "sey": 3716,
      "emh": 3717,
      "Gi": 3718,
      "íĶ": 3719,
      "Ġaat": 3720,
      "Ġeof": 3721,
      "ilt": 3722,
      "itp": 3723,
      "tog": 3724,
      "oap": 3725,
      "jd": 3726,
      "áº": 3727,
      "ndh": 3728,
      "ttb": 3729,
      "xw": 3730,
      "rha": 3731,
      "itf": 3732,
      "ept": 3733,
      "tlm": 3734,
      "ahu": 3735,
      "ihi": 3736,
      "_/": 3737,
      "eib": 3738,
      "Ġby": 3739,
      "')": 3740,
      "åī": 3741,
      "Ġtnh": 3742,
      "Ġios": 3743,
      "rce": 3744,
      "gte": 3745,
      "Ġnns": 3746,
      "-/": 3747,
      "Ġ,_": 3748,
      "Gs": 3749,
      "Ġrne": 3750,
      "ãĤ¸": 3751,
      "eye": 3752,
      "Ġhta": 3753,
      "ihr": 3754,
      "æĪĸ": 3755,
      "è¨": 3756,
      "sds": 3757,
      "rhn": 3758,
      "ioc": 3759,
      "è®¤": 3760,
      "Rm": 3761,
      "xy": 3762,
      "Ġtol": 3763,
      "sli": 3764,
      "tct": 3765,
      "æŃ¤": 3766,
      "Ġior": 3767,
      "ahc": 3768,
      "Ġtro": 3769,
      "Ġair": 3770,
      "Ġast": 3771,
      "efn": 3772,
      "Ġaii": 3773,
      "ndn": 3774,
      "ë²": 3775,
      "Ġmv": 3776,
      "den": 3777,
      "Ġanr": 3778,
      "Ġaec": 3779,
      "iue": 3780,
      "Ġatl": 3781,
      "tcs": 3782,
      "rue": 3783,
      "Ġssi": 3784,
      "Ġiie": 3785,
      "Lu": 3786,
      "jl": 3787,
      "rho": 3788,
      "sue": 3789,
      "ä¸ĭ": 3790,
      "Ġdei": 3791,
      "odl": 3792,
      "¢«": 3793,
      "yea": 3794,
      "iS": 3795,
      "Ġiar": 3796,
      "shn": 3797,
      "Ġron": 3798,
      "sS": 3799,
      "Ġois": 3800,
      "Ġrai": 3801,
      "gea": 3802,
      "Ġrss": 3803,
      "ä¸Ĭ": 3804,
      "Ġaeu": 3805,
      "Ġiss": 3806,
      "-:": 3807,
      "Oc": 3808,
      "Rf": 3809,
      "Ġosr": 3810,
      "wea": 3811,
      "erb": 3812,
      "Ġion": 3813,
      "mea": 3814,
      "rdt": 3815,
      "ute": 3816,
      "ntg": 3817,
      "\"=": 3818,
      "Pf": 3819,
      "ĠaC": 3820,
      "/-": 3821,
      "ioo": 3822,
      "nos": 3823,
      "ras": 3824,
      "Ġsis": 3825,
      "Ġins": 3826,
      "Ġire": 3827,
      "sla": 3828,
      "åŃĺ": 3829,
      "ied": 3830,
      "Ġsre": 3831,
      "sho": 3832,
      "noi": 3833,
      "afe": 3834,
      "æľ¬": 3835,
      "red": 3836,
      "Ġoni": 3837,
      "Ġnnn": 3838,
      "Ġrar": 3839,
      "wte": 3840,
      "snu": 3841,
      "/_": 3842,
      "roo": 3843,
      "Ġtid": 3844,
      "rA": 3845,
      "Ġano": 3846,
      "tut": 3847,
      "aip": 3848,
      "inu": 3849,
      "ìłķ": 3850,
      "qc": 3851,
      "å·": 3852,
      "sE": 3853,
      "ºĲ": 3854,
      "Ġsrs": 3855,
      "ìĭľ": 3856,
      "soe": 3857,
      "roe": 3858,
      "ĠtN": 3859,
      "Ġaoa": 3860,
      "sce": 3861,
      "ome": 3862,
      "Ġasa": 3863,
      "Ġuk": 3864,
      "ãĥķ": 3865,
      "çĲĨ": 3866,
      "ioe": 3867,
      "Ġdtt": 3868,
      ":-": 3869,
      "emd": 3870,
      "æľį": 3871,
      "peo": 3872,
      "oim": 3873,
      "inc": 3874,
      "Ġors": 3875,
      "rrc": 3876,
      "Ġkc": 3877,
      "otg": 3878,
      "sas": 3879,
      "Ġnsi": 3880,
      "Ġonr": 3881,
      "Ġck": 3882,
      "Ġ_,": 3883,
      "atb": 3884,
      "Ġnni": 3885,
      "iE": 3886,
      "zt": 3887,
      "Ġbb": 3888,
      "åĪ°": 3889,
      "eL": 3890,
      "rnu": 3891,
      "ĠIs": 3892,
      "=\"": 3893,
      "fea": 3894,
      "ëı": 3895,
      "nE": 3896,
      "Ġinn": 3897,
      "hI": 3898,
      "aop": 3899,
      "Ġ\".": 3900,
      "ĠlI": 3901,
      "iho": 3902,
      "Ġ,-": 3903,
      "rhi": 3904,
      "tsg": 3905,
      "ism": 3906,
      "ilr": 3907,
      "der": 3908,
      "nor": 3909,
      "Ġtle": 3910,
      "Gr": 3911,
      "cte": 3912,
      "hT": 3913,
      "ian": 3914,
      "nai": 3915,
      "soo": 3916,
      "Ġthe": 3917,
      "nss": 3918,
      "yte": 3919,
      "è¯·": 3920,
      "non": 3921,
      "Ġoec": 3922,
      "isf": 3923,
      "eml": 3924,
      "sam": 3925,
      "weo": 3926,
      "Ġoth": 3927,
      "Pm": 3928,
      "geo": 3929,
      "nar": 3930,
      "ë°": 3931,
      "bte": 3932,
      "ĠlT": 3933,
      "nsm": 3934,
      "æĪĲ": 3935,
      "uea": 3936,
      "rnc": 3937,
      "rE": 3938,
      "sed": 3939,
      "Ġlta": 3940,
      "iic": 3941,
      "efh": 3942,
      "Ga": 3943,
      "ltt": 3944,
      "Ġari": 3945,
      "Ġè¯": 3946,
      "iai": 3947,
      "tlf": 3948,
      "rla": 3949,
      "sru": 3950,
      "Nf": 3951,
      "iar": 3952,
      "ine": 3953,
      "Ġroi": 3954,
      "saf": 3955,
      "nap": 3956,
      "slo": 3957,
      "Ġhto": 3958,
      "rsf": 3959,
      "rhh": 3960,
      "ofe": 3961,
      "rss": 3962,
      "rtp": 3963,
      "_:": 3964,
      "Ġoir": 3965,
      "ãĤ¿": 3966,
      "Ġioi": 3967,
      "ila": 3968,
      "ios": 3969,
      "Go": 3970,
      "cea": 3971,
      "Ġaso": 3972,
      "Ġros": 3973,
      "orm": 3974,
      "ros": 3975,
      "Ġoat": 3976,
      "ihh": 3977,
      "ĠEe": 3978,
      "Ġhts": 3979,
      "Ġarr": 3980,
      "ľĢ": 3981,
      "rsm": 3982,
      "Ġash": 3983,
      "ath": 3984,
      "ran": 3985,
      "Ġsni": 3986,
      "ehg": 3987,
      "Ã§": 3988,
      "å¿ħ": 3989,
      "Ġotl": 3990,
      "tay": 3991,
      "ndl": 3992,
      "Ġsth": 3993,
      "ioi": 3994,
      "qu": 3995,
      "rim": 3996,
      "tdm": 3997,
      "efd": 3998,
      "ĠãĤĴ": 3999,
      "san": 4000,
      "alc": 4001,
      "rif": 4002,
      "alu": 4003,
      "src": 4004,
      "Ġrns": 4005,
      "orf": 4006,
      "ram": 4007,
      "Ġant": 4008,
      "Ġrie": 4009,
      "Ġrsi": 4010,
      "tng": 4011,
      "otw": 4012,
      "iaf": 4013,
      "lT": 4014,
      "Ou": 4015,
      "rds": 4016,
      "Ġoii": 4017,
      "Ġku": 4018,
      "nop": 4019,
      "Ġsst": 4020,
      "toy": 4021,
      "iam": 4022,
      "Nm": 4023,
      "Ġnec": 4024,
      "taw": 4025,
      "epa": 4026,
      "Ġ-,": 4027,
      "bea": 4028,
      "ron": 4029,
      "Ġrnn": 4030,
      "Ġrre": 4031,
      "epn": 4032,
      "dei": 4033,
      "åŃĹ": 4034,
      "eH": 4035,
      "tus": 4036,
      ".#": 4037,
      "Ġasn": 4038,
      "ids": 4039,
      "åĲĪ": 4040,
      "Ġoeu": 4041,
      "åºĶ": 4042,
      "rli": 4043,
      "ĠTa": 4044,
      "Cp": 4045,
      "ebe": 4046,
      "lI": 4047,
      "Ġteg": 4048,
      "dtt": 4049,
      "Ġëĭ¤": 4050,
      "è¯ģ": 4051,
      "nre": 4052,
      "irc": 4053,
      "ĠtM": 4054,
      "Ġsat": 4055,
      "ion": 4056,
      "feo": 4057,
      "oty": 4058,
      "sne": 4059,
      "tco": 4060,
      "ĠIr": 4061,
      "ãĤ¢": 4062,
      "Ġnnr": 4063,
      "tig": 4064,
      "ĠTo": 4065,
      "som": 4066,
      "sdr": 4067,
      "hta": 4068,
      "Ġtnl": 4069,
      "Ø±": 4070,
      "Ġnth": 4071,
      "tow": 4072,
      "tur": 4073,
      "sdi": 4074,
      "ueo": 4075,
      "Ġez": 4076,
      "Ġaah": 4077,
      "meo": 4078,
      "nie": 4079,
      "epr": 4080,
      "æĶ": 4081,
      "Ġatd": 4082,
      "Ġnii": 4083,
      "pes": 4084,
      "etee": 4085,
      "Ġgee": 4086,
      "yeo": 4087,
      "ili": 4088,
      "Ġsii": 4089,
      "Ġror": 4090,
      ",;": 4091,
      "eO": 4092,
      "¤º": 4093,
      "rlr": 4094,
      "ĠdI": 4095,
      "ãĥŃ": 4096,
      "ĠìĿ´": 4097,
      "ilo": 4098,
      "Ġisi": 4099,
      "ndd": 4100,
      "epo": 4101,
      "tca": 4102,
      "Dc": 4103,
      "adc": 4104,
      "son": 4105,
      "ìĥ": 4106,
      "shl": 4107,
      "ssf": 4108,
      "kv": 4109,
      "tR": 4110,
      "slh": 4111,
      "rlo": 4112,
      "Ġaoh": 4113,
      "Ġono": 4114,
      "arp": 4115,
      "Ġori": 4116,
      "Ġini": 4117,
      "sln": 4118,
      "nsf": 4119,
      "Gn": 4120,
      "oop": 4121,
      "ĠIo": 4122,
      "rne": 4123,
      "Ġtod": 4124,
      "sor": 4125,
      "iom": 4126,
      "Hu": 4127,
      "Ġute": 4128,
      "shd": 4129,
      "Ġcea": 4130,
      "efl": 4131,
      "sdo": 4132,
      "Ġhtn": 4133,
      "Ġtde": 4134,
      "Ġorr": 4135,
      "ĠTr": 4136,
      "Ġcte": 4137,
      "Ay": 4138,
      "Ġart": 4139,
      "Ġost": 4140,
      "Ġseu": 4141,
      "Ġssr": 4142,
      "epi": 4143,
      "raf": 4144,
      "(:": 4145,
      "`\"": 4146,
      "beo": 4147,
      "Ġait": 4148,
      "nrm": 4149,
      "èĬĤ": 4150,
      "anp": 4151,
      "eph": 4152,
      "éĽĨ": 4153,
      "Lm": 4154,
      "sie": 4155,
      "Ġrrs": 4156,
      "tui": 4157,
      "Aw": 4158,
      "ceo": 4159,
      "ssm": 4160,
      "nnm": 4161,
      "sdh": 4162,
      "ida": 4163,
      "ĠIa": 4164,
      "Eg": 4165,
      "Ġosa": 4166,
      "heg": 4167,
      "¾¤": 4168,
      "Ġtew": 4169,
      "Ġsec": 4170,
      "tdf": 4171,
      "Ġana": 4172,
      "Ġxt": 4173,
      "Sw": 4174,
      "ĠdT": 4175,
      "trg": 4176,
      "eD": 4177,
      "sar": 4178,
      "ĠaR": 4179,
      "ihl": 4180,
      "iof": 4181,
      "sos": 4182,
      "ĠoC": 4183,
      "Ġnis": 4184,
      "Ġltn": 4185,
      "Ut": 4186,
      "pen": 4187,
      "®µ": 4188,
      "tuo": 4189,
      "idi": 4190,
      "æĪ·": 4191,
      "Ġoot": 4192,
      "tci": 4193,
      "tua": 4194,
      ";,": 4195,
      "»º": 4196,
      "Ãª": 4197,
      "tsw": 4198,
      "nty": 4199,
      "åĨħ": 4200,
      "roi": 4201,
      "ihd": 4202,
      "ilh": 4203,
      "æĮĩ": 4204,
      "è®¾": 4205,
      "Ġiis": 4206,
      "ê³ł": 4207,
      "aut": 4208,
      "ape": 4209,
      "sai": 4210,
      "iie": 4211,
      "Ġris": 4212,
      "ç®": 4213,
      "Ġneu": 4214,
      "elg": 4215,
      "çŃ": 4216,
      "Ġith": 4217,
      "Ġlto": 4218,
      "Gh": 4219,
      "sda": 4220,
      "nme": 4221,
      "xb": 4222,
      "ç«": 4223,
      "ë©": 4224,
      "ĠtL": 4225,
      "Ġnrs": 4226,
      "ntw": 4227,
      "oth": 4228,
      "Ġsnr": 4229,
      "rof": 4230,
      "ä¿¡": 4231,
      "Ġttm": 4232,
      "Ġirs": 4233,
      "sof": 4234,
      "ĠTi": 4235,
      "#.": 4236,
      "atl": 4237,
      "å¸": 4238,
      "ĠÑĢ": 4239,
      "Ġnsr": 4240,
      "Hc": 4241,
      "siu": 4242,
      "Ġstl": 4243,
      "Mm": 4244,
      "tN": 4245,
      "ìĸ": 4246,
      "Ġnot": 4247,
      "sll": 4248,
      "\"`": 4249,
      "Ġpv": 4250,
      "sic": 4251,
      "-=": 4252,
      "ĵį": 4253,
      "Ġotd": 4254,
      "ohu": 4255,
      "Ġtac": 4256,
      "Ġosn": 4257,
      "Ġhti": 4258,
      "oat": 4259,
      "yes": 4260,
      "æ±Ĥ": 4261,
      "eek": 4262,
      "nif": 4263,
      "Mf": 4264,
      "ges": 4265,
      "Ġ_.": 4266,
      "ĠIi": 4267,
      "Ġiii": 4268,
      "tnw": 4269,
      "Ġsot": 4270,
      "iln": 4271,
      "tev": 4272,
      "):": 4273,
      "mes": 4274,
      "Ġä»": 4275,
      "Ġntl": 4276,
      "eeet": 4277,
      "èĩ": 4278,
      "oif": 4279,
      "rai": 4280,
      "Ġhx": 4281,
      "seb": 4282,
      "tcn": 4283,
      "rda": 4284,
      "rdo": 4285,
      "å¹¶": 4286,
      "eq": 4287,
      "Ġleh": 4288,
      "tun": 4289,
      "aag": 4290,
      "Ġåħ": 4291,
      "Ġisr": 4292,
      "Ġrni": 4293,
      "tsy": 4294,
      "\">": 4295,
      "Rp": 4296,
      "ces": 4297,
      "Ġsoa": 4298,
      "Ġceo": 4299,
      "sre": 4300,
      "snn": 4301,
      "Ġsrr": 4302,
      "Ġrth": 4303,
      "Ġvp": 4304,
      "iru": 4305,
      "Du": 4306,
      "Ġoit": 4307,
      "leg": 4308,
      "Ġeht": 4309,
      "čč": 4310,
      "Ġooh": 4311,
      "ĠTn": 4312,
      "Ġuea": 4313,
      "rom": 4314,
      "=-": 4315,
      "yen": 4316,
      "tab": 4317,
      "sdn": 4318,
      "Ð¹": 4319,
      "Ġsri": 4320,
      "ĠIn": 4321,
      "Ġrsr": 4322,
      "ior": 4323,
      "Ġaia": 4324,
      "trw": 4325,
      "rhl": 4326,
      "hht": 4327,
      "iss": 4328,
      "ĠtO": 4329,
      "Ġtoc": 4330,
      "nrf": 4331,
      "ire": 4332,
      "men": 4333,
      "Ġain": 4334,
      "Ġnst": 4335,
      "Ġ.-": 4336,
      "rar": 4337,
      "é»ĺ": 4338,
      "Ġstd": 4339,
      "Sy": 4340,
      "Ùħ": 4341,
      "Ġreu": 4342,
      "Ġhao": 4343,
      "edg": 4344,
      "Ġona": 4345,
      "Ġsno": 4346,
      "ins": 4347,
      "sth": 4348,
      "Ùĩ": 4349,
      "Ġttf": 4350,
      "Ġfet": 4351,
      "rll": 4352,
      "vet": 4353,
      "Ġsit": 4354,
      "Ġnrr": 4355,
      "nim": 4356,
      "idr": 4357,
      "fes": 4358,
      "ith": 4359,
      "per": 4360,
      "ues": 4361,
      "ê·": 4362,
      "Ġoah": 4363,
      "Ġooa": 4364,
      "Ġeeg": 4365,
      "ìĿ¼": 4366,
      "Ġist": 4367,
      "rhd": 4368,
      "zs": 4369,
      "Ġnat": 4370,
      "Ġhtr": 4371,
      "rld": 4372,
      ")/": 4373,
      "æĿ¥": 4374,
      "ĠsC": 4375,
      "Ġrii": 4376,
      "Ġ,(": 4377,
      "éĢļ": 4378,
      "Ġarn": 4379,
      "Ġont": 4380,
      "ĠTh": 4381,
      "Ġaem": 4382,
      "Ġsso": 4383,
      "Ġieu": 4384,
      "Ġlts": 4385,
      "rie": 4386,
      "Ġheh": 4387,
      "rln": 4388,
      "ìĺ": 4389,
      "Ġaro": 4390,
      "Ġrat": 4391,
      "tP": 4392,
      "za": 4393,
      "Ġara": 4394,
      "Ġiat": 4395,
      "/)": 4396,
      "ĠeU": 4397,
      "Ġtau": 4398,
      "adu": 4399,
      "Ġ),": 4400,
      "ill": 4401,
      "ido": 4402,
      "é¡": 4403,
      "snm": 4404,
      "rdi": 4405,
      "ëŁ¬": 4406,
      "rdh": 4407,
      "Ġnri": 4408,
      "Ġnno": 4409,
      "Ġtnd": 4410,
      "Ġaio": 4411,
      "Ġsah": 4412,
      "Ġrec": 4413,
      "Ġ,)": 4414,
      "ìĦ±": 4415,
      "Ġmet": 4416,
      "Ġssa": 4417,
      "Ġyee": 4418,
      "sld": 4419,
      "nrs": 4420,
      "Ġtq": 4421,
      "Ġtou": 4422,
      "tiy": 4423,
      "Ve": 4424,
      "Wu": 4425,
      "Ġiri": 4426,
      "wes": 4427,
      "Ġhae": 4428,
      "Ġntd": 4429,
      "onp": 4430,
      "æĸ°": 4431,
      "/(": 4432,
      "Wc": 4433,
      "Ġaal": 4434,
      "ehy": 4435,
      "tmt": 4436,
      "bes": 4437,
      "nis": 4438,
      "vk": 4439,
      "gen": 4440,
      "Ġths": 4441,
      "Ġhaa": 4442,
      "Ġhel": 4443,
      "sns": 4444,
      "Ġort": 4445,
      "Ġdta": 4446,
      "Ġoso": 4447,
      "Ġnoa": 4448,
      "act": 4449,
      "_=": 4450,
      "ehw": 4451,
      "tiw": 4452,
      "snf": 4453,
      "ĠtD": 4454,
      "Ġinr": 4455,
      "ĠhA": 4456,
      "epd": 4457,
      "ĠIh": 4458,
      "otl": 4459,
      "ror": 4460,
      "ãģį": 4461,
      "nfe": 4462,
      ":(": 4463,
      "ëª": 4464,
      "cer": 4465,
      "Ġirr": 4466,
      "Ġfk": 4467,
      "Ġ._": 4468,
      "epl": 4469,
      "pI": 4470,
      "Ġnso": 4471,
      "Ġ(,": 4472,
      "ĠìĹ": 4473,
      "Ġoem": 4474,
      "Ġoin": 4475,
      "Ġitl": 4476,
      "(/": 4477,
      "Lf": 4478,
      "ger": 4479,
      "Ġsrt": 4480,
      "idn": 4481,
      "ĠeG": 4482,
      "ĠnC": 4483,
      "Fu": 4484,
      "ĠoR": 4485,
      "ild": 4486,
      "rnn": 4487,
      "ĠaP": 4488,
      "Ġãģ«": 4489,
      "aC": 4490,
      "pei": 4491,
      "soi": 4492,
      "Ġoef": 4493,
      "Ġoio": 4494,
      "Ġsir": 4495,
      "ĠrC": 4496,
      "ĠIl": 4497,
      "Ġaeg": 4498,
      "iiu": 4499,
      "iap": 4500,
      "Ġrst": 4501,
      "Bc": 4502,
      "[,": 4503,
      "oC": 4504,
      "tft": 4505,
      "tny": 4506,
      "thp": 4507,
      "tuh": 4508,
      "''": 4509,
      "dT": 4510,
      "ĠaN": 4511,
      "Ġ-.": 4512,
      "sfe": 4513,
      "çī¹": 4514,
      "Ġahe": 4515,
      "Ġiir": 4516,
      "rdr": 4517,
      "sis": 4518,
      "zi": 4519,
      "ë§": 4520,
      "Ġiec": 4521,
      "qm": 4522,
      "Ġtey": 4523,
      "âĢĿ": 4524,
      "Ġhoe": 4525,
      "nhc": 4526,
      "'re": 4527,
      "âĶ": 4528,
      "éĿ": 4529,
      "Ġrot": 4530,
      "olc": 4531,
      "rdn": 4532,
      "ì»": 4533,
      "ahm": 4534,
      "Sb": 4535,
      "hto": 4536,
      "alm": 4537,
      "tcl": 4538,
      "âĢľ": 4539,
      "uer": 4540,
      "wen": 4541,
      "æŁ¥": 4542,
      "Ġdto": 4543,
      "sdl": 4544,
      "rfe": 4545,
      "uen": 4546,
      "],": 4547,
      "rns": 4548,
      "Ġnir": 4549,
      "Ġlaa": 4550,
      "Fc": 4551,
      "etv": 4552,
      "ĠTl": 4553,
      "tge": 4554,
      "æºĲ": 4555,
      "Ġeue": 4556,
      "ĠiC": 4557,
      "nct": 4558,
      "Np": 4559,
      "atd": 4560,
      "tcr": 4561,
      "Ey": 4562,
      "Ħ°": 4563,
      "Ãł": 4564,
      "è¢«": 4565,
      "aog": 4566,
      "nnf": 4567,
      "zn": 4568,
      "rlh": 4569,
      "Ġiot": 4570,
      "ãĤĪ": 4571,
      "Ġrtl": 4572,
      "olu": 4573,
      "nag": 4574,
      "Us": 4575,
      "Ġioa": 4576,
      "sdd": 4577,
      "fei": 4578,
      "zr": 4579,
      "Ġaih": 4580,
      "Ġnah": 4581,
      "Ġlx": 4582,
      ":)": 4583,
      "hts": 4584,
      "Ġltr": 4585,
      "ohc": 4586,
      ">\"": 4587,
      "Ġaef": 4588,
      "tcd": 4589,
      "ĠoP": 4590,
      "rnm": 4591,
      "oct": 4592,
      "Ġelt": 4593,
      "Hm": 4594,
      "Ø¯": 4595,
      "ĠTd": 4596,
      "Ġaad": 4597,
      "Ġisa": 4598,
      "Ew": 4599,
      "srs": 4600,
      "Ġnit": 4601,
      "Ġmk": 4602,
      "tch": 4603,
      "Of": 4604,
      "Ġiso": 4605,
      "Ġrnr": 4606,
      "elw": 4607,
      "qf": 4608,
      "zo": 4609,
      "try": 4610,
      "Ġece": 4611,
      "tob": 4612,
      "Ġsnt": 4613,
      "Ġroa": 4614,
      "Ġdts": 4615,
      "Ġueo": 4616,
      "æłĩ": 4617,
      "=_": 4618,
      "gtt": 4619,
      "Ġino": 4620,
      "Ġrtd": 4621,
      "Ġcen": 4622,
      "nth": 4623,
      "Ġaod": 4624,
      "Ua": 4625,
      "irs": 4626,
      "Ġoih": 4627,
      "Ġnsa": 4628,
      "Ġxs": 4629,
      "Ab": 4630,
      "Ġosh": 4631,
      "cei": 4632,
      "lta": 4633,
      "osp": 4634,
      "ĠId": 4635,
      "acs": 4636,
      "ĠtH": 4637,
      "Ġnrt": 4638,
      "Ġrno": 4639,
      "Ġues": 4640,
      "-`": 4641,
      "Ġsio": 4642,
      "ope": 4643,
      "cen": 4644,
      "rre": 4645,
      "rme": 4646,
      "aR": 4647,
      "Ġthh": 4648,
      "Ġtsu": 4649,
      "ĠhS": 4650,
      "gei": 4651,
      "Ġrri": 4652,
      "eete": 4653,
      "Om": 4654,
      "wei": 4655,
      "ĠtB": 4656,
      "Ġarh": 4657,
      "Ġoad": 4658,
      "Gl": 4659,
      "Ġrir": 4660,
      "ntl": 4661,
      "sme": 4662,
      "Mp": 4663,
      "Ġosl": 4664,
      "Ġsal": 4665,
      "Ġhoo": 4666,
      "idd": 4667,
      "aus": 4668,
      "Ġssh": 4669,
      "à¦¸": 4670,
      "ĠãĤĭ": 4671,
      "Ġtnu": 4672,
      "oip": 4673,
      "aua": 4674,
      "ime": 4675,
      "fer": 4676,
      "ely": 4677,
      "Ġasl": 4678,
      "Ġrrr": 4679,
      "Pp": 4680,
      "Ġaep": 4681,
      "inm": 4682,
      "lto": 4683,
      "Ġonh": 4684,
      "aay": 4685,
      "idh": 4686,
      "lht": 4687,
      "Ġsoh": 4688,
      "Ġoia": 4689,
      "tms": 4690,
      "Ġtam": 4691,
      "ĠsR": 4692,
      "éľĢ": 4693,
      "aev": 4694,
      "inn": 4695,
      "Ġiah": 4696,
      "Uo": 4697,
      "`_": 4698,
      "æį": 4699,
      "tul": 4700,
      "wer": 4701,
      "Ġitd": 4702,
      "dI": 4703,
      "åĽ": 4704,
      "Ġora": 4705,
      "Ġfte": 4706,
      "Ġkm": 4707,
      "ocs": 4708,
      "ãĤ·": 4709,
      "Ġale": 4710,
      "Ġohe": 4711,
      "Ġnem": 4712,
      "Ġnsn": 4713,
      "oog": 4714,
      "Ġtsc": 4715,
      "Ġdtn": 4716,
      ",]": 4717,
      "oag": 4718,
      "egt": 4719,
      "Ġhon": 4720,
      "ĠÃ©": 4721,
      "Ġttp": 4722,
      "jc": 4723,
      "ang": 4724,
      "itg": 4725,
      "out": 4726,
      "heh": 4727,
      "itl": 4728,
      "ini": 4729,
      "otd": 4730,
      "Ġoep": 4731,
      "Ġlel": 4732,
      "Ġpet": 4733,
      "edw": 4734,
      "stg": 4735,
      "Ġina": 4736,
      "Ġiio": 4737,
      "Ġdaa": 4738,
      "otb": 4739,
      "Ġsin": 4740,
      "Ġrra": 4741,
      "Ġwee": 4742,
      "orp": 4743,
      "Ġaol": 4744,
      ",[": 4745,
      "Gd": 4746,
      "Ġade": 4747,
      "Ġnro": 4748,
      "tud": 4749,
      "Ġeew": 4750,
      "Ġãĥ³": 4751,
      "tL": 4752,
      "yer": 4753,
      "Ġssn": 4754,
      "Ġdeh": 4755,
      "Un": 4756,
      "ĠaM": 4757,
      "Ġsef": 4758,
      "Ġdtr": 4759,
      "Ġuei": 4760,
      "ntb": 4761,
      "ĠìĦ": 4762,
      "ctt": 4763,
      "fen": 4764,
      "tsb": 4765,
      "sat": 4766,
      "Ġorn": 4767,
      "npe": 4768,
      "`-": 4769,
      "ĠsP": 4770,
      "Ġhed": 4771,
      "aoy": 4772,
      "Ġsna": 4773,
      "tma": 4774,
      "ãĥĥ": 4775,
      ";.": 4776,
      "çİ": 4777,
      "Ġanl": 4778,
      "Ġsia": 4779,
      "Ġlti": 4780,
      "Ġxa": 4781,
      "Eb": 4782,
      "sni": 4783,
      "ĠAt": 4784,
      "ĠæĪ": 4785,
      "ëĭ": 4786,
      "Ġrah": 4787,
      "Ġhse": 4788,
      "Ġmte": 4789,
      "adm": 4790,
      "nhu": 4791,
      "Ui": 4792,
      "isp": 4793,
      "Df": 4794,
      "Ġsem": 4795,
      "Ġhne": 4796,
      "ĠSt": 4797,
      "nat": 4798,
      "nri": 4799,
      "ĮĢ": 4800,
      "Ġhan": 4801,
      "eaee": 4802,
      "idl": 4803,
      "rdl": 4804,
      "Ke": 4805,
      "hx": 4806,
      "Ġtls": 4807,
      "sap": 4808,
      "Ġnrn": 4809,
      "aui": 4810,
      "aft": 4811,
      "htn": 4812,
      "ssp": 4813,
      "à¦¯": 4814,
      "Dm": 4815,
      "Ġdae": 4816,
      "ĠÑģ": 4817,
      "Ġrit": 4818,
      "Ġssl": 4819,
      "ttee": 4820,
      "ife": 4821,
      "åĩº": 4822,
      "yei": 4823,
      "Ġood": 4824,
      "Ġnra": 4825,
      "_`": 4826,
      "eB": 4827,
      "Ġtrc": 4828,
      "Ur": 4829,
      "Ġtnc": 4830,
      "äºĽ": 4831,
      "Ġtic": 4832,
      "Ġuen": 4833,
      "Ġool": 4834,
      "Ġnsh": 4835,
      "Ġces": 4836,
      "nsp": 4837,
      "aca": 4838,
      "deg": 4839,
      "Ġail": 4840,
      "tnb": 4841,
      "ħ¸": 4842,
      "Ġlae": 4843,
      "ĠãģĹ": 4844,
      "iot": 4845,
      "rni": 4846,
      "Ġasd": 4847,
      "Ġhai": 4848,
      "aco": 4849,
      "tfs": 4850,
      "haa": 4851,
      "hti": 4852,
      "ĠoN": 4853,
      "Ġdel": 4854,
      "inr": 4855,
      "tM": 4856,
      "Ġteb": 4857,
      "Ġosd": 4858,
      "Ġiem": 4859,
      "Ġish": 4860,
      "Ġiit": 4861,
      "Ġeha": 4862,
      "hae": 4863,
      "rth": 4864,
      "Ġnoh": 4865,
      "Ġgv": 4866,
      "ĠlA": 4867,
      ".;": 4868,
      "bei": 4869,
      "Ġoal": 4870,
      "Ġsrn": 4871,
      "rdd": 4872,
      "hlt": 4873,
      "twe": 4874,
      "uei": 4875,
      "ĠsN": 4876,
      "\"<": 4877,
      "Ġial": 4878,
      "Ġthn": 4879,
      "esee": 4880,
      "asg": 4881,
      "oua": 4882,
      "Ġonl": 4883,
      "Ġvg": 4884,
      "iif": 4885,
      "Ġè®": 4886,
      "sri": 4887,
      "aaw": 4888,
      "rrf": 4889,
      "ju": 4890,
      "Ġdti": 4891,
      "Ġkf": 4892,
      "Ġirt": 4893,
      "Tee": 4894,
      "Ġtlh": 4895,
      "ĠhE": 4896,
      "aow": 4897,
      "ber": 4898,
      "Ġhoi": 4899,
      "Ġlse": 4900,
      "aur": 4901,
      "hhs": 4902,
      "ĠaL": 4903,
      "Ġrna": 4904,
      "eoee": 4905,
      "Ġpk": 4906,
      "hey": 4907,
      "nC": 4908,
      "Ġrsa": 4909,
      "adf": 4910,
      "aci": 4911,
      "nut": 4912,
      "æĭ": 4913,
      "ç¤º": 4914,
      "Ġoro": 4915,
      "tlp": 4916,
      "Ġìł": 4917,
      "Ġole": 4918,
      "Ġnef": 4919,
      "Ġnio": 4920,
      "æ³": 4921,
      "Ġnia": 4922,
      "Ġdx": 4923,
      "ket": 4924,
      "Ġanh": 4925,
      "ehb": 4926,
      "nnp": 4927,
      "sim": 4928,
      "inf": 4929,
      "Ġoil": 4930,
      "Ġint": 4931,
      "eiee": 4932,
      "rrm": 4933,
      "rri": 4934,
      "Ġthi": 4935,
      "Ġatc": 4936,
      "snr": 4937,
      "Ġrso": 4938,
      "iat": 4939,
      "sno": 4940,
      "Ġloe": 4941,
      "Ġãģ¾": 4942,
      "Bu": 4943,
      "iis": 4944,
      "rat": 4945,
      "zd": 4946,
      "ĠtW": 4947,
      "åħ¶": 4948,
      "vte": 4949,
      "Ġloo": 4950,
      "auo": 4951,
      "Ġtof": 4952,
      "ĠnN": 4953,
      "Ġ(.": 4954,
      "zh": 4955,
      "ĠnR": 4956,
      "Ġrsn": 4957,
      "hsc": 4958,
      "<\"": 4959,
      "Ġthd": 4960,
      "Ġnnt": 4961,
      "ahf": 4962,
      "srm": 4963,
      "sC": 4964,
      "Ġorh": 4965,
      "Ġhos": 4966,
      "Ġcer": 4967,
      "lts": 4968,
      "utt": 4969,
      "Ġarl": 4970,
      "Ġnna": 4971,
      "edy": 4972,
      "Ye": 4973,
      "Ġisn": 4974,
      "Ġxr": 4975,
      "dta": 4976,
      "Ġand": 4977,
      "Ġhas": 4978,
      "ĠlS": 4979,
      "oay": 4980,
      "Ġxo": 4981,
      "è¿Ĳ": 4982,
      "ecc": 4983,
      "tpt": 4984,
      "iut": 4985,
      "spe": 4986,
      "éĹ´": 4987,
      "Ġsra": 4988,
      "Ġcei": 4989,
      "aig": 4990,
      "oca": 4991,
      "lti": 4992,
      "oR": 4993,
      "Ġtru": 4994,
      "Ġmea": 4995,
      "Ġeey": 4996,
      "è¿ĩ": 4997,
      "ĠiP": 4998,
      "Ġief": 4999,
      "hhi": 5000,
      "oev": 5001,
      "nlc": 5002,
      "Ġxh": 5003,
      "å¼ı": 5004,
      "].": 5005,
      "Ġiia": 5006,
      ">-": 5007,
      "iim": 5008,
      "rtg": 5009,
      "ç¾¤": 5010,
      "Ġlao": 5011,
      "Ġyv": 5012,
      "tq": 5013,
      "rop": 5014,
      "htr": 5015,
      "lx": 5016,
      "ĠtF": 5017,
      "Iee": 5018,
      "å»º": 5019,
      "Ġnnh": 5020,
      "Ġhss": 5021,
      "alf": 5022,
      "oaw": 5023,
      "iop": 5024,
      "amt": 5025,
      "_>": 5026,
      "rrs": 5027,
      "Ġuer": 5028,
      "ĠCe": 5029,
      "ltr": 5030,
      "nay": 5031,
      "Ġshe": 5032,
      "ino": 5033,
      "Ġthl": 5034,
      "Ġria": 5035,
      "nus": 5036,
      "irr": 5037,
      "Ġsad": 5038,
      "Ġled": 5039,
      "tmr": 5040,
      "è¡¨": 5041,
      "acr": 5042,
      "sct": 5043,
      "Ġedt": 5044,
      "eeea": 5045,
      "tfa": 5046,
      "mer": 5047,
      "Ġnin": 5048,
      "asw": 5049,
      "Cg": 5050,
      "lel": 5051,
      "mei": 5052,
      "Ġeeb": 5053,
      "ĠEt": 5054,
      "Ġioh": 5055,
      "arg": 5056,
      "osg": 5057,
      "nlu": 5058,
      "ä¿Ŀ": 5059,
      "rnf": 5060,
      "hsu": 5061,
      "pT": 5062,
      "eyt": 5063,
      "à¦ª": 5064,
      "ĠÐ²": 5065,
      "à¤ķ": 5066,
      "Ġtht": 5067,
      "èµĦ": 5068,
      "Ġrrt": 5069,
      "Ġtiu": 5070,
      "Ġsol": 5071,
      "Ġssd": 5072,
      "Ġira": 5073,
      "Ġrsh": 5074,
      "æİ§": 5075,
      "Ġtho": 5076,
      "ĠrP": 5077,
      "euc": 5078,
      "odc": 5079,
      "ìľ¼": 5080,
      "hS": 5081,
      "leh": 5082,
      "tmi": 5083,
      "æıĲ": 5084,
      "eW": 5085,
      "ej": 5086,
      "rtl": 5087,
      "Ġaew": 5088,
      "Ġxi": 5089,
      "ä¸İ": 5090,
      "hA": 5091,
      "ntd": 5092,
      "ptt": 5093,
      "Ġtj": 5094,
      "ĠoM": 5095,
      "Ġorl": 5096,
      "Ġsnh": 5097,
      "à¦¬": 5098,
      "ris": 5099,
      "sot": 5100,
      "wT": 5101,
      "},": 5102,
      "Ġatf": 5103,
      "thg": 5104,
      "ega": 5105,
      "llt": 5106,
      "=(": 5107,
      "ben": 5108,
      "dx": 5109,
      "æ®µ": 5110,
      "Ġtha": 5111,
      "Ġhor": 5112,
      "Ġlas": 5113,
      "Ġtlt": 5114,
      "Ġrem": 5115,
      "Ġxn": 5116,
      "Ġesc": 5117,
      "Ñĩ": 5118,
      "Ġtaf": 5119,
      "mtt": 5120,
      "Ġroh": 5121,
      "hha": 5122,
      "Ġela": 5123,
      "dto": 5124,
      "dts": 5125,
      "Ġeme": 5126,
      "ĠdS": 5127,
      "oah": 5128,
      "±¡": 5129,
      "naw": 5130,
      "sop": 5131,
      "ous": 5132,
      "eF": 5133,
      "Ġrnh": 5134,
      "Ġrin": 5135,
      "ong": 5136,
      "hew": 5137,
      "à¦Ł": 5138,
      "Ġsih": 5139,
      "Ġsro": 5140,
      "srf": 5141,
      "hhr": 5142,
      ")=": 5143,
      "Hf": 5144,
      "hel": 5145,
      "odu": 5146,
      ">_": 5147,
      "Ġiro": 5148,
      "Ġref": 5149,
      "Ġdao": 5150,
      "Ġhar": 5151,
      "Ġlai": 5152,
      "Ġè¡": 5153,
      "Ġiol": 5154,
      "Ġfea": 5155,
      "ĠåĬ": 5156,
      "ëĦ¤": 5157,
      "Ġaey": 5158,
      "ĠoL": 5159,
      "Ġrnt": 5160,
      "Ġ.)": 5161,
      "euu": 5162,
      "sut": 5163,
      "rno": 5164,
      "ĠnP": 5165,
      "eees": 5166,
      "Ġ.(": 5167,
      "aN": 5168,
      "hne": 5169,
      "itd": 5170,
      "Ġsle": 5171,
      "Ġirn": 5172,
      "Ġrro": 5173,
      "nrp": 5174,
      "hho": 5175,
      "Ġoeg": 5176,
      "Ġtsm": 5177,
      "íĻ": 5178,
      "åĲĮ": 5179,
      "srr": 5180,
      "ĠsL": 5181,
      "Ġnsl": 5182,
      "ĠrR": 5183,
      "Ġmes": 5184,
      "Ġfeo": 5185,
      "asy": 5186,
      "stl": 5187,
      "wtt": 5188,
      "Ġhnn": 5189,
      "Ġhie": 5190,
      "acn": 5191,
      "tye": 5192,
      "oci": 5193,
      "Ġtli": 5194,
      "Ġsil": 5195,
      "Ġnle": 5196,
      "tib": 5197,
      "tmo": 5198,
      "Ġesu": 5199,
      "Ġeho": 5200,
      "han": 5201,
      "tfo": 5202,
      "è¿Ľ": 5203,
      "Ġtom": 5204,
      "Ġirh": 5205,
      "Ġrio": 5206,
      "irf": 5207,
      "rap": 5208,
      "dtn": 5209,
      "qp": 5210,
      "Ġatu": 5211,
      "Ġmeo": 5212,
      "Ul": 5213,
      "std": 5214,
      "è´": 5215,
      "Ġnih": 5216,
      "ndc": 5217,
      "/'": 5218,
      "Bm": 5219,
      "nip": 5220,
      "Ġehi": 5221,
      "sii": 5222,
      "tO": 5223,
      "Ġotc": 5224,
      "eree": 5225,
      "Ġwv": 5226,
      "Ġvw": 5227,
      "ĠAa": 5228,
      "lhi": 5229,
      "nah": 5230,
      "rsp": 5231,
      "ìŀĲ": 5232,
      "Ġsep": 5233,
      "rip": 5234,
      "Ng": 5235,
      "bT": 5236,
      "rot": 5237,
      "Ġnal": 5238,
      "->": 5239,
      "ĠaO": 5240,
      "Ġnrh": 5241,
      "à¥ĩ": 5242,
      "ÃŃ": 5243,
      "Ġlan": 5244,
      "Ġnol": 5245,
      "Ġhre": 5246,
      "Ġ,'": 5247,
      "elb": 5248,
      "Ġtll": 5249,
      "lsc": 5250,
      "ewt": 5251,
      "iev": 5252,
      "Ġehr": 5253,
      "Ġãģ¯": 5254,
      "(=": 5255,
      "Ġaid": 5256,
      "ouo": 5257,
      "ĠAs": 5258,
      ".]": 5259,
      "Uh": 5260,
      "ĠdA": 5261,
      "ĠìĬ¤": 5262,
      "ltn": 5263,
      "¹Ħ": 5264,
      "Ġnad": 5265,
      "enee": 5266,
      "Ġ).": 5267,
      "ipe": 5268,
      "vea": 5269,
      "å¤ļ": 5270,
      "Wm": 5271,
      "uT": 5272,
      "ytt": 5273,
      "Ġsod": 5274,
      "Ġral": 5275,
      "Ġdoe": 5276,
      "aun": 5277,
      "aP": 5278,
      "Ġahs": 5279,
      "ocr": 5280,
      "ĠAo": 5281,
      "ìĸ´": 5282,
      "Lp": 5283,
      "gI": 5284,
      "lS": 5285,
      "ĠiR": 5286,
      "Ġiin": 5287,
      "ä¾Ľ": 5288,
      "ê²½": 5289,
      "gT": 5290,
      "Ġtds": 5291,
      "oco": 5292,
      "soa": 5293,
      "{,": 5294,
      "etet": 5295,
      "tfr": 5296,
      "Ġehn": 5297,
      "age": 5298,
      "Ġthr": 5299,
      "tdp": 5300,
      "ãĤ£": 5301,
      "Ġnhe": 5302,
      "trb": 5303,
      "ãģĤ": 5304,
      "laa": 5305,
      "Ġrrn": 5306,
      "Ġdoo": 5307,
      "sif": 5308,
      "çķ": 5309,
      "Ġode": 5310,
      "omt": 5311,
      "©º": 5312,
      "Ġsrh": 5313,
      "ĠiN": 5314,
      "Ġihe": 5315,
      "rC": 5316,
      "Ġtlr": 5317,
      "Ġisl": 5318,
      "org": 5319,
      "sah": 5320,
      "eeeo": 5321,
      "Ġctt": 5322,
      "acd": 5323,
      "[.": 5324,
      "oal": 5325,
      "tfh": 5326,
      "ĠRe": 5327,
      "Ð³": 5328,
      "Ġond": 5329,
      "Ġsnd": 5330,
      "Ġiih": 5331,
      "Ġfes": 5332,
      "ëĲľ": 5333,
      "cI": 5334,
      "Ġefe": 5335,
      "Ġisd": 5336,
      "Ġded": 5337,
      "Ġìŀ": 5338,
      "tbe": 5339,
      "ç¨": 5340,
      "ë²Ħ": 5341,
      ":'": 5342,
      "oP": 5343,
      "Ġlos": 5344,
      "etk": 5345,
      "ohm": 5346,
      "lae": 5347,
      "Ġsnl": 5348,
      "ĠrN": 5349,
      "lsu": 5350,
      "lha": 5351,
      "oft": 5352,
      "Ġnod": 5353,
      "Ġutt": 5354,
      "our": 5355,
      "åĪĨ": 5356,
      "iri": 5357,
      "wI": 5358,
      "Ġaq": 5359,
      "Ġard": 5360,
      "Ġoew": 5361,
      "ecu": 5362,
      "hdt": 5363,
      "ĠaH": 5364,
      "Ġnil": 5365,
      "Ġpte": 5366,
      "nsg": 5367,
      "tpa": 5368,
      "ict": 5369,
      "=)": 5370,
      "Rg": 5371,
      "ĠnM": 5372,
      "arw": 5373,
      "oun": 5374,
      "ĠSa": 5375,
      "Ġtnm": 5376,
      "ĠlE": 5377,
      "Ġlre": 5378,
      "ley": 5379,
      "Ġotu": 5380,
      "irm": 5381,
      "ģ¯": 5382,
      "Ġtsf": 5383,
      "sty": 5384,
      ",}": 5385,
      "ioa": 5386,
      "Ġttg": 5387,
      "Ġlne": 5388,
      "stw": 5389,
      "'/": 5390,
      "Ġnsd": 5391,
      "nhm": 5392,
      "snp": 5393,
      "ach": 5394,
      "ĠrM": 5395,
      "lho": 5396,
      "ëĤ": 5397,
      "Ġseg": 5398,
      "Ġnep": 5399,
      "Ġrih": 5400,
      "ĠcT": 5401,
      "rut": 5402,
      "åīį": 5403,
      "cT": 5404,
      "íĦ°": 5405,
      "ĠsM": 5406,
      "ĠuI": 5407,
      "eav": 5408,
      "Ud": 5409,
      "fT": 5410,
      "anw": 5411,
      "tmn": 5412,
      "ĠAi": 5413,
      "Ġsid": 5414,
      "ê·¸": 5415,
      "hed": 5416,
      "las": 5417,
      "Ġtld": 5418,
      "Ġkp": 5419,
      "any": 5420,
      ",{": 5421,
      ".[": 5422,
      "xee": 5423,
      "Ġnrl": 5424,
      "Ġbee": 5425,
      "ãģĨ": 5426,
      "lhr": 5427,
      "Je": 5428,
      "yI": 5429,
      "Ġoey": 5430,
      "Ġmen": 5431,
      "Ġeli": 5432,
      "Fm": 5433,
      "deh": 5434,
      "nR": 5435,
      "Ġoid": 5436,
      "Ġord": 5437,
      "Ġelr": 5438,
      "ves": 5439,
      "Ġxl": 5440,
      "hoo": 5441,
      "hoe": 5442,
      "zl": 5443,
      "Ġdas": 5444,
      "ica": 5445,
      "ç«¯": 5446,
      "Ġntu": 5447,
      "ĠuT": 5448,
      "ssg": 5449,
      "lhn": 5450,
      "oge": 5451,
      "Ġneg": 5452,
      "Ġxd": 5453,
      "Ñĸ": 5454,
      "`)": 5455,
      "Ġhns": 5456,
      "Ġlor": 5457,
      "ãĥĬ": 5458,
      "ĠAr": 5459,
      "Ġelo": 5460,
      "à¦²": 5461,
      "Ġasu": 5462,
      "Ġhrs": 5463,
      "ndu": 5464,
      "oig": 5465,
      "nuo": 5466,
      "íħ": 5467,
      "Ġrhe": 5468,
      "Op": 5469,
      "eeen": 5470,
      "tfn": 5471,
      "oui": 5472,
      "hao": 5473,
      "loe": 5474,
      "itw": 5475,
      "ĠëĬĶ": 5476,
      "ĠaD": 5477,
      "Ġiep": 5478,
      "Ġdse": 5479,
      "Ġmei": 5480,
      "rrp": 5481,
      "rua": 5482,
      "fI": 5483,
      "hse": 5484,
      "lao": 5485,
      "è¾": 5486,
      "Ġinh": 5487,
      "hhn": 5488,
      "nca": 5489,
      "daa": 5490,
      "ina": 5491,
      "Ġdar": 5492,
      "ĠPe": 5493,
      "sna": 5494,
      "ĠcI": 5495,
      "aiw": 5496,
      "ocn": 5497,
      "ĠnL": 5498,
      "lew": 5499,
      "has": 5500,
      "rtw": 5501,
      "nua": 5502,
      "ĠSn": 5503,
      "afs": 5504,
      "iC": 5505,
      "kk": 5506,
      "roa": 5507,
      "Ġsrl": 5508,
      "Ġpeo": 5509,
      "tmd": 5510,
      "Ġæĸ": 5511,
      "åıĳ": 5512,
      "atee": 5513,
      "hss": 5514,
      "bI": 5515,
      "veo": 5516,
      "aM": 5517,
      "led": 5518,
      "lne": 5519,
      "yT": 5520,
      "Ġsey": 5521,
      "ohf": 5522,
      "æĮģ": 5523,
      "Ġoq": 5524,
      "Ġrsd": 5525,
      "tps": 5526,
      "ĠâĢĻ": 5527,
      "Ġtlo": 5528,
      "Ġril": 5529,
      "tlg": 5530,
      "Ġeda": 5531,
      "lA": 5532,
      "Ġlon": 5533,
      "aiy": 5534,
      "Ġ',": 5535,
      "lla": 5536,
      "':": 5537,
      "mT": 5538,
      "tH": 5539,
      "ĠĠčĠ": 5540,
      "ahp": 5541,
      "Ġåľ¨": 5542,
      "hos": 5543,
      "rnr": 5544,
      "Ġmer": 5545,
      "aud": 5546,
      "dey": 5547,
      "ĠEa": 5548,
      "snt": 5549,
      "sip": 5550,
      "iR": 5551,
      "rtd": 5552,
      "Ġtop": 5553,
      "ĠsO": 5554,
      "Ġstc": 5555,
      "Ġlie": 5556,
      "Bf": 5557,
      "yta": 5558,
      "åł": 5559,
      "Ġasc": 5560,
      "Ġnq": 5561,
      "ĠSo": 5562,
      "ĠNe": 5563,
      "(`": 5564,
      "ĨĮ": 5565,
      "ãģĭ": 5566,
      "Ġesm": 5567,
      "Ġehd": 5568,
      "ftt": 5569,
      "uI": 5570,
      "dew": 5571,
      "int": 5572,
      "Ġget": 5573,
      "amr": 5574,
      "ĠiM": 5575,
      "Ġieg": 5576,
      "Ġrol": 5577,
      "iua": 5578,
      "Ġä¸Ģ": 5579,
      "tfi": 5580,
      "rct": 5581,
      "Ġedn": 5582,
      "*,": 5583,
      "dA": 5584,
      "oN": 5585,
      "Ġlss": 5586,
      "Ġlnn": 5587,
      "tml": 5588,
      "aL": 5589,
      "Ġ$": 5590,
      "Ġiod": 5591,
      "ncn": 5592,
      "ĠãĤ¹": 5593,
      "Ġiil": 5594,
      "aab": 5595,
      "ooy": 5596,
      "ĠĠĠč": 5597,
      "nco": 5598,
      "tpo": 5599,
      "Ġeds": 5600,
      "Ġsq": 5601,
      "ĠdE": 5602,
      "shc": 5603,
      "Ġehl": 5604,
      "Pg": 5605,
      "Ġtla": 5606,
      "aul": 5607,
      ">)": 5608,
      "ĠoO": 5609,
      "icr": 5610,
      "Ġohh": 5611,
      "Ġpea": 5612,
      "ver": 5613,
      "Ġtap": 5614,
      "Ġahd": 5615,
      "Ġrnl": 5616,
      "Ġdan": 5617,
      "Ġvy": 5618,
      "rus": 5619,
      "Ġeln": 5620,
      "Ġtnf": 5621,
      "Ġile": 5622,
      "Ġlar": 5623,
      "nog": 5624,
      "ecm": 5625,
      "Ġenf": 5626,
      "hla": 5627,
      "Ġëĵ": 5628,
      "_<": 5629,
      "ĠnO": 5630,
      "now": 5631,
      "rcs": 5632,
      "dae": 5633,
      "°ĥ": 5634,
      "rag": 5635,
      "heb": 5636,
      "Cy": 5637,
      "Ġnnl": 5638,
      "ĥ¨": 5639,
      "Ġtrm": 5640,
      "Ġrrh": 5641,
      "ĠIc": 5642,
      "imt": 5643,
      "Ġahi": 5644,
      "adp": 5645,
      "srp": 5646,
      "è¯¥": 5647,
      "åĬ¨": 5648,
      ">(": 5649,
      "Ġaho": 5650,
      "Ġrsl": 5651,
      "Ġuta": 5652,
      "eov": 5653,
      "uta": 5654,
      "Ġdss": 5655,
      "ego": 5656,
      "jf": 5657,
      "rnt": 5658,
      "Ġnnd": 5659,
      "Ġloi": 5660,
      "rnp": 5661,
      "auh": 5662,
      "ĠSs": 5663,
      "Ff": 5664,
      "btt": 5665,
      "ioh": 5666,
      "rR": 5667,
      "Ġirl": 5668,
      "Ġrod": 5669,
      "Ġhth": 5670,
      "ĠÐ»": 5671,
      "jm": 5672,
      "Ġsew": 5673,
      "Ġlns": 5674,
      "hlo": 5675,
      "oow": 5676,
      "osw": 5677,
      "eum": 5678,
      "inp": 5679,
      "dao": 5680,
      "è½": 5681,
      "Ġdai": 5682,
      "Ġdne": 5683,
      "ama": 5684,
      "Ġãģ§": 5685,
      "<_": 5686,
      "tD": 5687,
      "}.": 5688,
      "tpn": 5689,
      "icn": 5690,
      "Ġtdo": 5691,
      "ëĲĺ": 5692,
      "Ġdie": 5693,
      "ĠAn": 5694,
      "aye": 5695,
      "Cw": 5696,
      "gta": 5697,
      "sR": 5698,
      "Ġntc": 5699,
      "Ġenm": 5700,
      "<-": 5701,
      "Iv": 5702,
      "Ġtrf": 5703,
      "tek": 5704,
      "åĳ½": 5705,
      "Hp": 5706,
      "ĠaW": 5707,
      "ĠoD": 5708,
      "Ġsrd": 5709,
      "Ġdon": 5710,
      "acl": 5711,
      "Ġaeb": 5712,
      "Ġitc": 5713,
      "nig": 5714,
      "soh": 5715,
      "Ġosc": 5716,
      "rpe": 5717,
      "cto": 5718,
      "Ġtln": 5719,
      "ÙĪ": 5720,
      "Ġtdd": 5721,
      "Ġiad": 5722,
      "Ġhii": 5723,
      "Ġdre": 5724,
      "Ġbv": 5725,
      "rty": 5726,
      "rca": 5727,
      "nng": 5728,
      "nhf": 5729,
      "ity": 5730,
      "hli": 5731,
      "ldt": 5732,
      "åĪĻ": 5733,
      "Ġåı¯": 5734,
      "ĭ°": 5735,
      "ĠEs": 5736,
      "(>": 5737,
      "hE": 5738,
      "env": 5739,
      "ams": 5740,
      "awe": 5741,
      "à¤°": 5742,
      "oM": 5743,
      "eeei": 5744,
      "Ġhsi": 5745,
      "efu": 5746,
      "ncs": 5747,
      "Ġetg": 5748,
      "isg": 5749,
      "olm": 5750,
      "oad": 5751,
      "Ġols": 5752,
      "Ġdoi": 5753,
      "Ġesf": 5754,
      "Bp": 5755,
      "cta": 5756,
      "hie": 5757,
      "Ġinl": 5758,
      "ocd": 5759,
      "lhd": 5760,
      "à¥į": 5761,
      "Ġrad": 5762,
      "Ġrrl": 5763,
      "ecf": 5764,
      "Ġå¤": 5765,
      "mI": 5766,
      "Ġney": 5767,
      "edb": 5768,
      "nev": 5769,
      "ĠMe": 5770,
      "dti": 5771,
      "Ġaof": 5772,
      "ary": 5773,
      "ĠTc": 5774,
      "amo": 5775,
      "fta": 5776,
      "Ġdos": 5777,
      "ncr": 5778,
      "éĻĲ": 5779,
      "Gu": 5780,
      "nal": 5781,
      "Ġrid": 5782,
      "Ġfen": 5783,
      "ihc": 5784,
      "Ġahh": 5785,
      "Ġaht": 5786,
      "ĠoH": 5787,
      "Ġnsu": 5788,
      "tmh": 5789,
      "tfd": 5790,
      "tpr": 5791,
      "Gc": 5792,
      "lse": 5793,
      "Ġtif": 5794,
      "Ġtda": 5795,
      "emc": 5796,
      "kea": 5797,
      "iag": 5798,
      "ici": 5799,
      "hlr": 5800,
      "`(": 5801,
      "Ġä½¿": 5802,
      "Ġaac": 5803,
      "Ġohi": 5804,
      "Ġshs": 5805,
      "iip": 5806,
      "egs": 5807,
      "ĠSi": 5808,
      "Ġç»": 5809,
      "Ġstu": 5810,
      "onw": 5811,
      "itb": 5812,
      "och": 5813,
      "ãĥ¥": 5814,
      "åĬł": 5815,
      "ãģı": 5816,
      "slc": 5817,
      "oul": 5818,
      "ĠSd": 5819,
      "kte": 5820,
      "rna": 5821,
      "Ġosu": 5822,
      "Ġhot": 5823,
      "emu": 5824,
      "Ġedo": 5825,
      "ì»¨": 5826,
      "Ġtdr": 5827,
      "Ġnid": 5828,
      "Ġrtc": 5829,
      "oab": 5830,
      "ãĤ°": 5831,
      "iui": 5832,
      "ĠEi": 5833,
      "sal": 5834,
      "Ġnde": 5835,
      "afa": 5836,
      "Ġæĺ": 5837,
      "sP": 5838,
      "Ġrle": 5839,
      "Dp": 5840,
      "¼Ģ": 5841,
      "Ġtdi": 5842,
      "Ġohs": 5843,
      "olf": 5844,
      "iuo": 5845,
      "hda": 5846,
      "thw": 5847,
      "efc": 5848,
      "tph": 5849,
      "bta": 5850,
      "Ġtce": 5851,
      "Ġtim": 5852,
      "Ġtty": 5853,
      "Ġahr": 5854,
      "Ġhnr": 5855,
      "Ġfei": 5856,
      "Ġeld": 5857,
      "Ġnhs": 5858,
      "Ġhis": 5859,
      "ĠTu": 5860,
      "ĠSr": 5861,
      "Wf": 5862,
      "lan": 5863,
      "ĠaF": 5864,
      "Ġhec": 5865,
      "ouh": 5866,
      "nuh": 5867,
      "Ġeim": 5868,
      "ebt": 5869,
      "Ġë¡": 5870,
      ")`": 5871,
      "iP": 5872,
      "nun": 5873,
      "lss": 5874,
      "sad": 5875,
      "ĠsH": 5876,
      "aob": 5877,
      "scn": 5878,
      "ĠEr": 5879,
      "Tv": 5880,
      "iah": 5881,
      "Ġrep": 5882,
      "Ġrtu": 5883,
      "rev": 5884,
      "ihu": 5885,
      "nud": 5886,
      "oye": 5887,
      "Ġlis": 5888,
      "omo": 5889,
      "nN": 5890,
      "Ġsde": 5891,
      "Ġrnd": 5892,
      "shu": 5893,
      "sN": 5894,
      "Ġgk": 5895,
      "sag": 5896,
      "tpi": 5897,
      "rui": 5898,
      "Ġitu": 5899,
      "Ġcto": 5900,
      "stb": 5901,
      "Ġeap": 5902,
      "wto": 5903,
      "Ġaha": 5904,
      "nci": 5905,
      "ëħ¸": 5906,
      "ĠiL": 5907,
      "Ġfer": 5908,
      "thy": 5909,
      "Ġhri": 5910,
      "ics": 5911,
      "sco": 5912,
      "ĠčĠĠ": 5913,
      "nad": 5914,
      "Ġrey": 5915,
      "Ġals": 5916,
      "Ġind": 5917,
      "Ġvb": 5918,
      "rah": 5919,
      ".{": 5920,
      "Ġssu": 5921,
      "Ġrrd": 5922,
      "esv": 5923,
      "eiv": 5924,
      "orw": 5925,
      "Ġ\"\"": 5926,
      "ìłľ": 5927,
      "doe": 5928,
      "Ġtdt": 5929,
      "Ġaaf": 5930,
      "ony": 5931,
      "ewo": 5932,
      "hai": 5933,
      "Ġshh": 5934,
      "Ġheu": 5935,
      "iog": 5936,
      "ocl": 5937,
      "nP": 5938,
      "Ġide": 5939,
      "Ġuto": 5940,
      "irp": 5941,
      "egi": 5942,
      "Mg": 5943,
      "del": 5944,
      "Ġsls": 5945,
      "rsg": 5946,
      "çĶŁ": 5947,
      "Ġoha": 5948,
      "ette": 5949,
      "Ġcta": 5950,
      "ç®¡": 5951,
      ")>": 5952,
      "čĠĠĠ": 5953,
      "Ġnrd": 5954,
      "Ġhat": 5955,
      "Ġhsr": 5956,
      "oob": 5957,
      "ddt": 5958,
      "los": 5959,
      "arb": 5960,
      "wta": 5961,
      "ttv": 5962,
      "alp": 5963,
      "ĠIu": 5964,
      "åħ¥": 5965,
      "hon": 5966,
      "mta": 5967,
      "tB": 5968,
      "Ġaou": 5969,
      "Ġiey": 5970,
      "rhc": 5971,
      "rtb": 5972,
      "rco": 5973,
      "æĸ¹": 5974,
      "ĠrL": 5975,
      "eeer": 5976,
      "ico": 5977,
      "ĠEo": 5978,
      "pta": 5979,
      "{.": 5980,
      "êµ": 5981,
      "Ġtsp": 5982,
      "Ġahl": 5983,
      "Ġotf": 5984,
      "lE": 5985,
      "Ġohd": 5986,
      "tdg": 5987,
      "olp": 5988,
      "Ġedr": 5989,
      "±»": 5990,
      "Ġttw": 5991,
      "Ġods": 5992,
      "ĠrO": 5993,
      "ĠAd": 5994,
      "lie": 5995,
      "Ġdns": 5996,
      "noy": 5997,
      "ruo": 5998,
      "scs": 5999,
      "uts": 6000,
      "Ñİ": 6001,
      "ĠaB": 6002,
      "Ġaj": 6003,
      "Ġalo": 6004,
      "Ġnha": 6005,
      "ä»¤": 6006,
      "-<": 6007,
      "Rw": 6008,
      "Ġoho": 6009,
      "Ġlrs": 6010,
      "etea": 6011,
      "leb": 6012,
      "ews": 6013,
      "nmt": 6014,
      "ä½ķ": 6015,
      "ì¤": 6016,
      "Ġalt": 6017,
      "ory": 6018,
      "rci": 6019,
      "oma": 6020,
      "hre": 6021,
      "Ġíķľ": 6022,
      "Ŀ¼": 6023,
      "Ġshn": 6024,
      "Ġoiu": 6025,
      "Ġlat": 6026,
      "Ġrde": 6027,
      "ami": 6028,
      "Nw": 6029,
      "gto": 6030,
      "lln": 6031,
      "tgt": 6032,
      "dS": 6033,
      "px": 6034,
      "Ġoeb": 6035,
      "omn": 6036,
      "Vt": 6037,
      "ded": 6038,
      "lre": 6039,
      "Ġtdn": 6040,
      "Ġaiu": 6041,
      "Ġoht": 6042,
      "anb": 6043,
      "slu": 6044,
      "Ġä»¥": 6045,
      "Ġatm": 6046,
      "Ġnht": 6047,
      "nui": 6048,
      "ewa": 6049,
      "ĠLe": 6050,
      "åĪĽ": 6051,
      ".}": 6052,
      "Ġtnp": 6053,
      "Ġahn": 6054,
      "Ġkg": 6055,
      "amn": 6056,
      "ĠSh": 6057,
      "rcn": 6058,
      "afo": 6059,
      "oms": 6060,
      "lda": 6061,
      "dtr": 6062,
      "hhh": 6063,
      "sca": 6064,
      "tF": 6065,
      "Ġaau": 6066,
      "llo": 6067,
      "ial": 6068,
      "ĠnD": 6069,
      "Ġrhs": 6070,
      "Ġlnr": 6071,
      "Ġdis": 6072,
      "ãĥĲ": 6073,
      "nur": 6074,
      "rcr": 6075,
      "afn": 6076,
      "ëıĦ": 6077,
      "Ġuts": 6078,
      "ofo": 6079,
      "loo": 6080,
      "Ġoau": 6081,
      "ĠsD": 6082,
      "Ġlii": 6083,
      "Ġdni": 6084,
      "rur": 6085,
      "apt": 6086,
      "hns": 6087,
      "Ġala": 6088,
      "Ġseb": 6089,
      "ĠnH": 6090,
      "eett": 6091,
      "oiw": 6092,
      "Ġedi": 6093,
      "ä¹ĭ": 6094,
      ",*": 6095,
      "Ġtue": 6096,
      "Ġftt": 6097,
      "oiy": 6098,
      "euf": 6099,
      "nab": 6100,
      "sci": 6101,
      "/:": 6102,
      "Ġdor": 6103,
      "Ġihs": 6104,
      "sng": 6105,
      "omi": 6106,
      "Ny": 6107,
      "Ry": 6108,
      "See": 6109,
      "sod": 6110,
      "uto": 6111,
      "Øª": 6112,
      "Ġiq": 6113,
      "Ġhni": 6114,
      "sig": 6115,
      "Ġedh": 6116,
      "Ġctn": 6117,
      "isy": 6118,
      "ĠAl": 6119,
      "Ġeif": 6120,
      "keo": 6121,
      "nM": 6122,
      "Ġthc": 6123,
      "Ġaic": 6124,
      "Ġalr": 6125,
      "Ġhir": 6126,
      "rP": 6127,
      "snh": 6128,
      "raw": 6129,
      "rch": 6130,
      "Ġä¸ª": 6131,
      "Fp": 6132,
      "dne": 6133,
      "Ġotm": 6134,
      "Ġhtl": 6135,
      "Ġrq": 6136,
      "Ġhno": 6137,
      "Ġlth": 6138,
      "ãĤµ": 6139,
      "amh": 6140,
      "das": 6141,
      "aib": 6142,
      "eya": 6143,
      "ofs": 6144,
      "Ð¶": 6145,
      "Ġepe": 6146,
      "Ġreg": 6147,
      "nlm": 6148,
      "say": 6149,
      "afi": 6150,
      "vei": 6151,
      "Ġohr": 6152,
      "Ġiid": 6153,
      "osy": 6154,
      "sog": 6155,
      "ray": 6156,
      "Ġoac": 6157,
      "ĠÐº": 6158,
      "Ġhst": 6159,
      "tfl": 6160,
      "roh": 6161,
      "ìħ": 6162,
      "ĠrD": 6163,
      "odf": 6164,
      "run": 6165,
      "çīĪ": 6166,
      "ux": 6167,
      "aek": 6168,
      "ĠAh": 6169,
      "åĮħ": 6170,
      "dE": 6171,
      "dse": 6172,
      "ĠeV": 6173,
      "saw": 6174,
      "sol": 6175,
      "Ġntm": 6176,
      "Ġhoa": 6177,
      "isw": 6178,
      "ãĤī": 6179,
      "Ġerf": 6180,
      "mto": 6181,
      "ven": 6182,
      "thb": 6183,
      "nlf": 6184,
      "Py": 6185,
      "Ġird": 6186,
      "ç»Ħ": 6187,
      "ral": 6188,
      "ëĮĢ": 6189,
      "Ġali": 6190,
      "Ġwet": 6191,
      "ssy": 6192,
      "otee": 6193,
      "Ġeop": 6194,
      "Ġ,/": 6195,
      "osb": 6196,
      "rsw": 6197,
      "rsy": 6198,
      "rhu": 6199,
      "ofa": 6200,
      "âĶĢ": 6201,
      "lon": 6202,
      "sua": 6203,
      "hld": 6204,
      "iN": 6205,
      "oL": 6206,
      "asb": 6207,
      "oud": 6208,
      "iun": 6209,
      "owe": 6210,
      "Ġãģ¦": 6211,
      "Ġalh": 6212,
      "ĠmT": 6213,
      "Ġmtt": 6214,
      "Ġpes": 6215,
      "nch": 6216,
      "afr": 6217,
      "ius": 6218,
      "Ġall": 6219,
      "Ġohn": 6220,
      "eeI": 6221,
      "Ġ.'": 6222,
      "nul": 6223,
      "ĠSl": 6224,
      "Ġerm": 6225,
      "ĠhC": 6226,
      "Ġ,:": 6227,
      "Ġyet": 6228,
      "tpd": 6229,
      "ĠEn": 6230,
      "Ġetw": 6231,
      "Ġtrp": 6232,
      "Ġlsi": 6233,
      "Ġcti": 6234,
      "rog": 6235,
      "Ġìļ": 6236,
      "Ø¨": 6237,
      "à¦¤": 6238,
      "é¢": 6239,
      "eeT": 6240,
      "Ġceh": 6241,
      "nsw": 6242,
      "nrg": 6243,
      "rud": 6244,
      "ldi": 6245,
      "ê³¼": 6246,
      "hor": 6247,
      "Ġasm": 6248,
      "Ġnhn": 6249,
      "Ġieb": 6250,
      "Ġdnn": 6251,
      "rig": 6252,
      "Ġyk": 6253,
      "ãĥ¬": 6254,
      "hds": 6255,
      "Ġsau": 6256,
      "aq": 6257,
      "hnn": 6258,
      "Ġtip": 6259,
      "Ġnls": 6260,
      "Ġlno": 6261,
      "taee": 6262,
      "zu": 6263,
      "ĠiO": 6264,
      "Ġiht": 6265,
      "erv": 6266,
      "Wp": 6267,
      "die": 6268,
      "xv": 6269,
      "è·": 6270,
      "Ġloa": 6271,
      "omr": 6272,
      "hdo": 6273,
      ":/": 6274,
      "Ġadt": 6275,
      "ĠnF": 6276,
      "Ġlsr": 6277,
      "suo": 6278,
      "sus": 6279,
      "ç¨ĭ": 6280,
      "ë¹Ħ": 6281,
      "Ġads": 6282,
      "Ġshi": 6283,
      "Ġiew": 6284,
      "Ġhnt": 6285,
      "Ġdat": 6286,
      "ssw": 6287,
      "amd": 6288,
      "ĠãĥĪ": 6289,
      "Ġnhh": 6290,
      "Ġlot": 6291,
      "Ġlec": 6292,
      "ĠmI": 6293,
      "Ġhrr": 6294,
      "Ġwk": 6295,
      "ilu": 6296,
      "ncd": 6297,
      "hln": 6298,
      "eup": 6299,
      "ncl": 6300,
      "Pw": 6301,
      "aD": 6302,
      "eG": 6303,
      "Ġsho": 6304,
      "Ġnew": 6305,
      "nfs": 6306,
      "='": 6307,
      "jp": 6308,
      "yx": 6309,
      "Ġhtd": 6310,
      "hsf": 6311,
      "ľ°": 6312,
      "sdu": 6313,
      "hdr": 6314,
      "nq": 6315,
      "zc": 6316,
      "Ġasf": 6317,
      "ĠoB": 6318,
      "Ġnac": 6319,
      "nms": 6320,
      "ift": 6321,
      "ìĽ": 6322,
      "Ġrhn": 6323,
      "egn": 6324,
      "ruh": 6325,
      "hdi": 6326,
      "èĩª": 6327,
      "#\"": 6328,
      "ĠtG": 6329,
      "Ġhit": 6330,
      "Ġltl": 6331,
      "Ġlri": 6332,
      "ĠCt": 6333,
      "sM": 6334,
      "Ġnau": 6335,
      "Ġnho": 6336,
      "Ġhso": 6337,
      "Ġdsi": 6338,
      "Cb": 6339,
      "æģ¯": 6340,
      "Ġssm": 6341,
      "egr": 6342,
      "iur": 6343,
      "//": 6344,
      "Lg": 6345,
      "aO": 6346,
      "iol": 6347,
      "Ġnhi": 6348,
      "Ġpen": 6349,
      "cx": 6350,
      "Ġnhr": 6351,
      "Ġcts": 6352,
      "Ġueh": 6353,
      "Ġpei": 6354,
      "hsm": 6355,
      "ĠiD": 6356,
      "Ġbet": 6357,
      "emf": 6358,
      "icd": 6359,
      "Ġsac": 6360,
      "iow": 6361,
      "Ġtog": 6362,
      "ĠrH": 6363,
      "ahg": 6364,
      "iay": 6365,
      "Ġesp": 6366,
      "afd": 6367,
      "Ġå°": 6368,
      "íģ´": 6369,
      "êµ¬": 6370,
      "Ġiau": 6371,
      "Ġhsn": 6372,
      "Ġdth": 6373,
      "sev": 6374,
      "emm": 6375,
      "Ġell": 6376,
      "nma": 6377,
      "apa": 6378,
      "Ġqe": 6379,
      "à§ģ": 6380,
      "cti": 6381,
      "hoi": 6382,
      "ç©º": 6383,
      "ĠoF": 6384,
      "tly": 6385,
      "hhd": 6386,
      "éĻ¤": 6387,
      "Ġdrs": 6388,
      "ofi": 6389,
      "ofr": 6390,
      "hap": 6391,
      "Aee": 6392,
      "tW": 6393,
      "Ġooc": 6394,
      "nob": 6395,
      "kes": 6396,
      "lai": 6397,
      "oq": 6398,
      "wts": 6399,
      "Ġuti": 6400,
      "ĠfT": 6401,
      "Ġ'.": 6402,
      "rad": 6403,
      "Ġoli": 6404,
      "shm": 6405,
      "egd": 6406,
      "aps": 6407,
      "ĠåŃ": 6408,
      "cts": 6409,
      "fti": 6410,
      "Ġttb": 6411,
      "utn": 6412,
      "Ġatp": 6413,
      "Ġoll": 6414,
      "Ġosm": 6415,
      "Ġsht": 6416,
      "nfa": 6417,
      "åħ³": 6418,
      "(<": 6419,
      "Ġky": 6420,
      "eys": 6421,
      "sft": 6422,
      "ìĹ¬": 6423,
      "iod": 6424,
      "oek": 6425,
      "ãĥ§": 6426,
      "ldr": 6427,
      "vtt": 6428,
      "Ġaoc": 6429,
      "Ġssc": 6430,
      "Ġhsa": 6431,
      "eyo": 6432,
      "'=": 6433,
      "lar": 6434,
      "Ġíķĺ": 6435,
      "Ġdsr": 6436,
      "ehee": 6437,
      "sow": 6438,
      "ilc": 6439,
      "iaw": 6440,
      "sdc": 6441,
      "èĢħ": 6442,
      "ftn": 6443,
      "iig": 6444,
      "eyr": 6445,
      "çİ°": 6446,
      "Ġarm": 6447,
      "eaet": 6448,
      "ecp": 6449,
      "Ġstm": 6450,
      "egh": 6451,
      "Ġæī": 6452,
      "oO": 6453,
      "yts": 6454,
      "ĠhR": 6455,
      "tdy": 6456,
      "epu": 6457,
      "tcc": 6458,
      "rN": 6459,
      "Ġthu": 6460,
      "Ġlnt": 6461,
      "niw": 6462,
      "dan": 6463,
      "Ġoou": 6464,
      "Ġolr": 6465,
      "Ġgte": 6466,
      "ĠEd": 6467,
      "lnn": 6468,
      "mts": 6469,
      "rol": 6470,
      "Ġaom": 6471,
      "Ġola": 6472,
      "ĠsW": 6473,
      "Ġcaa": 6474,
      "Ġfta": 6475,
      "onb": 6476,
      "nft": 6477,
      "fto": 6478,
      "Ġshr": 6479,
      "rng": 6480,
      "apo": 6481,
      "ìļ°": 6482,
      "::": 6483,
      "iad": 6484,
      "qg": 6485,
      "Ġolt": 6486,
      "Ġstf": 6487,
      "Ġnsc": 6488,
      "Ġcae": 6489,
      "Ġuaa": 6490,
      "ohp": 6491,
      "Kt": 6492,
      "ĠoW": 6493,
      "Ġdrr": 6494,
      "eoet": 6495,
      "ĠTf": 6496,
      "Ġ/,": 6497,
      "iuh": 6498,
      "iL": 6499,
      "tj": 6500,
      "Ġsha": 6501,
      "ĠnW": 6502,
      "ĠiF": 6503,
      "ĠiH": 6504,
      "Ġrew": 6505,
      "eak": 6506,
      "nsb": 6507,
      "atv": 6508,
      "soy": 6509,
      "tcu": 6510,
      "Ġ:,": 6511,
      "nmo": 6512,
      "Ġotp": 6513,
      "Ġihi": 6514,
      "Ġmta": 6515,
      "toee": 6516,
      "fx": 6517,
      "Ĭ¶": 6518,
      "ĠsF": 6519,
      "Ġutn": 6520,
      "nsy": 6521,
      "afh": 6522,
      "íĶĮ": 6523,
      "loi": 6524,
      "lor": 6525,
      "pts": 6526,
      "Ġtag": 6527,
      "ĠsB": 6528,
      "Ġreb": 6529,
      "ndm": 6530,
      "ing": 6531,
      "Uu": 6532,
      "wtn": 6533,
      "Ġihh": 6534,
      "srg": 6535,
      "rcd": 6536,
      "Ġald": 6537,
      "rlc": 6538,
      "vI": 6539,
      "Ġihn": 6540,
      "Ġhah": 6541,
      "Ġlst": 6542,
      "tuu": 6543,
      "ĠEh": 6544,
      "íħĮ": 6545,
      "Yt": 6546,
      "yeh": 6547,
      "éĺ": 6548,
      "Ġaif": 6549,
      "Ġisu": 6550,
      "lsm": 6551,
      "åıĸ": 6552,
      "Ġonc": 6553,
      "Ġdnr": 6554,
      "Ġuae": 6555,
      "ofn": 6556,
      "rod": 6557,
      "ĠiW": 6558,
      "Ġrht": 6559,
      "epc": 6560,
      "tuc": 6561,
      "rmt": 6562,
      "nL": 6563,
      "yto": 6564,
      "èª": 6565,
      "ìĨĮ": 6566,
      "Ġrhi": 6567,
      "Ġlir": 6568,
      "lld": 6569,
      "å½ĵ": 6570,
      "ĠìĹĲ": 6571,
      "iM": 6572,
      "Ġaln": 6573,
      "Ġux": 6574,
      "Ġfto": 6575,
      "tlw": 6576,
      "ltg": 6577,
      "ez": 6578,
      "hdh": 6579,
      "ims": 6580,
      ")<": 6581,
      "inh": 6582,
      "pti": 6583,
      "Ġtlu": 6584,
      "Ġrtm": 6585,
      "opt": 6586,
      "bto": 6587,
      "his": 6588,
      "Ġatg": 6589,
      "Ġids": 6590,
      "Ġrac": 6591,
      "feh": 6592,
      "gts": 6593,
      "Ġsla": 6594,
      "Ġntf": 6595,
      "Ġrau": 6596,
      "nrw": 6597,
      "ihm": 6598,
      "lhl": 6599,
      "iud": 6600,
      "eyi": 6601,
      "ĠCa": 6602,
      "ìłģ": 6603,
      "Ġaam": 6604,
      "Ġsj": 6605,
      "Ġhio": 6606,
      "ĠcA": 6607,
      "eyn": 6608,
      "btn": 6609,
      "pto": 6610,
      "Ġiac": 6611,
      "slm": 6612,
      "Ġedd": 6613,
      "rft": 6614,
      "<(": 6615,
      "cae": 6616,
      "Ġå¯": 6617,
      "gx": 6618,
      "peh": 6619,
      "Ġitm": 6620,
      "Ġlni": 6621,
      "Ġlna": 6622,
      "Ġdii": 6623,
      "ĠuA": 6624,
      "Ġ\"_": 6625,
      "Ġ-\"": 6626,
      "caa": 6627,
      "rnh": 6628,
      "Ġoic": 6629,
      "Ġwte": 6630,
      "shf": 6631,
      "rlu": 6632,
      "hdn": 6633,
      "Eee": 6634,
      "lns": 6635,
      "vT": 6636,
      "ĸī": 6637,
      "Ġoj": 6638,
      "ndf": 6639,
      "deb": 6640,
      "è°ĥ": 6641,
      "Ġcx": 6642,
      "Ġcel": 6643,
      "eiet": 6644,
      "oib": 6645,
      "nnw": 6646,
      "ntee": 6647,
      "Ġëĵľ": 6648,
      "Ġanf": 6649,
      "Ġotg": 6650,
      "Ġneb": 6651,
      "Ġrls": 6652,
      "ĠhP": 6653,
      "Ġper": 6654,
      "ewi": 6655,
      "doo": 6656,
      "har": 6657,
      "Ġoda": 6658,
      "Ġsou": 6659,
      "Ġdtl": 6660,
      "orb": 6661,
      "nny": 6662,
      "rhm": 6663,
      "ofh": 6664,
      "ĠOe": 6665,
      "æį®": 6666,
      "geh": 6667,
      "Ġedl": 6668,
      "Ġatw": 6669,
      "ĠhN": 6670,
      "Ġdec": 6671,
      "idu": 6672,
      "llr": 6673,
      "Uc": 6674,
      "beh": 6675,
      "Ġnds": 6676,
      "Ġrsc": 6677,
      "row": 6678,
      "Ġerp": 6679,
      "Gm": 6680,
      "My": 6681,
      "Ú©": 6682,
      "Ġnli": 6683,
      "Ġhia": 6684,
      "tsee": 6685,
      "rdu": 6686,
      "Ġsli": 6687,
      "ĠnB": 6688,
      "Ġihr": 6689,
      "eff": 6690,
      "roy": 6691,
      "ä»¬": 6692,
      "æİ¥": 6693,
      "Ġanm": 6694,
      "Ġdri": 6695,
      "Ġptt": 6696,
      "nry": 6697,
      "lli": 6698,
      "ceh": 6699,
      "lsi": 6700,
      "Ġadd": 6701,
      "eteo": 6702,
      "ĠfI": 6703,
      "rul": 6704,
      "ĠãģĦ": 6705,
      "meh": 6706,
      "wae": 6707,
      "Ġnou": 6708,
      "Ġhsh": 6709,
      "Ġgeo": 6710,
      "ĠDe": 6711,
      "<)": 6712,
      "pel": 6713,
      "uaa": 6714,
      "çº": 6715,
      "Ġhal": 6716,
      "ãĥĩ": 6717,
      "aml": 6718,
      "ptr": 6719,
      "Ġadr": 6720,
      "Ġadn": 6721,
      "Ġslo": 6722,
      "Ġcao": 6723,
      "enet": 6724,
      "Ġ\"-": 6725,
      "iek": 6726,
      "Ġ_\"": 6727,
      "ĠEl": 6728,
      "Ġä¸º": 6729,
      "çĽ®": 6730,
      "ë©´": 6731,
      "'`": 6732,
      ";\"": 6733,
      "baa": 6734,
      "snl": 6735,
      "Ġï¼ļ": 6736,
      "Ġlrr": 6737,
      "snw": 6738,
      "ioy": 6739,
      "rdc": 6740,
      "Av": 6741,
      "ueh": 6742,
      "Ġnoc": 6743,
      "Ġhhe": 6744,
      "ĠlC": 6745,
      "ãĥ¡": 6746,
      "Ġety": 6747,
      "åħ¨": 6748,
      "\"#": 6749,
      "bti": 6750,
      "æĥ": 6751,
      "Ġanu": 6752,
      "Ġoln": 6753,
      "Ġsoc": 6754,
      "Ġrsu": 6755,
      "Ġhrt": 6756,
      "Ġleu": 6757,
      "niy": 6758,
      "omh": 6759,
      "rma": 6760,
      "dos": 6761,
      "è±¡": 6762,
      "ĻĢ": 6763,
      "Ġarc": 6764,
      "Ġaim": 6765,
      "Ġolo": 6766,
      "Ġhna": 6767,
      "Ġenp": 6768,
      "Va": 6769,
      "Ġtlc": 6770,
      "Ġohl": 6771,
      "Ġoim": 6772,
      "Ġslt": 6773,
      "Ġnln": 6774,
      "æľĢ": 6775,
      ".*": 6776,
      "Og": 6777,
      "eter": 6778,
      "Ġyte": 6779,
      "bx": 6780,
      "dar": 6781,
      "Ġodt": 6782,
      "hhl": 6783,
      "hnf": 6784,
      "ĠCs": 6785,
      "npt": 6786,
      "Ġect": 6787,
      "wx": 6788,
      "wtr": 6789,
      "Ġsds": 6790,
      "Ġils": 6791,
      "eset": 6792,
      "ãĤ»": 6793,
      "ĠåĻ¨": 6794,
      "Ġä¸Ń": 6795,
      "Ġè¡Į": 6796,
      "mae": 6797,
      "Ġcoe": 6798,
      "uel": 6799,
      "Ġtdh": 6800,
      "Ġntp": 6801,
      "eba": 6802,
      "Ġë¥¼": 6803,
      "`'": 6804,
      "Ġonm": 6805,
      "Ġctr": 6806,
      "ldo": 6807,
      "weh": 6808,
      "åŁ": 6809,
      "Ġaty": 6810,
      "Ġndd": 6811,
      "Ġlsn": 6812,
      "Ġdnt": 6813,
      "odm": 6814,
      "ewr": 6815,
      "opa": 6816,
      "à¤¾": 6817,
      "kei": 6818,
      "Ġij": 6819,
      "ewn": 6820,
      "Ġeip": 6821,
      "Ġrho": 6822,
      "Ġhoh": 6823,
      "Ġgea": 6824,
      "nhp": 6825,
      "dai": 6826,
      "gtn": 6827,
      "hsi": 6828,
      "waa": 6829,
      "ì¶": 6830,
      "Ġges": 6831,
      "iul": 6832,
      "hnm": 6833,
      "smt": 6834,
      "Ġeut": 6835,
      "don": 6836,
      "hnr": 6837,
      "ken": 6838,
      "Ġonu": 6839,
      "Ġolh": 6840,
      "Ġsic": 6841,
      "Ġssf": 6842,
      "Ġlsa": 6843,
      "alg": 6844,
      "Ġå®ļ": 6845,
      "rM": 6846,
      "Ġtdl": 6847,
      "Ġodd": 6848,
      "Ġstg": 6849,
      "Ġlah": 6850,
      "Ġloh": 6851,
      "rms": 6852,
      "twt": 6853,
      "ªĮ": 6854,
      "Ġrha": 6855,
      "Ġgen": 6856,
      "ctn": 6857,
      "paa": 6858,
      "Ġsnc": 6859,
      "Ġhad": 6860,
      "*.": 6861,
      "wti": 6862,
      "ÑĨ": 6863,
      "Ġiha": 6864,
      "etei": 6865,
      "åł´": 6866,
      "eU": 6867,
      "Ġtz": 6868,
      "Ġoif": 6869,
      "Ġrtf": 6870,
      "Ġltd": 6871,
      "tnee": 6872,
      "ebo": 6873,
      "hrm": 6874,
      "éĩı": 6875,
      "Ġanc": 6876,
      "Ġnic": 6877,
      "Ġnlr": 6878,
      "rnw": 6879,
      "ĠIm": 6880,
      "hct": 6881,
      "oD": 6882,
      "rL": 6883,
      "éĥ¨": 6884,
      "íĭ°": 6885,
      "Ġsdd": 6886,
      "rny": 6887,
      "spt": 6888,
      "ĠHe": 6889,
      "Ġarf": 6890,
      "Ġada": 6891,
      "ĠrF": 6892,
      "Ġdtd": 6893,
      "idc": 6894,
      "ãĤ±": 6895,
      "agt": 6896,
      "åº¦": 6897,
      "Tet": 6898,
      "uoe": 6899,
      "Ġold": 6900,
      "Ġitf": 6901,
      "Ġuao": 6902,
      "eate": 6903,
      "eok": 6904,
      "gti": 6905,
      "nO": 6906,
      "utr": 6907,
      "uae": 6908,
      "Ġilt": 6909,
      "isb": 6910,
      "aH": 6911,
      "coe": 6912,
      "uti": 6913,
      "Ġnj": 6914,
      "Ġrhh": 6915,
      "Ġrlh": 6916,
      "Ġdso": 6917,
      "hrs": 6918,
      "inl": 6919,
      "Ġnsm": 6920,
      "Ġuel": 6921,
      "Ġmto": 6922,
      "ĠéĢ": 6923,
      "fae": 6924,
      "lrs": 6925,
      "ĠeK": 6926,
      "Ġege": 6927,
      "Ġisc": 6928,
      "ĠrW": 6929,
      "Ġrli": 6930,
      "irg": 6931,
      "ĠTm": 6932,
      "him": 6933,
      "fA": 6934,
      "Ġdsn": 6935,
      "etes": 6936,
      "omd": 6937,
      "sui": 6938,
      "Rb": 6939,
      "cse": 6940,
      "Ġslr": 6941,
      "Ġnlt": 6942,
      "Ġiho": 6943,
      "Ġdeu": 6944,
      "Ġuoe": 6945,
      "Ġeag": 6946,
      "Vo": 6947,
      "fts": 6948,
      "ind": 6949,
      "yel": 6950,
      "Ġaap": 6951,
      "Ġiou": 6952,
      "Ġhnh": 6953,
      "Ġhol": 6954,
      "Ġhin": 6955,
      "Ġbk": 6956,
      "tyt": 6957,
      "Ġåº": 6958,
      "_#": 6959,
      "htl": 6960,
      "hat": 6961,
      "pae": 6962,
      "Ġstp": 6963,
      "Ġili": 6964,
      "Ġrlo": 6965,
      "Ġhil": 6966,
      "Ġcas": 6967,
      "nrb": 6968,
      "sfa": 6969,
      "ytn": 6970,
      "Ġntg": 6971,
      "Ġnla": 6972,
      "otv": 6973,
      "Vs": 6974,
      "Ġnru": 6975,
      "Ġdno": 6976,
      "Ġuas": 6977,
      "Ġkw": 6978,
      "efm": 6979,
      "ewh": 6980,
      "Ġæķ": 6981,
      "Ġoru": 6982,
      "Ġilo": 6983,
      "Ġhih": 6984,
      "Ġced": 6985,
      "enk": 6986,
      "lsf": 6987,
      "cA": 6988,
      "ĠcS": 6989,
      "ĠpT": 6990,
      "nmn": 6991,
      "nfo": 6992,
      "ĠÐ¼": 6993,
      "yae": 6994,
      "Ġrlt": 6995,
      "iob": 6996,
      "egl": 6997,
      "Mw": 6998,
      "¿ł": 6999,
      "Ġaue": 7000,
      "ima": 7001,
      "cao": 7002,
      "Ġaop": 7003,
      "Ġado": 7004,
      "Ġaip": 7005,
      "Ġsrf": 7006,
      "eeta": 7007,
      "Ġlrt": 7008,
      "gtr": 7009,
      "lec": 7010,
      "ptn": 7011,
      "Ġorc": 7012,
      "eten": 7013,
      "Ġwea": 7014,
      "apn": 7015,
      "sfs": 7016,
      "Ġãģ¨": 7017,
      "å·¥": 7018,
      "\";": 7019,
      "Ġodi": 7020,
      "Ġsam": 7021,
      "Ġrhr": 7022,
      "eeeh": 7023,
      "Ġlit": 7024,
      "Ġdot": 7025,
      "rry": 7026,
      "sry": 7027,
      "ãģ¤": 7028,
      "hif": 7029,
      "nmr": 7030,
      "ä¹¦": 7031,
      "dre": 7032,
      "gao": 7033,
      "ker": 7034,
      "mx": 7035,
      "ĠÑĥ": 7036,
      "Ġlso": 7037,
      "Ġyea": 7038,
      "tlb": 7039,
      "srw": 7040,
      "nfi": 7041,
      "Sv": 7042,
      "hni": 7043,
      "Ġnam": 7044,
      "ssb": 7045,
      "å®Ł": 7046,
      "Ġæľī": 7047,
      "ctr": 7048,
      "lth": 7049,
      "Ġadi": 7050,
      "nfn": 7051,
      "rnl": 7052,
      "ĠtU": 7053,
      "Ġtfe": 7054,
      "Ġtcs": 7055,
      "Ġlia": 7056,
      "Ġmaa": 7057,
      "tav": 7058,
      "riy": 7059,
      "shp": 7060,
      "æ¨": 7061,
      "Ġila": 7062,
      "Ġutr": 7063,
      "nek": 7064,
      "ewd": 7065,
      ":=": 7066,
      "mtn": 7067,
      "rnd": 7068,
      "ĠeY": 7069,
      "Ġhrh": 7070,
      "Ġlem": 7071,
      "rsb": 7072,
      "ãĤĤ": 7073,
      "ldn": 7074,
      "Ġoam": 7075,
      "Ġnnc": 7076,
      "Ġroc": 7077,
      "Ġmtn": 7078,
      "ced": 7079,
      "gae": 7080,
      "iq": 7081,
      "lis": 7082,
      "pA": 7083,
      "Ħı": 7084,
      "Ġotw": 7085,
      "Ġhro": 7086,
      "Ġhrn": 7087,
      "Ġlio": 7088,
      "Ġued": 7089,
      "rmo": 7090,
      "gel": 7091,
      "ytr": 7092,
      "Ġodo": 7093,
      "Ġlin": 7094,
      "rek": 7095,
      "ĠNt": 7096,
      "hth": 7097,
      "íĥ": 7098,
      "Ġace": 7099,
      "Ġrds": 7100,
      "Ġ=,": 7101,
      "tga": 7102,
      "Pb": 7103,
      "mti": 7104,
      "ë¥": 7105,
      "Ġaru": 7106,
      "Ġosf": 7107,
      "Ġsdi": 7108,
      "Ġlsl": 7109,
      "hsr": 7110,
      "Ġoty": 7111,
      "Ġodr": 7112,
      "Ġndt": 7113,
      "aaee": 7114,
      "ĠBe": 7115,
      ">'": 7116,
      "ĠeJ": 7117,
      "Ġfeh": 7118,
      "eaeo": 7119,
      "nmi": 7120,
      "åĲ¯": 7121,
      "bts": 7122,
      "Ġsrc": 7123,
      "Ġioc": 7124,
      "Ġhra": 7125,
      "Ġmeh": 7126,
      "ihf": 7127,
      "tpl": 7128,
      "ĠæĹ": 7129,
      "btr": 7130,
      "dss": 7131,
      "rq": 7132,
      "Ġodn": 7133,
      "Ġnhl": 7134,
      "Ġhem": 7135,
      "ĠlR": 7136,
      "Ġlef": 7137,
      "Ġdir": 7138,
      "ĠRt": 7139,
      "oH": 7140,
      "Ġanp": 7141,
      "Ġorf": 7142,
      "Ġslh": 7143,
      "Ġnrc": 7144,
      "Ġrlr": 7145,
      "ĠhL": 7146,
      "Ġlal": 7147,
      "Ġcse": 7148,
      "rhf": 7149,
      "ifs": 7150,
      "éĢī": 7151,
      "Ġdst": 7152,
      "rib": 7153,
      "suh": 7154,
      "čĠĠĊ": 7155,
      "Ġsdt": 7156,
      "Ġhsl": 7157,
      "Ġlra": 7158,
      "ĠdC": 7159,
      "tiee": 7160,
      "riw": 7161,
      "sun": 7162,
      "tgn": 7163,
      "sma": 7164,
      "bae": 7165,
      "Ġrou": 7166,
      "Ġhef": 7167,
      "Ġuse": 7168,
      "ãĤģ": 7169,
      "scr": 7170,
      "hdl": 7171,
      "ĠčĠĊ": 7172,
      "Ġsln": 7173,
      "Ġhle": 7174,
      "Ġdna": 7175,
      "ĠuS": 7176,
      "rlm": 7177,
      "Ġxc": 7178,
      "doi": 7179,
      "ftr": 7180,
      "uA": 7181,
      "ç±»": 7182,
      "eik": 7183,
      "sch": 7184,
      "ç§°": 7185,
      "Ks": 7186,
      "æĵį": 7187,
      "Ġoom": 7188,
      "Ġniu": 7189,
      "eaea": 7190,
      "tsv": 7191,
      "tdw": 7192,
      "Ġecs": 7193,
      "ipt": 7194,
      "#-": 7195,
      "Ġshl": 7196,
      "Ġelc": 7197,
      "ebs": 7198,
      "Ġtme": 7199,
      "Ġorp": 7200,
      "Ġnty": 7201,
      "ĠpI": 7202,
      "sur": 7203,
      "ĠãģĮ": 7204,
      "#_": 7205,
      "dor": 7206,
      "faa": 7207,
      "rO": 7208,
      "yti": 7209,
      "Ġirc": 7210,
      "Ġcos": 7211,
      "Ġ,=": 7212,
      "nnb": 7213,
      "lni": 7214,
      "wao": 7215,
      "íĨ": 7216,
      "Ġric": 7217,
      "Ġdit": 7218,
      "Ġune": 7219,
      "Ġehu": 7220,
      "htg": 7221,
      "woe": 7222,
      "Ġoce": 7223,
      "Ġnim": 7224,
      "ĠiB": 7225,
      "Ġlsh": 7226,
      "Ġuoo": 7227,
      "aoee": 7228,
      "sny": 7229,
      "Ġehc": 7230,
      "Ġetb": 7231,
      "Ġadh": 7232,
      "Ġoof": 7233,
      "Ġë¡ľ": 7234,
      "lat": 7235,
      "sD": 7236,
      "Ġuon": 7237,
      "Ġeay": 7238,
      "Ik": 7239,
      "coo": 7240,
      "con": 7241,
      "gaa": 7242,
      "Ġsnu": 7243,
      "api": 7244,
      "hno": 7245,
      "use": 7246,
      "éģ": 7247,
      "Ġahc": 7248,
      "Ġonp": 7249,
      "Ġilr": 7250,
      "esk": 7251,
      "Ġeog": 7252,
      "apr": 7253,
      "Ġoaf": 7254,
      "Ġndo": 7255,
      "eeto": 7256,
      "Ġcan": 7257,
      "Ġfts": 7258,
      "eret": 7259,
      "ttet": 7260,
      "sob": 7261,
      "sms": 7262,
      "Ġahu": 7263,
      "Ġrln": 7264,
      "ĠlP": 7265,
      "iab": 7266,
      "ĠCi": 7267,
      "ĠCo": 7268,
      "Hy": 7269,
      "Jt": 7270,
      "cS": 7271,
      "lC": 7272,
      "was": 7273,
      "Ġoop": 7274,
      "Ġrj": 7275,
      "eets": 7276,
      "Ġdrt": 7277,
      "Ġcai": 7278,
      "hrr": 7279,
      "Ñħ": 7280,
      "ë¸": 7281,
      "Ġdoa": 7282,
      "Ġmx": 7283,
      "sab": 7284,
      "spa": 7285,
      "/=": 7286,
      "Ġiic": 7287,
      "ĠuE": 7288,
      "Ġgei": 7289,
      "tdb": 7290,
      "inw": 7291,
      "htw": 7292,
      "tgo": 7293,
      "uS": 7294,
      "Ġnrf": 7295,
      "Ġuai": 7296,
      "Ġfx": 7297,
      "elee": 7298,
      "adg": 7299,
      "Iet": 7300,
      "cne": 7301,
      "mtr": 7302,
      "uao": 7303,
      "une": 7304,
      "Ġarp": 7305,
      "siy": 7306,
      "Ġ:.": 7307,
      "dda": 7308,
      "can": 7309,
      "Ġlol": 7310,
      "ĠdR": 7311,
      "rlf": 7312,
      "ĠFe": 7313,
      "Dg": 7314,
      "maa": 7315,
      "Ġaag": 7316,
      "Ġram": 7317,
      "ĠhM": 7318,
      "Ġdoh": 7319,
      "Ġcoo": 7320,
      "Ġbte": 7321,
      "leu": 7322,
      "mS": 7323,
      "yas": 7324,
      "Ġsim": 7325,
      "Ġnlh": 7326,
      "Ġnsf": 7327,
      "Ġvee": 7328,
      "ilf": 7329,
      "ebi": 7330,
      "Vr": 7331,
      "dth": 7332,
      "Ġsll": 7333,
      "Ġnhd": 7334,
      "Ġnda": 7335,
      "Ġhnd": 7336,
      "Ġcss": 7337,
      "Ġ__": 7338,
      "eyh": 7339,
      "-#": 7340,
      "Ka": 7341,
      "mse": 7342,
      "pS": 7343,
      "Ġsrm": 7344,
      "Ġsdn": 7345,
      "Ġhid": 7346,
      "Ġcne": 7347,
      "Ġmts": 7348,
      "Ġfti": 7349,
      "ä¹ī": 7350,
      "dns": 7351,
      "yaa": 7352,
      "ëĿ¼": 7353,
      "ĠìĿĦ": 7354,
      "Ġhnl": 7355,
      "dsf": 7356,
      "ifa": 7357,
      "awt": 7358,
      "bS": 7359,
      "poe": 7360,
      "pse": 7361,
      "Ġthf": 7362,
      "Ġshd": 7363,
      "Ġnlo": 7364,
      "Ġhsd": 7365,
      "tree": 7366,
      "ebn": 7367,
      "lct": 7368,
      "'>": 7369,
      "goe": 7370,
      "lot": 7371,
      "Ġthm": 7372,
      "Ġorm": 7373,
      "Ġlro": 7374,
      "Ġ./": 7375,
      "asee": 7376,
      "Ġeus": 7377,
      "åĪĹ": 7378,
      "nD": 7379,
      "wel": 7380,
      "Ġsru": 7381,
      "Ġfae": 7382,
      "atet": 7383,
      "tgs": 7384,
      "sps": 7385,
      "tbt": 7386,
      "ĠWe": 7387,
      "hir": 7388,
      "Ġsop": 7389,
      "Ġhod": 7390,
      "Ġfaa": 7391,
      "Ġ_-": 7392,
      "aW": 7393,
      "hec": 7394,
      "lii": 7395,
      "Ġrnc": 7396,
      "Ġlad": 7397,
      "ĠAc": 7398,
      "ewl": 7399,
      "nfr": 7400,
      "ldd": 7401,
      "Tk": 7402,
      "ı¬": 7403,
      "Ġidd": 7404,
      "Ġrsf": 7405,
      "Ġftr": 7406,
      "hrf": 7407,
      "ĠÐ´": 7408,
      "Ev": 7409,
      "htd": 7410,
      "Ġida": 7411,
      "slf": 7412,
      "eyd": 7413,
      "ebr": 7414,
      "ifo": 7415,
      "åĲİ": 7416,
      "Vi": 7417,
      "mel": 7418,
      "Ġeye": 7419,
      "Ġuan": 7420,
      "Ġmae": 7421,
      "Ġ.:": 7422,
      "edee": 7423,
      "ahb": 7424,
      "Ġxu": 7425,
      "=/": 7426,
      "Nb": 7427,
      "hst": 7428,
      "Ġoue": 7429,
      "Ġsiu": 7430,
      "Ġsce": 7431,
      "Ġnce": 7432,
      "Ġisf": 7433,
      "Ġhtu": 7434,
      "aly": 7435,
      "Ġesg": 7436,
      "scd": 7437,
      "hut": 7438,
      "iH": 7439,
      "Ġoip": 7440,
      "Ġndn": 7441,
      "Ġinc": 7442,
      "Ġilh": 7443,
      "nps": 7444,
      "Ġeca": 7445,
      "ëłĪ": 7446,
      "hot": 7447,
      "uoo": 7448,
      "zm": 7449,
      "Ġcon": 7450,
      "eoea": 7451,
      "afl": 7452,
      "lut": 7453,
      "ĠĠĠĠĠĠ": 7454,
      "Gf": 7455,
      "cas": 7456,
      "hri": 7457,
      "iO": 7458,
      "vta": 7459,
      "Ġrhd": 7460,
      "Ġhrd": 7461,
      "rrg": 7462,
      "ĠRa": 7463,
      "ogt": 7464,
      "Tte": 7465,
      "vts": 7466,
      "zf": 7467,
      "ëį": 7468,
      "Ġure": 7469,
      "rob": 7470,
      "Bg": 7471,
      "Lw": 7472,
      "Vn": 7473,
      "qw": 7474,
      "snd": 7475,
      "åľ°": 7476,
      "Ġrru": 7477,
      "Ġwes": 7478,
      "ìĿĮ": 7479,
      "éĿ¢": 7480,
      "Ġæĺ¯": 7481,
      "aF": 7482,
      "cel": 7483,
      "lnr": 7484,
      "Ġohc": 7485,
      "Ġlhe": 7486,
      "Ġdsh": 7487,
      "eote": 7488,
      "éĩį": 7489,
      "fS": 7490,
      "iD": 7491,
      "Ġidt": 7492,
      "fel": 7493,
      "foo": 7494,
      "yA": 7495,
      "Ġinu": 7496,
      "Ġihl": 7497,
      "ettt": 7498,
      "Ġcnn": 7499,
      "sud": 7500,
      "ofd": 7501,
      "rpt": 7502,
      "Ġsda": 7503,
      "Ġrdi": 7504,
      "iiw": 7505,
      "stee": 7506,
      "Ġeuo": 7507,
      "hus": 7508,
      "ĠÐ¿": 7509,
      "kT": 7510,
      "Ġnom": 7511,
      "Ġism": 7512,
      "Ġrla": 7513,
      "Ġlrh": 7514,
      "Ġdal": 7515,
      "Ġeng": 7516,
      "sH": 7517,
      "uas": 7518,
      "Ġoag": 7519,
      "ĠĠčĊ": 7520,
      "Ġlnl": 7521,
      "Ġger": 7522,
      "Ġ)\"": 7523,
      "Ġà¦°": 7524,
      "=:": 7525,
      "nF": 7526,
      "Ġtca": 7527,
      "Ġitp": 7528,
      "Ġdah": 7529,
      "Ġuar": 7530,
      "Ġmel": 7531,
      "Ġwen": 7532,
      "ĠSc": 7533,
      "twa": 7534,
      "Ġnrm": 7535,
      "Ġrhl": 7536,
      "Ġdio": 7537,
      "ĠcE": 7538,
      "Ġkb": 7539,
      "emp": 7540,
      "lll": 7541,
      "dsm": 7542,
      "rfa": 7543,
      "spo": 7544,
      "ĠPt": 7545,
      "Oy": 7546,
      "dsi": 7547,
      "Ġiln": 7548,
      "Ġido": 7549,
      "Ġsnm": 7550,
      "Ġhep": 7551,
      "Ġlih": 7552,
      "ilm": 7553,
      "ofl": 7554,
      "eex": 7555,
      "Ya": 7556,
      "foe": 7557,
      "hnt": 7558,
      "yS": 7559,
      "yoe": 7560,
      "Ġiiu": 7561,
      "esea": 7562,
      "ttk": 7563,
      "hsp": 7564,
      "sul": 7565,
      "Ġemt": 7566,
      "è§£": 7567,
      "bel": 7568,
      "hC": 7569,
      "sL": 7570,
      "wA": 7571,
      "Ġsaf": 7572,
      "Ġsnp": 7573,
      "idm": 7574,
      "imr": 7575,
      "Ġeua": 7576,
      "huo": 7577,
      "gas": 7578,
      "goo": 7579,
      "lsr": 7580,
      "Ġtci": 7581,
      "Ġrop": 7582,
      "Ġlle": 7583,
      "alw": 7584,
      "tgi": 7585,
      "ĠãĤĮ": 7586,
      "åĲ«": 7587,
      "Gp": 7588,
      "Ġtpe": 7589,
      "Ġidi": 7590,
      "Ġrsm": 7591,
      "Ġrdo": 7592,
      "ĠlM": 7593,
      "ĠlN": 7594,
      "Ġdef": 7595,
      "Ġdia": 7596,
      "Ġpto": 7597,
      "Ġbes": 7598,
      "nfd": 7599,
      "tya": 7600,
      "æĪĳ": 7601,
      "Kn": 7602,
      "heu": 7603,
      "pas": 7604,
      "æµ": 7605,
      "Ġoap": 7606,
      "Ġrrc": 7607,
      "ĠhO": 7608,
      "Ġhde": 7609,
      "Ġmti": 7610,
      "ĠrB": 7611,
      "Ġcns": 7612,
      "rdm": 7613,
      "Ġeev": 7614,
      "icl": 7615,
      "hop": 7616,
      "fas": 7617,
      "hoa": 7618,
      "nH": 7619,
      "Ġhtc": 7620,
      "Ġyen": 7621,
      "hii": 7622,
      "hso": 7623,
      "pan": 7624,
      "Ġaog": 7625,
      "Ġndi": 7626,
      "ĠdN": 7627,
      "Ġuos": 7628,
      "Ġftn": 7629,
      "ttte": 7630,
      "Ġ/.": 7631,
      "imn": 7632,
      "dis": 7633,
      "ltl": 7634,
      "ĠaG": 7635,
      "Ġsdr": 7636,
      "Ġuie": 7637,
      "teI": 7638,
      "Ġ\"(": 7639,
      "Ġ-_": 7640,
      "ecg": 7641,
      "Ġà¦¾": 7642,
      "æ³ķ": 7643,
      "car": 7644,
      "Ġcor": 7645,
      "Ġweo": 7646,
      "auc": 7647,
      "lim": 7648,
      "ĠCr": 7649,
      "(#": 7650,
      "Ys": 7651,
      "ç¼": 7652,
      "Ġosp": 7653,
      "Ġsom": 7654,
      "Ġraf": 7655,
      "nib": 7656,
      "ahw": 7657,
      "Ġelu": 7658,
      "rfn": 7659,
      "å®ĥ": 7660,
      "Ow": 7661,
      "gse": 7662,
      "oB": 7663,
      "éĸ": 7664,
      "Ġdsa": 7665,
      "Ġyeo": 7666,
      "ĠAu": 7667,
      "yed": 7668,
      "Ġnll": 7669,
      "Ġmtr": 7670,
      "nlp": 7671,
      "ĠIf": 7672,
      "dnn": 7673,
      "gie": 7674,
      "hsa": 7675,
      "íĺ": 7676,
      "Ġnop": 7677,
      "Ġill": 7678,
      "epm": 7679,
      "Ġeco": 7680,
      "Kr": 7681,
      "odp": 7682,
      "boe": 7683,
      "wed": 7684,
      "Ġcth": 7685,
      "ihp": 7686,
      "tcf": 7687,
      "acu": 7688,
      "Ġehm": 7689,
      "ich": 7690,
      "Ġeaw": 7691,
      "Ly": 7692,
      "loa": 7693,
      "Ġewe": 7694,
      "Ġtur": 7695,
      "Ġnnu": 7696,
      "Ġiop": 7697,
      "Ġrld": 7698,
      "Ġlrn": 7699,
      "Ġcie": 7700,
      "Ġfel": 7701,
      "tnv": 7702,
      "ntv": 7703,
      "ĠTp": 7704,
      "auu": 7705,
      "lcs": 7706,
      "Yo": 7707,
      "gA": 7708,
      "Ġ\")": 7709,
      "rtee": 7710,
      "sdf": 7711,
      "tmc": 7712,
      "hnp": 7713,
      "rmn": 7714,
      "ddr": 7715,
      "è¨Ń": 7716,
      "Ko": 7717,
      "dat": 7718,
      "lsa": 7719,
      "Ġasp": 7720,
      "Ġpta": 7721,
      "tov": 7722,
      "tum": 7723,
      "moe": 7724,
      "Ġild": 7725,
      "aiee": 7726,
      "nhg": 7727,
      "tfu": 7728,
      "çĶ±": 7729,
      "]\"": 7730,
      "sq": 7731,
      "wos": 7732,
      "Ġsld": 7733,
      "Ġdem": 7734,
      "Ġpts": 7735,
      "npa": 7736,
      "bA": 7737,
      "wse": 7738,
      "ì¹": 7739,
      "Ġsty": 7740,
      "Ġ(\"": 7741,
      "lif": 7742,
      "tgr": 7743,
      "Ġecn": 7744,
      "cie": 7745,
      "lst": 7746,
      "uos": 7747,
      "Ġaz": 7748,
      "Ġatb": 7749,
      "Ġihd": 7750,
      "Ġrtp": 7751,
      "Ġhrl": 7752,
      "Ġdsl": 7753,
      "Ġgtt": 7754,
      "Ġyer": 7755,
      "anee": 7756,
      "ddn": 7757,
      "à§ĭ": 7758,
      "dno": 7759,
      "hoh": 7760,
      "sdm": 7761,
      "iny": 7762,
      "Ġeoy": 7763,
      "woo": 7764,
      "Ġlep": 7765,
      "Ġcre": 7766,
      "Ġpx": 7767,
      "imo": 7768,
      "ifi": 7769,
      "Yi": 7770,
      "qy": 7771,
      "uie": 7772,
      "Ġsof": 7773,
      "Ġnag": 7774,
      "Ġrdt": 7775,
      "Ġmne": 7776,
      "rab": 7777,
      "hhc": 7778,
      "ĠCn": 7779,
      "hua": 7780,
      "Ġje": 7781,
      "Vd": 7782,
      "mA": 7783,
      "Ġrip": 7784,
      "Ġ,`": 7785,
      "rfs": 7786,
      "ĠíĬ¸": 7787,
      "fE": 7788,
      "hrt": 7789,
      "moo": 7790,
      "oF": 7791,
      "Ġtlm": 7792,
      "Ġadl": 7793,
      "Ġhq": 7794,
      "Ġcar": 7795,
      "npo": 7796,
      "Ġå¦Ĥ": 7797,
      "\"]": 7798,
      "wne": 7799,
      "Ġegs": 7800,
      "Ġtct": 7801,
      "Ġsap": 7802,
      "Ġidr": 7803,
      "Ġdad": 7804,
      "Ġdhe": 7805,
      "eyl": 7806,
      "smo": 7807,
      "erk": 7808,
      "Ġbeo": 7809,
      "Ġeui": 7810,
      "ped": 7811,
      "pao": 7812,
      "Ġtcr": 7813,
      "Ġonf": 7814,
      "Ġsdo": 7815,
      "Ġrnu": 7816,
      "eeti": 7817,
      "oyt": 7818,
      "war": 7819,
      "Ġalc": 7820,
      "Ġnip": 7821,
      "Ġrda": 7822,
      "Ġdrn": 7823,
      "ebd": 7824,
      "Ġeft": 7825,
      "bas": 7826,
      "xet": 7827,
      "æ¯": 7828,
      "çĬ¶": 7829,
      "Ġiru": 7830,
      "Ġidn": 7831,
      "ãĥĿ": 7832,
      "lrm": 7833,
      "Hw": 7834,
      "poo": 7835,
      "Ġstw": 7836,
      "ĠCh": 7837,
      "çķ¥": 7838,
      "coi": 7839,
      "gS": 7840,
      "ged": 7841,
      "sO": 7842,
      "¡®": 7843,
      "Ġnaf": 7844,
      "Ġuss": 7845,
      "Ġmao": 7846,
      "ãĤ§": 7847,
      "hcs": 7848,
      "Ġë¦": 7849,
      "Ja": 7850,
      "dC": 7851,
      "dni": 7852,
      "vx": 7853,
      "yan": 7854,
      "ë¶": 7855,
      "Ġltc": 7856,
      "<'": 7857,
      "fao": 7858,
      "ohg": 7859,
      "ĠæŃ": 7860,
      ";_": 7861,
      "Hg": 7862,
      "ban": 7863,
      "lrr": 7864,
      "Ġnld": 7865,
      "Ġntb": 7866,
      "Ġrap": 7867,
      "Ġdra": 7868,
      "Ġfoe": 7869,
      "æľŁ": 7870,
      "éĹ®": 7871,
      "kI": 7872,
      "uai": 7873,
      "ure": 7874,
      "wan": 7875,
      "Ġtus": 7876,
      "Ġsnf": 7877,
      "Ġnof": 7878,
      "Ġmas": 7879,
      "ente": 7880,
      "Ġ--": 7881,
      "occ": 7882,
      "ebh": 7883,
      "hag": 7884,
      "far": 7885,
      "lit": 7886,
      "mao": 7887,
      "íĸī": 7888,
      "Ġrom": 7889,
      "Ġlnh": 7890,
      "Ġdro": 7891,
      "acc": 7892,
      "Ġalu": 7893,
      "Ġssp": 7894,
      "Ġnap": 7895,
      "pos": 7896,
      "Ġnue": 7897,
      "eeae": 7898,
      "Ġunn": 7899,
      "ddi": 7900,
      "Lb": 7901,
      "dtl": 7902,
      "Ġlil": 7903,
      "etI": 7904,
      "Ġyei": 7905,
      "hip": 7906,
      "ifn": 7907,
      "ngt": 7908,
      "íģ¬": 7909,
      "Vl": 7910,
      "aj": 7911,
      "pne": 7912,
      "Ġtco": 7913,
      "Ġyes": 7914,
      "Ġbea": 7915,
      "Ġeow": 7916,
      "lrf": 7917,
      "è¯¢": 7918,
      "ë³´": 7919,
      "hit": 7920,
      "Ġtui": 7921,
      "Ġaaw": 7922,
      "scl": 7923,
      "Ġeci": 7924,
      "Mb": 7925,
      "Yn": 7926,
      "drs": 7927,
      "ltd": 7928,
      "Ġstb": 7929,
      "Ġuis": 7930,
      "Ġmse": 7931,
      "epf": 7932,
      "Ġesy": 7933,
      "aB": 7934,
      "cos": 7935,
      "irw": 7936,
      "ddo": 7937,
      "rfo": 7938,
      "Ġeur": 7939,
      "cai": 7940,
      "mne": 7941,
      "par": 7942,
      "rD": 7943,
      "veh": 7944,
      "Ġcoi": 7945,
      "Ġfed": 7946,
      "ahy": 7947,
      "hdd": 7948,
      "åĮĸ": 7949,
      "hem": 7950,
      "Ġtua": 7951,
      "Ġodh": 7952,
      "Ġiam": 7953,
      "Ġrue": 7954,
      "Ġrty": 7955,
      "Ġmed": 7956,
      "Ġfao": 7957,
      "atk": 7958,
      "siw": 7959,
      "rcl": 7960,
      "imi": 7961,
      "sfo": 7962,
      "tws": 7963,
      "`:": 7964,
      "hol": 7965,
      "hna": 7966,
      "oaee": 7967,
      "hty": 7968,
      "uE": 7969,
      "Ġsdh": 7970,
      "aree": 7971,
      "ĠEc": 7972,
      "opo": 7973,
      "ĠPa": 7974,
      "hR": 7975,
      "med": 7976,
      "nB": 7977,
      "pE": 7978,
      "Ġoay": 7979,
      "Ġsue": 7980,
      "ĠgT": 7981,
      "nmd": 7982,
      "ĠRo": 7983,
      "ĠãģŁ": 7984,
      "Iea": 7985,
      "fie": 7986,
      "gne": 7987,
      "Ġafe": 7988,
      "Ġnnp": 7989,
      "Ġuoi": 7990,
      "iiy": 7991,
      "gos": 7992,
      "lri": 7993,
      "lef": 7994,
      "pai": 7995,
      "Ġiaf": 7996,
      "Ġiap": 7997,
      "atte": 7998,
      "rmi": 7999,
      "ĠPs": 8000,
      "fan": 8001,
      "lir": 8002,
      "Ġrdr": 8003,
      "erea": 8004,
      "ĠSu": 8005,
      "rfi": 8006,
      "fos": 8007,
      "Ġdnh": 8008,
      "Ġpeh": 8009,
      "sib": 8010,
      "ĠRs": 8011,
      "Tea": 8012,
      "Ġnsp": 8013,
      "Ġdin": 8014,
      "lty": 8015,
      "hca": 8016,
      "Ite": 8017,
      "_;": 8018,
      "oW": 8019,
      "Ġptn": 8020,
      "ãģł": 8021,
      "tmu": 8022,
      "sfr": 8023,
      "Ġeun": 8024,
      "dsr": 8025,
      "Ġnrp": 8026,
      "Ġrnf": 8027,
      "Ġdol": 8028,
      "ĠmA": 8029,
      "snb": 8030,
      "Dy": 8031,
      "vaa": 8032,
      "³»": 8033,
      "Ġtcn": 8034,
      "Ġtun": 8035,
      "Ġlod": 8036,
      "tgh": 8037,
      "ops": 8038,
      "å®ī": 8039,
      "uar": 8040,
      "Ġwei": 8041,
      "nmh": 8042,
      "owt": 8043,
      "mE": 8044,
      "mas": 8045,
      "mos": 8046,
      "Ġtlf": 8047,
      "Ġnnf": 8048,
      "Ġnif": 8049,
      "Ġice": 8050,
      "eetn": 8051,
      "Ġuth": 8052,
      "iry": 8053,
      "ltw": 8054,
      "Ġecr": 8055,
      "ĠNs": 8056,
      "Ġãģķ": 8057,
      "uan": 8058,
      "éķ": 8059,
      "Ġtuo": 8060,
      "Ġotb": 8061,
      "Ġslu": 8062,
      "ĠdP": 8063,
      "Ġmoe": 8064,
      "este": 8065,
      "æľº": 8066,
      "/`": 8067,
      "fne": 8068,
      "gon": 8069,
      "ĠmS": 8070,
      "Ġpel": 8071,
      "rhp": 8072,
      "idf": 8073,
      "tfc": 8074,
      "Aet": 8075,
      "bao": 8076,
      "won": 8077,
      "éªĮ": 8078,
      "Ġoog": 8079,
      "Ġpao": 8080,
      "Ġgta": 8081,
      "Ġqt": 8082,
      "#)": 8083,
      ">/": 8084,
      "Jn": 8085,
      "vto": 8086,
      "yne": 8087,
      "Ġiue": 8088,
      "Ġitw": 8089,
      "ĠIp": 8090,
      "00": 8091,
      "ued": 8092,
      "ndp": 8093,
      "hco": 8094,
      "hnh": 8095,
      "hrn": 8096,
      "ĠdM": 8097,
      "Ġdtc": 8098,
      "Ġwer": 8099,
      "Ġå¿": 8100,
      "ĠæĮ": 8101,
      "Teo": 8102,
      "Wg": 8103,
      "ktt": 8104,
      "oj": 8105,
      "rH": 8106,
      "§ĭ": 8107,
      "Ġsag": 8108,
      "Ġndr": 8109,
      "Ġiof": 8110,
      "ĠåĨ": 8111,
      ";-": 8112,
      "fed": 8113,
      "mie": 8114,
      "rF": 8115,
      "ĠØ§": 8116,
      "ĠoG": 8117,
      "Ġrll": 8118,
      "ĠfS": 8119,
      "rrw": 8120,
      "itee": 8121,
      "cre": 8122,
      "yai": 8123,
      "Ġaut": 8124,
      "Ġdih": 8125,
      "ooee": 8126,
      "hhu": 8127,
      "è·¯": 8128,
      "\"[": 8129,
      ":`": 8130,
      "deu": 8131,
      "fss": 8132,
      "hhe": 8133,
      "lno": 8134,
      "vtn": 8135,
      "eeoe": 8136,
      "Ġheg": 8137,
      "Ġerg": 8138,
      "ĠRn": 8139,
      "fse": 8140,
      "Ġome": 8141,
      "Ġsrp": 8142,
      "Ġiom": 8143,
      "Ġrdd": 8144,
      "ãĥİ": 8145,
      "lsp": 8146,
      "rmr": 8147,
      "ĠMt": 8148,
      "ä»İ": 8149,
      "èĢĮ": 8150,
      "uoi": 8151,
      "Ġtut": 8152,
      "Ġaay": 8153,
      "Ġsog": 8154,
      "Ġiip": 8155,
      "tiv": 8156,
      "ocu": 8157,
      "ĠLt": 8158,
      "gE": 8159,
      "Ġrtw": 8160,
      "Ġlq": 8161,
      "Ġuor": 8162,
      "Ġuns": 8163,
      "Ġman": 8164,
      "eoeo": 8165,
      "eiea": 8166,
      "ldh": 8167,
      "hun": 8168,
      "#(": 8169,
      "/>": 8170,
      "å±": 8171,
      "Ġame": 8172,
      "Ġrce": 8173,
      "Ġ=.": 8174,
      "Ġema": 8175,
      "ĠæĿ": 8176,
      "Cee": 8177,
      "jy": 8178,
      "ì¿ł": 8179,
      "ĠsG": 8180,
      "Ġrtg": 8181,
      "ĠhD": 8182,
      "ehv": 8183,
      "ãĥł": 8184,
      "lag": 8185,
      "ifr": 8186,
      "lca": 8187,
      "css": 8188,
      "wie": 8189,
      "ĠìĿĺ": 8190,
      "Ġohm": 8191,
      "Ġinf": 8192,
      "ĠmE": 8193,
      "Ġ,>": 8194,
      "rrb": 8195,
      "tuf": 8196,
      "inb": 8197,
      "Ġeab": 8198,
      "smn": 8199,
      "æĢģ": 8200,
      "yao": 8201,
      "yoo": 8202,
      "Ġlde": 8203,
      "Ġcrs": 8204,
      "teT": 8205,
      "Ġpaa": 8206,
      "rdf": 8207,
      "hcn": 8208,
      "hur": 8209,
      "Ieo": 8210,
      "dec": 8211,
      "gai": 8212,
      "hef": 8213,
      "Ġaow": 8214,
      "Ġity": 8215,
      "ĠlD": 8216,
      "Ġfan": 8217,
      "eies": 8218,
      "lhu": 8219,
      "hci": 8220,
      "ĠãĤ¯": 8221,
      "Ġãĥª": 8222,
      "ìĥģ": 8223,
      "wai": 8224,
      "Ġntw": 8225,
      "Ġinm": 8226,
      "Ġitg": 8227,
      "eneo": 8228,
      "erte": 8229,
      "trv": 8230,
      "Ġedc": 8231,
      "htb": 8232,
      "Vh": 8233,
      "hra": 8234,
      "loh": 8235,
      "lna": 8236,
      "Ġnlu": 8237,
      "Ġhtm": 8238,
      "Ġlsd": 8239,
      "rfr": 8240,
      "ä»£": 8241,
      "cor": 8242,
      "Ġriu": 8243,
      "Ġrim": 8244,
      "eeel": 8245,
      "etT": 8246,
      "eaes": 8247,
      "awa": 8248,
      "Ġç½®": 8249,
      "Ji": 8250,
      "hah": 8251,
      "nW": 8252,
      "ĠlO": 8253,
      "Ġfon": 8254,
      "euy": 8255,
      "tcm": 8256,
      "opi": 8257,
      "aga": 8258,
      "pie": 8259,
      "Ġacs": 8260,
      "Ġahf": 8261,
      "Ġocs": 8262,
      "Ġnnm": 8263,
      "Ġè¦ģ": 8264,
      "lso": 8265,
      "uon": 8266,
      "xk": 8267,
      "Ġ^": 8268,
      "eeaa": 8269,
      "Ġdsd": 8270,
      "Ġfne": 8271,
      "Ġpae": 8272,
      "ĠæĢ": 8273,
      "-;": 8274,
      "Ies": 8275,
      "Jr": 8276,
      "doa": 8277,
      "gre": 8278,
      "lP": 8279,
      "man": 8280,
      "Ġtfs": 8281,
      "Ġodl": 8282,
      "Ġhho": 8283,
      "ltb": 8284,
      "hcr": 8285,
      "lmt": 8286,
      "fon": 8287,
      "hro": 8288,
      "Ġtms": 8289,
      "ĠaU": 8290,
      "eite": 8291,
      "Ġ.=": 8292,
      "iib": 8293,
      "srb": 8294,
      "ayt": 8295,
      "Jo": 8296,
      "Ki": 8297,
      "Set": 8298,
      "dst": 8299,
      "hsh": 8300,
      "mre": 8301,
      "pre": 8302,
      "Ġsip": 8303,
      "Ġlrl": 8304,
      "Ġcsi": 8305,
      "Ġytt": 8306,
      "eug": 8307,
      "lhc": 8308,
      "ìĦ¤": 8309,
      "lio": 8310,
      "mon": 8311,
      "mss": 8312,
      "Ġrrm": 8313,
      "Ġdnl": 8314,
      "eres": 8315,
      "Ġxf": 8316,
      "ãĥŀ": 8317,
      "ĠOt": 8318,
      "å®ŀ": 8319,
      "å¤ĸ": 8320,
      "[\"": 8321,
      "cns": 8322,
      "dnr": 8323,
      "lrt": 8324,
      "unn": 8325,
      "Ġfse": 8326,
      "taet": 8327,
      "Ġesw": 8328,
      "opr": 8329,
      "ê²ĥ": 8330,
      "Fy": 8331,
      "[-": 8332,
      "`/": 8333,
      "poi": 8334,
      "vA": 8335,
      "wre": 8336,
      "Ġang": 8337,
      "Ġirm": 8338,
      "Fg": 8339,
      "bed": 8340,
      "dot": 8341,
      "hin": 8342,
      "nj": 8343,
      "yar": 8344,
      "æĦı": 8345,
      "ĭķ": 8346,
      "Ġahm": 8347,
      "Ġrdn": 8348,
      "Ġdtu": 8349,
      "ĠfA": 8350,
      "ä»ĸ": 8351,
      "è½½": 8352,
      "por": 8353,
      "qb": 8354,
      "Äĳ": 8355,
      "ìĭ¤": 8356,
      "Ġebe": 8357,
      "ĠnG": 8358,
      "Ġitb": 8359,
      "ĠlL": 8360,
      "Ġuni": 8361,
      "Ġmos": 8362,
      "Ġwtt": 8363,
      "aov": 8364,
      "Ġ_)": 8365,
      "noee": 8366,
      "hui": 8367,
      "lua": 8368,
      "íĶĦ": 8369,
      "Ww": 8370,
      "Yr": 8371,
      "fai": 8372,
      "hia": 8373,
      "lN": 8374,
      "sB": 8375,
      "ved": 8376,
      "hsg": 8377,
      "kta": 8378,
      "lah": 8379,
      "Ġlrd": 8380,
      "enea": 8381,
      "aav": 8382,
      "tyo": 8383,
      "rgt": 8384,
      "Ġæİ": 8385,
      "Uf": 8386,
      "gar": 8387,
      "hsn": 8388,
      "egc": 8389,
      "ncu": 8390,
      "Ġeny": 8391,
      "Ġiim": 8392,
      "Ġrsp": 8393,
      "elv": 8394,
      "Ġ-)": 8395,
      "ĠNi": 8396,
      "lcn": 8397,
      "lco": 8398,
      "ĠMa": 8399,
      "'<": 8400,
      "dtd": 8401,
      "wS": 8402,
      "ĠfE": 8403,
      "smi": 8404,
      "Ġech": 8405,
      "ogo": 8406,
      "Js": 8407,
      "pss": 8408,
      "º«": 8409,
      "Ġcis": 8410,
      "Ġmor": 8411,
      "ntet": 8412,
      "odg": 8413,
      "rnb": 8414,
      "egu": 8415,
      "ags": 8416,
      "hle": 8417,
      "ĠâĢĶ": 8418,
      "Ġoaw": 8419,
      "ĠiG": 8420,
      "Ġinp": 8421,
      "Ġisp": 8422,
      "Ġdrh": 8423,
      "Ġmai": 8424,
      "toet": 8425,
      "efp": 8426,
      "Ġ`,": 8427,
      "ebl": 8428,
      "ëıĻ": 8429,
      "[_": 8430,
      "wE": 8431,
      "Ġaoy": 8432,
      "Ġofe": 8433,
      "Ġmoo": 8434,
      "eoen": 8435,
      "naee": 8436,
      "lop": 8437,
      "opn": 8438,
      "lft": 8439,
      "à¤¨": 8440,
      "ìľĦ": 8441,
      "gor": 8442,
      "lsn": 8443,
      "vae": 8444,
      "Ġfas": 8445,
      "Ġefa": 8446,
      "ĠLa": 8447,
      "Tei": 8448,
      "hN": 8449,
      "jg": 8450,
      "lsh": 8451,
      "ì¼Ģ": 8452,
      "Ġrrf": 8453,
      "Ġdle": 8454,
      "Ġ)-": 8455,
      "Ġ)_": 8456,
      "Ġelm": 8457,
      "Ġãģª": 8458,
      "çĽ¸": 8459,
      "Eet": 8460,
      "Um": 8461,
      "bos": 8462,
      "dsa": 8463,
      "sW": 8464,
      "Ġä½ľ": 8465,
      "Ġidh": 8466,
      "Ġcni": 8467,
      "Ġmre": 8468,
      "acm": 8469,
      "Ġemn": 8470,
      "ìħĺ": 8471,
      "lra": 8472,
      "uss": 8473,
      "wss": 8474,
      "Ġrof": 8475,
      "Ġltu": 8476,
      "Ġeig": 8477,
      "ĠNo": 8478,
      "\"{": 8479,
      "for": 8480,
      "lal": 8481,
      "ç¬": 8482,
      "Ġhey": 8483,
      "Ġurs": 8484,
      "ereo": 8485,
      "sfn": 8486,
      "ago": 8487,
      "ĠNa": 8488,
      "eve": 8489,
      "lol": 8490,
      "ĿĢ": 8491,
      "Ġsaw": 8492,
      "ouc": 8493,
      "Ġedu": 8494,
      "Sk": 8495,
      "voe": 8496,
      "Ġfre": 8497,
      "slp": 8498,
      "smr": 8499,
      "Ġems": 8500,
      "ĠDt": 8501,
      "âĢĮ": 8502,
      "ëĤĺ": 8503,
      ":>": 8504,
      "hnl": 8505,
      "vtr": 8506,
      "van": 8507,
      "yse": 8508,
      "£ħ": 8509,
      "éĶ": 8510,
      "eeed": 8511,
      "eaen": 8512,
      "tak": 8513,
      "Ġben": 8514,
      "ç½": 8515,
      "Ġoig": 8516,
      "eetr": 8517,
      "Ġhhs": 8518,
      "Ġuat": 8519,
      "Ġmss": 8520,
      "Ġpti": 8521,
      "ĠgI": 8522,
      "boo": 8523,
      "hP": 8524,
      "mai": 8525,
      "yE": 8526,
      "¬¡": 8527,
      "Ġong": 8528,
      "Ġfai": 8529,
      "ĠwI": 8530,
      "ĠEu": 8531,
      "ipa": 8532,
      "ĠìĦľ": 8533,
      "mar": 8534,
      "uns": 8535,
      "Ġnaw": 8536,
      "Ġndl": 8537,
      "Ġrrp": 8538,
      "Ġfar": 8539,
      "dsp": 8540,
      "ldl": 8541,
      "cnn": 8542,
      "hsl": 8543,
      "kto": 8544,
      "sj": 8545,
      "vel": 8546,
      "Ġaui": 8547,
      "Ġolu": 8548,
      "Ġctl": 8549,
      "npn": 8550,
      "Ġefo": 8551,
      "à¦ı": 8552,
      "Ġept": 8553,
      "dri": 8554,
      "Ġeys": 8555,
      "Ġolc": 8556,
      "Ġrdh": 8557,
      "eeS": 8558,
      "Ġutd": 8559,
      "eaei": 8560,
      "Ġvv": 8561,
      "ady": 8562,
      "sdp": 8563,
      "tyr": 8564,
      "oga": 8565,
      "à¤¸": 8566,
      "Ġà§į": 8567,
      "Ġarg": 8568,
      "Ġohu": 8569,
      "Ġoow": 8570,
      "Ġdq": 8571,
      "etta": 8572,
      "ecy": 8573,
      "oml": 8574,
      "lip": 8575,
      "hft": 8576,
      "å¤§": 8577,
      "bie": 8578,
      "Ġtmt": 8579,
      "Ġaus": 8580,
      "Ġsme": 8581,
      "ĠrG": 8582,
      "eeA": 8583,
      "Ġhls": 8584,
      "Ġdnd": 8585,
      "Ġcot": 8586,
      "Ġusi": 8587,
      "oly": 8588,
      "npi": 8589,
      "ä»»": 8590,
      "å¸¸": 8591,
      "goi": 8592,
      "keh": 8593,
      "tG": 8594,
      "Ã¨": 8595,
      "Ġrtb": 8596,
      "ĠdL": 8597,
      "Ġptr": 8598,
      "Ġ,<": 8599,
      "ohy": 8600,
      "tyn": 8601,
      "ĠNn": 8602,
      "ðŁı": 8603,
      "cE": 8604,
      "iW": 8605,
      "lR": 8606,
      "wns": 8607,
      "íı¬": 8608,
      "Ġdep": 8609,
      "Ġmar": 8610,
      "eseo": 8611,
      "Ġ(-": 8612,
      "ouu": 8613,
      "tgd": 8614,
      "Ġemo": 8615,
      "boi": 8616,
      "éļ": 8617,
      "Ĥ¨": 8618,
      "Ġhau": 8619,
      "Ġutl": 8620,
      "Ġuri": 8621,
      "ilp": 8622,
      "hhm": 8623,
      "ĠNr": 8624,
      "ays": 8625,
      "ij": 8626,
      "lih": 8627,
      "eeon": 8628,
      "Ġhha": 8629,
      "Ġdde": 8630,
      "Ġ_(": 8631,
      "Ġxm": 8632,
      "uor": 8633,
      "Ġiif": 8634,
      "Ġpas": 8635,
      "Ġbei": 8636,
      "edv": 8637,
      "hev": 8638,
      "Ġeiw": 8639,
      "apl": 8640,
      "ĠPo": 8641,
      "hmt": 8642,
      "iF": 8643,
      "Ġews": 8644,
      "Ġnow": 8645,
      "tex": 8646,
      "Ġ(_": 8647,
      "agi": 8648,
      "Ġefr": 8649,
      "ëĦĪ": 8650,
      "gss": 8651,
      "ì²": 8652,
      "Ġfie": 8653,
      "aeT": 8654,
      "Ġ>,": 8655,
      "aph": 8656,
      ">:": 8657,
      "Ak": 8658,
      "Db": 8659,
      "Ġnme": 8660,
      "Ġmoi": 8661,
      "eoei": 8662,
      "osee": 8663,
      "stv": 8664,
      "Ġenw": 8665,
      "Ġemi": 8666,
      "igt": 8667,
      "ìłĦ": 8668,
      "å·²": 8669,
      "gan": 8670,
      "pns": 8671,
      "Ġmon": 8672,
      "ohw": 8673,
      "Ġeuh": 8674,
      "Ġirf": 8675,
      "Ġcii": 8676,
      "sek": 8677,
      "nuc": 8678,
      "ogs": 8679,
      "tbo": 8680,
      "!,": 8681,
      "lro": 8682,
      "Ġsif": 8683,
      "Ġleg": 8684,
      "Ġmie": 8685,
      "olg": 8686,
      "ncc": 8687,
      "iuc": 8688,
      "Wy": 8689,
      "voo": 8690,
      "Ġtma": 8691,
      "Ġacr": 8692,
      "Ġcir": 8693,
      "eoes": 8694,
      "ĠAm": 8695,
      "npr": 8696,
      "dnt": 8697,
      "dir": 8698,
      "Ġtfi": 8699,
      "Ġioy": 8700,
      "Ġlid": 8701,
      "Ġcrr": 8702,
      "Ġcec": 8703,
      "eaer": 8704,
      "nhy": 8705,
      "tpc": 8706,
      "bre": 8707,
      "iB": 8708,
      "Ġaci": 8709,
      "Ġnhc": 8710,
      "eese": 8711,
      "\"}": 8712,
      ")#": 8713,
      "Ree": 8714,
      "Tes": 8715,
      "bne": 8716,
      "fre": 8717,
      "hio": 8718,
      "xte": 8719,
      "yre": 8720,
      "Ġtmr": 8721,
      "eeE": 8722,
      "Ġuec": 8723,
      "enes": 8724,
      "otk": 8725,
      "ãģĿ": 8726,
      "twn": 8727,
      "rpn": 8728,
      "lus": 8729,
      "ä¹Ł": 8730,
      "Up": 8731,
      "dso": 8732,
      "ĥı": 8733,
      "Ġnay": 8734,
      "eeao": 8735,
      "Ġurr": 8736,
      "Ġuoa": 8737,
      "rpa": 8738,
      ",!": 8739,
      "had": 8740,
      "ĠhH": 8741,
      "Ġhac": 8742,
      "ips": 8743,
      "Ġçī": 8744,
      "ìĥĿ": 8745,
      "Dw": 8746,
      "hal": 8747,
      "ìĻĢ": 8748,
      "Ġtcd": 8749,
      "Ġoui": 8750,
      "Ġonw": 8751,
      "Ġdil": 8752,
      "ĠyT": 8753,
      "ĠIg": 8754,
      "Ġehf": 8755,
      "spn": 8756,
      "ĠPr": 8757,
      "==": 8758,
      "pon": 8759,
      "yos": 8760,
      "åģ": 8761,
      "Ġooy": 8762,
      "Ġrif": 8763,
      "Ġdid": 8764,
      "ĠpA": 8765,
      "epp": 8766,
      "Ġelf": 8767,
      "æĶ¯": 8768,
      "æĥħ": 8769,
      "kts": 8770,
      "uth": 8771,
      "Ġsdl": 8772,
      "Ġuii": 8773,
      "Ġust": 8774,
      "Ġpoe": 8775,
      "afc": 8776,
      "apd": 8777,
      "ĠãĤ¤": 8778,
      "hM": 8779,
      "lnt": 8780,
      "vao": 8781,
      "Ġsay": 8782,
      "Ġhtf": 8783,
      "Ġhou": 8784,
      "ruu": 8785,
      "ipo": 8786,
      "ëª¨": 8787,
      "_]": 8788,
      "wor": 8789,
      "Ġlnd": 8790,
      "ĠdO": 8791,
      "Ġuot": 8792,
      "Ġfos": 8793,
      "ody": 8794,
      "tyi": 8795,
      "abt": 8796,
      "bse": 8797,
      "hih": 8798,
      "lia": 8799,
      "var": 8800,
      "Ġshc": 8801,
      "Ġnz": 8802,
      "Ġhln": 8803,
      "ĠlH": 8804,
      "etto": 8805,
      "tnet": 8806,
      "amc": 8807,
      "Ġtud": 8808,
      "Ġaua": 8809,
      "Ġshu": 8810,
      "Ġeek": 8811,
      "amu": 8812,
      "Ġecd": 8813,
      "rpo": 8814,
      "ĠMs": 8815,
      "åŁº": 8816,
      "Ġ~": 8817,
      "ĠsU": 8818,
      "Ġlew": 8819,
      "Ġuno": 8820,
      "tset": 8821,
      "lev": 8822,
      "sfi": 8823,
      "ddd": 8824,
      "twd": 8825,
      "ĠRi": 8826,
      "pnn": 8827,
      "Ġaun": 8828,
      "Ġoz": 8829,
      "Ġhhr": 8830,
      "Ġyta": 8831,
      "tok": 8832,
      "Ġber": 8833,
      "asv": 8834,
      "rsee": 8835,
      "ĠCl": 8836,
      "tba": 8837,
      "ĠMo": 8838,
      "gnn": 8839,
      "woi": 8840,
      "Ġact": 8841,
      "ĠhF": 8842,
      "Ġhsc": 8843,
      "Ġusr": 8844,
      "Ġfoo": 8845,
      "Ġwta": 8846,
      "adw": 8847,
      "oav": 8848,
      "spi": 8849,
      "hil": 8850,
      "xea": 8851,
      "Ġrnm": 8852,
      "Ġcat": 8853,
      "Ġcnr": 8854,
      "eien": 8855,
      "nfl": 8856,
      "ddl": 8857,
      "ĠCd": 8858,
      "ĠPn": 8859,
      "obt": 8860,
      "ìķĬ": 8861,
      ");": 8862,
      "]_": 8863,
      "bon": 8864,
      "drr": 8865,
      "foi": 8866,
      "Ġalm": 8867,
      "Ġlhs": 8868,
      "eses": 8869,
      "Ġ.`": 8870,
      "shg": 8871,
      "nuu": 8872,
      "Ġqs": 8873,
      "ç§į": 8874,
      "æ¨¡": 8875,
      "Ien": 8876,
      "hrh": 8877,
      "vti": 8878,
      "wis": 8879,
      "yns": 8880,
      "Ġtft": 8881,
      "Ġhht": 8882,
      "ĠuC": 8883,
      "hog": 8884,
      "lnp": 8885,
      "Ġefs": 8886,
      "æĺİ": 8887,
      "Ġæķ°": 8888,
      "Yd": 8889,
      "lin": 8890,
      "yie": 8891,
      "Ġife": 8892,
      "ĠhB": 8893,
      "nlg": 8894,
      "eyc": 8895,
      "ĠRr": 8896,
      "ĠLo": 8897,
      "-[": 8898,
      "hep": 8899,
      "hrd": 8900,
      "lhe": 8901,
      "rB": 8902,
      "łģ": 8903,
      "Ġous": 8904,
      "Ġnhm": 8905,
      "Ġhhi": 8906,
      "ĠcC": 8907,
      "Ġfss": 8908,
      "Ġfor": 8909,
      "Ġpse": 8910,
      "otet": 8911,
      "dag": 8912,
      "two": 8913,
      "à¦®": 8914,
      "Ob": 8915,
      "hsd": 8916,
      "pth": 8917,
      "Ġsfe": 8918,
      "Ġsow": 8919,
      "Ġdod": 8920,
      "ohb": 8921,
      "itv": 8922,
      "ĠAf": 8923,
      "tys": 8924,
      "Ġeud": 8925,
      "nyt": 8926,
      "ìļĶ": 8927,
      "ĠåĲį": 8928,
      "Ġå¯¹": 8929,
      "hL": 8930,
      "wni": 8931,
      "yrs": 8932,
      "eeai": 8933,
      "Ġhew": 8934,
      "alb": 8935,
      "Ġemr": 8936,
      "ĠëĲ": 8937,
      "moi": 8938,
      "vas": 8939,
      "ynn": 8940,
      "Ġoci": 8941,
      "Ġiay": 8942,
      "ĠdH": 8943,
      "ãģ£": 8944,
      "llc": 8945,
      "ipi": 8946,
      "/<": 8947,
      "lem": 8948,
      "mis": 8949,
      "yoi": 8950,
      "Ġtge": 8951,
      "Ġsz": 8952,
      "Ġnoy": 8953,
      "Ġhhh": 8954,
      "Ġcoa": 8955,
      "teaa": 8956,
      "ĠTg": 8957,
      "Fw": 8958,
      "hid": 8959,
      "Ġohf": 8960,
      "ĠnU": 8961,
      "Ġihu": 8962,
      "Ġcst": 8963,
      "Ġcsa": 8964,
      "eieo": 8965,
      "tcp": 8966,
      "tpu": 8967,
      "rcc": 8968,
      "Ġ<,": 8969,
      "ogi": 8970,
      "Ġefi": 8971,
      "Ste": 8972,
      "Ter": 8973,
      "bai": 8974,
      "dN": 8975,
      "fnn": 8976,
      "Ġorg": 8977,
      "Ġceu": 8978,
      "nhw": 8979,
      "hng": 8980,
      ";(": 8981,
      "frs": 8982,
      "Ġsus": 8983,
      "Ġiag": 8984,
      "enen": 8985,
      "aum": 8986,
      "ĠPi": 8987,
      "lci": 8988,
      "nga": 8989,
      "bE": 8990,
      "mrs": 8991,
      "pis": 8992,
      "prs": 8993,
      "yat": 8994,
      "£Ģ": 8995,
      "Ġà§ĩ": 8996,
      "Ġltm": 8997,
      "Ġdrl": 8998,
      "Ġcsr": 8999,
      "Ġcso": 9000,
      "Ġ-(": 9001,
      "Ġaur": 9002,
      "Ġscs": 9003,
      "Ġndh": 9004,
      "Ġilu": 9005,
      "Ġheb": 9006,
      "Ġhlo": 9007,
      "Ġlho": 9008,
      "Ġdey": 9009,
      "Ġmnn": 9010,
      "Ġpan": 9011,
      "tfm": 9012,
      "oph": 9013,
      "twi": 9014,
      "bnn": 9015,
      "hnd": 9016,
      "tz": 9017,
      "yis": 9018,
      "Ġä»¶": 9019,
      "Ġsig": 9020,
      "Ġhli": 9021,
      "onee": 9022,
      "olw": 9023,
      "hrp": 9024,
      "twr": 9025,
      "Ġå¼": 9026,
      "å¾Ħ": 9027,
      "çŃĸ": 9028,
      "dii": 9029,
      "dia": 9030,
      "htu": 9031,
      "lM": 9032,
      "mor": 9033,
      "uC": 9034,
      "yor": 9035,
      "Ġäºİ": 9036,
      "ĠoU": 9037,
      "Ġocn": 9038,
      "Ġsrg": 9039,
      "Ġiow": 9040,
      "Ġhlr": 9041,
      "Ġlac": 9042,
      "Ġ((": 9043,
      "rcu": 9044,
      "nml": 9045,
      "ĠOa": 9046,
      "</": 9047,
      "=`": 9048,
      "Bw": 9049,
      "cis": 9050,
      "cat": 9051,
      "dah": 9052,
      "mnn": 9053,
      "Ġtps": 9054,
      "Ġoct": 9055,
      "Ġrhu": 9056,
      "Ġley": 9057,
      "ntk": 9058,
      "afu": 9059,
      "drt": 9060,
      "vse": 9061,
      "Ġtuh": 9062,
      "Ġtfo": 9063,
      "eoer": 9064,
      "adb": 9065,
      "Ġeob": 9066,
      "ĠMi": 9067,
      "Pee": 9068,
      "Ãº": 9069,
      "Ġrnp": 9070,
      "Ġrhc": 9071,
      "Ġrlu": 9072,
      "Ġhds": 9073,
      "ĠdD": 9074,
      "Ġcno": 9075,
      "eaI": 9076,
      "tnk": 9077,
      "lsg": 9078,
      "ogn": 9079,
      "lcr": 9080,
      "Ate": 9081,
      "lil": 9082,
      "sF": 9083,
      "Ġhoc": 9084,
      "Ġpos": 9085,
      "ĠSm": 9086,
      "omu": 9087,
      "hlu": 9088,
      "rfh": 9089,
      "dal": 9090,
      "hod": 9091,
      "wnn": 9092,
      "Ġnfe": 9093,
      "Ġcri": 9094,
      "Ġfnn": 9095,
      "ĠpE": 9096,
      "ĠbI": 9097,
      ";)": 9098,
      "Ten": 9099,
      "csi": 9100,
      "lsl": 9101,
      "vE": 9102,
      "Ġscn": 9103,
      "Ġiz": 9104,
      "Ġrz": 9105,
      "Ġloc": 9106,
      "Ġueu": 9107,
      "ĠpS": 9108,
      "Ġpne": 9109,
      "suc": 9110,
      "ĠHt": 9111,
      "ĠĠĠĠĠĊ": 9112,
      "Ġèĥ½": 9113,
      "ìĺ¤": 9114,
      "lrh": 9115,
      "{\"": 9116,
      "eeor": 9117,
      "Ġlhr": 9118,
      "Ġcah": 9119,
      "rdp": 9120,
      "Ġeiy": 9121,
      "Ġery": 9122,
      "lrp": 9123,
      "ddh": 9124,
      "dty": 9125,
      "ĠFt": 9126,
      "Kh": 9127,
      "crs": 9128,
      "fsi": 9129,
      "Ġuio": 9130,
      "Ġfns": 9131,
      "Ġped": 9132,
      "imh": 9133,
      "rmd": 9134,
      "fis": 9135,
      "jw": 9136,
      "ktn": 9137,
      "Ġoun": 9138,
      "Ġdhs": 9139,
      "Ġurt": 9140,
      "ecw": 9141,
      "ndg": 9142,
      "Ġerb": 9143,
      "åĩĨ": 9144,
      "-]": 9145,
      "esen": 9146,
      "Ġ))": 9147,
      "ĠGe": 9148,
      "ctl": 9149,
      "fni": 9150,
      "lnh": 9151,
      "mns": 9152,
      "yth": 9153,
      "ÙĦ": 9154,
      "Ġunr": 9155,
      "Ġgts": 9156,
      "idp": 9157,
      "nfh": 9158,
      "oys": 9159,
      "Ġìķ": 9160,
      "*\"": 9161,
      "dM": 9162,
      "lle": 9163,
      "uat": 9164,
      "ç³»": 9165,
      "Ġtfr": 9166,
      "Ġoca": 9167,
      "Ġsnw": 9168,
      "ĠiU": 9169,
      "Ġiig": 9170,
      "tup": 9171,
      "ĠOo": 9172,
      "ä¸»": 9173,
      "doh": 9174,
      "mth": 9175,
      "uec": 9176,
      "Ġï¼ī": 9177,
      "Ġtul": 9178,
      "eeas": 9179,
      "Ġusa": 9180,
      "Ġgto": 9181,
      "Ġ.>": 9182,
      "Ġbtt": 9183,
      "dip": 9184,
      "agn": 9185,
      "rpi": 9186,
      "Bb": 9187,
      "Cv": 9188,
      "Hb": 9189,
      "hO": 9190,
      "Ġewt": 9191,
      "Ġocr": 9192,
      "etts": 9193,
      "Ġpoo": 9194,
      "Ġgx": 9195,
      "Ġgae": 9196,
      "ĠyI": 9197,
      "ĠLr": 9198,
      "ĠLs": 9199,
      "Ġepo": 9200,
      "dR": 9201,
      "utl": 9202,
      "Ġshm": 9203,
      "Ġsny": 9204,
      "ĠwT": 9205,
      "soee": 9206,
      "icc": 9207,
      "agr": 9208,
      "rps": 9209,
      "oya": 9210,
      "Ġeps": 9211,
      "lfa": 9212,
      "Ġãĥ©": 9213,
      "kx": 9214,
      "uis": 9215,
      "Ġony": 9216,
      "Ġsng": 9217,
      "Ġlha": 9218,
      "Ġdsc": 9219,
      "Ġcrt": 9220,
      "log": 9221,
      "rpr": 9222,
      "ê²Į": 9223,
      "Ġå°Ĩ": 9224,
      "dit": 9225,
      "vne": 9226,
      "yss": 9227,
      "Ġaca": 9228,
      "Ġltf": 9229,
      "Ġlht": 9230,
      "Ġcsn": 9231,
      "Ġush": 9232,
      "oiee": 9233,
      "ayn": 9234,
      "Ġãĥ«": 9235,
      ".!": 9236,
      "dhe": 9237,
      "Ġnhu": 9238,
      "Ġihc": 9239,
      "Ġuir": 9240,
      "Ġmns": 9241,
      "Ġfis": 9242,
      "ãĥĸ": 9243,
      "law": 9244,
      "awo": 9245,
      "dP": 9246,
      "unr": 9247,
      "Ġtch": 9248,
      "Ġidl": 9249,
      "eean": 9250,
      "aeI": 9251,
      "aiv": 9252,
      "rhg": 9253,
      "lun": 9254,
      "aya": 9255,
      "Ġefn": 9256,
      "]-": 9257,
      "bth": 9258,
      "htc": 9259,
      "rj": 9260,
      "vos": 9261,
      "eeoo": 9262,
      "eeoi": 9263,
      "Ġhrc": 9264,
      "Ġlhn": 9265,
      "Ġmth": 9266,
      "eaT": 9267,
      "ocm": 9268,
      "bss": 9269,
      "cnr": 9270,
      "gis": 9271,
      "lq": 9272,
      "wsi": 9273,
      "yon": 9274,
      "nav": 9275,
      "dev": 9276,
      "Ġxp": 9277,
      "lhm": 9278,
      "ëŀ": 9279,
      "Ġtcl": 9280,
      "Ġauo": 9281,
      "Ġnlc": 9282,
      "Ġrfe": 9283,
      "ĠlF": 9284,
      "Ġuah": 9285,
      "efg": 9286,
      "ocf": 9287,
      "icu": 9288,
      "ewc": 9289,
      "åıĺ": 9290,
      ":<": 9291,
      "Seo": 9292,
      "_[": 9293,
      "lad": 9294,
      "Ġï¼Ī": 9295,
      "Ġeyt": 9296,
      "Ġoab": 9297,
      "Ġnig": 9298,
      "Ġfrs": 9299,
      "tiet": 9300,
      "auf": 9301,
      "iuu": 9302,
      "ĠRh": 9303,
      "ayo": 9304,
      "\\,": 9305,
      "aG": 9306,
      "}\"": 9307,
      "Ġtmi": 9308,
      "Ġsab": 9309,
      "Ġrig": 9310,
      "Ġhnc": 9311,
      "ĠlW": 9312,
      "Ġctd": 9313,
      "Ġcit": 9314,
      "Ġuia": 9315,
      "Ġyto": 9316,
      "tbs": 9317,
      "Ġä¸į": 9318,
      "à¥¤": 9319,
      "Yh": 9320,
      "cri": 9321,
      "dem": 9322,
      "Ø³": 9323,
      "ç¡®": 9324,
      "Ġeyn": 9325,
      "Ġnog": 9326,
      "Ġhsu": 9327,
      "Ġhll": 9328,
      "Ġllo": 9329,
      "Ġdrd": 9330,
      "ener": 9331,
      "tste": 9332,
      "Ġ)(": 9333,
      "ĠMn": 9334,
      ">=": 9335,
      "Nee": 9336,
      "gth": 9337,
      "lrn": 9338,
      "yri": 9339,
      "ŀĭ": 9340,
      "Ġtfa": 9341,
      "Ġach": 9342,
      "Ġiny": 9343,
      "ĠhW": 9344,
      "Ġhlt": 9345,
      "tttt": 9346,
      "Ġgel": 9347,
      "oree": 9348,
      "otte": 9349,
      "saee": 9350,
      "ĠMr": 9351,
      "cC": 9352,
      "din": 9353,
      "Ġslc": 9354,
      "Ġrme": 9355,
      "ĠlB": 9356,
      "Ġfoi": 9357,
      "Ġgtn": 9358,
      "hoy": 9359,
      "lay": 9360,
      "rfd": 9361,
      "rga": 9362,
      "Gg": 9363,
      "gns": 9364,
      "kse": 9365,
      "lnl": 9366,
      "vre": 9367,
      "wec": 9368,
      "Ġacn": 9369,
      "awi": 9370,
      "awn": 9371,
      "ngs": 9372,
      "Ġì§Ģ": 9373,
      "ìŀĦ": 9374,
      "fat": 9375,
      "vS": 9376,
      "Ġeya": 9377,
      "Ġiog": 9378,
      "Ġihf": 9379,
      "Ġhj": 9380,
      "Ġlls": 9381,
      "ehk": 9382,
      "elet": 9383,
      "Ġ\"'": 9384,
      "Ġenb": 9385,
      "oyo": 9386,
      "Kl": 9387,
      "usi": 9388,
      "ÑĦ": 9389,
      "Ĭ¥": 9390,
      "Ġhhn": 9391,
      "enei": 9392,
      "ehet": 9393,
      "nlw": 9394,
      "hay": 9395,
      "smd": 9396,
      "sfh": 9397,
      "ĠRd": 9398,
      "íķĦ": 9399,
      "Ġãĥī": 9400,
      "xeo": 9401,
      "Ġaco": 9402,
      "Ġict": 9403,
      "Ġham": 9404,
      "Ġhdn": 9405,
      "Ġmrs": 9406,
      "taeo": 9407,
      "ehte": 9408,
      "ĠTw": 9409,
      "ĠEm": 9410,
      "spr": 9411,
      "hma": 9412,
      "ĠHs": 9413,
      "cot": 9414,
      "fns": 9415,
      "kae": 9416,
      "lL": 9417,
      "ueu": 9418,
      "Ġiab": 9419,
      "Ġhtp": 9420,
      "Ġhdt": 9421,
      "Ġcoh": 9422,
      "odw": 9423,
      "rlp": 9424,
      "ãĤª": 9425,
      "ipr": 9426,
      "10": 9427,
      "Vc": 9428,
      "])": 9429,
      "dnh": 9430,
      "dna": 9431,
      "usr": 9432,
      "Ġtfn": 9433,
      "Ġnab": 9434,
      "eatt": 9435,
      "esei": 9436,
      "Ġepa": 9437,
      "Itt": 9438,
      "dsn": 9439,
      "Ġoms": 9440,
      "Ġlou": 9441,
      "Ġllt": 9442,
      "ĠdW": 9443,
      "Ġfth": 9444,
      "tlee": 9445,
      "irb": 9446,
      "owo": 9447,
      "Ġepi": 9448,
      "Ġà¦¨": 9449,
      "å¿Ĺ": 9450,
      "lsd": 9451,
      "Ġebs": 9452,
      "Ġtmo": 9453,
      "Ġams": 9454,
      "Ġrog": 9455,
      "Ġrdl": 9456,
      "Ġdac": 9457,
      "Ġcro": 9458,
      "Ġunt": 9459,
      "Ġmis": 9460,
      "Ġpss": 9461,
      "Ġpor": 9462,
      "aoet": 9463,
      "nnee": 9464,
      "nhb": 9465,
      "Ġetee": 9466,
      "åºı": 9467,
      "feu": 9468,
      "ì¡": 9469,
      "Ġtmn": 9470,
      "Ġnus": 9471,
      "Ġrag": 9472,
      "Ġcna": 9473,
      "Ġcem": 9474,
      "tate": 9475,
      "how": 9476,
      "ipn": 9477,
      "ĠWt": 9478,
      "ëªħ": 9479,
      "By": 9480,
      "gec": 9481,
      "Ġtye": 9482,
      "Ġdeg": 9483,
      "Ġcol": 9484,
      "Ġcsh": 9485,
      "tcg": 9486,
      "Ġxg": 9487,
      "ofc": 9488,
      "Ġ>.": 9489,
      "smh": 9490,
      "aws": 9491,
      "Ġqi": 9492,
      "Ġqn": 9493,
      "Ġåĩ": 9494,
      "ĠåĴĮ": 9495,
      "ĠéĻ": 9496,
      "#'": 9497,
      "`=": 9498,
      "dra": 9499,
      "dle": 9500,
      "lod": 9501,
      "Ġsur": 9502,
      "Ġnnw": 9503,
      "Ġime": 9504,
      "Ġfni": 9505,
      "Ġpie": 9506,
      "Ġwts": 9507,
      "Ġæŀ": 9508,
      "ĠéĹ": 9509,
      "æŃ£": 9510,
      "Iei": 9511,
      "bor": 9512,
      "fec": 9513,
      "rW": 9514,
      "Äħ": 9515,
      "Ġoob": 9516,
      "Ġsci": 9517,
      "Ġsui": 9518,
      "tret": 9519,
      "lde": 9520,
      "pii": 9521,
      "Ġewa": 9522,
      "Ġsut": 9523,
      "Ġsms": 9524,
      "Ġhhl": 9525,
      "Ġuit": 9526,
      "Ġfsi": 9527,
      "estt": 9528,
      "erer": 9529,
      "Ġerw": 9530,
      "hig": 9531,
      "Ġãģĵ": 9532,
      "è®¸": 9533,
      "(;": 9534,
      ",?": 9535,
      "uni": 9536,
      "Ġape": 9537,
      "Ġout": 9538,
      "eere": 9539,
      "Ġhda": 9540,
      "luo": 9541,
      "Ġqo": 9542,
      "``": 9543,
      "cii": 9544,
      "def": 9545,
      "mni": 9546,
      "pot": 9547,
      "Ġoua": 9548,
      "Ġhru": 9549,
      "Ġlhh": 9550,
      "Ġlnc": 9551,
      "ettn": 9552,
      "teS": 9553,
      "teoo": 9554,
      "Ġpoi": 9555,
      "ĠbT": 9556,
      "nly": 9557,
      "Ġ`.": 9558,
      "Ġeib": 9559,
      "ayr": 9560,
      "rgs": 9561,
      "Ġæł": 9562,
      "kao": 9563,
      "lep": 9564,
      "Ġdht": 9565,
      "Ġdhr": 9566,
      "ĠuR": 9567,
      "Ġurn": 9568,
      "ĠmC": 9569,
      "Ġmni": 9570,
      "toea": 9571,
      "åĽł": 9572,
      "ë¸Į": 9573,
      "dsl": 9574,
      "dio": 9575,
      "hrl": 9576,
      "éĴ": 9577,
      "Ġtgs": 9578,
      "Ġodc": 9579,
      "Ġnut": 9580,
      "Ġhic": 9581,
      "thv": 9582,
      "tmm": 9583,
      "Ġìĭ": 9584,
      "Ier": 9585,
      "Yl": 9586,
      "bar": 9587,
      "gri": 9588,
      "urs": 9589,
      "Ġewn": 9590,
      "Ġncs": 9591,
      "Ġdls": 9592,
      "Ġcia": 9593,
      "ĠuN": 9594,
      "Ġmsr": 9595,
      "Ġpon": 9596,
      "Ġgtr": 9597,
      "ihg": 9598,
      "rmh": 9599,
      "fii": 9600,
      "xes": 9601,
      "å¢": 9602,
      "ì§": 9603,
      "Ġsua": 9604,
      "Ġnur": 9605,
      "Ġnng": 9606,
      "ĠrU": 9607,
      "eene": 9608,
      "Ġpai": 9609,
      "onv": 9610,
      "Ġvk": 9611,
      "hdc": 9612,
      "Ġeul": 9613,
      "ayi": 9614,
      "ĠDs": 9615,
      "_}": 9616,
      "Ġewi": 9617,
      "Ġamt": 9618,
      "eren": 9619,
      "ssee": 9620,
      "Ġ()": 9621,
      "twh": 9622,
      "Ġze": 9623,
      "bni": 9624,
      "fno": 9625,
      "lrl": 9626,
      "poa": 9627,
      "Ġope": 9628,
      "Ġnui": 9629,
      "Ġrus": 9630,
      "Ġrng": 9631,
      "Ġdhh": 9632,
      "teae": 9633,
      "Ġwti": 9634,
      "Ġvet": 9635,
      "nree": 9636,
      "Ġesb": 9637,
      "ldc": 9638,
      "âĢ¦": 9639,
      "à¤ª": 9640,
      "ê³µ": 9641,
      "ĠÑı": 9642,
      "ìĺĪ": 9643,
      "Vu": 9644,
      "cst": 9645,
      "hq": 9646,
      "Ġncn": 9647,
      "Ġnun": 9648,
      "Ġuin": 9649,
      "Ġfeu": 9650,
      "Ġpre": 9651,
      "ãģĽ": 9652,
      "Ġqa": 9653,
      "Ġepn": 9654,
      "grs": 9655,
      "kaa": 9656,
      "mec": 9657,
      "moa": 9658,
      "pri": 9659,
      "uoa": 9660,
      "Ġewr": 9661,
      "Ġtwe": 9662,
      "Ġics": 9663,
      "Ġrhm": 9664,
      "ĠcR": 9665,
      "Ġmec": 9666,
      "anv": 9667,
      "oeI": 9668,
      "ĠåĮ": 9669,
      "Ġìļ©": 9670,
      "mii": 9671,
      "psr": 9672,
      "yni": 9673,
      "Ġrcs": 9674,
      "Ġhdo": 9675,
      "teoe": 9676,
      "iaee": 9677,
      "hdu": 9678,
      "sfd": 9679,
      "hfa": 9680,
      "çŃ¾": 9681,
      "Kd": 9682,
      "Sea": 9683,
      "[(": 9684,
      "pat": 9685,
      "ysi": 9686,
      "etel": 9687,
      "ĠgA": 9688,
      "Ġgti": 9689,
      "rml": 9690,
      "ifd": 9691,
      "tyh": 9692,
      "èªį": 9693,
      "ftl": 9694,
      "uii": 9695,
      "wrs": 9696,
      "Ġê°Ģ": 9697,
      "Ġoco": 9698,
      "Ġouo": 9699,
      "Ġlhi": 9700,
      "Ġdtf": 9701,
      "eser": 9702,
      "Ġwx": 9703,
      "thee": 9704,
      "isee": 9705,
      "tdee": 9706,
      "nov": 9707,
      "sdg": 9708,
      "imd": 9709,
      "tbn": 9710,
      "awr": 9711,
      "owr": 9712,
      "ĠLi": 9713,
      "Jd": 9714,
      "wri": 9715,
      "Ġä½ł": 9716,
      "Ġeyi": 9717,
      "Ġebi": 9718,
      "Ġofs": 9719,
      "Ġsun": 9720,
      "eiei": 9721,
      "Ġgaa": 9722,
      "igs": 9723,
      "Ġegt": 9724,
      "fri": 9725,
      "gni": 9726,
      "hH": 9727,
      "åĭķ": 9728,
      "Ġolm": 9729,
      "Ġomi": 9730,
      "Ġsct": 9731,
      "Ġirp": 9732,
      "Ġius": 9733,
      "Ġlln": 9734,
      "Ġdau": 9735,
      "Ġmsi": 9736,
      "oov": 9737,
      "ĠOs": 9738,
      "Ttt": 9739,
      "`>": 9740,
      "dol": 9741,
      "fC": 9742,
      "jb": 9743,
      "psi": 9744,
      "Ġscr": 9745,
      "Ġhnu": 9746,
      "Ġwto": 9747,
      "elk": 9748,
      "ãĤ«": 9749,
      "owa": 9750,
      "Ġepr": 9751,
      "-}": 9752,
      "Ek": 9753,
      "[)": 9754,
      "dq": 9755,
      "fsa": 9756,
      "{_": 9757,
      "åİ": 9758,
      "ĠÛĮ": 9759,
      "Ġour": 9760,
      "Ġncr": 9761,
      "Ġmtl": 9762,
      "Ġgoe": 9763,
      "arv": 9764,
      "emg": 9765,
      "hsw": 9766,
      "ruc": 9767,
      "hlc": 9768,
      "hlm": 9769,
      "Ġecl": 9770,
      "lfo": 9771,
      "é¡¹": 9772,
      "bns": 9773,
      "drn": 9774,
      "uah": 9775,
      "Ġnob": 9776,
      "Ġilc": 9777,
      "Ġhlh": 9778,
      "Ġhdi": 9779,
      "Ġusn": 9780,
      "aak": 9781,
      "sree": 9782,
      "Ġ'\"": 9783,
      "ows": 9784,
      "abs": 9785,
      "peu": 9786,
      "vai": 9787,
      "Ġtmh": 9788,
      "Ġafr": 9789,
      "ĠcP": 9790,
      "teao": 9791,
      "ĠIw": 9792,
      "nwt": 9793,
      "=>": 9794,
      "Wb": 9795,
      "gsa": 9796,
      "yec": 9797,
      "Ġeyo": 9798,
      "Ġafs": 9799,
      "Ġsoy": 9800,
      "Ġlau": 9801,
      "Ġlsc": 9802,
      "Ġcnt": 9803,
      "eott": 9804,
      "nlb": 9805,
      "Ġedf": 9806,
      "nmu": 9807,
      "opl": 9808,
      "ĠHn": 9809,
      ">`": 9810,
      "ceu": 9811,
      "wat": 9812,
      "ëĶ": 9813,
      "Ġcio": 9814,
      "teE": 9815,
      "oum": 9816,
      "ãĤ½": 9817,
      "ĠSf": 9818,
      "hcd": 9819,
      "ĠLn": 9820,
      "ĠOi": 9821,
      "Fb": 9822,
      "TI": 9823,
      "cno": 9824,
      "git": 9825,
      "hde": 9826,
      "Ġnct": 9827,
      "Ġnhf": 9828,
      "Ġica": 9829,
      "Ġhaf": 9830,
      "Ġlsu": 9831,
      "Ġlla": 9832,
      "Ġpnn": 9833,
      "tsk": 9834,
      "tnte": 9835,
      "tik": 9836,
      "tmf": 9837,
      "ncf": 9838,
      "haw": 9839,
      "ifh": 9840,
      "az": 9841,
      "mtd": 9842,
      "Ġewo": 9843,
      "Ġtpr": 9844,
      "Ġsca": 9845,
      "Ġshf": 9846,
      "Ġnlm": 9847,
      "Ġrlc": 9848,
      "Ġlds": 9849,
      "Ġmat": 9850,
      "Ġged": 9851,
      "tote": 9852,
      "opd": 9853,
      "npd": 9854,
      "Jl": 9855,
      "Mee": 9856,
      "msi": 9857,
      "tU": 9858,
      "Ġicr": 9859,
      "eear": 9860,
      "Ġllr": 9861,
      "erei": 9862,
      "Ġà¦¿": 9863,
      "å¼Ģ": 9864,
      "Ġè¿Ļ": 9865,
      "fth": 9866,
      "gat": 9867,
      "ltc": 9868,
      "mri": 9869,
      "meu": 9870,
      "èº«": 9871,
      "Ġlic": 9872,
      "Ġuna": 9873,
      "Ġmii": 9874,
      "oeT": 9875,
      "raee": 9876,
      "ĠÐ·": 9877,
      "Ġìľ": 9878,
      "!.": 9879,
      "cec": 9880,
      "dnl": 9881,
      "gtl": 9882,
      "vie": 9883,
      "è£ħ": 9884,
      "Ġiui": 9885,
      "Ġray": 9886,
      "Ġuem": 9887,
      "eoT": 9888,
      "Ġkee": 9889,
      "stet": 9890,
      "acp": 9891,
      "hab": 9892,
      "loy": 9893,
      "dtw": 9894,
      "rgo": 9895,
      "lfr": 9896,
      "ìŀĳ": 9897,
      "Jh": 9898,
      "geu": 9899,
      "msr": 9900,
      "Ġtpi": 9901,
      "Ġauh": 9902,
      "Ġdtm": 9903,
      "Ġdho": 9904,
      "Ġcrl": 9905,
      "Ġfii": 9906,
      "eoI": 9907,
      "Ġgoo": 9908,
      "Ġwtn": 9909,
      "hrg": 9910,
      "iml": 9911,
      "tbi": 9912,
      "Ġqr": 9913,
      "nya": 9914,
      "à¤¿": 9915,
      "bis": 9916,
      "gsi": 9917,
      "kti": 9918,
      "lO": 9919,
      "mno": 9920,
      "ptl": 9921,
      "pni": 9922,
      "zp": 9923,
      "ê´": 9924,
      "Ġrcr": 9925,
      "Ġdoc": 9926,
      "Ġcrn": 9927,
      "Ġbto": 9928,
      "Ġ\"/": 9929,
      "ouf": 9930,
      "lhf": 9931,
      "tbr": 9932,
      "ĠDo": 9933,
      "é¡»": 9934,
      ",\\": 9935,
      "xen": 9936,
      "Ġocd": 9937,
      "Ġhof": 9938,
      "Ġdhn": 9939,
      "Ġcal": 9940,
      "neT": 9941,
      "rtv": 9942,
      "ioee": 9943,
      "ldu": 9944,
      "cth": 9945,
      "ktr": 9946,
      "kas": 9947,
      "wii": 9948,
      "ç´": 9949,
      "Ġspe": 9950,
      "Ġraw": 9951,
      "Ġhce": 9952,
      "Ġhsm": 9953,
      "Ġcef": 9954,
      "Ġmot": 9955,
      "Ġmst": 9956,
      "sgt": 9957,
      "crr": 9958,
      "grr": 9959,
      "kel": 9960,
      "mat": 9961,
      "ysr": 9962,
      "Ġtpt": 9963,
      "Ġsob": 9964,
      "Ġing": 9965,
      "Ġwoe": 9966,
      "Ġbta": 9967,
      "iov": 9968,
      "inee": 9969,
      "tff": 9970,
      "ogr": 9971,
      "hmi": 9972,
      "ĠDa": 9973,
      "Ġjt": 9974,
      "çļĦe": 9975,
      "æĶ¹": 9976,
      "cso": 9977,
      "pC": 9978,
      "ĠtV": 9979,
      "Ġamo": 9980,
      "Ġsco": 9981,
      "Ġici": 9982,
      "Ġinw": 9983,
      "Ġltp": 9984,
      "Ġdj": 9985,
      "ettr": 9986,
      "Ġfec": 9987,
      "num": 9988,
      "lfn": 9989,
      "ĠÃ¡": 9990,
      "åºĵ": 9991,
      "(]": 9992,
      "cir": 9993,
      "wC": 9994,
      "Ġhdr": 9995,
      "Ġlhd": 9996,
      "etx": 9997,
      "eteh": 9998,
      "Ġmnr": 9999,
      "Ġgse": 10000,
      "Ġyx": 10001,
      "tfp": 10002,
      "ĠEf": 10003,
      "ĠæĹ¶": 10004,
      "cni": 10005,
      "koe": 10006,
      "Ġebr": 10007,
      "Ġrco": 10008,
      "Ġldn": 10009,
      "Ġdhi": 10010,
      "tene": 10011,
      "Ġfat": 10012,
      "eata": 10013,
      "Ġpns": 10014,
      "Ġpat": 10015,
      "hsy": 10016,
      "lur": 10017,
      "ĠHa": 10018,
      "ĠBt": 10019,
      "Ġë¦¬": 10020,
      "pno": 10021,
      "uri": 10022,
      "uir": 10023,
      "yC": 10024,
      "Ġeyr": 10025,
      "Ġnca": 10026,
      "Ġhhd": 10027,
      "Ġlrc": 10028,
      "Ġlli": 10029,
      "Ġddo": 10030,
      "Ġcra": 10031,
      "tean": 10032,
      "Ġgao": 10033,
      "Ġwaa": 10034,
      "reT": 10035,
      "ĠíĮĮ": 10036,
      "ĠÃ³": 10037,
      "Aen": 10038,
      "pah": 10039,
      "ust": 10040,
      "wtl": 10041,
      "{-": 10042,
      "Ġeeee": 10043,
      "Ġsdu": 10044,
      "Ġnua": 10045,
      "etao": 10046,
      "ĠcN": 10047,
      "ĠNh": 10048,
      "Ġtay": 10049,
      "oyi": 10050,
      "01": 10051,
      "dsd": 10052,
      "wrr": 10053,
      "Ġico": 10054,
      "Ġhla": 10055,
      "Ġdou": 10056,
      "Ġcrh": 10057,
      "Ġuoh": 10058,
      "entt": 10059,
      "Ġyeh": 10060,
      "suu": 10061,
      "sph": 10062,
      "dsh": 10063,
      "got": 10064,
      "vss": 10065,
      "yeu": 10066,
      "Ġewh": 10067,
      "Ġsuo": 10068,
      "Ġrhf": 10069,
      "etos": 10070,
      "Ġule": 10071,
      "Ġyti": 10072,
      "oak": 10073,
      "snee": 10074,
      "scc": 10075,
      "?,": 10076,
      "gst": 10077,
      "vnn": 10078,
      "wah": 10079,
      "yir": 10080,
      "Ñī": 10081,
      "Ġage": 10082,
      "Ġacd": 10083,
      "Ġldt": 10084,
      "etA": 10085,
      "etaa": 10086,
      "Ġcih": 10087,
      "ĠyA": 10088,
      "Ġyoe": 10089,
      "owi": 10090,
      "lmo": 10091,
      "Gy": 10092,
      "drh": 10093,
      "fnr": 10094,
      "Ġtpa": 10095,
      "Ġiut": 10096,
      "Ġrny": 10097,
      "Ġdew": 10098,
      "eato": 10099,
      "Ġpar": 10100,
      "aex": 10101,
      "euw": 10102,
      "rlg": 10103,
      "ĠTy": 10104,
      "ncm": 10105,
      "dsg": 10106,
      "ĠèĢ": 10107,
      "åĥı": 10108,
      "Ġruo": 10109,
      "Ġrrg": 10110,
      "Ġrab": 10111,
      "Ġlam": 10112,
      "Ġlsm": 10113,
      "ĠdB": 10114,
      "Ġcsl": 10115,
      "Ġuso": 10116,
      "Ġuro": 10117,
      "Ġmit": 10118,
      "Ġfno": 10119,
      "Ġgeh": 10120,
      "nsee": 10121,
      "Ġ:\"": 10122,
      "hud": 10123,
      "lfi": 10124,
      "æī§": 10125,
      "Mv": 10126,
      "kA": 10127,
      "kan": 10128,
      "una": 10129,
      "voi": 10130,
      "Ġhom": 10131,
      "Ġura": 10132,
      "Ġ.<": 10133,
      "emy": 10134,
      "nuf": 10135,
      "tgl": 10136,
      "dhm": 10137,
      "hmo": 10138,
      "lma": 10139,
      "å¯Ĩ": 10140,
      "Aea": 10141,
      "dro": 10142,
      "eV": 10143,
      "lid": 10144,
      "unt": 10145,
      "è¶": 10146,
      "ĠtJ": 10147,
      "Ġaud": 10148,
      "Ġiaw": 10149,
      "Ġusl": 10150,
      "eier": 10151,
      "Ġ-'": 10152,
      "olb": 10153,
      "efy": 10154,
      "lsw": 10155,
      "hrw": 10156,
      "ĠåĪ¶": 10157,
      "TT": 10158,
      "csh": 10159,
      "ĠtK": 10160,
      "Ġnuo": 10161,
      "Ġicn": 10162,
      "eeos": 10163,
      "eens": 10164,
      "teas": 10165,
      "eiI": 10166,
      "eiT": 10167,
      "ĠgS": 10168,
      "Ġweh": 10169,
      "ĠOn": 10170,
      "Ġego": 10171,
      "Aeo": 10172,
      "Gw": 10173,
      "csa": 10174,
      "dod": 10175,
      "Ġipe": 10176,
      "Ġpth": 10177,
      "afm": 10178,
      "Ġelp": 10179,
      "hms": 10180,
      "lmn": 10181,
      "å®¢": 10182,
      "Ġå®¹": 10183,
      ")]": 10184,
      "coa": 10185,
      "dad": 10186,
      "Ġebt": 10187,
      "Ġami": 10188,
      "Ġnrg": 10189,
      "Ġnny": 10190,
      "Ġncd": 10191,
      "Ġrcn": 10192,
      "Ġlj": 10193,
      "Ġlll": 10194,
      "Ġdhd": 10195,
      "Ġcnh": 10196,
      "Ġurh": 10197,
      "efw": 10198,
      "ĠAp": 10199,
      "csr": 10200,
      "kS": 10201,
      "ħ§": 10202,
      "Ġafi": 10203,
      "Ġhiu": 10204,
      "Ġdeb": 10205,
      "Ġddr": 10206,
      "ehea": 10207,
      "ieI": 10208,
      "Ġ_'": 10209,
      "Ġehp": 10210,
      "hnb": 10211,
      "agd": 10212,
      "ĠPd": 10213,
      "Ġtng": 10214,
      "lmr": 10215,
      "ä½Ĩ": 10216,
      "è´Ł": 10217,
      "aU": 10218,
      "cah": 10219,
      "Ġaul": 10220,
      "Ġhif": 10221,
      "tese": 10222,
      "Ġmah": 10223,
      "Ġftd": 10224,
      "Ġfsr": 10225,
      "eoto": 10226,
      "Ġgas": 10227,
      "ndy": 10228,
      "ewu": 10229,
      "Ġedp": 10230,
      "Ġefd": 10231,
      "Ġefh": 10232,
      "ê´Ģ": 10233,
      "bot": 10234,
      "bec": 10235,
      "cnt": 10236,
      "Ġodu": 10237,
      "Ġdla": 10238,
      "ĠuL": 10239,
      "ertt": 10240,
      "acf": 10241,
      "Ġedm": 10242,
      "Ġ<.": 10243,
      "Ġjs": 10244,
      "æĿĥ": 10245,
      ")[": 10246,
      "=<": 10247,
      "pnr": 10248,
      "poh": 10249,
      "íİ": 10250,
      "Ġoft": 10251,
      "Ġnms": 10252,
      "Ġrca": 10253,
      "Ġrut": 10254,
      "Ġhap": 10255,
      "Ġhld": 10256,
      "Ġwtr": 10257,
      "Ġwse": 10258,
      "aaet": 10259,
      "ãĤŃ": 10260,
      "Ġéħį": 10261,
      "çº§": 10262,
      "Ete": 10263,
      "fir": 10264,
      "lD": 10265,
      "pnt": 10266,
      "utd": 10267,
      "von": 10268,
      "}_": 10269,
      "Ġá»": 10270,
      "Ġrfs": 10271,
      "Ġddt": 10272,
      "Ġche": 10273,
      "Ġual": 10274,
      "Ġmri": 10275,
      "Ġmno": 10276,
      "sfl": 10277,
      "ngn": 10278,
      "nwa": 10279,
      "Ġç§": 10280,
      "_{": 10281,
      "ked": 10282,
      "lrd": 10283,
      "ptd": 10284,
      "wth": 10285,
      "Ġnci": 10286,
      "Ġrob": 10287,
      "Ġlnu": 10288,
      "etae": 10289,
      "Ġfri": 10290,
      "icm": 10291,
      "llu": 10292,
      "hnw": 10293,
      "dog": 10294,
      "ngo": 10295,
      "ign": 10296,
      "ĠFa": 10297,
      "'#": 10298,
      "eK": 10299,
      "gii": 10300,
      "}-": 10301,
      "ê±": 10302,
      "ĺĲ": 10303,
      "Ġdsu": 10304,
      "Ġftl": 10305,
      "Ġptl": 10306,
      "Ġyts": 10307,
      "Ġyao": 10308,
      "shy": 10309,
      "rtet": 10310,
      "sav": 10311,
      "omc": 10312,
      "hmn": 10313,
      "Ġæı": 10314,
      "æ¬¡": 10315,
      "çľ": 10316,
      "eenn": 10317,
      "eeie": 10318,
      "Ġfnr": 10319,
      "esta": 10320,
      "ĠyS": 10321,
      "hhf": 10322,
      "lrg": 10323,
      "nph": 10324,
      "hcl": 10325,
      "ĠWa": 10326,
      "pst": 10327,
      "Ġeyd": 10328,
      "Ġouh": 10329,
      "Ġsdc": 10330,
      "Ġiob": 10331,
      "Ġdtp": 10332,
      "etse": 10333,
      "Ġmrr": 10334,
      "edet": 10335,
      "eyu": 10336,
      "sml": 10337,
      "agh": 10338,
      "ĠPh": 10339,
      "Ġemd": 10340,
      "own": 10341,
      "à¤Ĥ": 10342,
      "<:": 10343,
      "vns": 10344,
      "yno": 10345,
      "Ġalf": 10346,
      "Ġrpe": 10347,
      "Ġhnm": 10348,
      "Ġdds": 10349,
      "Ġmtd": 10350,
      "enI": 10351,
      "Ġgne": 10352,
      "egm": 10353,
      "hmr": 10354,
      "åĨµ": 10355,
      "Aes": 10356,
      "ura": 10357,
      "ule": 10358,
      "éĥ½": 10359,
      "ŁĲ": 10360,
      "Ġtml": 10361,
      "teos": 10362,
      "ĠfC": 10363,
      "icf": 10364,
      "low": 10365,
      "lng": 10366,
      "huh": 10367,
      "ogh": 10368,
      "Ġåĳ": 10369,
      "åħ·": 10370,
      "beu": 10371,
      "dtu": 10372,
      "uno": 10373,
      "wir": 10374,
      "Ġleb": 10375,
      "Ġcin": 10376,
      "teie": 10377,
      "ttT": 10378,
      "tnea": 10379,
      "Ġ'_": 10380,
      "ilg": 10381,
      "ifl": 10382,
      "hfo": 10383,
      "ĠOr": 10384,
      "iga": 10385,
      "Rv": 10386,
      "nG": 10387,
      "yrr": 10388,
      "æĽ": 10389,
      "ĠtY": 10390,
      "Ġtpo": 10391,
      "Ġnpe": 10392,
      "Ġlda": 10393,
      "Ġdlt": 10394,
      "tere": 10395,
      "Ġfah": 10396,
      "oaet": 10397,
      "slg": 10398,
      "ipd": 10399,
      "ĠNl": 10400,
      "Ġegi": 10401,
      "eke": 10402,
      "fot": 10403,
      "fnt": 10404,
      "wtd": 10405,
      "çłģ": 10406,
      "Ġlru": 10407,
      "Ġcnl": 10408,
      "ĠuP": 10409,
      "Ġuhe": 10410,
      "Ġfso": 10411,
      "taea": 10412,
      "trk": 10413,
      "bC": 10414,
      "weu": 10415,
      "Ġama": 10416,
      "Ġmsa": 10417,
      "Ġfrr": 10418,
      "Ġgre": 10419,
      "osv": 10420,
      "hfi": 10421,
      "nws": 10422,
      "ĠãĤĬ": 10423,
      ">>": 10424,
      "Eea": 10425,
      "](": 10426,
      "eY": 10427,
      "ftd": 10428,
      "oG": 10429,
      "usa": 10430,
      "wsa": 10431,
      "Ġtfh": 10432,
      "Ġnco": 10433,
      "Ġrun": 10434,
      "Ġliu": 10435,
      "Ġytr": 10436,
      "roee": 10437,
      "lsy": 10438,
      "amm": 10439,
      "npl": 10440,
      "twl": 10441,
      "oyn": 10442,
      "\"*": 10443,
      "-{": 10444,
      "brr": 10445,
      "kon": 10446,
      "mC": 10447,
      "wst": 10448,
      "Ø²": 10449,
      "Ġebn": 10450,
      "Ġcad": 10451,
      "Ġunl": 10452,
      "enta": 10453,
      "tyd": 10454,
      "tyl": 10455,
      "ĠìĪĺ": 10456,
      "æ¯ı": 10457,
      "fsr": 10458,
      "gC": 10459,
      "ltu": 10460,
      "uso": 10461,
      "ynt": 10462,
      "æ£Ģ": 10463,
      "Ġhrf": 10464,
      "etS": 10465,
      "Ġfoh": 10466,
      "Ġetv": 10467,
      "Ġefl": 10468,
      "bri": 10469,
      "bii": 10470,
      "cR": 10471,
      "urr": 10472,
      "wnr": 10473,
      "xer": 10474,
      "ÑĪ": 10475,
      "Ġamr": 10476,
      "Ġolf": 10477,
      "Ġllh": 10478,
      "Ġdiu": 10479,
      "Ġuad": 10480,
      "egf": 10481,
      "hiy": 10482,
      "drp": 10483,
      "cia": 10484,
      "qee": 10485,
      "vec": 10486,
      "Ġamn": 10487,
      "Ġrow": 10488,
      "Ġroy": 10489,
      "Ġdom": 10490,
      "Ġmeu": 10491,
      "enT": 10492,
      "erT": 10493,
      "Ġgan": 10494,
      "toeo": 10495,
      "Ġeuu": 10496,
      "ĠRl": 10497,
[...]
