{
  "version": "1.0",
  "truncation": null,
  "padding": null,
  "added_tokens": [],
  "normalizer": null,
  "pre_tokenizer": {
    "type": "ByteLevel",
    "add_prefix_space": false,
    "trim_offsets": true,
    "use_regex": true
  },
  "post_processor": null,
  "decoder": {
    "type": "ByteLevel",
    "add_prefix_space": true,
    "trim_offsets": true,
    "use_regex": true
  },
  "model": {
    "type": "BPE",
    "dropout": null,
    "unk_token": null,
    "continuing_subword_prefix": null,
    "end_of_word_suffix": null,
    "fuse_unk": false,
    "byte_fallback": false,
    "ignore_merges": false,
    "vocab": {
      "!": 0,
      "\"": 1,
      "#": 2,
      "$": 3,
      "%": 4,
      "&": 5,
      "'": 6,
      "(": 7,
      ")": 8,
      "*": 9,
      "+": 10,
      ",": 11,
      "-": 12,
      ".": 13,
      "/": 14,
      "0": 15,
      "1": 16,
      "2": 17,
      "3": 18,
      "4": 19,
      "5": 20,
      "6": 21,
      "7": 22,
      "8": 23,
      "9": 24,
      ":": 25,
      ";": 26,
      "<": 27,
      "=": 28,
      ">": 29,
      "?": 30,
      "@": 31,
      "A": 32,
      "B": 33,
      "C": 34,
      "D": 35,
      "E": 36,
      "F": 37,
      "G": 38,
      "H": 39,
      "I": 40,
      "J": 41,
      "K": 42,
      "L": 43,
      "M": 44,
      "N": 45,
      "O": 46,
      "P": 47,
      "Q": 48,
      "R": 49,
      "S": 50,
      "T": 51,
      "U": 52,
      "V": 53,
      "W": 54,
      "X": 55,
      "Y": 56,
      "Z": 57,
      "[": 58,
      "\\": 59,
      "]": 60,
      "^": 61,
      "_": 62,
      "`": 63,
      "a": 64,
      "b": 65,
      "c": 66,
      "d": 67,
      "e": 68,
      "f": 69,
      "g": 70,
      "h": 71,
      "i": 72,
      "j": 73,
      "k": 74,
      "l": 75,
      "m": 76,
      "n": 77,
      "o": 78,
      "p": 79,
      "q": 80,
      "r": 81,
      "s": 82,
      "t": 83,
      "u": 84,
      "v": 85,
      "w": 86,
      "x": 87,
      "y": 88,
      "z": 89,
      "{": 90,
      "|": 91,
      "}": 92,
      "~": 93,
      "¡": 94,
      "¢": 95,
      "£": 96,
      "¤": 97,
      "¥": 98,
      "¦": 99,
      "§": 100,
      "¨": 101,
      "©": 102,
      "ª": 103,
      "«": 104,
      "¬": 105,
      "®": 106,
      "¯": 107,
      "°": 108,
      "±": 109,
      "²": 110,
      "³": 111,
      "´": 112,
      "µ": 113,
      "¶": 114,
      "·": 115,
      "¸": 116,
      "¹": 117,
      "º": 118,
      "»": 119,
      "¼": 120,
      "½": 121,
      "¾": 122,
      "¿": 123,
      "À": 124,
      "Á": 125,
      "Â": 126,
      "Ã": 127,
      "Ä": 128,
      "Å": 129,
      "Æ": 130,
      "Ç": 131,
      "È": 132,
      "É": 133,
      "Ê": 134,
      "Ë": 135,
      "Ì": 136,
      "Í": 137,
      "Î": 138,
      "Ï": 139,
      "Ð": 140,
      "Ñ": 141,
      "Ò": 142,
      "Ó": 143,
      "Ô": 144,
      "Õ": 145,
      "Ö": 146,
      "×": 147,
      "Ø": 148,
      "Ù": 149,
      "Ú": 150,
      "Û": 151,
      "Ü": 152,
      "Ý": 153,
      "Þ": 154,
      "ß": 155,
      "à": 156,
      "á": 157,
      "â": 158,
      "ã": 159,
      "ä": 160,
      "å": 161,
      "æ": 162,
      "ç": 163,
      "è": 164,
      "é": 165,
      "ê": 166,
      "ë": 167,
      "ì": 168,
      "í": 169,
      "î": 170,
      "ï": 171,
      "ð": 172,
      "ñ": 173,
      "ò": 174,
      "ó": 175,
      "ô": 176,
      "õ": 177,
      "ö": 178,
      "÷": 179,
      "ø": 180,
      "ù": 181,
      "ú": 182,
      "û": 183,
      "ü": 184,
      "ý": 185,
      "þ": 186,
      "ÿ": 187,
      "Ā": 188,
      "ā": 189,
      "Ă": 190,
      "ă": 191,
      "Ą": 192,
      "ą": 193,
      "Ć": 194,
      "ć": 195,
      "Ĉ": 196,
      "ĉ": 197,
      "Ċ": 198,
      "ċ": 199,
      "Č": 200,
      "č": 201,
      "Ď": 202,
      "ď": 203,
      "Đ": 204,
      "đ": 205,
      "Ē": 206,
      "ē": 207,
      "Ĕ": 208,
      "ĕ": 209,
      "Ė": 210,
      "ė": 211,
      "Ę": 212,
      "ę": 213,
      "Ě": 214,
      "ě": 215,
      "Ĝ": 216,
      "ĝ": 217,
      "Ğ": 218,
      "ğ": 219,
      "Ġ": 220,
      "ġ": 221,
      "Ģ": 222,
      "ģ": 223,
      "Ĥ": 224,
      "ĥ": 225,
      "Ħ": 226,
      "ħ": 227,
      "Ĩ": 228,
      "ĩ": 229,
      "Ī": 230,
      "ī": 231,
      "Ĭ": 232,
      "ĭ": 233,
      "Į": 234,
      "į": 235,
      "İ": 236,
      "ı": 237,
      "Ĳ": 238,
      "ĳ": 239,
      "Ĵ": 240,
      "ĵ": 241,
      "Ķ": 242,
      "ķ": 243,
      "ĸ": 244,
      "Ĺ": 245,
      "ĺ": 246,
      "Ļ": 247,
      "ļ": 248,
      "Ľ": 249,
      "ľ": 250,
      "Ŀ": 251,
      "ŀ": 252,
      "Ł": 253,
      "ł": 254,
      "Ń": 255,
      "Ġe": 256,
      "Ġt": 257,
      "Ġa": 258,
      "Ġo": 259,
      "Ġs": 260,
      "Ġn": 261,
      "Ġi": 262,
      "Ġr": 263,
      "ĠĠ": 264,
      "ee": 265,
      "Ġh": 266,
      "Ġl": 267,
      "Ġd": 268,
      "et": 269,
      "Ġc": 270,
      "Ġu": 271,
      "ĠĊ": 272,
      "te": 273,
      "Ġm": 274,
      "Ġf": 275,
      "ea": 276,
      "eo": 277,
      "es": 278,
      "Ġp": 279,
      "en": 280,
      "ei": 281,
      "er": 282,
      "tt": 283,
      "Ġ,": 284,
      "Ġg": 285,
      "ta": 286,
      "Ġw": 287,
      "Ġy": 288,
      "to": 289,
      "Ġ.": 290,
      "ts": 291,
      "eh": 292,
      "tn": 293,
      "Ġb": 294,
      "aa": 295,
      "ti": 296,
      "tr": 297,
      "el": 298,
      "ed": 299,
      "ao": 300,
      "as": 301,
      "oo": 302,
      "an": 303,
      "ae": 304,
      "ai": 305,
      "ar": 306,
      "os": 307,
      "on": 308,
      "ss": 309,
      "th": 310,
      "oi": 311,
      "oe": 312,
      "or": 313,
      "nn": 314,
      "tl": 315,
      "Ġ\"": 316,
      "Ġv": 317,
      "ns": 318,
      "is": 319,
      "rs": 320,
      "ne": 321,
      "ie": 322,
      "re": 323,
      "td": 324,
      "ni": 325,
      "Ġ_": 326,
      "ah": 327,
      "at": 328,
      "ri": 329,
      "Ġ-": 330,
      "se": 331,
      "nr": 332,
      "al": 333,
      "ii": 334,
      "no": 335,
      "rr": 336,
      "Ġk": 337,
      "ad": 338,
      "oh": 339,
      "ot": 340,
      "si": 341,
      "ec": 342,
      "ĠĠĠ": 343,
      "Ġ(": 344,
      "Ġ)": 345,
      "eu": 346,
      "nh": 347,
      "sr": 348,
      "ol": 349,
      "nt": 350,
      "oa": 351,
      "ir": 352,
      "od": 353,
      "nl": 354,
      "na": 355,
      "em": 356,
      "sh": 357,
      "ãģ": 358,
      "st": 359,
      "nd": 360,
      "ef": 361,
      "ih": 362,
      "rh": 363,
      "it": 364,
      "rt": 365,
      "sl": 366,
      "Ġ'": 367,
      "sa": 368,
      "so": 369,
      "il": 370,
      "ia": 371,
      "rl": 372,
      "ĠĠĊ": 373,
      "sd": 374,
      "ep": 375,
      "sn": 376,
      "io": 377,
      "ra": 378,
      "ro": 379,
      "tc": 380,
      "tu": 381,
      "in": 382,
      "id": 383,
      "rn": 384,
      "rd": 385,
      "ĠT": 386,
      "ĠI": 387,
      "he": 388,
      "Ġ/": 389,
      "Ġ:": 390,
      "Ġee": 391,
      "le": 392,
      "ac": 393,
      "au": 394,
      "tm": 395,
      "tf": 396,
      "de": 397,
      "Ġx": 398,
      "oc": 399,
      "hh": 400,
      "ou": 401,
      "eg": 402,
      "Ġ=": 403,
      "hs": 404,
      "nc": 405,
      "ãĥ": 406,
      "Ġes": 407,
      "tp": 408,
      "nu": 409,
      "ĠA": 410,
      "ls": 411,
      "Ġ0": 412,
      "ãĤ": 413,
      "Ġeh": 414,
      "am": 415,
      "ĠS": 416,
      "ic": 417,
      "rc": 418,
      "lh": 419,
      "af": 420,
      "iu": 421,
      "ru": 422,
      "ey": 423,
      "ew": 424,
      "sc": 425,
      "om": 426,
      "Ġ`": 427,
      "su": 428,
      "ĠE": 429,
      "Ġed": 430,
      "Ġel": 431,
      "of": 432,
      "Ġet": 433,
      "Ġen": 434,
      "Ġ>": 435,
      "Ġei": 436,
      "Ġea": 437,
      "ll": 438,
      "hd": 439,
      "Ġer": 440,
      "Ġeo": 441,
      "ht": 442,
      "hi": 443,
      "hn": 444,
      "hl": 445,
      "eb": 446,
      "hr": 447,
      "ha": 448,
      "ho": 449,
      "ds": 450,
      "nm": 451,
      "Ġ1": 452,
      "ap": 453,
      "lt": 454,
      "li": 455,
      "nf": 456,
      "ld": 457,
      "ce": 458,
      "lr": 459,
      "Ġte": 460,
      "tg": 461,
      "lo": 462,
      "Ġ<": 463,
      "ue": 464,
      "la": 465,
      "sm": 466,
      "ln": 467,
      "im": 468,
      "rm": 469,
      "sf": 470,
      "op": 471,
      "dd": 472,
      "if": 473,
      "rf": 474,
      "dt": 475,
      "ĠC": 476,
      "da": 477,
      "np": 478,
      "di": 479,
      "tw": 480,
      "do": 481,
      "ty": 482,
      "dr": 483,
      "Ġec": 484,
      "dn": 485,
      "me": 486,
      "sp": 487,
      "Ġeu": 488,
      "fe": 489,
      "Ġč": 490,
      "ag": 491,
      "hc": 492,
      "ip": 493,
      "Ġae": 494,
      "hu": 495,
      "rp": 496,
      "ĠR": 497,
      "og": 498,
      "Ġoe": 499,
      "Ġts": 500,
      "tb": 501,
      "ĠP": 502,
      "ĠN": 503,
      "lc": 504,
      "lu": 505,
      "Ġ#": 506,
      "dh": 507,
      "pe": 508,
      "Ġta": 509,
      "Ġse": 510,
      "cs": 511,
      "Ġtn": 512,
      "Ġti": 513,
      "Ġto": 514,
      "us": 515,
      "ge": 516,
      "aw": 517,
      "ay": 518,
      "Ġtt": 519,
      "Ġtr": 520,
      "Ġne": 521,
      "Ġem": 522,
      "ĠM": 523,
      "dl": 524,
      "Ġie": 525,
      "Ġef": 526,
      "à¦": 527,
      "ow": 528,
      "Ġ2": 529,
      "Ġre": 530,
      "ãĢ": 531,
      "oy": 532,
      "ci": 533,
      "cn": 534,
      "ĠL": 535,
      "ui": 536,
      "cr": 537,
      "ct": 538,
      "ca": 539,
      "un": 540,
      "ut": 541,
      "ur": 542,
      "hm": 543,
      "we": 544,
      "Ġas": 545,
      "ye": 546,
      "co": 547,
      "hf": 548,
      "uo": 549,
      "ng": 550,
      "Ġq": 551,
      "ua": 552,
      "ms": 553,
      "ĠO": 554,
      "Ġ;": 555,
      "fs": 556,
      "be": 557,
      "Ġep": 558,
      "Ġos": 559,
      "Ġai": 560,
      "Ġth": 561,
      "Ġtd": 562,
      "rg": 563,
      "ä¸": 564,
      "čĠ": 565,
      "lm": 566,
      "Ġat": 567,
      "ig": 568,
      "Ġar": 569,
      "Ġan": 570,
      "Ġaa": 571,
      "lf": 572,
      "ĠD": 573,
      "Ġss": 574,
      "Ġao": 575,
      "Ġå": 576,
      "ĠH": 577,
      "Ġns": 578,
      "nw": 579,
      "ab": 580,
      "ny": 581,
      "cd": 582,
      "ch": 583,
      "ps": 584,
      "Ġtl": 585,
      "Ġoi": 586,
      "mi": 587,
      "Ġot": 588,
      "mt": 589,
      "ud": 590,
      "uh": 591,
      "fi": 592,
      "Ġor": 593,
      "ft": 594,
      "Ġis": 595,
      "mr": 596,
      "ob": 597,
      "Ġst": 598,
      "Ġ[": 599,
      "Ġoa": 600,
      "fr": 601,
      "Ġrs": 602,
      "Ġ]": 603,
      "ma": 604,
      "ĠB": 605,
      "Ġsi": 606,
      "Ġon": 607,
      "ĠF": 608,
      "mo": 609,
      "fa": 610,
      "Ġoo": 611,
      "mn": 612,
      "fo": 613,
      "cl": 614,
      "fn": 615,
      "ĠW": 616,
      "gs": 617,
      "pi": 618,
      "Ġnt": 619,
      "pt": 620,
      "Ġsr": 621,
      "Ġni": 622,
      "ul": 623,
      "Ġnr": 624,
      "Ġad": 625,
      "Ġsa": 626,
      "Ġah": 627,
      "Ġit": 628,
      "Ġsn": 629,
      "Ġso": 630,
      "Ġj": 631,
      "pr": 632,
      "Ġna": 633,
      "Ġeg": 634,
      "ys": 635,
      "ws": 636,
      "Ġno": 637,
      "Ġii": 638,
      "Ġhe": 639,
      "pa": 640,
      "Ġir": 641,
      "Ġnn": 642,
      "po": 643,
      "pn": 644,
      "Ġri": 645,
      "ĠĠĠĠ": 646,
      "Ġrt": 647,
      "ï¼": 648,
      "mh": 649,
      "dc": 650,
      "Ġrr": 651,
      "Ġia": 652,
      "Ġio": 653,
      "Ġal": 654,
      "Ġoh": 655,
      "fh": 656,
      "Ġra": 657,
      "du": 658,
      "Ġin": 659,
      "sg": 660,
      "Ġro": 661,
      "Ġ{": 662,
      "Ġ}": 663,
      "Ġrn": 664,
      "ãĢĤ": 665,
      "ev": 666,
      "wt": 667,
      "md": 668,
      "wi": 669,
      "Ġod": 670,
      "yt": 671,
      "bs": 672,
      "Ġle": 673,
      "Ġsh": 674,
      "gt": 675,
      "gi": 676,
      "yi": 677,
      "fd": 678,
      "Ġtc": 679,
      "wr": 680,
      "çļ": 681,
      "çļĦ": 682,
      "gr": 683,
      "eee": 684,
      "yr": 685,
      "ga": 686,
      "Ġtu": 687,
      "Ġol": 688,
      "ml": 689,
      "ph": 690,
      "čĊ": 691,
      "ìĿ": 692,
      "Ġnh": 693,
      "wo": 694,
      "fl": 695,
      "ya": 696,
      "wa": 697,
      "wn": 698,
      "Ġsd": 699,
      "'t": 700,
      "yn": 701,
      "yo": 702,
      "Ġnd": 703,
      "go": 704,
      "pd": 705,
      "Ġih": 706,
      "gn": 707,
      "Ġde": 708,
      "Ġsl": 709,
      "bi": 710,
      "bt": 711,
      "Ġrh": 712,
      "Ġid": 713,
      "br": 714,
      "ve": 715,
      "Ġnl": 716,
      "pl": 717,
      "Ġ*": 718,
      "Ġrd": 719,
      "cc": 720,
      "Ġil": 721,
      "bo": 722,
      "Ġ3": 723,
      "ba": 724,
      "ĠG": 725,
      "bn": 726,
      "Ġrl": 727,
      "wh": 728,
      "yh": 729,
      "uu": 730,
      "tee": 731,
      "Ġhs": 732,
      "gh": 733,
      "Ġtm": 734,
      "yd": 735,
      "Ġãģ": 736,
      "cu": 737,
      "wd": 738,
      "Ġæ": 739,
      "Ġtf": 740,
      "gd": 741,
      "Ġey": 742,
      "Ġew": 743,
      "uc": 744,
      "Ġls": 745,
      "bh": 746,
      "Ġhi": 747,
      "Ġz": 748,
      "Ġac": 749,
      "gl": 750,
      "ĠÐ": 751,
      "wl": 752,
      "yl": 753,
      "Ġht": 754,
      "Ġau": 755,
      "Ġhr": 756,
      "ees": 757,
      "Ġha": 758,
      "Ġho": 759,
      "Ġhn": 760,
      "bd": 761,
      "Ġli": 762,
      "Ġoc": 763,
      "Ġds": 764,
      "ĠU": 765,
      "Ġou": 766,
      "bl": 767,
      "ek": 768,
      "tv": 769,
      "fc": 770,
      "mc": 771,
      "Ġlr": 772,
      "'s": 773,
      "mu": 774,
      "eei": 775,
      "Ġtp": 776,
      "Ġsc": 777,
      ",,": 778,
      "Ġlt": 779,
      "Ġla": 780,
      "eer": 781,
      "Ġlo": 782,
      "Ġ4": 783,
      "ĠĠĠĊ": 784,
      "fu": 785,
      "Ġln": 786,
      "een": 787,
      "Ġnu": 788,
      "Ġeb": 789,
      "Ġsu": 790,
      "Ġdi": 791,
      "Ġnc": 792,
      "Ġdr": 793,
      "eea": 794,
      "vs": 795,
      "ete": 796,
      "eet": 797,
      "Ġhh": 798,
      "eeo": 799,
      "ke": 800,
      "pc": 801,
      "Ġam": 802,
      "Ġda": 803,
      "Ġdn": 804,
      "Ġue": 805,
      "pu": 806,
      "Ġdt": 807,
      "âĢ": 808,
      "íķ": 809,
      "sy": 810,
      "rw": 811,
      "dm": 812,
      "sw": 813,
      "Ġdo": 814,
      "Ġrc": 815,
      "Ġce": 816,
      "ä»": 817,
      "iy": 818,
      "Ġic": 819,
      "Ġaf": 820,
      "ry": 821,
      "iw": 822,
      "Ġiu": 823,
      "Ġru": 824,
      "df": 825,
      "hp": 826,
      "Ġhl": 827,
      "vn": 828,
      "vi": 829,
      "Ġom": 830,
      "Ġhd": 831,
      "Ġì": 832,
      "vo": 833,
      "va": 834,
      "Ġof": 835,
      "Ġ5": 836,
      "vt": 837,
      ".,": 838,
      "nb": 839,
      "Ġlh": 840,
      "vr": 841,
      "lp": 842,
      "gc": 843,
      "Ġsm": 844,
      "ä½": 845,
      "Ġë": 846,
      "eeh": 847,
      "gu": 848,
      ",.": 849,
      "ï¼Į": 850,
      "sb": 851,
      "Ġsf": 852,
      "Ġdh": 853,
      "Ġap": 854,
      "ib": 855,
      "Ġld": 856,
      "Ġll": 857,
      "mm": 858,
      "Ġtg": 859,
      "eed": 860,
      "Ġ8": 861,
      "rb": 862,
      "Ġnf": 863,
      "eel": 864,
      "yc": 865,
      "Ġnm": 866,
      "Ġdd": 867,
      "Ġme": 868,
      "tet": 869,
      "wc": 870,
      "Ġ!": 871,
      "ãĥ¼": 872,
      "Ġif": 873,
      "wu": 874,
      "Ġim": 875,
      "Ġop": 876,
      "vh": 877,
      "Ġrf": 878,
      "Ġdl": 879,
      "cf": 880,
      "yu": 881,
      "Ġrm": 882,
      "ks": 883,
      "eae": 884,
      "çĶ": 885,
      "Ġè": 886,
      "cm": 887,
      "dp": 888,
      "à¤": 889,
      "Ġfe": 890,
      "um": 891,
      "Ġty": 892,
      "Ġ6": 893,
      "Ġtw": 894,
      "fm": 895,
      "tes": 896,
      "Ġsp": 897,
      "tk": 898,
      "ets": 899,
      "Ġeee": 900,
      "aee": 901,
      "ff": 902,
      "..": 903,
      "Ġnp": 904,
      "hg": 905,
      "eoe": 906,
      "vl": 907,
      "Ġcs": 908,
      "ĠãĤ": 909,
      "uf": 910,
      "vd": 911,
      "pm": 912,
      "tea": 913,
      "Ġus": 914,
      "oee": 915,
      "tei": 916,
      "ko": 917,
      "Ġag": 918,
      "Ġ9": 919,
      "ki": 920,
      "ese": 921,
      "ka": 922,
      "bc": 923,
      "teo": 924,
      "ten": 925,
      "Ð¾": 926,
      "Ġip": 927,
      "ene": 928,
      "lg": 929,
      "ter": 930,
      "åı": 931,
      "Ġpe": 932,
      "Ġtb": 933,
      "Ġrp": 934,
      "eti": 935,
      "mf": 936,
      "Ġco": 937,
      "Ġcn": 938,
      "kr": 939,
      "kn": 940,
      "ĠV": 941,
      "Ġci": 942,
      "Ġct": 943,
      "eto": 944,
      "eta": 945,
      "ett": 946,
      "kt": 947,
      "Ġhc": 948,
      "Ġca": 949,
      "Ġhu": 950,
      "etr": 951,
      "Ie": 952,
      "Ġua": 953,
      "bu": 954,
      "etn": 955,
      "Ġui": 956,
      "Ġur": 957,
      "hw": 958,
      "Ġcr": 959,
      "Te": 960,
      "Ġ\\": 961,
      "Ġog": 962,
      "hy": 963,
      "Ġ?": 964,
      "Ġut": 965,
      "pf": 966,
      "eie": 967,
      "çĶ¨": 968,
      "Ġuo": 969,
      "Ġev": 970,
      "Ġay": 971,
      "gm": 972,
      "Ġun": 973,
      "cp": 974,
      "Ġaw": 975,
      "gf": 976,
      "ere": 977,
      "up": 978,
      "wm": 979,
      "yf": 980,
      "ym": 981,
      "dg": 982,
      "nee": 983,
      "ãĢģ": 984,
      "Ġms": 985,
      "ãģ®": 986,
      "ĠK": 987,
      "Ġlc": 988,
      "'d": 989,
      "av": 990,
      "Ġsg": 991,
      "wf": 992,
      "å®": 993,
      "Ġlu": 994,
      "Ġ7": 995,
      "kh": 996,
      "see": 997,
      "teh": 998,
      "ÑĤ": 999,
      "Ġãĥ": 1000,
      "ĠY": 1001,
      "Ġng": 1002,
      "Ðµ": 1003,
      "lw": 1004,
      "eth": 1005,
      "ly": 1006,
      "eas": 1007,
      "Ġfs": 1008,
      "iee": 1009,
      "æľ": 1010,
      "Ġdc": 1011,
      "mp": 1012,
      "Ġge": 1013,
      "Ġoy": 1014,
      "ov": 1015,
      "ĠJ": 1016,
      "Ġab": 1017,
      "ree": 1018,
      "Ġç": 1019,
      "Ġig": 1020,
      "fp": 1021,
      "Ġch": 1022,
      "Ġow": 1023,
      "ted": 1024,
      "hb": 1025,
      "Ġdu": 1026,
      "Ġmi": 1027,
      "eT": 1028,
      "Ġma": 1029,
      "Ġeet": 1030,
      "kd": 1031,
      "åĪ": 1032,
      "Ġmt": 1033,
      "Ġrg": 1034,
      "Ġuh": 1035,
      "Ġmr": 1036,
      "kl": 1037,
      "Ġfn": 1038,
      "tel": 1039,
      "Ġft": 1040,
      "eI": 1041,
      "Ġhf": 1042,
      "Ġfr": 1043,
      "Ġmo": 1044,
      "Ġsw": 1045,
      "Ġfi": 1046,
      "Ġeea": 1047,
      "Ġfa": 1048,
      "Ġhm": 1049,
      "bm": 1050,
      "Ġmn": 1051,
      "xe": 1052,
      "Ġcl": 1053,
      "dw": 1054,
      "Ġfo": 1055,
      "pp": 1056,
      "eos": 1057,
      "ĭ¤": 1058,
      "bf": 1059,
      "dy": 1060,
      "Ġsy": 1061,
      "ear": 1062,
      "Ġnw": 1063,
      "etl": 1064,
      "ess": 1065,
      "Ġud": 1066,
      "eaa": 1067,
      "eai": 1068,
      "tae": 1069,
      "eat": 1070,
      "ean": 1071,
      "Ġcd": 1072,
      "Ġny": 1073,
      "cg": 1074,
      "etd": 1075,
      "Ġps": 1076,
      "ens": 1077,
      "eao": 1078,
      "Ġlm": 1079,
      "Ġeeo": 1080,
      "Ġul": 1081,
      "à§": 1082,
      "Ġtee": 1083,
      "åĲ": 1084,
      "Ġob": 1085,
      "Ð°": 1086,
      ",\"": 1087,
      "ug": 1088,
      "Ġwe": 1089,
      "nv": 1090,
      "äº": 1091,
      "Ġiw": 1092,
      "Ġiy": 1093,
      "eec": 1094,
      "eot": 1095,
      "Ġlf": 1096,
      "Ġye": 1097,
      "Ts": 1098,
      "\",": 1099,
      "eoi": 1100,
      "Ġek": 1101,
      "Ġrw": 1102,
      "lb": 1103,
      "eor": 1104,
      "Ġees": 1105,
      "ìĿ´": 1106,
      "eoa": 1107,
      "gp": 1108,
      "toe": 1109,
      "Ð¸": 1110,
      "eoo": 1111,
      "Ġry": 1112,
      "ãģĻ": 1113,
      "vc": 1114,
      "tte": 1115,
      "tts": 1116,
      "eis": 1117,
      "Se": 1118,
      "Ġpi": 1119,
      "eeu": 1120,
      "Ġpa": 1121,
      "Ġpo": 1122,
      "Ae": 1123,
      "ers": 1124,
      "Ġpr": 1125,
      "Ġhp": 1126,
      "eon": 1127,
      "Ġsb": 1128,
      "Ġpt": 1129,
      "Is": 1130,
      "eso": 1131,
      "esa": 1132,
      "Ġ|": 1133,
      "esi": 1134,
      "vu": 1135,
      "Ġdf": 1136,
      "yp": 1137,
      "ena": 1138,
      "esr": 1139,
      "Ġdm": 1140,
      "ent": 1141,
      "est": 1142,
      "enr": 1143,
      "Ġnb": 1144,
      "wp": 1145,
      "Ġmh": 1146,
      "eni": 1147,
      "enn": 1148,
      "Ġpn": 1149,
      "Ii": 1150,
      "tne": 1151,
      "eno": 1152,
      "tse": 1153,
      "db": 1154,
      "esn": 1155,
      "Ta": 1156,
      "ehe": 1157,
      "Ir": 1158,
      "Tt": 1159,
      "Ġfh": 1160,
      "Ġbe": 1161,
      "Ti": 1162,
      "ert": 1163,
      "eit": 1164,
      "cw": 1165,
      "cy": 1166,
      "Ia": 1167,
      "eii": 1168,
      "era": 1169,
      "To": 1170,
      "eia": 1171,
      "tti": 1172,
      "ttr": 1173,
      "In": 1174,
      "Tr": 1175,
      "Ġete": 1176,
      "eir": 1177,
      "è¿": 1178,
      "Io": 1179,
      "Ġmd": 1180,
      "mg": 1181,
      "It": 1182,
      "eri": 1183,
      "Ġlp": 1184,
      "Tn": 1185,
      "Ġml": 1186,
      "tto": 1187,
      "err": 1188,
      "eio": 1189,
      "ttn": 1190,
      "Ġib": 1191,
      "eah": 1192,
      "aet": 1193,
      "Ee": 1194,
      "tie": 1195,
      "uw": 1196,
      "ero": 1197,
      "_,": 1198,
      "Ġrb": 1199,
      "ein": 1200,
      "Ð½": 1201,
      "Ġfl": 1202,
      "tta": 1203,
      "uy": 1204,
      "ÑĢ": 1205,
      "tre": 1206,
      "ern": 1207,
      "ttt": 1208,
      "Ġfd": 1209,
      "fg": 1210,
      "ele": 1211,
      "iv": 1212,
      "Ġgs": 1213,
      "Ġ@": 1214,
      ",_": 1215,
      ".\"": 1216,
      "Ġtv": 1217,
      "Ġaee": 1218,
      "bp": 1219,
      "sv": 1220,
      "-,": 1221,
      "oet": 1222,
      "Ã©": 1223,
      "eal": 1224,
      "eoh": 1225,
      "rv": 1226,
      "Ġdp": 1227,
      "ak": 1228,
      "ead": 1229,
      "xs": 1230,
      "Ġé": 1231,
      "Ġph": 1232,
      "\".": 1233,
      "aae": 1234,
      ",-": 1235,
      "eem": 1236,
      "ede": 1237,
      "tas": 1238,
      "Ġgn": 1239,
      "Ġgi": 1240,
      "ãĤĴ": 1241,
      "Ġgt": 1242,
      "è¯": 1243,
      "pg": 1244,
      "eod": 1245,
      "ok": 1246,
      "esh": 1247,
      "Ġcc": 1248,
      "Ġeen": 1249,
      "mw": 1250,
      "Ñģ": 1251,
      "fy": 1252,
      "Ġhg": 1253,
      "Ġgo": 1254,
      "ub": 1255,
      "Ġga": 1256,
      "Ġws": 1257,
      "eol": 1258,
      "Ġgr": 1259,
      "Ġys": 1260,
      "ëĭ¤": 1261,
      "aoe": 1262,
      "my": 1263,
      "Ġuc": 1264,
      "xi": 1265,
      "xn": 1266,
      "eef": 1267,
      "Ġà¦": 1268,
      "Th": 1269,
      "gg": 1270,
      "Ġeei": 1271,
      "enh": 1272,
      "tec": 1273,
      "xt": 1274,
      "ase": 1275,
      "fw": 1276,
      "Ġpd": 1277,
      "Ih": 1278,
      "Ġoee": 1279,
      "Ġeer": 1280,
      "xo": 1281,
      "Ġuu": 1282,
      "xr": 1283,
      "teu": 1284,
      "net": 1285,
      "Ġcu": 1286,
      "cb": 1287,
      "Ġpl": 1288,
      "xa": 1289,
      "tth": 1290,
      "åħ": 1291,
      "tos": 1292,
      "Ĭ¤": 1293,
      "eih": 1294,
      "tai": 1295,
      "vm": 1296,
      "esd": 1297,
      "._": 1298,
      "As": 1299,
      "Ġwr": 1300,
      "yg": 1301,
      "kc": 1302,
      "tan": 1303,
      "ane": 1304,
      "Tl": 1305,
      "esl": 1306,
      "erh": 1307,
      "Ġlg": 1308,
      "Td": 1309,
      "tar": 1310,
      "Ġyi": 1311,
      "wg": 1312,
      "tat": 1313,
      "Id": 1314,
      "ate": 1315,
      "(,": 1316,
      "tao": 1317,
      "Ġyt": 1318,
      "etc": 1319,
      "Ġwi": 1320,
      "Ġ%": 1321,
      "_.": 1322,
      "vf": 1323,
      "),": 1324,
      "Ss": 1325,
      "enl": 1326,
      "-.": 1327,
      "pw": 1328,
      "ooe": 1329,
      "ku": 1330,
      "ìĹ": 1331,
      "taa": 1332,
      "Ġhw": 1333,
      "Ġwa": 1334,
      "tss": 1335,
      "hee": 1336,
      "Ġeto": 1337,
      ",(": 1338,
      "py": 1339,
      "end": 1340,
      "Ġett": 1341,
      "Ġnee": 1342,
      "Ġwt": 1343,
      "Ġwn": 1344,
      "'m": 1345,
      "etu": 1346,
      "Il": 1347,
      "ehs": 1348,
      ",)": 1349,
      "Ġsee": 1350,
      "Ġwo": 1351,
      "Ġyr": 1352,
      "aea": 1353,
      "Ġyn": 1354,
      ".-": 1355,
      "Ġav": 1356,
      "ãģ«": 1357,
      "Ġbs": 1358,
      "Ai": 1359,
      "Ġtet": 1360,
      "Ġdg": 1361,
      "eid": 1362,
      "Ġhy": 1363,
      "Si": 1364,
      "ĠĠč": 1365,
      "mb": 1366,
      "Ġä¸": 1367,
      "eil": 1368,
      "ttl": 1369,
      "ttd": 1370,
      "aie": 1371,
      "Ġyo": 1372,
      "Ġya": 1373,
      "are": 1374,
      "tot": 1375,
      "bg": 1376,
      "âĢĻ": 1377,
      "toi": 1378,
      "tns": 1379,
      "tis": 1380,
      "At": 1381,
      "Ġtk": 1382,
      "Ġgh": 1383,
      "So": 1384,
      "Ar": 1385,
      "ĬĶ": 1386,
      "An": 1387,
      "Ce": 1388,
      "too": 1389,
      "tor": 1390,
      "erl": 1391,
      "Ao": 1392,
      "Ġeeh": 1393,
      "Sn": 1394,
      "ose": 1395,
      "æĪ": 1396,
      "fb": 1397,
      "Ġiee": 1398,
      "St": 1399,
      "Es": 1400,
      "aeo": 1401,
      "tsi": 1402,
      "erd": 1403,
      "Ġov": 1404,
      "ľ¨": 1405,
      "Ġcm": 1406,
      "čĠĠ": 1407,
      "Sr": 1408,
      "Ġree": 1409,
      "ton": 1410,
      "Ġlw": 1411,
      "ĠeI": 1412,
      "oea": 1413,
      "tsr": 1414,
      "Ġly": 1415,
      "ĠeT": 1416,
      "lee": 1417,
      "ãĥ³": 1418,
      "Sa": 1419,
      "Ġetn": 1420,
      "toa": 1421,
      "Ġeaa": 1422,
      "Aa": 1423,
      "Ġbn": 1424,
      "Ġmc": 1425,
      "tsa": 1426,
      "tst": 1427,
      "trs": 1428,
      "gy": 1429,
      "ãģĹ": 1430,
      "xh": 1431,
      "gw": 1432,
      "ãĤĭ": 1433,
      "ote": 1434,
      "pb": 1435,
      "Ġcf": 1436,
      "ret": 1437,
      "ãģ¾": 1438,
      "Ġmu": 1439,
      "one": 1440,
      "Ġeta": 1441,
      "è®": 1442,
      "ĠčĠ": 1443,
      "Ġbi": 1444,
      "ehi": 1445,
      "nk": 1446,
      "Ġum": 1447,
      "yy": 1448,
      "tso": 1449,
      "ww": 1450,
      "els": 1451,
      "tni": 1452,
      "Ei": 1453,
      "Ġfc": 1454,
      "Ġbo": 1455,
      "tsn": 1456,
      "the": 1457,
      "oie": 1458,
      "Et": 1459,
      "tem": 1460,
      "Ea": 1461,
      "Ġgd": 1462,
      "eht": 1463,
      "eho": 1464,
      "Ġetr": 1465,
      "tii": 1466,
      "Ġgl": 1467,
      "tnt": 1468,
      "íķľ": 1469,
      "ehr": 1470,
      "Ġdy": 1471,
      ").": 1472,
      "eep": 1473,
      "Ġbt": 1474,
      "Eo": 1475,
      "Er": 1476,
      "Ġhb": 1477,
      "ìĦ": 1478,
      "Ġuf": 1479,
      "Ġdw": 1480,
      "ìł": 1481,
      "tnr": 1482,
      "åĬ": 1483,
      "tno": 1484,
      "ä½¿": 1485,
      "elt": 1486,
      "(.": 1487,
      "Ġtea": 1488,
      "Ġeao": 1489,
      "tah": 1490,
      "ehn": 1491,
      "ore": 1492,
      "Ġbr": 1493,
      "aes": 1494,
      "wy": 1495,
      "tnn": 1496,
      "Ġeti": 1497,
      "Ġwh": 1498,
      "km": 1499,
      "Ġyh": 1500,
      "xl": 1501,
      "sse": 1502,
      "iet": 1503,
      "Ġsv": 1504,
      "Ġba": 1505,
      "Re": 1506,
      "Ġfu": 1507,
      ".(": 1508,
      "xd": 1509,
      "tef": 1510,
      ".)": 1511,
      "tna": 1512,
      "Ð²": 1513,
      "aas": 1514,
      "kf": 1515,
      "nse": 1516,
      "Ġnv": 1517,
      "aec": 1518,
      "Ġeel": 1519,
      "eds": 1520,
      "íķĺ": 1521,
      "tri": 1522,
      "dee": 1523,
      "trt": 1524,
      "è¡": 1525,
      "ê°": 1526,
      "tit": 1527,
      "nea": 1528,
      "ise": 1529,
      "Ġlb": 1530,
      "vp": 1531,
      "eha": 1532,
      "yw": 1533,
      "aos": 1534,
      "Ġaet": 1535,
      "nne": 1536,
      "tT": 1537,
      "Ġtte": 1538,
      "ä»¥": 1539,
      "rse": 1540,
      "tio": 1541,
      "Ah": 1542,
      "set": 1543,
      "tin": 1544,
      "aeu": 1545,
      "Ġwd": 1546,
      "eli": 1547,
      "En": 1548,
      "aai": 1549,
      "oeo": 1550,
      "tia": 1551,
      "Ġeoo": 1552,
      "trr": 1553,
      "tir": 1554,
      "ìĬ¤": 1555,
      "ass": 1556,
      "elr": 1557,
      "toh": 1558,
      "Ġyd": 1559,
      "Sh": 1560,
      "Ġwl": 1561,
      "tal": 1562,
      "Ġve": 1563,
      "aat": 1564,
      "Ġyl": 1565,
      "aen": 1566,
      "ìŀ": 1567,
      "trn": 1568,
      "Ġean": 1569,
      "Ġiv": 1570,
      "tro": 1571,
      "Ġets": 1572,
      "eac": 1573,
      "gb": 1574,
      "tle": 1575,
      "elo": 1576,
      "tol": 1577,
      "Ne": 1578,
      "tra": 1579,
      "Ġcp": 1580,
      "',": 1581,
      "Ġeed": 1582,
      "Pe": 1583,
      "Ġrv": 1584,
      "ãģ¯": 1585,
      "Ġup": 1586,
      "rk": 1587,
      "ela": 1588,
      "tad": 1589,
      "eau": 1590,
      "Ġpc": 1591,
      "aan": 1592,
      "Ġeas": 1593,
      "bw": 1594,
      "by": 1595,
      "aao": 1596,
      "Ġpu": 1597,
      "Ġeos": 1598,
      "Ġteo": 1599,
      "eln": 1600,
      "ik": 1601,
      "sk": 1602,
      "aar": 1603,
      "Ġeai": 1604,
      "tsh": 1605,
      "Ġmm": 1606,
      "Al": 1607,
      "tI": 1608,
      "ëĵ": 1609,
      "Eh": 1610,
      "nte": 1611,
      "etm": 1612,
      "oeu": 1613,
      "cee": 1614,
      "aaa": 1615,
      "Sl": 1616,
      "eou": 1617,
      "ëĬĶ": 1618,
      "hv": 1619,
      "æĸ": 1620,
      "tde": 1621,
      "etf": 1622,
      "oen": 1623,
      "edi": 1624,
      "aoi": 1625,
      ",'": 1626,
      "Ġdb": 1627,
      "aei": 1628,
      "Ġtes": 1629,
      "Ġear": 1630,
      "Ġeon": 1631,
      "Ġfm": 1632,
      "Ġak": 1633,
      "tod": 1634,
      "Ġex": 1635,
      "ans": 1636,
      "oec": 1637,
      "Ġbh": 1638,
      "aer": 1639,
      "oes": 1640,
      "edt": 1641,
      "Ad": 1642,
      "ex": 1643,
      "Ġí": 1644,
      "ãĤ¹": 1645,
      "edo": 1646,
      "aor": 1647,
      "åľ¨": 1648,
      "Ġ+": 1649,
      "wb": 1650,
      "Ġff": 1651,
      "aot": 1652,
      "Me": 1653,
      "Ġeae": 1654,
      "eoc": 1655,
      "ĠãĢĤ": 1656,
      "tnh": 1657,
      "¥¼": 1658,
      "ãģ§": 1659,
      "Ġten": 1660,
      "å¤": 1661,
      "edn": 1662,
      "ehh": 1663,
      "yb": 1664,
      "tsd": 1665,
      "Sd": 1666,
      "Ġmf": 1667,
      "Ġok": 1668,
      "Ġoet": 1669,
      "tih": 1670,
      "ttc": 1671,
      "edr": 1672,
      "ï¼ļ": 1673,
      "aon": 1674,
      "tep": 1675,
      "Ġess": 1676,
      "ast": 1677,
      "Ġter": 1678,
      "lv": 1679,
      "aoa": 1680,
      "oos": 1681,
      "esc": 1682,
      "ars": 1683,
      "Ġtei": 1684,
      "ais": 1685,
      "Cs": 1686,
      "uee": 1687,
      "enc": 1688,
      "Ġeoi": 1689,
      "åı¯": 1690,
      "æĺ": 1691,
      "ĠçļĦ": 1692,
      "aef": 1693,
      "\"\"": 1694,
      "ä¸Ģ": 1695,
      "Tc": 1696,
      "aoo": 1697,
      "tnd": 1698,
      "asi": 1699,
      "asr": 1700,
      "ant": 1701,
      "Ic": 1702,
      "eda": 1703,
      "Le": 1704,
      "Ġbl": 1705,
      "El": 1706,
      "ahe": 1707,
      "Tu": 1708,
      "esu": 1709,
      "Ġeoe": 1710,
      "asn": 1711,
      "aem": 1712,
      "Ġese": 1713,
      "Ġbd": 1714,
      "Ġeor": 1715,
      "ani": 1716,
      "oer": 1717,
      "ttu": 1718,
      "oei": 1719,
      "ehd": 1720,
      "Ġset": 1721,
      "tnl": 1722,
      "rea": 1723,
      "eeg": 1724,
      "neo": 1725,
      "elh": 1726,
      "Ðº": 1727,
      "Ļ¨": 1728,
      "tsl": 1729,
      "asa": 1730,
      "à¥": 1731,
      "Ġsk": 1732,
      "enu": 1733,
      "Ð»": 1734,
      "Ġene": 1735,
      "ehl": 1736,
      "Ġenn": 1737,
      "Iu": 1738,
      "ite": 1739,
      "ĠĠĠĠĠ": 1740,
      "Ed": 1741,
      "trh": 1742,
      "oss": 1743,
      "ĠeS": 1744,
      "Ġens": 1745,
      "qe": 1746,
      "Ġcg": 1747,
      "čĠĊ": 1748,
      "'.": 1749,
      "aah": 1750,
      "Ñĥ": 1751,
      "ãģ¦": 1752,
      "ths": 1753,
      "ĠeA": 1754,
      "til": 1755,
      "ann": 1756,
      "anr": 1757,
      "eic": 1758,
      "Ġgc": 1759,
      "Ġnet": 1760,
      "aso": 1761,
      "Ġmp": 1762,
      "Ġaea": 1763,
      "ooi": 1764,
      "tid": 1765,
      "iec": 1766,
      "trd": 1767,
      "kp": 1768,
      "ait": 1769,
      "ĠX": 1770,
      "ë¡": 1771,
      "ons": 1772,
      "rte": 1773,
      "eiu": 1774,
      "ç»": 1775,
      "mee": 1776,
      "ari": 1777,
      "Ġiet": 1778,
      "Ci": 1779,
      "ieu": 1780,
      "ell": 1781,
      "ìļ": 1782,
      "eA": 1783,
      "ois": 1784,
      "eru": 1785,
      "oot": 1786,
      "aii": 1787,
      "att": 1788,
      "nes": 1789,
      "erc": 1790,
      "Ġhee": 1791,
      "ĠčĊ": 1792,
      "ãĥĪ": 1793,
      "Ġate": 1794,
      "ano": 1795,
      "fee": 1796,
      "ìĿĦ": 1797,
      "Ġpm": 1798,
      "art": 1799,
      "vg": 1800,
      "eld": 1801,
      "Ġnk": 1802,
      "ste": 1803,
      "Ġttt": 1804,
      "Ġeis": 1805,
      "eS": 1806,
      "oor": 1807,
      "Ct": 1808,
      "rec": 1809,
      "Ġret": 1810,
      "ooa": 1811,
      "eam": 1812,
      "bb": 1813,
      "neu": 1814,
      "nec": 1815,
      "osi": 1816,
      "eaf": 1817,
      "edh": 1818,
      "Ġpf": 1819,
      "ana": 1820,
      "trl": 1821,
      ",/": 1822,
      "Ġeni": 1823,
      "Ġers": 1824,
      "oon": 1825,
      "aio": 1826,
      "Ġeth": 1827,
      "Ġug": 1828,
      "Ġgu": 1829,
      ".'": 1830,
      "dv": 1831,
      "air": 1832,
      "ost": 1833,
      "arn": 1834,
      "aT": 1835,
      "Ġfp": 1836,
      "Ġlee": 1837,
      "arr": 1838,
      "ors": 1839,
      "ìĹĲ": 1840,
      "ale": 1841,
      "etp": 1842,
      "Ġrk": 1843,
      "Oe": 1844,
      "aad": 1845,
      "reu": 1846,
      "eom": 1847,
      "Cr": 1848,
      "ä¸ª": 1849,
      ",:": 1850,
      "aoh": 1851,
      "ĠeE": 1852,
      "ain": 1853,
      "Cn": 1854,
      "ont": 1855,
      "ĠtT": 1856,
      "Ġaes": 1857,
      "oni": 1858,
      "Ġoea": 1859,
      "Ġik": 1860,
      "osn": 1861,
      "\"_": 1862,
      "Ġaeo": 1863,
      "/,": 1864,
      "ooo": 1865,
      "ëĵľ": 1866,
      "De": 1867,
      "osr": 1868,
      "Rs": 1869,
      "æī": 1870,
      "oef": 1871,
      "aod": 1872,
      "ono": 1873,
      "not": 1874,
      "aI": 1875,
      "pee": 1876,
      "Ġere": 1877,
      "¦Ĥ": 1878,
      "sea": 1879,
      "Ġote": 1880,
      ":,": 1881,
      "nen": 1882,
      "Ġste": 1883,
      "Ġke": 1884,
      "-\"": 1885,
      "iea": 1886,
      "aia": 1887,
      "seo": 1888,
      "å°": 1889,
      "ott": 1890,
      "åŃ": 1891,
      "thi": 1892,
      "Ġesi": 1893,
      "ĠÃ": 1894,
      "Co": 1895,
      "Ġ,,": 1896,
      "reo": 1897,
      "vw": 1898,
      "Ġcy": 1899,
      "ata": 1900,
      "ash": 1901,
      "ä¸Ń": 1902,
      "aep": 1903,
      "å®ļ": 1904,
      "Ġeii": 1905,
      "Ġeeu": 1906,
      "aal": 1907,
      "ĠtI": 1908,
      "sss": 1909,
      "Ri": 1910,
      "Ġeec": 1911,
      "xu": 1912,
      "aro": 1913,
      "Ca": 1914,
      "Ġwc": 1915,
      "oem": 1916,
      "Ĭ¸": 1917,
      "thr": 1918,
      "xc": 1919,
      "ies": 1920,
      "edd": 1921,
      "He": 1922,
      "eew": 1923,
      "onr": 1924,
      "ieo": 1925,
      "Ġoeo": 1926,
      "tht": 1927,
      "ä¹": 1928,
      "Ġyc": 1929,
      "oT": 1930,
      "Ġaen": 1931,
      "ort": 1932,
      "ara": 1933,
      "het": 1934,
      "ade": 1935,
      "edl": 1936,
      "Ġeie": 1937,
      "Ġetl": 1938,
      "atc": 1939,
      "oit": 1940,
      "Ġwu": 1941,
      "Ġtta": 1942,
      "osa": 1943,
      "æķ": 1944,
      "Ns": 1945,
      "ë¥¼": 1946,
      "_\"": 1947,
      "nei": 1948,
      "Ps": 1949,
      "Ġcw": 1950,
      "Ġenr": 1951,
      "ner": 1952,
      "vy": 1953,
      "aol": 1954,
      "Ġsea": 1955,
      "ĥ½": 1956,
      "sec": 1957,
      "Ġvs": 1958,
      "oso": 1959,
      "åº": 1960,
      "eey": 1961,
      "Ġuy": 1962,
      "Tf": 1963,
      "è¡Į": 1964,
      "oir": 1965,
      "¦ģ": 1966,
      "onn": 1967,
      "Ø§": 1968,
      "ien": 1969,
      "nst": 1970,
      "esm": 1971,
      "Ġyu": 1972,
      "anh": 1973,
      "ãģĦ": 1974,
      "ona": 1975,
      "ä¸º": 1976,
      "tls": 1977,
      "oii": 1978,
      "Ġesr": 1979,
      "Ġpp": 1980,
      "å¯": 1981,
      "tau": 1982,
      "thn": 1983,
      "ohe": 1984,
      "Rt": 1985,
      "ssr": 1986,
      "Ġuw": 1987,
      "eof": 1988,
      "Ġnea": 1989,
      "sst": 1990,
      "nns": 1991,
      "Ġgm": 1992,
      "tds": 1993,
      "orr": 1994,
      "ttm": 1995,
      "ooh": 1996,
      "eE": 1997,
      "ä¾": 1998,
      "rst": 1999,
      "eim": 2000,
      "Ġite": 2001,
      "nnt": 2002,
      "tha": 2003,
      "\"-": 2004,
      "Ġeri": 2005,
      "éĢ": 2006,
      "enm": 2007,
      "Ġdee": 2008,
      "ist": 2009,
      "Ġnte": 2010,
      "and": 2011,
      "nsi": 2012,
      "Ġrte": 2013,
      "arh": 2014,
      "asd": 2015,
      "tlt": 2016,
      "tho": 2017,
      "Ġiea": 2018,
      "atu": 2019,
      "ece": 2020,
      "Ġaei": 2021,
      "noa": 2022,
      "Ms": 2023,
      "isi": 2024,
      "Ð¼": 2025,
      "gee": 2026,
      "Ġoes": 2027,
      "ãģĮ": 2028,
      "Pt": 2029,
      "oio": 2030,
      "Ġvr": 2031,
      "erm": 2032,
      "ole": 2033,
      "ãģ¨": 2034,
      "Ġhv": 2035,
      "aih": 2036,
      "ìĿĺ": 2037,
      "seu": 2038,
      "Ġseo": 2039,
      "sso": 2040,
      "asl": 2041,
      "ori": 2042,
      "rsi": 2043,
      "½®": 2044,
      "Tm": 2045,
      "nsr": 2046,
      "Ġneo": 2047
    },
    "merges": [
      [
        "Ġ",
        "e"
      ],
      [
        "Ġ",
        "t"
      ],
      [
        "Ġ",
        "a"
      ],
      [
        "Ġ",
        "o"
      ],
      [
        "Ġ",
        "s"
      ],
      [
        "Ġ",
        "n"
      ],
      [
        "Ġ",
        "i"
      ],
      [
        "Ġ",
        "r"
      ],
      [
        "Ġ",
        "Ġ"
      ],
      [
        "e",
        "e"
      ],
      [
        "Ġ",
        "h"
      ],
      [
        "Ġ",
        "l"
      ],
      [
        "Ġ",
        "d"
      ],
      [
        "e",
        "t"
      ],
      [
        "Ġ",
        "c"
      ],
      [
        "Ġ",
        "u"
      ],
      [
        "Ġ",
        "Ċ"
      ],
      [
        "t",
        "e"
      ],
      [
        "Ġ",
        "m"
      ],
      [
        "Ġ",
        "f"
      ],
      [
        "e",
        "a"
      ],
      [
        "e",
        "o"
      ],
      [
        "e",
        "s"
      ],
      [
        "Ġ",
        "p"
      ],
      [
        "e",
        "n"
      ],
      [
        "e",
        "i"
      ],
      [
        "e",
        "r"
      ],
      [
        "t",
        "t"
      ],
      [
        "Ġ",
        ","
      ],
      [
        "Ġ",
        "g"
      ],
      [
        "t",
        "a"
      ],
      [
        "Ġ",
        "w"
      ],
      [
        "Ġ",
        "y"
      ],
      [
        "t",
        "o"
      ],
      [
        "Ġ",
        "."
      ],
      [
        "t",
        "s"
      ],
      [
        "e",
        "h"
      ],
      [
        "t",
        "n"
      ],
      [
        "Ġ",
        "b"
      ],
      [
        "a",
        "a"
      ],
      [
        "t",
        "i"
      ],
      [
        "t",
        "r"
      ],
      [
        "e",
        "l"
      ],
      [
        "e",
        "d"
      ],
      [
        "a",
        "o"
      ],
      [
        "a",
        "s"
      ],
      [
        "o",
        "o"
      ],
      [
        "a",
        "n"
      ],
      [
        "a",
        "e"
      ],
      [
        "a",
        "i"
      ],
      [
        "a",
        "r"
      ],
      [
        "o",
        "s"
      ],
      [
        "o",
        "n"
      ],
      [
        "s",
        "s"
      ],
      [
        "t",
        "h"
      ],
      [
        "o",
        "i"
      ],
      [
        "o",
        "e"
      ],
      [
        "o",
        "r"
      ],
      [
        "n",
        "n"
      ],
      [
        "t",
        "l"
      ],
      [
        "Ġ",
        "\""
      ],
      [
        "Ġ",
        "v"
      ],
      [
        "n",
        "s"
      ],
      [
        "i",
        "s"
      ],
      [
        "r",
        "s"
      ],
      [
        "n",
        "e"
      ],
      [
        "i",
        "e"
      ],
      [
        "r",
        "e"
      ],
      [
        "t",
        "d"
      ],
      [
        "n",
        "i"
      ],
      [
        "Ġ",
        "_"
      ],
      [
        "a",
        "h"
      ],
      [
        "a",
        "t"
      ],
      [
        "r",
        "i"
      ],
      [
        "Ġ",
        "-"
      ],
      [
        "s",
        "e"
      ],
      [
        "n",
        "r"
      ],
      [
        "a",
        "l"
      ],
      [
        "i",
        "i"
      ],
      [
        "n",
        "o"
      ],
      [
        "r",
        "r"
      ],
      [
        "Ġ",
        "k"
      ],
      [
        "a",
        "d"
      ],
      [
        "o",
        "h"
      ],
      [
        "o",
        "t"
      ],
      [
        "s",
        "i"
      ],
      [
        "e",
        "c"
      ],
      [
        "ĠĠ",
        "Ġ"
      ],
      [
        "Ġ",
        "("
      ],
      [
        "Ġ",
        ")"
      ],
      [
        "e",
        "u"
      ],
      [
        "n",
        "h"
      ],
      [
        "s",
        "r"
      ],
      [
        "o",
        "l"
      ],
      [
        "n",
        "t"
      ],
      [
        "o",
        "a"
      ],
      [
        "i",
        "r"
      ],
      [
        "o",
        "d"
      ],
      [
        "n",
        "l"
      ],
      [
        "n",
        "a"
      ],
      [
        "e",
        "m"
      ],
      [
        "s",
        "h"
      ],
      [
        "ã",
        "ģ"
      ],
      [
        "s",
        "t"
      ],
      [
        "n",
        "d"
      ],
      [
        "e",
        "f"
      ],
      [
        "i",
        "h"
      ],
      [
        "r",
        "h"
      ],
      [
        "i",
        "t"
      ],
      [
        "r",
        "t"
      ],
      [
        "s",
        "l"
      ],
      [
        "Ġ",
        "'"
      ],
      [
        "s",
        "a"
      ],
      [
        "s",
        "o"
      ],
      [
        "i",
        "l"
      ],
      [
        "i",
        "a"
      ],
      [
        "r",
        "l"
      ],
      [
        "ĠĠ",
        "Ċ"
      ],
      [
        "s",
        "d"
      ],
      [
        "e",
        "p"
      ],
      [
        "s",
        "n"
      ],
      [
        "i",
        "o"
      ],
      [
        "r",
        "a"
      ],
      [
        "r",
        "o"
      ],
      [
        "t",
        "c"
      ],
      [
        "t",
        "u"
      ],
      [
        "i",
        "n"
      ],
      [
        "i",
        "d"
      ],
      [
        "r",
        "n"
      ],
      [
        "r",
        "d"
      ],
      [
        "Ġ",
        "T"
      ],
      [
        "Ġ",
        "I"
      ],
      [
        "h",
        "e"
      ],
      [
        "Ġ",
        "/"
      ],
      [
        "Ġ",
        ":"
      ],
      [
        "Ġe",
        "e"
      ],
      [
        "l",
        "e"
      ],
      [
        "a",
        "c"
      ],
      [
        "a",
        "u"
      ],
      [
        "t",
        "m"
      ],
      [
        "t",
        "f"
      ],
      [
        "d",
        "e"
      ],
      [
        "Ġ",
        "x"
      ],
      [
        "o",
        "c"
      ],
      [
        "h",
        "h"
      ],
      [
        "o",
        "u"
      ],
      [
        "e",
        "g"
      ],
      [
        "Ġ",
        "="
      ],
      [
        "h",
        "s"
      ],
      [
        "n",
        "c"
      ],
      [
        "ã",
        "ĥ"
      ],
      [
        "Ġe",
        "s"
      ],
      [
        "t",
        "p"
      ],
      [
        "n",
        "u"
      ],
      [
        "Ġ",
        "A"
      ],
      [
        "l",
        "s"
      ],
      [
        "Ġ",
        "0"
      ],
      [
        "ã",
        "Ĥ"
      ],
      [
        "Ġe",
        "h"
      ],
      [
        "a",
        "m"
      ],
      [
        "Ġ",
        "S"
      ],
      [
        "i",
        "c"
      ],
      [
        "r",
        "c"
      ],
      [
        "l",
        "h"
      ],
      [
        "a",
        "f"
      ],
      [
        "i",
        "u"
      ],
      [
        "r",
        "u"
      ],
      [
        "e",
        "y"
      ],
      [
        "e",
        "w"
      ],
      [
        "s",
        "c"
      ],
      [
        "o",
        "m"
      ],
      [
        "Ġ",
        "`"
      ],
      [
        "s",
        "u"
      ],
      [
        "Ġ",
        "E"
      ],
      [
        "Ġe",
        "d"
      ],
      [
        "Ġe",
        "l"
      ],
      [
        "o",
        "f"
      ],
      [
        "Ġe",
        "t"
      ],
      [
        "Ġe",
        "n"
      ],
      [
        "Ġ",
        ">"
      ],
      [
        "Ġe",
        "i"
      ],
      [
        "Ġe",
        "a"
      ],
      [
        "l",
        "l"
      ],
      [
        "h",
        "d"
      ],
      [
        "Ġe",
        "r"
      ],
      [
        "Ġe",
        "o"
      ],
      [
        "h",
        "t"
      ],
      [
        "h",
        "i"
      ],
      [
        "h",
        "n"
      ],
      [
        "h",
        "l"
      ],
      [
        "e",
        "b"
      ],
      [
        "h",
        "r"
      ],
      [
        "h",
        "a"
      ],
      [
        "h",
        "o"
      ],
      [
        "d",
        "s"
      ],
      [
        "n",
        "m"
      ],
      [
        "Ġ",
        "1"
      ],
      [
        "a",
        "p"
      ],
      [
        "l",
        "t"
      ],
      [
        "l",
        "i"
      ],
      [
        "n",
        "f"
      ],
      [
        "l",
        "d"
      ],
      [
        "c",
        "e"
      ],
      [
        "l",
        "r"
      ],
      [
        "Ġt",
        "e"
      ],
      [
        "t",
        "g"
      ],
      [
        "l",
        "o"
      ],
      [
        "Ġ",
        "<"
      ],
      [
        "u",
        "e"
      ],
      [
        "l",
        "a"
      ],
      [
        "s",
        "m"
      ],
      [
        "l",
        "n"
      ],
      [
        "i",
        "m"
      ],
      [
        "r",
        "m"
      ],
      [
        "s",
        "f"
      ],
      [
        "o",
        "p"
      ],
      [
        "d",
        "d"
      ],
      [
        "i",
        "f"
      ],
      [
        "r",
        "f"
      ],
      [
        "d",
        "t"
      ],
      [
        "Ġ",
        "C"
      ],
      [
        "d",
        "a"
      ],
      [
        "n",
        "p"
      ],
      [
        "d",
        "i"
      ],
      [
        "t",
        "w"
      ],
      [
        "d",
        "o"
      ],
      [
        "t",
        "y"
      ],
      [
        "d",
        "r"
      ],
      [
        "Ġe",
        "c"
      ],
      [
        "d",
        "n"
      ],
      [
        "m",
        "e"
      ],
      [
        "s",
        "p"
      ],
      [
        "Ġe",
        "u"
      ],
      [
        "f",
        "e"
      ],
      [
        "Ġ",
        "č"
      ],
      [
        "a",
        "g"
      ],
      [
        "h",
        "c"
      ],
      [
        "i",
        "p"
      ],
      [
        "Ġa",
        "e"
      ],
      [
        "h",
        "u"
      ],
      [
        "r",
        "p"
      ],
      [
        "Ġ",
        "R"
      ],
      [
        "o",
        "g"
      ],
      [
        "Ġo",
        "e"
      ],
      [
        "Ġt",
        "s"
      ],
      [
        "t",
        "b"
      ],
      [
        "Ġ",
        "P"
      ],
      [
        "Ġ",
        "N"
      ],
      [
        "l",
        "c"
      ],
      [
        "l",
        "u"
      ],
      [
        "Ġ",
        "#"
      ],
      [
        "d",
        "h"
      ],
      [
        "p",
        "e"
      ],
      [
        "Ġt",
        "a"
      ],
      [
        "Ġs",
        "e"
      ],
      [
        "c",
        "s"
      ],
      [
        "Ġt",
        "n"
      ],
      [
        "Ġt",
        "i"
      ],
      [
        "Ġt",
        "o"
      ],
      [
        "u",
        "s"
      ],
      [
        "g",
        "e"
      ],
      [
        "a",
        "w"
      ],
      [
        "a",
        "y"
      ],
      [
        "Ġt",
        "t"
      ],
      [
        "Ġt",
        "r"
      ],
      [
        "Ġn",
        "e"
      ],
      [
        "Ġe",
        "m"
      ],
      [
        "Ġ",
        "M"
      ],
      [
        "d",
        "l"
      ],
      [
        "Ġi",
        "e"
      ],
      [
        "Ġe",
        "f"
      ],
      [
        "à",
        "¦"
      ],
      [
        "o",
        "w"
      ],
      [
        "Ġ",
        "2"
      ],
      [
        "Ġr",
        "e"
      ],
      [
        "ã",
        "Ģ"
      ],
      [
        "o",
        "y"
      ],
      [
        "c",
        "i"
      ],
      [
        "c",
        "n"
      ],
      [
        "Ġ",
        "L"
      ],
      [
        "u",
        "i"
      ],
      [
        "c",
        "r"
      ],
      [
        "c",
        "t"
      ],
      [
        "c",
        "a"
      ],
      [
        "u",
        "n"
      ],
      [
        "u",
        "t"
      ],
      [
        "u",
        "r"
      ],
      [
        "h",
        "m"
      ],
      [
        "w",
        "e"
      ],
      [
        "Ġa",
        "s"
      ],
      [
        "y",
        "e"
      ],
      [
        "c",
        "o"
      ],
      [
        "h",
        "f"
      ],
      [
        "u",
        "o"
      ],
      [
        "n",
        "g"
      ],
      [
        "Ġ",
        "q"
      ],
      [
        "u",
        "a"
      ],
      [
        "m",
        "s"
      ],
      [
        "Ġ",
        "O"
      ],
      [
        "Ġ",
        ";"
      ],
      [
        "f",
        "s"
      ],
      [
        "b",
        "e"
      ],
      [
        "Ġe",
        "p"
      ],
      [
        "Ġo",
        "s"
      ],
      [
        "Ġa",
        "i"
      ],
      [
        "Ġt",
        "h"
      ],
      [
        "Ġt",
        "d"
      ],
      [
        "r",
        "g"
      ],
      [
        "ä",
        "¸"
      ],
      [
        "č",
        "Ġ"
      ],
      [
        "l",
        "m"
      ],
      [
        "Ġa",
        "t"
      ],
      [
        "i",
        "g"
      ],
      [
        "Ġa",
        "r"
      ],
      [
        "Ġa",
        "n"
      ],
      [
        "Ġa",
        "a"
      ],
      [
        "l",
        "f"
      ],
      [
        "Ġ",
        "D"
      ],
      [
        "Ġs",
        "s"
      ],
      [
        "Ġa",
        "o"
      ],
      [
        "Ġ",
        "å"
      ],
      [
        "Ġ",
        "H"
      ],
      [
        "Ġn",
        "s"
      ],
      [
        "n",
        "w"
      ],
      [
        "a",
        "b"
      ],
      [
        "n",
        "y"
      ],
      [
        "c",
        "d"
      ],
      [
        "c",
        "h"
      ],
      [
        "p",
        "s"
      ],
      [
        "Ġt",
        "l"
      ],
      [
        "Ġo",
        "i"
      ],
      [
        "m",
        "i"
      ],
      [
        "Ġo",
        "t"
      ],
      [
        "m",
        "t"
      ],
      [
        "u",
        "d"
      ],
      [
        "u",
        "h"
      ],
      [
        "f",
        "i"
      ],
      [
        "Ġo",
        "r"
      ],
      [
        "f",
        "t"
      ],
      [
        "Ġi",
        "s"
      ],
      [
        "m",
        "r"
      ],
      [
        "o",
        "b"
      ],
      [
        "Ġs",
        "t"
      ],
      [
        "Ġ",
        "["
      ],
      [
        "Ġo",
        "a"
      ],
      [
        "f",
        "r"
      ],
      [
        "Ġr",
        "s"
      ],
      [
        "Ġ",
        "]"
      ],
      [
        "m",
        "a"
      ],
      [
        "Ġ",
        "B"
      ],
      [
        "Ġs",
        "i"
      ],
      [
        "Ġo",
        "n"
      ],
      [
        "Ġ",
        "F"
      ],
      [
        "m",
        "o"
      ],
      [
        "f",
        "a"
      ],
      [
        "Ġo",
        "o"
      ],
      [
        "m",
        "n"
      ],
      [
        "f",
        "o"
      ],
      [
        "c",
        "l"
      ],
      [
        "f",
        "n"
      ],
      [
        "Ġ",
        "W"
      ],
      [
        "g",
        "s"
      ],
      [
        "p",
        "i"
      ],
      [
        "Ġn",
        "t"
      ],
      [
        "p",
        "t"
      ],
      [
        "Ġs",
        "r"
      ],
      [
        "Ġn",
        "i"
      ],
      [
        "u",
        "l"
      ],
      [
        "Ġn",
        "r"
      ],
      [
        "Ġa",
        "d"
      ],
      [
        "Ġs",
        "a"
      ],
      [
        "Ġa",
        "h"
      ],
      [
        "Ġi",
        "t"
      ],
      [
        "Ġs",
        "n"
      ],
      [
        "Ġs",
        "o"
      ],
      [
        "Ġ",
        "j"
      ],
      [
        "p",
        "r"
      ],
      [
        "Ġn",
        "a"
      ],
      [
        "Ġe",
        "g"
      ],
      [
        "y",
        "s"
      ],
      [
        "w",
        "s"
      ],
      [
        "Ġn",
        "o"
      ],
      [
        "Ġi",
        "i"
      ],
      [
        "Ġh",
        "e"
      ],
      [
        "p",
        "a"
      ],
      [
        "Ġi",
        "r"
      ],
      [
        "Ġn",
        "n"
      ],
      [
        "p",
        "o"
      ],
      [
        "p",
        "n"
      ],
      [
        "Ġr",
        "i"
      ],
      [
        "ĠĠ",
        "ĠĠ"
      ],
      [
        "Ġr",
        "t"
      ],
      [
        "ï",
        "¼"
      ],
      [
        "m",
        "h"
      ],
      [
        "d",
        "c"
      ],
      [
        "Ġr",
        "r"
      ],
      [
        "Ġi",
        "a"
      ],
      [
        "Ġi",
        "o"
      ],
      [
        "Ġa",
        "l"
      ],
      [
        "Ġo",
        "h"
      ],
      [
        "f",
        "h"
      ],
      [
        "Ġr",
        "a"
      ],
      [
        "d",
        "u"
      ],
      [
        "Ġi",
        "n"
      ],
      [
        "s",
        "g"
      ],
      [
        "Ġr",
        "o"
      ],
      [
        "Ġ",
        "{"
      ],
      [
        "Ġ",
        "}"
      ],
      [
        "Ġr",
        "n"
      ],
      [
        "ãĢ",
        "Ĥ"
      ],
      [
        "e",
        "v"
      ],
      [
        "w",
        "t"
      ],
      [
        "m",
        "d"
      ],
      [
        "w",
        "i"
      ],
      [
        "Ġo",
        "d"
      ],
      [
        "y",
        "t"
      ],
      [
        "b",
        "s"
      ],
      [
        "Ġl",
        "e"
      ],
      [
        "Ġs",
        "h"
      ],
      [
        "g",
        "t"
      ],
      [
        "g",
        "i"
      ],
      [
        "y",
        "i"
      ],
      [
        "f",
        "d"
      ],
      [
        "Ġt",
        "c"
      ],
      [
        "w",
        "r"
      ],
      [
        "ç",
        "ļ"
      ],
      [
        "çļ",
        "Ħ"
      ],
      [
        "g",
        "r"
      ],
      [
        "ee",
        "e"
      ],
      [
        "y",
        "r"
      ],
      [
        "g",
        "a"
      ],
      [
        "Ġt",
        "u"
      ],
      [
        "Ġo",
        "l"
      ],
      [
        "m",
        "l"
      ],
      [
        "p",
        "h"
      ],
      [
        "č",
        "Ċ"
      ],
      [
        "ì",
        "Ŀ"
      ],
      [
        "Ġn",
        "h"
      ],
      [
        "w",
        "o"
      ],
      [
        "f",
        "l"
      ],
      [
        "y",
        "a"
      ],
      [
        "w",
        "a"
      ],
      [
        "w",
        "n"
      ],
      [
        "Ġs",
        "d"
      ],
      [
        "'",
        "t"
      ],
      [
        "y",
        "n"
      ],
      [
        "y",
        "o"
      ],
      [
        "Ġn",
        "d"
      ],
      [
        "g",
        "o"
      ],
      [
        "p",
        "d"
      ],
      [
        "Ġi",
        "h"
      ],
      [
        "g",
        "n"
      ],
      [
        "Ġd",
        "e"
      ],
      [
        "Ġs",
        "l"
      ],
      [
        "b",
        "i"
      ],
      [
        "b",
        "t"
      ],
      [
        "Ġr",
        "h"
      ],
      [
        "Ġi",
        "d"
      ],
      [
        "b",
        "r"
      ],
      [
        "v",
        "e"
      ],
      [
        "Ġn",
        "l"
      ],
      [
        "p",
        "l"
      ],
      [
        "Ġ",
        "*"
      ],
      [
        "Ġr",
        "d"
      ],
      [
        "c",
        "c"
      ],
      [
        "Ġi",
        "l"
      ],
      [
        "b",
        "o"
      ],
      [
        "Ġ",
        "3"
      ],
      [
        "b",
        "a"
      ],
      [
        "Ġ",
        "G"
      ],
      [
        "b",
        "n"
      ],
      [
        "Ġr",
        "l"
      ],
      [
        "w",
        "h"
      ],
      [
        "y",
        "h"
      ],
      [
        "u",
        "u"
      ],
      [
        "t",
        "ee"
      ],
      [
        "Ġh",
        "s"
      ],
      [
        "g",
        "h"
      ],
      [
        "Ġt",
        "m"
      ],
      [
        "y",
        "d"
      ],
      [
        "Ġ",
        "ãģ"
      ],
      [
        "c",
        "u"
      ],
      [
        "w",
        "d"
      ],
      [
        "Ġ",
        "æ"
      ],
      [
        "Ġt",
        "f"
      ],
      [
        "g",
        "d"
      ],
      [
        "Ġe",
        "y"
      ],
      [
        "Ġe",
        "w"
      ],
      [
        "u",
        "c"
      ],
      [
        "Ġl",
        "s"
      ],
      [
        "b",
        "h"
      ],
      [
        "Ġh",
        "i"
      ],
      [
        "Ġ",
        "z"
      ],
      [
        "Ġa",
        "c"
      ],
      [
        "g",
        "l"
      ],
      [
        "Ġ",
        "Ð"
      ],
      [
        "w",
        "l"
      ],
      [
        "y",
        "l"
      ],
      [
        "Ġh",
        "t"
      ],
      [
        "Ġa",
        "u"
      ],
      [
        "Ġh",
        "r"
      ],
      [
        "ee",
        "s"
      ],
      [
        "Ġh",
        "a"
      ],
      [
        "Ġh",
        "o"
      ],
      [
        "Ġh",
        "n"
      ],
      [
        "b",
        "d"
      ],
      [
        "Ġl",
        "i"
      ],
      [
        "Ġo",
        "c"
      ],
      [
        "Ġd",
        "s"
      ],
      [
        "Ġ",
        "U"
      ],
      [
        "Ġo",
        "u"
      ],
      [
        "b",
        "l"
      ],
      [
        "e",
        "k"
      ],
      [
        "t",
        "v"
      ],
      [
        "f",
        "c"
      ],
      [
        "m",
        "c"
      ],
      [
        "Ġl",
        "r"
      ],
      [
        "'",
        "s"
      ],
      [
        "m",
        "u"
      ],
      [
        "ee",
        "i"
      ],
      [
        "Ġt",
        "p"
      ],
      [
        "Ġs",
        "c"
      ],
      [
        ",",
        ","
      ],
      [
        "Ġl",
        "t"
      ],
      [
        "Ġl",
        "a"
      ],
      [
        "ee",
        "r"
      ],
      [
        "Ġl",
        "o"
      ],
      [
        "Ġ",
        "4"
      ],
      [
        "ĠĠ",
        "ĠĊ"
      ],
      [
        "f",
        "u"
      ],
      [
        "Ġl",
        "n"
      ],
      [
        "ee",
        "n"
      ],
      [
        "Ġn",
        "u"
      ],
      [
        "Ġe",
        "b"
      ],
      [
        "Ġs",
        "u"
      ],
      [
        "Ġd",
        "i"
      ],
      [
        "Ġn",
        "c"
      ],
      [
        "Ġd",
        "r"
      ],
      [
        "ee",
        "a"
      ],
      [
        "v",
        "s"
      ],
      [
        "et",
        "e"
      ],
      [
        "ee",
        "t"
      ],
      [
        "Ġh",
        "h"
      ],
      [
        "ee",
        "o"
      ],
      [
        "k",
        "e"
      ],
      [
        "p",
        "c"
      ],
      [
        "Ġa",
        "m"
      ],
      [
        "Ġd",
        "a"
      ],
      [
        "Ġd",
        "n"
      ],
      [
        "Ġu",
        "e"
      ],
      [
        "p",
        "u"
      ],
      [
        "Ġd",
        "t"
      ],
      [
        "â",
        "Ģ"
      ],
      [
        "í",
        "ķ"
      ],
      [
        "s",
        "y"
      ],
      [
        "r",
        "w"
      ],
      [
        "d",
        "m"
      ],
      [
        "s",
        "w"
      ],
      [
        "Ġd",
        "o"
      ],
      [
        "Ġr",
        "c"
      ],
      [
        "Ġc",
        "e"
      ],
      [
        "ä",
        "»"
      ],
      [
        "i",
        "y"
      ],
      [
        "Ġi",
        "c"
      ],
      [
        "Ġa",
        "f"
      ],
      [
        "r",
        "y"
      ],
      [
        "i",
        "w"
      ],
      [
        "Ġi",
        "u"
      ],
      [
        "Ġr",
        "u"
      ],
      [
        "d",
        "f"
      ],
      [
        "h",
        "p"
      ],
      [
        "Ġh",
        "l"
      ],
      [
        "v",
        "n"
      ],
      [
        "v",
        "i"
      ],
      [
        "Ġo",
        "m"
      ],
      [
        "Ġh",
        "d"
      ],
      [
        "Ġ",
        "ì"
      ],
      [
        "v",
        "o"
      ],
      [
        "v",
        "a"
      ],
      [
        "Ġo",
        "f"
      ],
      [
        "Ġ",
        "5"
      ],
      [
        "v",
        "t"
      ],
      [
        ".",
        ","
      ],
      [
        "n",
        "b"
      ],
      [
        "Ġl",
        "h"
      ],
      [
        "v",
        "r"
      ],
      [
        "l",
        "p"
      ],
      [
        "g",
        "c"
      ],
      [
        "Ġs",
        "m"
      ],
      [
        "ä",
        "½"
      ],
      [
        "Ġ",
        "ë"
      ],
      [
        "ee",
        "h"
      ],
      [
        "g",
        "u"
      ],
      [
        ",",
        "."
      ],
      [
        "ï¼",
        "Į"
      ],
      [
        "s",
        "b"
      ],
      [
        "Ġs",
        "f"
      ],
      [
        "Ġd",
        "h"
      ],
      [
        "Ġa",
        "p"
      ],
      [
        "i",
        "b"
      ],
      [
        "Ġl",
        "d"
      ],
      [
        "Ġl",
        "l"
      ],
      [
        "m",
        "m"
      ],
      [
        "Ġt",
        "g"
      ],
      [
        "ee",
        "d"
      ],
      [
        "Ġ",
        "8"
      ],
      [
        "r",
        "b"
      ],
      [
        "Ġn",
        "f"
      ],
      [
        "ee",
        "l"
      ],
      [
        "y",
        "c"
      ],
      [
        "Ġn",
        "m"
      ],
      [
        "Ġd",
        "d"
      ],
      [
        "Ġm",
        "e"
      ],
      [
        "t",
        "et"
      ],
      [
        "w",
        "c"
      ],
      [
        "Ġ",
        "!"
      ],
      [
        "ãĥ",
        "¼"
      ],
      [
        "Ġi",
        "f"
      ],
      [
        "w",
        "u"
      ],
      [
        "Ġi",
        "m"
      ],
      [
        "Ġo",
        "p"
      ],
      [
        "v",
        "h"
      ],
      [
        "Ġr",
        "f"
      ],
      [
        "Ġd",
        "l"
      ],
      [
        "c",
        "f"
      ],
      [
        "y",
        "u"
      ],
      [
        "Ġr",
        "m"
      ],
      [
        "k",
        "s"
      ],
      [
        "ea",
        "e"
      ],
      [
        "ç",
        "Ķ"
      ],
      [
        "Ġ",
        "è"
      ],
      [
        "c",
        "m"
      ],
      [
        "d",
        "p"
      ],
      [
        "à",
        "¤"
      ],
      [
        "Ġf",
        "e"
      ],
      [
        "u",
        "m"
      ],
      [
        "Ġt",
        "y"
      ],
      [
        "Ġ",
        "6"
      ],
      [
        "Ġt",
        "w"
      ],
      [
        "f",
        "m"
      ],
      [
        "te",
        "s"
      ],
      [
        "Ġs",
        "p"
      ],
      [
        "t",
        "k"
      ],
      [
        "et",
        "s"
      ],
      [
        "Ġe",
        "ee"
      ],
      [
        "a",
        "ee"
      ],
      [
        "f",
        "f"
      ],
      [
        ".",
        "."
      ],
      [
        "Ġn",
        "p"
      ],
      [
        "h",
        "g"
      ],
      [
        "eo",
        "e"
      ],
      [
        "v",
        "l"
      ],
      [
        "Ġc",
        "s"
      ],
      [
        "Ġ",
        "ãĤ"
      ],
      [
        "u",
        "f"
      ],
      [
        "v",
        "d"
      ],
      [
        "p",
        "m"
      ],
      [
        "te",
        "a"
      ],
      [
        "Ġu",
        "s"
      ],
      [
        "o",
        "ee"
      ],
      [
        "te",
        "i"
      ],
      [
        "k",
        "o"
      ],
      [
        "Ġa",
        "g"
      ],
      [
        "Ġ",
        "9"
      ],
      [
        "k",
        "i"
      ],
      [
        "es",
        "e"
      ],
      [
        "k",
        "a"
      ],
      [
        "b",
        "c"
      ],
      [
        "te",
        "o"
      ],
      [
        "te",
        "n"
      ],
      [
        "Ð",
        "¾"
      ],
      [
        "Ġi",
        "p"
      ],
      [
        "en",
        "e"
      ],
      [
        "l",
        "g"
      ],
      [
        "te",
        "r"
      ],
      [
        "å",
        "ı"
      ],
      [
        "Ġp",
        "e"
      ],
      [
        "Ġt",
        "b"
      ],
      [
        "Ġr",
        "p"
      ],
      [
        "et",
        "i"
      ],
      [
        "m",
        "f"
      ],
      [
        "Ġc",
        "o"
      ],
      [
        "Ġc",
        "n"
      ],
      [
        "k",
        "r"
      ],
      [
        "k",
        "n"
      ],
      [
        "Ġ",
        "V"
      ],
      [
        "Ġc",
        "i"
      ],
      [
        "Ġc",
        "t"
      ],
      [
        "et",
        "o"
      ],
      [
        "et",
        "a"
      ],
      [
        "et",
        "t"
      ],
      [
        "k",
        "t"
      ],
      [
        "Ġh",
        "c"
      ],
      [
        "Ġc",
        "a"
      ],
      [
        "Ġh",
        "u"
      ],
      [
        "et",
        "r"
      ],
      [
        "I",
        "e"
      ],
      [
        "Ġu",
        "a"
      ],
      [
        "b",
        "u"
      ],
      [
        "et",
        "n"
      ],
      [
        "Ġu",
        "i"
      ],
      [
        "Ġu",
        "r"
      ],
      [
        "h",
        "w"
      ],
      [
        "Ġc",
        "r"
      ],
      [
        "T",
        "e"
      ],
      [
        "Ġ",
        "\\"
      ],
      [
        "Ġo",
        "g"
      ],
      [
        "h",
        "y"
      ],
      [
        "Ġ",
        "?"
      ],
      [
        "Ġu",
        "t"
      ],
      [
        "p",
        "f"
      ],
      [
        "ei",
        "e"
      ],
      [
        "çĶ",
        "¨"
      ],
      [
        "Ġu",
        "o"
      ],
      [
        "Ġe",
        "v"
      ],
      [
        "Ġa",
        "y"
      ],
      [
        "g",
        "m"
      ],
      [
        "Ġu",
        "n"
      ],
      [
        "c",
        "p"
      ],
      [
        "Ġa",
        "w"
      ],
      [
        "g",
        "f"
      ],
      [
        "er",
        "e"
      ],
      [
        "u",
        "p"
      ],
      [
        "w",
        "m"
      ],
      [
        "y",
        "f"
      ],
      [
        "y",
        "m"
      ],
      [
        "d",
        "g"
      ],
      [
        "n",
        "ee"
      ],
      [
        "ãĢ",
        "ģ"
      ],
      [
        "Ġm",
        "s"
      ],
      [
        "ãģ",
        "®"
      ],
      [
        "Ġ",
        "K"
      ],
      [
        "Ġl",
        "c"
      ],
      [
        "'",
        "d"
      ],
      [
        "a",
        "v"
      ],
      [
        "Ġs",
        "g"
      ],
      [
        "w",
        "f"
      ],
      [
        "å",
        "®"
      ],
      [
        "Ġl",
        "u"
      ],
      [
        "Ġ",
        "7"
      ],
      [
        "k",
        "h"
      ],
      [
        "s",
        "ee"
      ],
      [
        "te",
        "h"
      ],
      [
        "Ñ",
        "Ĥ"
      ],
      [
        "Ġ",
        "ãĥ"
      ],
      [
        "Ġ",
        "Y"
      ],
      [
        "Ġn",
        "g"
      ],
      [
        "Ð",
        "µ"
      ],
      [
        "l",
        "w"
      ],
      [
        "et",
        "h"
      ],
      [
        "l",
        "y"
      ],
      [
        "ea",
        "s"
      ],
      [
        "Ġf",
        "s"
      ],
      [
        "i",
        "ee"
      ],
      [
        "æ",
        "ľ"
      ],
      [
        "Ġd",
        "c"
      ],
      [
        "m",
        "p"
      ],
      [
        "Ġg",
        "e"
      ],
      [
        "Ġo",
        "y"
      ],
      [
        "o",
        "v"
      ],
      [
        "Ġ",
        "J"
      ],
      [
        "Ġa",
        "b"
      ],
      [
        "r",
        "ee"
      ],
      [
        "Ġ",
        "ç"
      ],
      [
        "Ġi",
        "g"
      ],
      [
        "f",
        "p"
      ],
      [
        "Ġc",
        "h"
      ],
      [
        "Ġo",
        "w"
      ],
      [
        "te",
        "d"
      ],
      [
        "h",
        "b"
      ],
      [
        "Ġd",
        "u"
      ],
      [
        "Ġm",
        "i"
      ],
      [
        "e",
        "T"
      ],
      [
        "Ġm",
        "a"
      ],
      [
        "Ġe",
        "et"
      ],
      [
        "k",
        "d"
      ],
      [
        "å",
        "Ī"
      ],
      [
        "Ġm",
        "t"
      ],
      [
        "Ġr",
        "g"
      ],
      [
        "Ġu",
        "h"
      ],
      [
        "Ġm",
        "r"
      ],
      [
        "k",
        "l"
      ],
      [
        "Ġf",
        "n"
      ],
      [
        "te",
        "l"
      ],
      [
        "Ġf",
        "t"
      ],
      [
        "e",
        "I"
      ],
      [
        "Ġh",
        "f"
      ],
      [
        "Ġf",
        "r"
      ],
      [
        "Ġm",
        "o"
      ],
      [
        "Ġs",
        "w"
      ],
      [
        "Ġf",
        "i"
      ],
      [
        "Ġe",
        "ea"
      ],
      [
        "Ġf",
        "a"
      ],
      [
        "Ġh",
        "m"
      ],
      [
        "b",
        "m"
      ],
      [
        "Ġm",
        "n"
      ],
      [
        "x",
        "e"
      ],
      [
        "Ġc",
        "l"
      ],
      [
        "d",
        "w"
      ],
      [
        "Ġf",
        "o"
      ],
      [
        "p",
        "p"
      ],
      [
        "eo",
        "s"
      ],
      [
        "ĭ",
        "¤"
      ],
      [
        "b",
        "f"
      ],
      [
        "d",
        "y"
      ],
      [
        "Ġs",
        "y"
      ],
      [
        "ea",
        "r"
      ],
      [
        "Ġn",
        "w"
      ],
      [
        "et",
        "l"
      ],
      [
        "es",
        "s"
      ],
      [
        "Ġu",
        "d"
      ],
      [
        "ea",
        "a"
      ],
      [
        "ea",
        "i"
      ],
      [
        "ta",
        "e"
      ],
      [
        "ea",
        "t"
      ],
      [
        "ea",
        "n"
      ],
      [
        "Ġc",
        "d"
      ],
      [
        "Ġn",
        "y"
      ],
      [
        "c",
        "g"
      ],
      [
        "et",
        "d"
      ],
      [
        "Ġp",
        "s"
      ],
      [
        "en",
        "s"
      ],
      [
        "ea",
        "o"
      ],
      [
        "Ġl",
        "m"
      ],
      [
        "Ġe",
        "eo"
      ],
      [
        "Ġu",
        "l"
      ],
      [
        "à",
        "§"
      ],
      [
        "Ġt",
        "ee"
      ],
      [
        "å",
        "Ĳ"
      ],
      [
        "Ġo",
        "b"
      ],
      [
        "Ð",
        "°"
      ],
      [
        ",",
        "\""
      ],
      [
        "u",
        "g"
      ],
      [
        "Ġw",
        "e"
      ],
      [
        "n",
        "v"
      ],
      [
        "ä",
        "º"
      ],
      [
        "Ġi",
        "w"
      ],
      [
        "Ġi",
        "y"
      ],
      [
        "ee",
        "c"
      ],
      [
        "eo",
        "t"
      ],
      [
        "Ġl",
        "f"
      ],
      [
        "Ġy",
        "e"
      ],
      [
        "T",
        "s"
      ],
      [
        "\"",
        ","
      ],
      [
        "eo",
        "i"
      ],
      [
        "Ġe",
        "k"
      ],
      [
        "Ġr",
        "w"
      ],
      [
        "l",
        "b"
      ],
      [
        "eo",
        "r"
      ],
      [
        "Ġe",
        "es"
      ],
      [
        "ìĿ",
        "´"
      ],
      [
        "eo",
        "a"
      ],
      [
        "g",
        "p"
      ],
      [
        "to",
        "e"
      ],
      [
        "Ð",
        "¸"
      ],
      [
        "eo",
        "o"
      ],
      [
        "Ġr",
        "y"
      ],
      [
        "ãģ",
        "Ļ"
      ],
      [
        "v",
        "c"
      ],
      [
        "t",
        "te"
      ],
      [
        "tt",
        "s"
      ],
      [
        "ei",
        "s"
      ],
      [
        "S",
        "e"
      ],
      [
        "Ġp",
        "i"
      ],
      [
        "ee",
        "u"
      ],
      [
        "Ġp",
        "a"
      ],
      [
        "Ġp",
        "o"
      ],
      [
        "A",
        "e"
      ],
      [
        "er",
        "s"
      ],
      [
        "Ġp",
        "r"
      ],
      [
        "Ġh",
        "p"
      ],
      [
        "eo",
        "n"
      ],
      [
        "Ġs",
        "b"
      ],
      [
        "Ġp",
        "t"
      ],
      [
        "I",
        "s"
      ],
      [
        "es",
        "o"
      ],
      [
        "es",
        "a"
      ],
      [
        "Ġ",
        "|"
      ],
      [
        "es",
        "i"
      ],
      [
        "v",
        "u"
      ],
      [
        "Ġd",
        "f"
      ],
      [
        "y",
        "p"
      ],
      [
        "en",
        "a"
      ],
      [
        "es",
        "r"
      ],
      [
        "Ġd",
        "m"
      ],
      [
        "en",
        "t"
      ],
      [
        "es",
        "t"
      ],
      [
        "en",
        "r"
      ],
      [
        "Ġn",
        "b"
      ],
      [
        "w",
        "p"
      ],
      [
        "Ġm",
        "h"
      ],
      [
        "en",
        "i"
      ],
      [
        "en",
        "n"
      ],
      [
        "Ġp",
        "n"
      ],
      [
        "I",
        "i"
      ],
      [
        "tn",
        "e"
      ],
      [
        "en",
        "o"
      ],
      [
        "ts",
        "e"
      ],
      [
        "d",
        "b"
      ],
      [
        "es",
        "n"
      ],
      [
        "T",
        "a"
      ],
      [
        "eh",
        "e"
      ],
      [
        "I",
        "r"
      ],
      [
        "T",
        "t"
      ],
      [
        "Ġf",
        "h"
      ],
      [
        "Ġb",
        "e"
      ],
      [
        "T",
        "i"
      ],
      [
        "er",
        "t"
      ],
      [
        "ei",
        "t"
      ],
      [
        "c",
        "w"
      ],
      [
        "c",
        "y"
      ],
      [
        "I",
        "a"
      ],
      [
        "ei",
        "i"
      ],
      [
        "er",
        "a"
      ],
      [
        "T",
        "o"
      ],
      [
        "ei",
        "a"
      ],
      [
        "tt",
        "i"
      ],
      [
        "tt",
        "r"
      ],
      [
        "I",
        "n"
      ],
      [
        "T",
        "r"
      ],
      [
        "Ġe",
        "te"
      ],
      [
        "ei",
        "r"
      ],
      [
        "è",
        "¿"
      ],
      [
        "I",
        "o"
      ],
      [
        "Ġm",
        "d"
      ],
      [
        "m",
        "g"
      ],
      [
        "I",
        "t"
      ],
      [
        "er",
        "i"
      ],
      [
        "Ġl",
        "p"
      ],
      [
        "T",
        "n"
      ],
      [
        "Ġm",
        "l"
      ],
      [
        "tt",
        "o"
      ],
      [
        "er",
        "r"
      ],
      [
        "ei",
        "o"
      ],
      [
        "tt",
        "n"
      ],
      [
        "Ġi",
        "b"
      ],
      [
        "ea",
        "h"
      ],
      [
        "a",
        "et"
      ],
      [
        "E",
        "e"
      ],
      [
        "ti",
        "e"
      ],
      [
        "u",
        "w"
      ],
      [
        "er",
        "o"
      ],
      [
        "_",
        ","
      ],
      [
        "Ġr",
        "b"
      ],
      [
        "ei",
        "n"
      ],
      [
        "Ð",
        "½"
      ],
      [
        "Ġf",
        "l"
      ],
      [
        "tt",
        "a"
      ],
      [
        "u",
        "y"
      ],
      [
        "Ñ",
        "Ģ"
      ],
      [
        "tr",
        "e"
      ],
      [
        "er",
        "n"
      ],
      [
        "tt",
        "t"
      ],
      [
        "Ġf",
        "d"
      ],
      [
        "f",
        "g"
      ],
      [
        "el",
        "e"
      ],
      [
        "i",
        "v"
      ],
      [
        "Ġg",
        "s"
      ],
      [
        "Ġ",
        "@"
      ],
      [
        ",",
        "_"
      ],
      [
        ".",
        "\""
      ],
      [
        "Ġt",
        "v"
      ],
      [
        "Ġa",
        "ee"
      ],
      [
        "b",
        "p"
      ],
      [
        "s",
        "v"
      ],
      [
        "-",
        ","
      ],
      [
        "o",
        "et"
      ],
      [
        "Ã",
        "©"
      ],
      [
        "ea",
        "l"
      ],
      [
        "eo",
        "h"
      ],
      [
        "r",
        "v"
      ],
      [
        "Ġd",
        "p"
      ],
      [
        "a",
        "k"
      ],
      [
        "ea",
        "d"
      ],
      [
        "x",
        "s"
      ],
      [
        "Ġ",
        "é"
      ],
      [
        "Ġp",
        "h"
      ],
      [
        "\"",
        "."
      ],
      [
        "aa",
        "e"
      ],
      [
        ",",
        "-"
      ],
      [
        "ee",
        "m"
      ],
      [
        "ed",
        "e"
      ],
      [
        "ta",
        "s"
      ],
      [
        "Ġg",
        "n"
      ],
      [
        "Ġg",
        "i"
      ],
      [
        "ãĤ",
        "Ĵ"
      ],
      [
        "Ġg",
        "t"
      ],
      [
        "è",
        "¯"
      ],
      [
        "p",
        "g"
      ],
      [
        "eo",
        "d"
      ],
      [
        "o",
        "k"
      ],
      [
        "es",
        "h"
      ],
      [
        "Ġc",
        "c"
      ],
      [
        "Ġe",
        "en"
      ],
      [
        "m",
        "w"
      ],
      [
        "Ñ",
        "ģ"
      ],
      [
        "f",
        "y"
      ],
      [
        "Ġh",
        "g"
      ],
      [
        "Ġg",
        "o"
      ],
      [
        "u",
        "b"
      ],
      [
        "Ġg",
        "a"
      ],
      [
        "Ġw",
        "s"
      ],
      [
        "eo",
        "l"
      ],
      [
        "Ġg",
        "r"
      ],
      [
        "Ġy",
        "s"
      ],
      [
        "ë",
        "ĭ¤"
      ],
      [
        "ao",
        "e"
      ],
      [
        "m",
        "y"
      ],
      [
        "Ġu",
        "c"
      ],
      [
        "x",
        "i"
      ],
      [
        "x",
        "n"
      ],
      [
        "ee",
        "f"
      ],
      [
        "Ġ",
        "à¦"
      ],
      [
        "T",
        "h"
      ],
      [
        "g",
        "g"
      ],
      [
        "Ġe",
        "ei"
      ],
      [
        "en",
        "h"
      ],
      [
        "te",
        "c"
      ],
      [
        "x",
        "t"
      ],
      [
        "as",
        "e"
      ],
      [
        "f",
        "w"
      ],
      [
        "Ġp",
        "d"
      ],
      [
        "I",
        "h"
      ],
      [
        "Ġo",
        "ee"
      ],
      [
        "Ġe",
        "er"
      ],
      [
        "x",
        "o"
      ],
      [
        "Ġu",
        "u"
      ],
      [
        "x",
        "r"
      ],
      [
        "te",
        "u"
      ],
      [
        "n",
        "et"
      ],
      [
        "Ġc",
        "u"
      ],
      [
        "c",
        "b"
      ],
      [
        "Ġp",
        "l"
      ],
      [
        "x",
        "a"
      ],
      [
        "tt",
        "h"
      ],
      [
        "å",
        "ħ"
      ],
      [
        "to",
        "s"
      ],
      [
        "Ĭ",
        "¤"
      ],
      [
        "ei",
        "h"
      ],
      [
        "ta",
        "i"
      ],
      [
        "v",
        "m"
      ],
      [
        "es",
        "d"
      ],
      [
        ".",
        "_"
      ],
      [
        "A",
        "s"
      ],
      [
        "Ġw",
        "r"
      ],
      [
        "y",
        "g"
      ],
      [
        "k",
        "c"
      ],
      [
        "ta",
        "n"
      ],
      [
        "an",
        "e"
      ],
      [
        "T",
        "l"
      ],
      [
        "es",
        "l"
      ],
      [
        "er",
        "h"
      ],
      [
        "Ġl",
        "g"
      ],
      [
        "T",
        "d"
      ],
      [
        "ta",
        "r"
      ],
      [
        "Ġy",
        "i"
      ],
      [
        "w",
        "g"
      ],
      [
        "ta",
        "t"
      ],
      [
        "I",
        "d"
      ],
      [
        "a",
        "te"
      ],
      [
        "(",
        ","
      ],
      [
        "ta",
        "o"
      ],
      [
        "Ġy",
        "t"
      ],
      [
        "et",
        "c"
      ],
      [
        "Ġw",
        "i"
      ],
      [
        "Ġ",
        "%"
      ],
      [
        "_",
        "."
      ],
      [
        "v",
        "f"
      ],
      [
        ")",
        ","
      ],
      [
        "S",
        "s"
      ],
      [
        "en",
        "l"
      ],
      [
        "-",
        "."
      ],
      [
        "p",
        "w"
      ],
      [
        "oo",
        "e"
      ],
      [
        "k",
        "u"
      ],
      [
        "ì",
        "Ĺ"
      ],
      [
        "ta",
        "a"
      ],
      [
        "Ġh",
        "w"
      ],
      [
        "Ġw",
        "a"
      ],
      [
        "ts",
        "s"
      ],
      [
        "h",
        "ee"
      ],
      [
        "Ġe",
        "to"
      ],
      [
        ",",
        "("
      ],
      [
        "p",
        "y"
      ],
      [
        "en",
        "d"
      ],
      [
        "Ġe",
        "tt"
      ],
      [
        "Ġn",
        "ee"
      ],
      [
        "Ġw",
        "t"
      ],
      [
        "Ġw",
        "n"
      ],
      [
        "'",
        "m"
      ],
      [
        "et",
        "u"
      ],
      [
        "I",
        "l"
      ],
      [
        "eh",
        "s"
      ],
      [
        ",",
        ")"
      ],
      [
        "Ġs",
        "ee"
      ],
      [
        "Ġw",
        "o"
      ],
      [
        "Ġy",
        "r"
      ],
      [
        "a",
        "ea"
      ],
      [
        "Ġy",
        "n"
      ],
      [
        ".",
        "-"
      ],
      [
        "Ġa",
        "v"
      ],
      [
        "ãģ",
        "«"
      ],
      [
        "Ġb",
        "s"
      ],
      [
        "A",
        "i"
      ],
      [
        "Ġt",
        "et"
      ],
      [
        "Ġd",
        "g"
      ],
      [
        "ei",
        "d"
      ],
      [
        "Ġh",
        "y"
      ],
      [
        "S",
        "i"
      ],
      [
        "ĠĠ",
        "č"
      ],
      [
        "m",
        "b"
      ],
      [
        "Ġ",
        "ä¸"
      ],
      [
        "ei",
        "l"
      ],
      [
        "tt",
        "l"
      ],
      [
        "tt",
        "d"
      ],
      [
        "ai",
        "e"
      ],
      [
        "Ġy",
        "o"
      ],
      [
        "Ġy",
        "a"
      ],
      [
        "ar",
        "e"
      ],
      [
        "to",
        "t"
      ],
      [
        "b",
        "g"
      ],
      [
        "âĢ",
        "Ļ"
      ],
      [
        "to",
        "i"
      ],
      [
        "tn",
        "s"
      ],
      [
        "ti",
        "s"
      ],
      [
        "A",
        "t"
      ],
      [
        "Ġt",
        "k"
      ],
      [
        "Ġg",
        "h"
      ],
      [
        "S",
        "o"
      ],
      [
        "A",
        "r"
      ],
      [
        "Ĭ",
        "Ķ"
      ],
      [
        "A",
        "n"
      ],
      [
        "C",
        "e"
      ],
      [
        "to",
        "o"
      ],
      [
        "to",
        "r"
      ],
      [
        "er",
        "l"
      ],
      [
        "A",
        "o"
      ],
      [
        "Ġe",
        "eh"
      ],
      [
        "S",
        "n"
      ],
      [
        "os",
        "e"
      ],
      [
        "æ",
        "Ī"
      ],
      [
        "f",
        "b"
      ],
      [
        "Ġi",
        "ee"
      ],
      [
        "S",
        "t"
      ],
      [
        "E",
        "s"
      ],
      [
        "a",
        "eo"
      ],
      [
        "ts",
        "i"
      ],
      [
        "er",
        "d"
      ],
      [
        "Ġo",
        "v"
      ],
      [
        "ľ",
        "¨"
      ],
      [
        "Ġc",
        "m"
      ],
      [
        "č",
        "ĠĠ"
      ],
      [
        "S",
        "r"
      ],
      [
        "Ġr",
        "ee"
      ],
      [
        "to",
        "n"
      ],
      [
        "Ġl",
        "w"
      ],
      [
        "Ġe",
        "I"
      ],
      [
        "o",
        "ea"
      ],
      [
        "ts",
        "r"
      ],
      [
        "Ġl",
        "y"
      ],
      [
        "Ġe",
        "T"
      ],
      [
        "l",
        "ee"
      ],
      [
        "ãĥ",
        "³"
      ],
      [
        "S",
        "a"
      ],
      [
        "Ġe",
        "tn"
      ],
      [
        "to",
        "a"
      ],
      [
        "Ġe",
        "aa"
      ],
      [
        "A",
        "a"
      ],
      [
        "Ġb",
        "n"
      ],
      [
        "Ġm",
        "c"
      ],
      [
        "ts",
        "a"
      ],
      [
        "ts",
        "t"
      ],
      [
        "tr",
        "s"
      ],
      [
        "g",
        "y"
      ],
      [
        "ãģ",
        "Ĺ"
      ],
      [
        "x",
        "h"
      ],
      [
        "g",
        "w"
      ],
      [
        "ãĤ",
        "ĭ"
      ],
      [
        "o",
        "te"
      ],
      [
        "p",
        "b"
      ],
      [
        "Ġc",
        "f"
      ],
      [
        "r",
        "et"
      ],
      [
        "ãģ",
        "¾"
      ],
      [
        "Ġm",
        "u"
      ],
      [
        "on",
        "e"
      ],
      [
        "Ġe",
        "ta"
      ],
      [
        "è",
        "®"
      ],
      [
        "Ġč",
        "Ġ"
      ],
      [
        "Ġb",
        "i"
      ],
      [
        "eh",
        "i"
      ],
      [
        "n",
        "k"
      ],
      [
        "Ġu",
        "m"
      ],
      [
        "y",
        "y"
      ],
      [
        "ts",
        "o"
      ],
      [
        "w",
        "w"
      ],
      [
        "el",
        "s"
      ],
      [
        "tn",
        "i"
      ],
      [
        "E",
        "i"
      ],
      [
        "Ġf",
        "c"
      ],
      [
        "Ġb",
        "o"
      ],
      [
        "ts",
        "n"
      ],
      [
        "th",
        "e"
      ],
      [
        "oi",
        "e"
      ],
      [
        "E",
        "t"
      ],
      [
        "te",
        "m"
      ],
      [
        "E",
        "a"
      ],
      [
        "Ġg",
        "d"
      ],
      [
        "eh",
        "t"
      ],
      [
        "eh",
        "o"
      ],
      [
        "Ġe",
        "tr"
      ],
      [
        "ti",
        "i"
      ],
      [
        "Ġg",
        "l"
      ],
      [
        "tn",
        "t"
      ],
      [
        "íķ",
        "ľ"
      ],
      [
        "eh",
        "r"
      ],
      [
        "Ġd",
        "y"
      ],
      [
        ")",
        "."
      ],
      [
        "ee",
        "p"
      ],
      [
        "Ġb",
        "t"
      ],
      [
        "E",
        "o"
      ],
      [
        "E",
        "r"
      ],
      [
        "Ġh",
        "b"
      ],
      [
        "ì",
        "Ħ"
      ],
      [
        "Ġu",
        "f"
      ],
      [
        "Ġd",
        "w"
      ],
      [
        "ì",
        "ł"
      ],
      [
        "tn",
        "r"
      ],
      [
        "å",
        "Ĭ"
      ],
      [
        "tn",
        "o"
      ],
      [
        "ä½",
        "¿"
      ],
      [
        "el",
        "t"
      ],
      [
        "(",
        "."
      ],
      [
        "Ġt",
        "ea"
      ],
      [
        "Ġe",
        "ao"
      ],
      [
        "ta",
        "h"
      ],
      [
        "eh",
        "n"
      ],
      [
        "or",
        "e"
      ],
      [
        "Ġb",
        "r"
      ],
      [
        "a",
        "es"
      ],
      [
        "w",
        "y"
      ],
      [
        "tn",
        "n"
      ],
      [
        "Ġe",
        "ti"
      ],
      [
        "Ġw",
        "h"
      ],
      [
        "k",
        "m"
      ],
      [
        "Ġy",
        "h"
      ],
      [
        "x",
        "l"
      ],
      [
        "ss",
        "e"
      ],
      [
        "i",
        "et"
      ],
      [
        "Ġs",
        "v"
      ],
      [
        "Ġb",
        "a"
      ],
      [
        "R",
        "e"
      ],
      [
        "Ġf",
        "u"
      ],
      [
        ".",
        "("
      ],
      [
        "x",
        "d"
      ],
      [
        "te",
        "f"
      ],
      [
        ".",
        ")"
      ],
      [
        "tn",
        "a"
      ],
      [
        "Ð",
        "²"
      ],
      [
        "aa",
        "s"
      ],
      [
        "k",
        "f"
      ],
      [
        "ns",
        "e"
      ],
      [
        "Ġn",
        "v"
      ],
      [
        "ae",
        "c"
      ],
      [
        "Ġe",
        "el"
      ],
      [
        "ed",
        "s"
      ],
      [
        "íķ",
        "ĺ"
      ],
      [
        "tr",
        "i"
      ],
      [
        "d",
        "ee"
      ],
      [
        "tr",
        "t"
      ],
      [
        "è",
        "¡"
      ],
      [
        "ê",
        "°"
      ],
      [
        "ti",
        "t"
      ],
      [
        "n",
        "ea"
      ],
      [
        "is",
        "e"
      ],
      [
        "Ġl",
        "b"
      ],
      [
        "v",
        "p"
      ],
      [
        "eh",
        "a"
      ],
      [
        "y",
        "w"
      ],
      [
        "ao",
        "s"
      ],
      [
        "Ġa",
        "et"
      ],
      [
        "nn",
        "e"
      ],
      [
        "t",
        "T"
      ],
      [
        "Ġt",
        "te"
      ],
      [
        "ä»",
        "¥"
      ],
      [
        "rs",
        "e"
      ],
      [
        "ti",
        "o"
      ],
      [
        "A",
        "h"
      ],
      [
        "s",
        "et"
      ],
      [
        "ti",
        "n"
      ],
      [
        "ae",
        "u"
      ],
      [
        "Ġw",
        "d"
      ],
      [
        "el",
        "i"
      ],
      [
        "E",
        "n"
      ],
      [
        "aa",
        "i"
      ],
      [
        "o",
        "eo"
      ],
      [
        "ti",
        "a"
      ],
      [
        "Ġe",
        "oo"
      ],
      [
        "tr",
        "r"
      ],
      [
        "ti",
        "r"
      ],
      [
        "ì",
        "Ĭ¤"
      ],
      [
        "as",
        "s"
      ],
      [
        "el",
        "r"
      ],
      [
        "to",
        "h"
      ],
      [
        "Ġy",
        "d"
      ],
      [
        "S",
        "h"
      ],
      [
        "Ġw",
        "l"
      ],
      [
        "ta",
        "l"
      ],
      [
        "Ġv",
        "e"
      ],
      [
        "aa",
        "t"
      ],
      [
        "Ġy",
        "l"
      ],
      [
        "a",
        "en"
      ],
      [
        "ì",
        "ŀ"
      ],
      [
        "tr",
        "n"
      ],
      [
        "Ġe",
        "an"
      ],
      [
        "Ġi",
        "v"
      ],
      [
        "tr",
        "o"
      ],
      [
        "Ġe",
        "ts"
      ],
      [
        "ea",
        "c"
      ],
      [
        "g",
        "b"
      ],
      [
        "tl",
        "e"
      ],
      [
        "el",
        "o"
      ],
      [
        "to",
        "l"
      ],
      [
        "N",
        "e"
      ],
      [
        "tr",
        "a"
      ],
      [
        "Ġc",
        "p"
      ],
      [
        "'",
        ","
      ],
      [
        "Ġe",
        "ed"
      ],
      [
        "P",
        "e"
      ],
      [
        "Ġr",
        "v"
      ],
      [
        "ãģ",
        "¯"
      ],
      [
        "Ġu",
        "p"
      ],
      [
        "r",
        "k"
      ],
      [
        "el",
        "a"
      ],
      [
        "ta",
        "d"
      ],
      [
        "ea",
        "u"
      ],
      [
        "Ġp",
        "c"
      ],
      [
        "aa",
        "n"
      ],
      [
        "Ġe",
        "as"
      ],
      [
        "b",
        "w"
      ],
      [
        "b",
        "y"
      ],
      [
        "aa",
        "o"
      ],
      [
        "Ġp",
        "u"
      ],
      [
        "Ġe",
        "os"
      ],
      [
        "Ġt",
        "eo"
      ],
      [
        "el",
        "n"
      ],
      [
        "i",
        "k"
      ],
      [
        "s",
        "k"
      ],
      [
        "aa",
        "r"
      ],
      [
        "Ġe",
        "ai"
      ],
      [
        "ts",
        "h"
      ],
      [
        "Ġm",
        "m"
      ],
      [
        "A",
        "l"
      ],
      [
        "t",
        "I"
      ],
      [
        "ë",
        "ĵ"
      ],
      [
        "E",
        "h"
      ],
      [
        "n",
        "te"
      ],
      [
        "et",
        "m"
      ],
      [
        "oe",
        "u"
      ],
      [
        "c",
        "ee"
      ],
      [
        "aa",
        "a"
      ],
      [
        "S",
        "l"
      ],
      [
        "eo",
        "u"
      ],
      [
        "ë",
        "ĬĶ"
      ],
      [
        "h",
        "v"
      ],
      [
        "æ",
        "ĸ"
      ],
      [
        "td",
        "e"
      ],
      [
        "et",
        "f"
      ],
      [
        "o",
        "en"
      ],
      [
        "ed",
        "i"
      ],
      [
        "ao",
        "i"
      ],
      [
        ",",
        "'"
      ],
      [
        "Ġd",
        "b"
      ],
      [
        "a",
        "ei"
      ],
      [
        "Ġt",
        "es"
      ],
      [
        "Ġe",
        "ar"
      ],
      [
        "Ġe",
        "on"
      ],
      [
        "Ġf",
        "m"
      ],
      [
        "Ġa",
        "k"
      ],
      [
        "to",
        "d"
      ],
      [
        "Ġe",
        "x"
      ],
      [
        "an",
        "s"
      ],
      [
        "oe",
        "c"
      ],
      [
        "Ġb",
        "h"
      ],
      [
        "a",
        "er"
      ],
      [
        "o",
        "es"
      ],
      [
        "ed",
        "t"
      ],
      [
        "A",
        "d"
      ],
      [
        "e",
        "x"
      ],
      [
        "Ġ",
        "í"
      ],
      [
        "ãĤ",
        "¹"
      ],
      [
        "ed",
        "o"
      ],
      [
        "ao",
        "r"
      ],
      [
        "å",
        "ľ¨"
      ],
      [
        "Ġ",
        "+"
      ],
      [
        "w",
        "b"
      ],
      [
        "Ġf",
        "f"
      ],
      [
        "ao",
        "t"
      ],
      [
        "M",
        "e"
      ],
      [
        "Ġe",
        "ae"
      ],
      [
        "eo",
        "c"
      ],
      [
        "Ġ",
        "ãĢĤ"
      ],
      [
        "tn",
        "h"
      ],
      [
        "¥",
        "¼"
      ],
      [
        "ãģ",
        "§"
      ],
      [
        "Ġt",
        "en"
      ],
      [
        "å",
        "¤"
      ],
      [
        "ed",
        "n"
      ],
      [
        "eh",
        "h"
      ],
      [
        "y",
        "b"
      ],
      [
        "ts",
        "d"
      ],
      [
        "S",
        "d"
      ],
      [
        "Ġm",
        "f"
      ],
      [
        "Ġo",
        "k"
      ],
      [
        "Ġo",
        "et"
      ],
      [
        "ti",
        "h"
      ],
      [
        "tt",
        "c"
      ],
      [
        "ed",
        "r"
      ],
      [
        "ï¼",
        "ļ"
      ],
      [
        "ao",
        "n"
      ],
      [
        "te",
        "p"
      ],
      [
        "Ġe",
        "ss"
      ],
      [
        "as",
        "t"
      ],
      [
        "Ġt",
        "er"
      ],
      [
        "l",
        "v"
      ],
      [
        "ao",
        "a"
      ],
      [
        "oo",
        "s"
      ],
      [
        "es",
        "c"
      ],
      [
        "ar",
        "s"
      ],
      [
        "Ġt",
        "ei"
      ],
      [
        "ai",
        "s"
      ],
      [
        "C",
        "s"
      ],
      [
        "u",
        "ee"
      ],
      [
        "en",
        "c"
      ],
      [
        "Ġe",
        "oi"
      ],
      [
        "åı",
        "¯"
      ],
      [
        "æ",
        "ĺ"
      ],
      [
        "Ġ",
        "çļĦ"
      ],
      [
        "ae",
        "f"
      ],
      [
        "\"",
        "\""
      ],
      [
        "ä¸",
        "Ģ"
      ],
      [
        "T",
        "c"
      ],
      [
        "ao",
        "o"
      ],
      [
        "tn",
        "d"
      ],
      [
        "as",
        "i"
      ],
      [
        "as",
        "r"
      ],
      [
        "an",
        "t"
      ],
      [
        "I",
        "c"
      ],
      [
        "ed",
        "a"
      ],
      [
        "L",
        "e"
      ],
      [
        "Ġb",
        "l"
      ],
      [
        "E",
        "l"
      ],
      [
        "ah",
        "e"
      ],
      [
        "T",
        "u"
      ],
      [
        "es",
        "u"
      ],
      [
        "Ġe",
        "oe"
      ],
      [
        "as",
        "n"
      ],
      [
        "ae",
        "m"
      ],
      [
        "Ġe",
        "se"
      ],
      [
        "Ġb",
        "d"
      ],
      [
        "Ġe",
        "or"
      ],
      [
        "an",
        "i"
      ],
      [
        "o",
        "er"
      ],
      [
        "tt",
        "u"
      ],
      [
        "o",
        "ei"
      ],
      [
        "eh",
        "d"
      ],
      [
        "Ġs",
        "et"
      ],
      [
        "tn",
        "l"
      ],
      [
        "r",
        "ea"
      ],
      [
        "ee",
        "g"
      ],
      [
        "n",
        "eo"
      ],
      [
        "el",
        "h"
      ],
      [
        "Ð",
        "º"
      ],
      [
        "Ļ",
        "¨"
      ],
      [
        "ts",
        "l"
      ],
      [
        "as",
        "a"
      ],
      [
        "à",
        "¥"
      ],
      [
        "Ġs",
        "k"
      ],
      [
        "en",
        "u"
      ],
      [
        "Ð",
        "»"
      ],
      [
        "Ġe",
        "ne"
      ],
      [
        "eh",
        "l"
      ],
      [
        "Ġe",
        "nn"
      ],
      [
        "I",
        "u"
      ],
      [
        "i",
        "te"
      ],
      [
        "ĠĠ",
        "ĠĠĠ"
      ],
      [
        "E",
        "d"
      ],
      [
        "tr",
        "h"
      ],
      [
        "os",
        "s"
      ],
      [
        "Ġe",
        "S"
      ],
      [
        "Ġe",
        "ns"
      ],
      [
        "q",
        "e"
      ],
      [
        "Ġc",
        "g"
      ],
      [
        "č",
        "ĠĊ"
      ],
      [
        "'",
        "."
      ],
      [
        "aa",
        "h"
      ],
      [
        "Ñ",
        "ĥ"
      ],
      [
        "ãģ",
        "¦"
      ],
      [
        "th",
        "s"
      ],
      [
        "Ġe",
        "A"
      ],
      [
        "ti",
        "l"
      ],
      [
        "an",
        "n"
      ],
      [
        "an",
        "r"
      ],
      [
        "ei",
        "c"
      ],
      [
        "Ġg",
        "c"
      ],
      [
        "Ġn",
        "et"
      ],
      [
        "as",
        "o"
      ],
      [
        "Ġm",
        "p"
      ],
      [
        "Ġa",
        "ea"
      ],
      [
        "oo",
        "i"
      ],
      [
        "ti",
        "d"
      ],
      [
        "ie",
        "c"
      ],
      [
        "tr",
        "d"
      ],
      [
        "k",
        "p"
      ],
      [
        "ai",
        "t"
      ],
      [
        "Ġ",
        "X"
      ],
      [
        "ë",
        "¡"
      ],
      [
        "on",
        "s"
      ],
      [
        "r",
        "te"
      ],
      [
        "ei",
        "u"
      ],
      [
        "ç",
        "»"
      ],
      [
        "m",
        "ee"
      ],
      [
        "ar",
        "i"
      ],
      [
        "Ġi",
        "et"
      ],
      [
        "C",
        "i"
      ],
      [
        "ie",
        "u"
      ],
      [
        "el",
        "l"
      ],
      [
        "ì",
        "ļ"
      ],
      [
        "e",
        "A"
      ],
      [
        "oi",
        "s"
      ],
      [
        "er",
        "u"
      ],
      [
        "oo",
        "t"
      ],
      [
        "ai",
        "i"
      ],
      [
        "a",
        "tt"
      ],
      [
        "n",
        "es"
      ],
      [
        "er",
        "c"
      ],
      [
        "Ġh",
        "ee"
      ],
      [
        "Ġč",
        "Ċ"
      ],
      [
        "ãĥ",
        "Ī"
      ],
      [
        "Ġa",
        "te"
      ],
      [
        "an",
        "o"
      ],
      [
        "f",
        "ee"
      ],
      [
        "ìĿ",
        "Ħ"
      ],
      [
        "Ġp",
        "m"
      ],
      [
        "ar",
        "t"
      ],
      [
        "v",
        "g"
      ],
      [
        "el",
        "d"
      ],
      [
        "Ġn",
        "k"
      ],
      [
        "s",
        "te"
      ],
      [
        "Ġt",
        "tt"
      ],
      [
        "Ġe",
        "is"
      ],
      [
        "e",
        "S"
      ],
      [
        "oo",
        "r"
      ],
      [
        "C",
        "t"
      ],
      [
        "re",
        "c"
      ],
      [
        "Ġr",
        "et"
      ],
      [
        "oo",
        "a"
      ],
      [
        "ea",
        "m"
      ],
      [
        "b",
        "b"
      ],
      [
        "ne",
        "u"
      ],
      [
        "ne",
        "c"
      ],
      [
        "os",
        "i"
      ],
      [
        "ea",
        "f"
      ],
      [
        "ed",
        "h"
      ],
      [
        "Ġp",
        "f"
      ],
      [
        "an",
        "a"
      ],
      [
        "tr",
        "l"
      ],
      [
        ",",
        "/"
      ],
      [
        "Ġe",
        "ni"
      ],
      [
        "Ġe",
        "rs"
      ],
      [
        "oo",
        "n"
      ],
      [
        "ai",
        "o"
      ],
      [
        "Ġe",
        "th"
      ],
      [
        "Ġu",
        "g"
      ],
      [
        "Ġg",
        "u"
      ],
      [
        ".",
        "'"
      ],
      [
        "d",
        "v"
      ],
      [
        "ai",
        "r"
      ],
      [
        "os",
        "t"
      ],
      [
        "ar",
        "n"
      ],
      [
        "a",
        "T"
      ],
      [
        "Ġf",
        "p"
      ],
      [
        "Ġl",
        "ee"
      ],
      [
        "ar",
        "r"
      ],
      [
        "or",
        "s"
      ],
      [
        "ìĹ",
        "Ĳ"
      ],
      [
        "al",
        "e"
      ],
      [
        "et",
        "p"
      ],
      [
        "Ġr",
        "k"
      ],
      [
        "O",
        "e"
      ],
      [
        "aa",
        "d"
      ],
      [
        "re",
        "u"
      ],
      [
        "eo",
        "m"
      ],
      [
        "C",
        "r"
      ],
      [
        "ä¸",
        "ª"
      ],
      [
        ",",
        ":"
      ],
      [
        "ao",
        "h"
      ],
      [
        "Ġe",
        "E"
      ],
      [
        "ai",
        "n"
      ],
      [
        "C",
        "n"
      ],
      [
        "on",
        "t"
      ],
      [
        "Ġt",
        "T"
      ],
      [
        "Ġa",
        "es"
      ],
      [
        "on",
        "i"
      ],
      [
        "Ġo",
        "ea"
      ],
      [
        "Ġi",
        "k"
      ],
      [
        "os",
        "n"
      ],
      [
        "\"",
        "_"
      ],
      [
        "Ġa",
        "eo"
      ],
      [
        "/",
        ","
      ],
      [
        "oo",
        "o"
      ],
      [
        "ëĵ",
        "ľ"
      ],
      [
        "D",
        "e"
      ],
      [
        "os",
        "r"
      ],
      [
        "R",
        "s"
      ],
      [
        "æ",
        "ī"
      ],
      [
        "oe",
        "f"
      ],
      [
        "ao",
        "d"
      ],
      [
        "on",
        "o"
      ],
      [
        "no",
        "t"
      ],
      [
        "a",
        "I"
      ],
      [
        "p",
        "ee"
      ],
      [
        "Ġe",
        "re"
      ],
      [
        "¦",
        "Ĥ"
      ],
      [
        "s",
        "ea"
      ],
      [
        "Ġo",
        "te"
      ],
      [
        ":",
        ","
      ],
      [
        "n",
        "en"
      ],
      [
        "Ġs",
        "te"
      ],
      [
        "Ġk",
        "e"
      ],
      [
        "-",
        "\""
      ],
      [
        "i",
        "ea"
      ],
      [
        "ai",
        "a"
      ],
      [
        "s",
        "eo"
      ],
      [
        "å",
        "°"
      ],
      [
        "o",
        "tt"
      ],
      [
        "å",
        "Ń"
      ],
      [
        "th",
        "i"
      ],
      [
        "Ġe",
        "si"
      ],
      [
        "Ġ",
        "Ã"
      ],
      [
        "C",
        "o"
      ],
      [
        "Ġ,",
        ","
      ],
      [
        "r",
        "eo"
      ],
      [
        "v",
        "w"
      ],
      [
        "Ġc",
        "y"
      ],
      [
        "a",
        "ta"
      ],
      [
        "as",
        "h"
      ],
      [
        "ä¸",
        "Ń"
      ],
      [
        "ae",
        "p"
      ],
      [
        "å®",
        "ļ"
      ],
      [
        "Ġe",
        "ii"
      ],
      [
        "Ġe",
        "eu"
      ],
      [
        "aa",
        "l"
      ],
      [
        "Ġt",
        "I"
      ],
      [
        "ss",
        "s"
      ],
      [
        "R",
        "i"
      ],
      [
        "Ġe",
        "ec"
      ],
      [
        "x",
        "u"
      ],
      [
        "ar",
        "o"
      ],
      [
        "C",
        "a"
      ],
      [
        "Ġw",
        "c"
      ],
      [
        "oe",
        "m"
      ],
      [
        "Ĭ",
        "¸"
      ],
      [
        "th",
        "r"
      ],
      [
        "x",
        "c"
      ],
      [
        "i",
        "es"
      ],
      [
        "ed",
        "d"
      ],
      [
        "H",
        "e"
      ],
      [
        "ee",
        "w"
      ],
      [
        "on",
        "r"
      ],
      [
        "i",
        "eo"
      ],
      [
        "Ġo",
        "eo"
      ],
      [
        "th",
        "t"
      ],
      [
        "ä",
        "¹"
      ],
      [
        "Ġy",
        "c"
      ],
      [
        "o",
        "T"
      ],
      [
        "Ġa",
        "en"
      ],
      [
        "or",
        "t"
      ],
      [
        "ar",
        "a"
      ],
      [
        "h",
        "et"
      ],
      [
        "ad",
        "e"
      ],
      [
        "ed",
        "l"
      ],
      [
        "Ġe",
        "ie"
      ],
      [
        "Ġe",
        "tl"
      ],
      [
        "at",
        "c"
      ],
      [
        "oi",
        "t"
      ],
      [
        "Ġw",
        "u"
      ],
      [
        "Ġt",
        "ta"
      ],
      [
        "os",
        "a"
      ],
      [
        "æ",
        "ķ"
      ],
      [
        "N",
        "s"
      ],
      [
        "ë",
        "¥¼"
      ],
      [
        "_",
        "\""
      ],
      [
        "n",
        "ei"
      ],
      [
        "P",
        "s"
      ],
      [
        "Ġc",
        "w"
      ],
      [
        "Ġe",
        "nr"
      ],
      [
        "n",
        "er"
      ],
      [
        "v",
        "y"
      ],
      [
        "ao",
        "l"
      ],
      [
        "Ġs",
        "ea"
      ],
      [
        "ĥ",
        "½"
      ],
      [
        "se",
        "c"
      ],
      [
        "Ġv",
        "s"
      ],
      [
        "os",
        "o"
      ],
      [
        "å",
        "º"
      ],
      [
        "ee",
        "y"
      ],
      [
        "Ġu",
        "y"
      ],
      [
        "T",
        "f"
      ],
      [
        "è¡",
        "Į"
      ],
      [
        "oi",
        "r"
      ],
      [
        "¦",
        "ģ"
      ],
      [
        "on",
        "n"
      ],
      [
        "Ø",
        "§"
      ],
      [
        "i",
        "en"
      ],
      [
        "ns",
        "t"
      ],
      [
        "es",
        "m"
      ],
      [
        "Ġy",
        "u"
      ],
      [
        "an",
        "h"
      ],
      [
        "ãģ",
        "Ħ"
      ],
      [
        "on",
        "a"
      ],
      [
        "ä¸",
        "º"
      ],
      [
        "tl",
        "s"
      ],
      [
        "oi",
        "i"
      ],
      [
        "Ġe",
        "sr"
      ],
      [
        "Ġp",
        "p"
      ],
      [
        "å",
        "¯"
      ],
      [
        "ta",
        "u"
      ],
      [
        "th",
        "n"
      ],
      [
        "oh",
        "e"
      ],
      [
        "R",
        "t"
      ],
      [
        "ss",
        "r"
      ],
      [
        "Ġu",
        "w"
      ],
      [
        "eo",
        "f"
      ],
      [
        "Ġn",
        "ea"
      ],
      [
        "ss",
        "t"
      ],
      [
        "nn",
        "s"
      ],
      [
        "Ġg",
        "m"
      ],
      [
        "td",
        "s"
      ],
      [
        "or",
        "r"
      ],
      [
        "tt",
        "m"
      ],
      [
        "oo",
        "h"
      ],
      [
        "e",
        "E"
      ],
      [
        "ä",
        "¾"
      ],
      [
        "rs",
        "t"
      ],
      [
        "ei",
        "m"
      ],
      [
        "Ġi",
        "te"
      ],
      [
        "nn",
        "t"
      ],
      [
        "th",
        "a"
      ],
      [
        "\"",
        "-"
      ],
      [
        "Ġe",
        "ri"
      ],
      [
        "é",
        "Ģ"
      ],
      [
        "en",
        "m"
      ],
      [
        "Ġd",
        "ee"
      ],
      [
        "is",
        "t"
      ],
      [
        "Ġn",
        "te"
      ],
      [
        "an",
        "d"
      ],
      [
        "ns",
        "i"
      ],
      [
        "Ġr",
        "te"
      ],
      [
        "ar",
        "h"
      ],
      [
        "as",
        "d"
      ],
      [
        "tl",
        "t"
      ],
      [
        "th",
        "o"
      ],
      [
        "Ġi",
        "ea"
      ],
      [
        "at",
        "u"
      ],
      [
        "ec",
        "e"
      ],
      [
        "Ġa",
        "ei"
      ],
      [
        "no",
        "a"
      ],
      [
        "M",
        "s"
      ],
      [
        "is",
        "i"
      ],
      [
        "Ð",
        "¼"
      ],
      [
        "g",
        "ee"
      ],
      [
        "Ġo",
        "es"
      ],
      [
        "ãģ",
        "Į"
      ],
      [
        "P",
        "t"
      ],
      [
        "oi",
        "o"
      ],
      [
        "Ġv",
        "r"
      ],
      [
        "er",
        "m"
      ],
      [
        "ol",
        "e"
      ],
      [
        "ãģ",
        "¨"
      ],
      [
        "Ġh",
        "v"
      ],
      [
        "ai",
        "h"
      ],
      [
        "ìĿ",
        "ĺ"
      ],
      [
        "se",
        "u"
      ],
      [
        "Ġs",
        "eo"
      ],
      [
        "ss",
        "o"
      ],
      [
        "as",
        "l"
      ],
      [
        "or",
        "i"
      ],
      [
        "rs",
        "i"
      ],
      [
        "½",
        "®"
      ],
      [
        "T",
        "m"
      ],
      [
        "ns",
        "r"
      ],
      [
        "Ġn",
        "eo"
      ]
    ]
  }
}