{
  "version": "1.0",
  "truncation": null,
  "padding": null,
  "added_tokens": [],
  "normalizer": null,
  "pre_tokenizer": {
    "type": "ByteLevel",
    "add_prefix_space": false,
    "trim_offsets": true,
    "use_regex": true
  },
  "post_processor": null,
  "decoder": {
    "type": "ByteLevel",
    "add_prefix_space": true,
    "trim_offsets": true,
    "use_regex": true
  },
  "model": {
    "type": "BPE",
    "dropout": null,
    "unk_token": null,
    "continuing_subword_prefix": null,
    "end_of_word_suffix": null,
    "fuse_unk": false,
    "byte_fallback": false,
    "ignore_merges": false,
    "vocab": {
      "!": 0,
      "\"": 1,
      "#": 2,
      "$": 3,
      "%": 4,
      "&": 5,
      "'": 6,
      "(": 7,
      ")": 8,
      "*": 9,
      "+": 10,
      ",": 11,
      "-": 12,
      ".": 13,
      "/": 14,
      "0": 15,
      "1": 16,
      "2": 17,
      "3": 18,
      "4": 19,
      "5": 20,
      "6": 21,
      "7": 22,
      "8": 23,
      "9": 24,
      ":": 25,
      ";": 26,
      "<": 27,
      "=": 28,
      ">": 29,
      "?": 30,
      "@": 31,
      "A": 32,
      "B": 33,
      "C": 34,
      "D": 35,
      "E": 36,
      "F": 37,
      "G": 38,
      "H": 39,
      "I": 40,
      "J": 41,
      "K": 42,
      "L": 43,
      "M": 44,
      "N": 45,
      "O": 46,
      "P": 47,
      "Q": 48,
      "R": 49,
      "S": 50,
      "T": 51,
      "U": 52,
      "V": 53,
      "W": 54,
      "X": 55,
      "Y": 56,
      "Z": 57,
      "[": 58,
      "\\": 59,
      "]": 60,
      "^": 61,
      "_": 62,
      "`": 63,
      "a": 64,
      "b": 65,
      "c": 66,
      "d": 67,
      "e": 68,
      "f": 69,
      "g": 70,
      "h": 71,
      "i": 72,
      "j": 73,
      "k": 74,
      "l": 75,
      "m": 76,
      "n": 77,
      "o": 78,
      "p": 79,
      "q": 80,
      "r": 81,
      "s": 82,
      "t": 83,
      "u": 84,
      "v": 85,
      "w": 86,
      "x": 87,
      "y": 88,
      "z": 89,
      "{": 90,
      "|": 91,
      "}": 92,
      "~": 93,
      "¡": 94,
      "¢": 95,
      "£": 96,
      "¤": 97,
      "¥": 98,
      "¦": 99,
      "§": 100,
      "¨": 101,
      "©": 102,
      "ª": 103,
      "«": 104,
      "¬": 105,
      "®": 106,
      "¯": 107,
      "°": 108,
      "±": 109,
      "²": 110,
      "³": 111,
      "´": 112,
      "µ": 113,
      "¶": 114,
      "·": 115,
      "¸": 116,
      "¹": 117,
      "º": 118,
      "»": 119,
      "¼": 120,
      "½": 121,
      "¾": 122,
      "¿": 123,
      "À": 124,
      "Á": 125,
      "Â": 126,
      "Ã": 127,
      "Ä": 128,
      "Å": 129,
      "Æ": 130,
      "Ç": 131,
      "È": 132,
      "É": 133,
      "Ê": 134,
      "Ë": 135,
      "Ì": 136,
      "Í": 137,
      "Î": 138,
      "Ï": 139,
      "Ð": 140,
      "Ñ": 141,
      "Ò": 142,
      "Ó": 143,
      "Ô": 144,
      "Õ": 145,
      "Ö": 146,
      "×": 147,
      "Ø": 148,
      "Ù": 149,
      "Ú": 150,
      "Û": 151,
      "Ü": 152,
      "Ý": 153,
      "Þ": 154,
      "ß": 155,
      "à": 156,
      "á": 157,
      "â": 158,
      "ã": 159,
      "ä": 160,
      "å": 161,
      "æ": 162,
      "ç": 163,
      "è": 164,
      "é": 165,
      "ê": 166,
      "ë": 167,
      "ì": 168,
      "í": 169,
      "î": 170,
      "ï": 171,
      "ð": 172,
      "ñ": 173,
      "ò": 174,
      "ó": 175,
      "ô": 176,
      "õ": 177,
      "ö": 178,
      "÷": 179,
      "ø": 180,
      "ù": 181,
      "ú": 182,
      "û": 183,
      "ü": 184,
      "ý": 185,
      "þ": 186,
      "ÿ": 187,
      "Ā": 188,
      "ā": 189,
      "Ă": 190,
      "ă": 191,
      "Ą": 192,
      "ą": 193,
      "Ć": 194,
      "ć": 195,
      "Ĉ": 196,
      "ĉ": 197,
      "Ċ": 198,
      "ċ": 199,
      "Č": 200,
      "č": 201,
      "Ď": 202,
      "ď": 203,
      "Đ": 204,
      "đ": 205,
      "Ē": 206,
      "ē": 207,
      "Ĕ": 208,
      "ĕ": 209,
      "Ė": 210,
      "ė": 211,
      "Ę": 212,
      "ę": 213,
      "Ě": 214,
      "ě": 215,
      "Ĝ": 216,
      "ĝ": 217,
      "Ğ": 218,
      "ğ": 219,
      "Ġ": 220,
      "ġ": 221,
      "Ģ": 222,
      "ģ": 223,
      "Ĥ": 224,
      "ĥ": 225,
      "Ħ": 226,
      "ħ": 227,
      "Ĩ": 228,
      "ĩ": 229,
      "Ī": 230,
      "ī": 231,
      "Ĭ": 232,
      "ĭ": 233,
      "Į": 234,
      "į": 235,
      "İ": 236,
      "ı": 237,
      "Ĳ": 238,
      "ĳ": 239,
      "Ĵ": 240,
      "ĵ": 241,
      "Ķ": 242,
      "ķ": 243,
      "ĸ": 244,
      "Ĺ": 245,
      "ĺ": 246,
      "Ļ": 247,
      "ļ": 248,
      "Ľ": 249,
      "ľ": 250,
      "Ŀ": 251,
      "ŀ": 252,
      "Ł": 253,
      "ł": 254,
      "Ń": 255,
      "ĠĠ": 256,
      "ĠĠĠĠ": 257,
      "Ġt": 258,
      "he": 259,
      "Ġa": 260,
      "in": 261,
      "er": 262,
      "čĊ": 263,
      "Ġs": 264,
      "re": 265,
      "Ġthe": 266,
      "on": 267,
      "at": 268,
      "Ġw": 269,
      "en": 270,
      "ĠĠĠ": 271,
      "Ġo": 272,
      "es": 273,
      "is": 274,
      "or": 275,
      "it": 276,
      "nd": 277,
      "ed": 278,
      "Ġc": 279,
      "ĠĠĠĠĠĠĠĠ": 280,
      "Ġb": 281,
      "ou": 282,
      "Ġf": 283,
      "ar": 284,
      "Ġm": 285,
      "el": 286,
      "an": 287,
      "al": 288,
      "ing": 289,
      "Ġd": 290,
      "as": 291,
      "Ġh": 292,
      "Ġof": 293,
      "Ġp": 294,
      "Ġto": 295,
      "le": 296,
      "Ġand": 297,
      "Ġin": 298,
      "Ġth": 299,
      "ĠĠĠĠĠĠĠ": 300,
      "Ġn": 301,
      "om": 302,
      "ion": 303,
      "et": 304,
      "ic": 305,
      "st": 306,
      "ent": 307,
      "Ġl": 308,
      "il": 309,
      "ad": 310,
      "ot": 311,
      "Ġre": 312,
      "am": 313,
      "ec": 314,
      "ut": 315,
      "im": 316,
      "ow": 317,
      "od": 318,
      "ce": 319,
      "ĠI": 320,
      "Ġg": 321,
      "Ġhe": 322,
      "id": 323,
      "--": 324,
      "Ġe": 325,
      "se": 326,
      "Ġ\"": 327,
      "elf": 328,
      "Ġu": 329,
      "ol": 330,
      "ur": 331,
      "Ġbe": 332,
      "ver": 333,
      "ĠT": 334,
      "ve": 335,
      "ig": 336,
      "ly": 337,
      "tr": 338,
      "ith": 339,
      "Ġis": 340,
      "Ġ=": 341,
      "ac": 342,
      "Ġfor": 343,
      "ay": 344,
      "ir": 345,
      "if": 346,
      "Ġthat": 347,
      "ĠĠĠĠĠĠĠĠĠĠĠ": 348,
      "Ġas": 349,
      "est": 350,
      "Ġon": 351,
      "ro": 352,
      "Ġy": 353,
      "Ġit": 354,
      "Ġwh": 355,
      "ter": 356,
      "Ġwith": 357,
      "ul": 358,
      "ĠA": 359,
      "qu": 360,
      "em": 361,
      "Ġ'": 362,
      "ĠS": 363,
      "ht": 364,
      "ect": 365,
      "ass": 366,
      "00": 367,
      "Ġwas": 368,
      "ch": 369,
      "th": 370,
      "ef": 371,
      "ab": 372,
      "Ġself": 373,
      "and": 374,
      "ag": 375,
      "ap": 376,
      "Ġal": 377,
      "ain": 378,
      "Ġan": 379,
      "Ġr": 380,
      "ation": 381,
      "</": 382,
      "Ġnot": 383,
      "her": 384,
      "ld": 385,
      "Ġyou": 386,
      "ert": 387,
      "Ġst": 388,
      "Ġcon": 389,
      "un": 390,
      "ke": 391,
      "ĠC": 392,
      "res": 393,
      "ame": 394,
      "oc": 395,
      "ub": 396,
      "um": 397,
      "ill": 398,
      "ĠĠĠĠĠĠĠĠĠĠĠĠĠĠĠĠ": 399,
      "pt": 400,
      "ri": 401,
      "ess": 402,
      "ate": 403,
      "Ġ(": 404,
      "Ġv": 405,
      "Ġhis": 406,
      "ĠM": 407,
      "rom": 408,
      "Ġ`": 409,
      "ex": 410,
      "pe": 411,
      "ue": 412,
      "ĠThe": 413,
      "Ġsh": 414,
      "Ġ1": 415,
      "us": 416,
      "all": 417,
      "Ġex": 418,
      "ĠP": 419,
      "Ġor": 420,
      "pl": 421,
      "ore": 422,
      "Ġat": 423,
      "ers": 424,
      "ist": 425,
      "ave": 426,
      "ort": 427,
      "self": 428,
      "end": 429,
      "):": 430,
      "ĠB": 431,
      "ĠH": 432,
      "Ġby": 433,
      "ould": 434,
      "ct": 435,
      "ight": 436,
      "``": 437,
      "our": 438,
      "op": 439,
      "),": 440,
      "ãģ": 441,
      "ĠW": 442,
      "ich": 443,
      "Ġ[": 444,
      "Ġk": 445,
      "td": 446,
      "',": 447,
      "'s": 448,
      "ust": 449,
      "lo": 450,
      "nt": 451,
      "Ġif": 452,
      "\",": 453,
      "Ġse": 454,
      "Ġfrom": 455,
      "Ġdef": 456,
      "ĠN": 457,
      "Ġhad": 458,
      "Ġ#": 459,
      "Ġall": 460,
      "the": 461,
      "Ġcom": 462,
      "ĠL": 463,
      "Ġare": 464,
      "art": 465,
      "one": 466,
      "ard": 467,
      "ine": 468,
      "Ġthis": 469,
      "Ġsu": 470,
      "ĠF": 471,
      "##": 472,
      "Ġher": 473,
      "os": 474,
      "Ġwe": 475,
      "Ġhave": 476,
      "out": 477,
      "ode": 478,
      "ĠĠĠĠĠĠĠĠĠĠĠĠĠĠĠ": 479,
      "Ġ{": 480,
      "Ġwhich": 481,
      "ang": 482,
      "\")": 483,
      "ew": 484,
      "iv": 485,
      "Ġch": 486,
      "ind": 487,
      "ant": 488,
      "Ġ_": 489,
      "con": 490,
      "urn": 491,
      "(\"": 492,
      "Ġwhe": 493,
      "ord": 494,
      "able": 495,
      "to": 496,
      "Ġme": 497,
      "()": 498,
      "Ġ<": 499,
      "assert": 500,
      "ple": 501,
      "ment": 502,
      "ity": 503,
      "ĠD": 504,
      "ure": 505,
      "ãĥ": 506,
      "ive": 507,
      "ib": 508,
      "Ġ,": 509,
      "Ġbut": 510,
      "Ġtr": 511,
      "cl": 512,
      "ok": 513,
      "ak": 514,
      "age": 515,
      "Ġpro": 516,
      "ell": 517,
      "ere": 518,
      "oug": 519,
      "Ġde": 520,
      "Ġus": 521,
      "sp": 522,
      "Ġ0": 523,
      "Ġso": 524,
      "ype": 525,
      "ult": 526,
      "Ġmy": 527,
      "Ġup": 528,
      "Ġhim": 529,
      "ace": 530,
      "ĠE": 531,
      "ack": 532,
      "Ġ-": 533,
      "ile": 534,
      "ĠR": 535,
      "ous": 536,
      "=\"": 537,
      "Ġle": 538,
      "ong": 539,
      "ĠĠĠĠĠ": 540,
      "Ġsa": 541,
      "Ġar": 542,
      "pp": 543,
      "Ġ.": 544,
      "ire": 545,
      "ast": 546,
      "are": 547,
      "----": 548,
      "ject": 549,
      "ĠG": 550,
      "Ġthey": 551,
      ".\"": 552,
      "Ġwill": 553,
      "ãĤ": 554,
      "Ġlo": 555,
      "for": 556,
      "av": 557,
      "ies": 558,
      "ome": 559,
      "ĠO": 560,
      "Ġdo": 561,
      "ext": 562,
      "ath": 563,
      "Ġcan": 564,
      "ound": 565,
      "ence": 566,
      "ime": 567,
      "The": 568,
      "Ġim": 569,
      "ions": 570,
      "ror": 571,
      "qual": 572,
      "ff": 573,
      "Ġman": 574,
      "ip": 575,
      "Ġ2": 576,
      "__": 577,
      "Ġsp": 578,
      "Ġshe": 579,
      "turn": 580,
      "ance": 581,
      "Ġone": 582,
      "Ġcl": 583,
      "ress": 584,
      "ern": 585,
      "ost": 586,
      "ated": 587,
      "Ġthem": 588,
      "ice": 589,
      "own": 590,
      "Ġstr": 591,
      "Ġwere": 592,
      "](": 593,
      "Ġtheir": 594,
      "ref": 595,
      "com": 596,
      "very": 597,
      "ob": 598,
      "><": 599,
      "per": 600,
      "Ġreturn": 601,
      "Ġout": 602,
      "alue": 603,
      "ther": 604,
      "eld": 605,
      "Ġ|": 606,
      "iz": 607,
      "Ġwho": 608,
      "Ġun": 609,
      "ud": 610,
      "Ġgo": 611,
      "}}": 612,
      "Ġab": 613,
      "ug": 614,
      "str": 615,
      "Ġno": 616,
      "ide": 617,
      "Ġen": 618,
      "arg": 619,
      "ps": 620,
      "ield": 621,
      "Ġtest": 622,
      "ake": 623,
      "Ġwhen": 624,
      "Ġpr": 625,
      ",\"": 626,
      "ear": 627,
      "ä¸": 628,
      "Ġ*": 629,
      "oll": 630,
      "ĠJ": 631,
      "Ġpl": 632,
      "itt": 633,
      "int": 634,
      "ĠTh": 635,
      "ough": 636,
      "ign": 637,
      "Ġj": 638,
      "ase": 639,
      "erv": 640,
      "port": 641,
      "Ġad": 642,
      "Ġel": 643,
      "ock": 644,
      "Ġob": 645,
      "ally": 646,
      "hed": 647,
      "Ġcont": 648,
      "ep": 649,
      "form": 650,
      "```": 651,
      "eb": 652,
      "cri": 653,
      "Ġsaid": 654,
      "name": 655,
      "ite": 656,
      "//": 657,
      "reat": 658,
      "ĠK": 659,
      "')": 660,
      "Ġmore": 661,
      "ais": 662,
      "get": 663,
      "act": 664,
      "Ġkn": 665,
      "ĠĊ": 666,
      "Ġwor": 667,
      "à¦": 668,
      "Equal": 669,
      "ail": 670,
      "ãĢ": 671,
      "ĠAnd": 672,
      "cc": 673,
      "ans": 674,
      "Ġhas": 675,
      "Ġres": 676,
      "Ġgr": 677,
      "'t": 678,
      "Ġwould": 679,
      "rror": 680,
      "ike": 681,
      "ll": 682,
      "ose": 683,
      "Ġany": 684,
      "sh": 685,
      "Ġdis": 686,
      "Ġbeen": 687,
      "etes": 688,
      "Ġother": 689,
      "></": 690,
      "0000": 691,
      "kub": 692,
      "ary": 693,
      "Ġbr": 694,
      "ernetes": 695,
      "Ġthere": 696,
      "Error": 697,
      "Ġag": 698,
      "ata": 699,
      "ck": 700,
      "ink": 701,
      "Ġev": 702,
      "ption": 703,
      "Ġne": 704,
      "\"\"": 705,
      "ss": 706,
      "old": 707,
      "eth": 708,
      "Ġyour": 709,
      "ï¼": 710,
      "ings": 711,
      "Ġass": 712,
      "Ġqu": 713,
      "doc": 714,
      "read": 715,
      "assertEqual": 716,
      "ents": 717,
      "ber": 718,
      "ev": 719,
      "Ġ)": 720,
      "ER": 721,
      "code": 722,
      "ach": 723,
      "ray": 724,
      "Ġset": 725,
      "ng": 726,
      "oy": 727,
      "ild": 728,
      "of": 729,
      "vers": 730,
      "ial": 731,
      "ond": 732,
      "ish": 733,
      "ition": 734,
      "not": 735,
      "set": 736,
      "type": 737,
      "gr": 738,
      "ict": 739,
      "ction": 740,
      "ely": 741,
      "ener": 742,
      "._": 743,
      "Ġthan": 744,
      "way": 745,
      "ick": 746,
      "ĠU": 747,
      "Ġinto": 748,
      "Ġour": 749,
      "ied": 750,
      "çļ": 751,
      "çļĦ": 752,
      "Ġtime": 753,
      "))": 754,
      "irst": 755,
      "fter": 756,
      "Ġ{{": 757,
      "Ġsome": 758,
      "Ġshould": 759,
      "Ġ3": 760,
      "ious": 761,
      "ark": 762,
      "atch": 763,
      "docs": 764,
      "Ġonly": 765,
      "ade": 766,
      "aw": 767,
      "**": 768,
      "ĠHe": 769,
      "up": 770,
      "Ġam": 771,
      "Ġper": 772,
      "ĠIt": 773,
      "ount": 774,
      "ory": 775,
      "Ġits": 776,
      "fer": 777,
      "://": 778,
      "ful": 779,
      "pro": 780,
      "PI": 781,
      "ont": 782,
      "ree": 783,
      "Ġmay": 784,
      "ault": 785,
      "Ġover": 786,
      "Ġpre": 787,
      "ãĢĤ": 788,
      "so": 789,
      "Ġtw": 790,
      "ia": 791,
      "Ġname": 792,
      "ĠĠĠĠĠĠĠĠĠĠĠĠĠĠĠĠĠĠĠ": 793,
      "put": 794,
      "ows": 795,
      "Ġsc": 796,
      "ĠIn": 797,
      "key": 798,
      "],": 799,
      "ry": 800,
      "pr": 801,
      "other": 802,
      "Ġwhat": 803,
      "In": 804,
      "app": 805,
      "fo": 806,
      "Ġ>": 807,
      "tps": 808,
      "we": 809,
      "Ġì": 810,
      "Ġdes": 811,
      "\")}}": 812,
      "ens": 813,
      "Ġget": 814,
      "Ġpart": 815,
      "Ġnow": 816,
      "Ġlike": 817,
      "use": 818,
      "ĠV": 819,
      "IN": 820,
      "\":": 821,
      "Ġthen": 822,
      "Ġfe": 823,
      "ient": 824,
      "cript": 825,
      "nder": 826,
      "quest": 827,
      "ie": 828,
      "Ġro": 829,
      "ations": 830,
      "Ġsee": 831,
      "ge": 832,
      "cept": 833,
      "ĠĠĠĠĠĠĠĠĠĠĠĠĠĠĠĠĠĠĠĠĠĠĠĠĠĠĠĠĠĠĠĠ": 834,
      "red": 835,
      "iss": 836,
      "](/": 837,
      "US": 838,
      "ize": 839,
      "?\"": 840,
      "ook": 841,
      "hat": 842,
      "Ġvery": 843,
      "Ġbl": 844,
      "ange": 845,
      "ample": 846,
      "ix": 847,
      "cont": 848,
      "ĠĠĠĠĠĠ": 849,
      "ittle": 850,
      "Ġmust": 851,
      "anc": 852,
      "--------": 853,
      "ning": 854,
      "Ġcould": 855,
      "ource": 856,
      "Ġvalue": 857,
      "Ġ:": 858,
      "Ġgreat": 859,
      "Ġ\"\"\"": 860,
      "par": 861,
      "ax": 862,
      "ty": 863,
      "ise": 864,
      "alse": 865,
      "fig": 866,
      "Ġfl": 867,
      "Ġfirst": 868,
      "\">": 869,
      "io": 870,
      "uch": 871,
      "Ġcall": 872,
      "ĠNone": 873,
      "Ġlook": 874,
      "Ġhand": 875,
      "_.": 876,
      "odel": 877,
      "ought": 878,
      "Ġrem": 879,
      "Ġpo": 880,
      "Ġnew": 881,
      "('": 882,
      "hen": 883,
      "ody": 884,
      "man": 885,
      "Ġabout": 886,
      "Ġafter": 887,
      "Ġpass": 888,
      "test": 889,
      "oth": 890,
      "Ġexp": 891,
      "ather": 892,
      "AL": 893,
      "Ġunt": 894,
      "Ġcol": 895,
      "ors": 896,
      "ï¼Į": 897,
      "Ġdid": 898,
      "Ġupon": 899,
      "Ġap": 900,
      "ne": 901,
      "ward": 902,
      "Ġobject": 903,
      "Ġcomm": 904,
      "wn": 905,
      "val": 906,
      "https": 907,
      "led": 908,
      "Ġagain": 909,
      "Ġthr": 910,
      "Ġbec": 911,
      "Ġ@": 912,
      "ames": 913,
      "line": 914,
      "Ġhow": 915,
      "min": 916,
      "over": 917,
      "Ġwr": 918,
      "ĠThis": 919,
      "Ġassert": 920,
      "Ġlittle": 921,
      "Ġthese": 922,
      ").": 923,
      "'d": 924,
      "Ġform": 925,
      "ĠIf": 926,
      "Ġuse": 927,
      "TT": 928,
      "og": 929,
      "Ġknow": 930,
      "Ġsuch": 931,
      "Ġmen": 932,
      "Ġind": 933,
      "ood": 934,
      "Ġtwo": 935,
      "ife": 936,
      "ific": 937,
      "ubernetes": 938,
      "Ġimport": 939,
      "Ġadd": 940,
      "te": 941,
      "ĠY": 942,
      "rue": 943,
      "def": 944,
      "class": 945,
      "fore": 946,
      "Ġwork": 947,
      "trib": 948,
      "reate": 949,
      "odu": 950,
      "ement": 951,
      "Ġsy": 952,
      "Ġinter": 953,
      "Ġlist": 954,
      "Ġday": 955,
      "Ġspec": 956,
      "xref": 957,
      "])": 958,
      "Ġnp": 959,
      "air": 960,
      "heck": 961,
      "..": 962,
      "ON": 963,
      "path": 964,
      "Ġback": 965,
      "ĠSt": 966,
      "Ġwhere": 967,
      "uth": 968,
      "âĢ": 969,
      "ars": 970,
      "Ġshall": 971,
      "Ġgood": 972,
      "plic": 973,
      "Ġcomp": 974,
      "les": 975,
      "ered": 976,
      "Ġpe": 977,
      "ause": 978,
      "br": 979,
      "ons": 980,
      "Ġsay": 981,
      "ian": 982,
      "elect": 983,
      "Ġ('": 984,
      "erver": 985,
      "Ġbefore": 986,
      "tribut": 987,
      "enc": 988,
      "Ġapp": 989,
      "Ġmade": 990,
      "be": 991,
      "iew": 992,
      "Ġoff": 993,
      "ness": 994,
      "add": 995,
      "ĠBut": 996,
      "Ġsub": 997,
      "Ġdown": 998,
      "Ġsupp": 999,
      "ask": 1000,
      "Ġ4": 1001,
      "from": 1002,
      "AR": 1003,
      "Ġend": 1004,
      "dom": 1005,
      "atter": 1006,
      "Ġlong": 1007,
      "ĠMr": 1008,
      "cess": 1009,
      "Ġbet": 1010,
      "Ġway": 1011,
      "ove": 1012,
      "Ġhead": 1013,
      "ft": 1014,
      "Ġown": 1015,
      "Ġpos": 1016,
      "ĠCh": 1017,
      "file": 1018,
      "hes": 1019,
      "Ġword": 1020,
      "aises": 1021,
      "ollow": 1022,
      "ily": 1023,
      "object": 1024,
      "ä»": 1025,
      "Ġold": 1026,
      "ull": 1027,
      "01": 1028,
      "py": 1029,
      "oun": 1030,
      "Web": 1031,
      "by": 1032,
      "with": 1033,
      "ait": 1034,
      "Ġ</": 1035,
      "Ġmake": 1036,
      "Ġinst": 1037,
      "ument": 1038,
      "ues": 1039,
      "ork": 1040,
      "!--": 1041,
      "Ġ+": 1042,
      "sc": 1043,
      "ä½": 1044,
      "OR": 1045,
      "Ġmuch": 1046,
      "Ġarg": 1047,
      "ervice": 1048,
      "Ġsm": 1049,
      "Ġevery": 1050,
      "Ġalso": 1051,
      "Ġval": 1052,
      "{{": 1053,
      "ible": 1054,
      "Ġunder": 1055,
      "umber": 1056,
      "ates": 1057,
      "Ġop": 1058,
      "Ġclass": 1059,
      "less": 1060,
      "ical": 1061,
      "ìĿ": 1062,
      "igh": 1063,
      "error": 1064,
      "ater": 1065,
      "Ġacc": 1066,
      "Ġfield": 1067,
      "ead": 1068,
      "Ġmost": 1069,
      "version": 1070,
      "field": 1071,
      "Ġread": 1072,
      "ery": 1073,
      "wr": 1074,
      "ik": 1075,
      "Ġthose": 1076,
      "pert": 1077,
      "Ġeven": 1078,
      "åĪ": 1079,
      "der": 1080,
      "ved": 1081,
      "SS": 1082,
      "wh": 1083,
      "eng": 1084,
      "Ġbre": 1085,
      "ouse": 1086,
      "Ġfun": 1087,
      "Ġ--": 1088,
      "ature": 1089,
      "Ġrun": 1090,
      "!\"": 1091,
      "ren": 1092,
      "Ġpres": 1093,
      "åı": 1094,
      "Ġwell": 1095,
      "word": 1096,
      "AT": 1097,
      "ection": 1098,
      "Ġsec": 1099,
      "Ġcr": 1100,
      "Ġrequest": 1101,
      "Ġpar": 1102,
      "erence": 1103,
      "orm": 1104,
      "Ġcontain": 1105,
      "ired": 1106,
      "ĠKubernetes": 1107,
      "his": 1108,
      "Ġused": 1109,
      "Ġsame": 1110,
      "Ġcons": 1111,
      "ĠPod": 1112,
      "API": 1113,
      "arn": 1114,
      "array": 1115,
      "Ġfollow": 1116,
      "Ġdec": 1117,
      "ĠĠĠĠĠĠĠĠĠĠĠĠĠĠĠĠĠĠĠĠĠĠĠĠ": 1118,
      "ool": 1119,
      "kubernetes": 1120,
      "its": 1121,
      "':": 1122,
      "ower": 1123,
      "Ġrel": 1124,
      "ethod": 1125,
      "ual": 1126,
      "vel": 1127,
      "Ġsl": 1128,
      "Ġint": 1129,
      "Ġlet": 1130,
      "ared": 1131,
      "Ġem": 1132,
      "su": 1133,
      "å®": 1134,
      "ml": 1135,
      "Ġfr": 1136,
      "ah": 1137,
      "Ġtype": 1138,
      "Ġthrough": 1139,
      "Ġ5": 1140,
      "Ġrais": 1141,
      "gg": 1142,
      "Ġbeing": 1143,
      "assertR": 1144,
      "<!--": 1145,
      "Ġelse": 1146,
      "RE": 1147,
      "Ġbu": 1148,
      "aug": 1149,
      "Ġmight": 1150,
      "that": 1151,
      "10": 1152,
      "ST": 1153,
      "æľ": 1154,
      "aint": 1155,
      "ople": 1156,
      "ever": 1157,
      "ope": 1158,
      "çĶ": 1159,
      "Ġ%": 1160,
      "12": 1161,
      "'),": 1162,
      "fl": 1163,
      "ator": 1164,
      "dir": 1165,
      "ves": 1166,
      "value": 1167,
      "ret": 1168,
      "Ġë": 1169,
      "oup": 1170,
      "Ġ==": 1171,
      "Ġcame": 1172,
      "js": 1173,
      "Ġresp": 1174,
      "Ġwithout": 1175,
      "args": 1176,
      "Ġnever": 1177,
      "Ġke": 1178,
      "Ġcome": 1179,
      "irect": 1180,
      "pos": 1181,
      "Ġdif": 1182,
      "Ġbel": 1183,
      "ected": 1184,
      "Ġatt": 1185,
      "Ġmany": 1186,
      "ines": 1187,
      "Ġjust": 1188,
      "ee": 1189,
      "troll": 1190,
      "Ġyear": 1191,
      "Ġac": 1192,
      "elet": 1193,
      "Ġ/": 1194,
      "Con": 1195,
      "ating": 1196,
      "assertRaises": 1197,
      "ters": 1198,
      "####": 1199,
      "Ġcur": 1200,
      "Ġhere": 1201,
      "ms": 1202,
      "ãĥ¼": 1203,
      "Ġey": 1204,
      "vent": 1205,
      "Ġent": 1206,
      "Ġrec": 1207,
      "ments": 1208,
      "Ġthink": 1209,
      "Ġ->": 1210,
      "orn": 1211,
      "ĠFor": 1212,
      "ures": 1213,
      "ream": 1214,
      "alk": 1215,
      "Ġdefault": 1216,
      "ular": 1217,
      "Ġline": 1218,
      "Ġgl": 1219,
      "den": 1220,
      "ither": 1221,
      "Ġtoo": 1222,
      "Ref": 1223,
      "St": 1224,
      "sl": 1225,
      "Ġresult": 1226,
      "ari": 1227,
      "Ġlast": 1228,
      "hing": 1229,
      "íķ": 1230,
      "Ġchild": 1231,
      "Ġseem": 1232,
      "Test": 1233,
      "oint": 1234,
      "åĲ": 1235,
      "az": 1236,
      ",--": 1237,
      "ble": 1238,
      "Ġeach": 1239,
      "bsp": 1240,
      "Ġkey": 1241,
      "Ġdr": 1242,
      "Ġfound": 1243,
      "ape": 1244,
      "ier": 1245,
      "ages": 1246,
      "([": 1247,
      "und": 1248,
      "try": 1249,
      "Ġfile": 1250,
      "Ġreg": 1251,
      "`.": 1252,
      "ins": 1253,
      "ting": 1254,
      "Ġthou": 1255,
      "body": 1256,
      "ility": 1257,
      "ale": 1258,
      "amet": 1259,
      "Ġkub": 1260,
      "###": 1261,
      "inst": 1262,
      "And": 1263,
      "Ġpeople": 1264,
      "fil": 1265,
      "nbsp": 1266,
      "ĠĠĠĠĠĠĠĠĠĠĠĠĠĠĠĠĠĠĠĠĠĠĠ": 1267,
      "domxref": 1268,
      "col": 1269,
      "EN": 1270,
      "None": 1271,
      "uct": 1272,
      "Ġthy": 1273,
      "ph": 1274,
      "Ġact": 1275,
      "Ġdoc": 1276,
      "ectl": 1277,
      "mer": 1278,
      "Ġstart": 1279,
      "ank": 1280,
      "ices": 1281,
      "Ġstill": 1282,
      "arri": 1283,
      "Ex": 1284,
      "inter": 1285,
      "ished": 1286,
      "ox": 1287,
      "ative": 1288,
      "Ġ}": 1289,
      "Ġsom": 1290,
      "Ġlife": 1291,
      "clud": 1292,
      "api": 1293,
      "time": 1294,
      "zz": 1295,
      "ened": 1296,
      "apt": 1297,
      "fun": 1298,
      "aut": 1299,
      "20": 1300,
      "Ġwhile": 1301,
      "ĠShe": 1302,
      "çĶ¨": 1303,
      "press": 1304,
      "any": 1305,
      "Ġdata": 1306,
      "Ġthought": 1307,
      "ling": 1308,
      "imit": 1309,
      "Ġbeg": 1310,
      "onse": 1311,
      "als": 1312,
      "aster": 1313,
      "Ġgener": 1314,
      "load": 1315,
      "ined": 1316,
      "LE": 1317,
      "hy": 1318,
      "Ġtry": 1319,
      ".__": 1320,
      "-->": 1321,
      "olic": 1322,
      "ify": 1323,
      "imes": 1324,
      "riend": 1325,
      ">>": 1326,
      "Type": 1327,
      "sy": 1328,
      "ãģ®": 1329,
      "ĠWe": 1330,
      "Ġsupport": 1331,
      "True": 1332,
      "Ġyet": 1333,
      "empl": 1334,
      "Ġdoes": 1335,
      "Ġ**": 1336,
      "Ġneed": 1337,
      "è¯": 1338,
      "Ġx": 1339,
      "Ġ'\\": 1340,
      "_,": 1341,
      "fe": 1342,
      "It": 1343,
      "ways": 1344,
      "ek": 1345,
      "string": 1346,
      "met": 1347,
      "Ġtext": 1348,
      "ash": 1349,
      "work": 1350,
      "Ġmem": 1351,
      "aking": 1352,
      "land": 1353,
      "nc": 1354,
      "ĠAPI": 1355,
      "uster": 1356,
      "aid": 1357,
      "30": 1358,
      "ides": 1359,
      "ces": 1360,
      "ote": 1361,
      "00000000": 1362,
      "Ġarray": 1363,
      "list": 1364,
      "è¿": 1365,
      "data": 1366,
      "Ġ>>>": 1367,
      "fr": 1368,
      "ason": 1369,
      "Ġid": 1370,
      "åħ": 1371,
      "amp": 1372,
      "Ġright": 1373,
      "ĠĠĠĠĠĠĠĠĠ": 1374,
      "Ġraise": 1375,
      "Ġtake": 1376,
      "els": 1377,
      "here": 1378,
      "arr": 1379,
      "Ġstring": 1380,
      "ithub": 1381,
      "Ġchar": 1382,
      "Ġplace": 1383,
      "000": 1384,
      "troller": 1385,
      "github": 1386,
      "Ġ6": 1387,
      "Ġusing": 1388,
      "Ġcour": 1389,
      "spec": 1390,
      "Ġbecause": 1391,
      "ween": 1392,
      "ced": 1393,
      "ner": 1394,
      "ince": 1395,
      "eg": 1396,
      "side": 1397,
      "Ġwant": 1398,
      "Ġear": 1399,
      "Ġprov": 1400,
      "text": 1401,
      "Ġgu": 1402,
      "Cl": 1403,
      "`,": 1404,
      "Ġpropert": 1405,
      "Ġaway": 1406,
      "arch": 1407,
      "Ġdet": 1408,
      "ĠLE": 1409,
      "Ġserver": 1410,
      "Ġter": 1411,
      "ĠThey": 1412,
      "äº": 1413,
      "Ġnumber": 1414,
      "'ll": 1415,
      "Is": 1416,
      "Ġcoun": 1417,
      "my": 1418,
      "ploy": 1419,
      "Ġunto": 1420,
      "Ġexample": 1421,
      "most": 1422,
      "ĠÐ": 1423,
      "mb": 1424,
      "Ġgiv": 1425,
      "comp": 1426,
      "ained": 1427,
      "ĠGod": 1428,
      "Ġsim": 1429,
      "back": 1430,
      "ane": 1431,
      "create": 1432,
      "li": 1433,
      "Ġfind": 1434,
      ");": 1435,
      "-@": 1436,
      "Ġdist": 1437,
      "ently": 1438,
      "Ġ19": 1439,
      "Ġ@-@": 1440,
      "TH": 1441,
      "table": 1442,
      "option": 1443,
      "à§": 1444,
      "Ġdel": 1445,
      "Ġask": 1446,
      "Ġsty": 1447,
      "sub": 1448,
      "Ġmethod": 1449,
      "valid": 1450,
      "ãģĻ": 1451,
      "she": 1452,
      "Ġappe": 1453,
      "Ġfriend": 1454,
      "me": 1455,
      "Ġboth": 1456,
      "Ġhimself": 1457,
      "ross": 1458,
      "Ġext": 1459,
      "sel": 1460,
      "Ġwent": 1461,
      "Ġdiffer": 1462,
      "ID": 1463,
      "Ġcert": 1464,
      "But": 1465,
      "size": 1466,
      "uring": 1467,
      "aving": 1468,
      "Ġbreak": 1469,
      "Ġmin": 1470,
      "Ðµ": 1471,
      "Ġå": 1472,
      "Ġspe": 1473,
      "Ġelement": 1474,
      "ume": 1475,
      "ased": 1476,
      "='": 1477,
      "but": 1478,
      "no": 1479,
      "ples": 1480,
      "arge": 1481,
      "ED": 1482,
      "Ġthee": 1483,
      "ains": 1484,
      "TTER": 1485,
      "ĠTo": 1486,
      "IG": 1487,
      "lp": 1488,
      "ted": 1489,
      "import": 1490,
      "sw": 1491,
      "Ġcode": 1492,
      "ified": 1493,
      "==": 1494,
      "TM": 1495,
      "Ġworld": 1496,
      "Ġrequ": 1497,
      "view": 1498,
      "itle": 1499,
      "ĠLETTER": 1500,
      "aim": 1501,
      "ton": 1502,
      "Ġeyes": 1503,
      ";&": 1504,
      "iter": 1505,
      "Ġhouse": 1506,
      "stem": 1507,
      "objects": 1508,
      "ci": 1509,
      "hn": 1510,
      "Ġmind": 1511,
      "lose": 1512,
      "64": 1513,
      "rent": 1514,
      "Ġpers": 1515,
      "Ġ__": 1516,
      "Ġanother": 1517,
      "He": 1518,
      "oin": 1519,
      "Ġturn": 1520,
      "Ġcontin": 1521,
      "ived": 1522,
      "Ġbetween": 1523,
      "oman": 1524,
      "arent": 1525,
      "odule": 1526,
      "\"),": 1527,
      "Ġwar": 1528,
      "Ġbeh": 1529,
      "ven": 1530,
      "Ġdon": 1531,
      "ccess": 1532,
      "bu": 1533,
      "Ġcheck": 1534,
      "Ġexcept": 1535,
      "Reference": 1536,
      "Ġposs": 1537,
      "IC": 1538,
      "ãĢģ": 1539,
      "Ġcalled": 1540,
      "Ġfunction": 1541,
      "pec": 1542,
      "Ġsur": 1543,
      "Ġpod": 1544,
      "Ġalways": 1545,
      "Ġagainst": 1546,
      "ĠEx": 1547,
      "ength": 1548,
      "dis": 1549,
      "ases": 1550,
      "imal": 1551,
      "Ġheart": 1552,
      "thon": 1553,
      "Ġ10": 1554,
      "Ġos": 1555,
      "med": 1556,
      "Ġsign": 1557,
      "Ġyoung": 1558,
      "Ġgive": 1559,
      "run": 1560,
      "Ġbo": 1561,
      "Ġonce": 1562,
      "Ġcre": 1563,
      "Ġfar": 1564,
      "Ġ8": 1565,
      "Ġfin": 1566,
      "Ġnor": 1567,
      "ider": 1568,
      "Ġstate": 1569,
      "ubl": 1570,
      "Ġever": 1571,
      "olicy": 1572,
      "19": 1573,
      "You": 1574,
      "Ġnear": 1575,
      "empt": 1576,
      "ersion": 1577,
      "If": 1578,
      "equal": 1579,
      "Ġple": 1580,
      "(),": 1581,
      "Cont": 1582,
      "Ġæ": 1583,
      "Ġdirect": 1584,
      "Ġrep": 1585,
      "Ġtrue": 1586,
      "ey": 1587,
      "yp": 1588,
      "owed": 1589,
      "ĠCon": 1590,
      "ken": 1591,
      "thing": 1592,
      "Ġ>}}": 1593,
      "ities": 1594,
      "Ġput": 1595,
      "Ġnight": 1596,
      "uthor": 1597,
      "ĠAl": 1598,
      "Ġkind": 1599,
      "kubectl": 1600,
      "ustom": 1601,
      "Ġthree": 1602,
      "AN": 1603,
      "ĠTrue": 1604,
      "tes": 1605,
      "ĠAs": 1606,
      "oud": 1607,
      "Ġfil": 1608,
      "Ġlove": 1609,
      "Ġfail": 1610,
      "ache": 1611,
      "lob": 1612,
      "ized": 1613,
      "OM": 1614,
      "Ġlight": 1615,
      "aps": 1616,
      "Ġleft": 1617,
      "comm": 1618,
      "Ġface": 1619,
      "Ġvis": 1620,
      "ĠBr": 1621,
      "Ġtell": 1622,
      "Ġdone": 1623,
      "ĠAn": 1624,
      "Ġpoint": 1625,
      "Ġerror": 1626,
      "Ġsing": 1627,
      "Ġrest": 1628,
      "alueError": 1629,
      "call": 1630,
      "iet": 1631,
      "model": 1632,
      "ĠYou": 1633,
      "date": 1634,
      "è®": 1635,
      "Ġscript": 1636,
      "igin": 1637,
      "ĠThere": 1638,
      "ĠWhen": 1639,
      "Ġopen": 1640,
      "Ġfather": 1641,
      "Ġdtype": 1642,
      "adata": 1643,
      "Ġref": 1644,
      "html": 1645,
      "Ġdisc": 1646,
      "TTP": 1647,
      "Ġstyle": 1648,
      "Ġthough": 1649,
      "Ġinclud": 1650,
      "ãĤĴ": 1651,
      "bar": 1652,
      "ched": 1653,
      "ru": 1654,
      "---": 1655,
      "Ġuser": 1656,
      "pre": 1657,
      "ten": 1658,
      "essage": 1659,
      "place": 1660,
      "\"]": 1661,
      "Version": 1662,
      "ser": 1663,
      "Ġi": 1664,
      "Ġsk": 1665,
      "Ġfam": 1666,
      "Ġorder": 1667,
      "ended": 1668,
      "False": 1669,
      "Ġconn": 1670,
      "Ġuntil": 1671,
      "This": 1672,
      "css": 1673,
      "was": 1674,
      "Ã©": 1675,
      "ĠâĢ": 1676,
      "Ġcle": 1677,
      "ute": 1678,
      "Ġeff": 1679,
      "ĭ¤": 1680,
      "Ġcase": 1681,
      "Ġpath": 1682,
      "Ġthings": 1683,
      "Ġenc": 1684,
      "Ġvalues": 1685,
      "part": 1686,
      "ually": 1687,
      "Ġprot": 1688,
      "Ġz": 1689,
      "item": 1690,
      "ĠThat": 1691,
      "bl": 1692,
      "Ġ7": 1693,
      "Ġco": 1694,
      "ives": 1695,
      "serv": 1696,
      "log": 1697,
      "Ġcor": 1698,
      "Ġhapp": 1699,
      "iron": 1700,
      "ocal": 1701,
      "ants": 1702,
      "akes": 1703,
      "ocket": 1704,
      "Ġyears": 1705,
      "check": 1706,
      "Ġav": 1707,
      "info": 1708,
      "ited": 1709,
      "ception": 1710,
      "Ġnothing": 1711,
      "span": 1712,
      "bed": 1713,
      "Ġstand": 1714,
      "iness": 1715,
      "Ġocc": 1716,
      "let": 1717,
      "25": 1718,
      "34": 1719,
      "head": 1720,
      "Ġnext": 1721,
      "ager": 1722,
      "Ġsaw": 1723,
      "Ġà¦": 1724,
      "ĠWh": 1725,
      "alf": 1726,
      "Ġart": 1727,
      "ĠJo": 1728,
      "Ġevent": 1729,
      "ãĥ¼ãĥ": 1730,
      "miss": 1731,
      "ä¸ª": 1732,
      "{{<": 1733,
      "32": 1734,
      "ements": 1735,
      "Ġfollowing": 1736,
      "EL": 1737,
      "rem": 1738,
      "----------------": 1739,
      "Ġpresent": 1740,
      "Ġsent": 1741,
      "Ġserv": 1742,
      "stand": 1743,
      "aces": 1744,
      "riv": 1745,
      "ured": 1746,
      "div": 1747,
      "Ġmet": 1748,
      "Ġmod": 1749,
      "lect": 1750,
      "tern": 1751,
      "opy": 1752,
      "plement": 1753,
      "ptions": 1754,
      "ä¸Ģ": 1755,
      "rist": 1756,
      "Ġwhom": 1757,
      "ĠFalse": 1758,
      ".,": 1759,
      "To": 1760,
      "iver": 1761,
      "Ġwind": 1762,
      "tribute": 1763,
      "Ġcontr": 1764,
      "Ġ18": 1765,
      "uck": 1766,
      "abel": 1767,
      "pace": 1768,
      "ense": 1769,
      "Ġfew": 1770,
      "Ġgre": 1771,
      "ĠWhat": 1772,
      "Ġhigh": 1773,
      "ĠHow": 1774,
      "wrap": 1775,
      "gener": 1776,
      "Ð¾": 1777,
      ".</": 1778,
      "Ġaff": 1779,
      "ĠAt": 1780,
      "Ġexc": 1781,
      "ething": 1782,
      "Ġmo": 1783,
      "Ġ``": 1784,
      "Ġsw": 1785,
      "elt": 1786,
      "context": 1787,
      "dd": 1788,
      "Ġmer": 1789,
      "Ġhum": 1790,
      "Ġconfig": 1791,
      "atic": 1792,
      "attr": 1793,
      "ird": 1794,
      "order": 1795,
      "Ġcannot": 1796,
      "plication": 1797,
      "names": 1798,
      "oot": 1799,
      "Ġport": 1800,
      "Ġrefer": 1801,
      "Ġtrans": 1802,
      "selves": 1803,
      ".'": 1804,
      "We": 1805,
      "de": 1806,
      "åĬ": 1807,
      "Ġreturned": 1808,
      "Ġselect": 1809,
      "Ġpur": 1810,
      "Ġ[`": 1811,
      "Ġseen": 1812,
      "gether": 1813,
      "Ġcond": 1814,
      "plied": 1815,
      "ulti": 1816,
      "cription": 1817,
      "Ġdocument": 1818,
      "row": 1819,
      "title": 1820,
      "oub": 1821,
      "ided": 1822,
      "ĠAr": 1823,
      "Ġsmall": 1824,
      "CE": 1825,
      "Ġmodel": 1826,
      "ĠPar": 1827,
      "Ġkeep": 1828,
      "emplate": 1829,
      "Not": 1830,
      "Script": 1831,
      "day": 1832,
      "tbody": 1833,
      "ç»": 1834,
      "HE": 1835,
      "np": 1836,
      "ources": 1837,
      "aken": 1838,
      "Ġdev": 1839,
      "xy": 1840,
      "ÑĤ": 1841,
      "Ġ9": 1842,
      "Ġte": 1843,
      "Ġtri": 1844,
      "Ġaw": 1845,
      "Ġser": 1846,
      "ĠĠĠĠĠĠĠĠĠĠ": 1847,
      "Ġfell": 1848,
      "__(": 1849,
      "At": 1850,
      "cle": 1851,
      "ls": 1852,
      "script": 1853,
      "init": 1854,
      "Ġside": 1855,
      "Ġmon": 1856,
      "Ġthing": 1857,
      "cur": 1858,
      "orage": 1859,
      "AA": 1860,
      "Pod": 1861,
      "[\"": 1862,
      "ler": 1863,
      "ister": 1864,
      "ready": 1865,
      "Ġamong": 1866,
      "ibility": 1867,
      "Ġbetter": 1868,
      "åľ": 1869,
      "Ġinform": 1870,
      "ady": 1871,
      "Ġwhole": 1872,
      "ns": 1873,
      "Ġsil": 1874,
      "Ġgot": 1875,
      "AB": 1876,
      "ĠQ": 1877,
      "Ġcreate": 1878,
      "Ġhelp": 1879,
      "oly": 1880,
      "ä¸º": 1881,
      "TML": 1882,
      "height": 1883,
      "uration": 1884,
      "15": 1885,
      "ma": 1886,
      "ats": 1887,
      "atus": 1888,
      "Ġview": 1889,
      "ĠEng": 1890,
      "Ġdifferent": 1891,
      "Name": 1892,
      "off": 1893,
      "point": 1894,
      "Ġpower": 1895,
      "Ġtook": 1896,
      "true": 1897,
      "Ġ12": 1898,
      "used": 1899,
      "owser": 1900,
      "Re": 1901,
      "Ġexist": 1902,
      "/)": 1903,
      "ger": 1904,
      "reg": 1905,
      "ĠThen": 1906,
      "%;": 1907,
      "Field": 1908,
      "Ġless": 1909,
      "amb": 1910,
      "wards": 1911,
      "ET": 1912,
      "aff": 1913,
      "Ġet": 1914,
      "amples": 1915,
      "ceed": 1916,
      "Ġye": 1917,
      "Ġhard": 1918,
      "Ġnames": 1919,
      "Ġcertain": 1920,
      "like": 1921,
      "Ġbest": 1922,
      "start": 1923,
      "Ġland": 1924,
      "Ġansw": 1925,
      "unt": 1926,
      "ĠNo": 1927,
      "Ġwords": 1928,
      "Ġcharac": 1929,
      "uc": 1930,
      "Ġaut": 1931,
      "Ġbody": 1932,
      "Ġfull": 1933,
      "play": 1934,
      "content": 1935,
      "default": 1936,
      "TE": 1937,
      "Ġcare": 1938,
      "Ġht": 1939,
      "ending": 1940,
      "Ġking": 1941,
      "Ġproperty": 1942,
      "Ġsat": 1943,
      "ately": 1944,
      "Ġwater": 1945,
      "ably": 1946,
      "ush": 1947,
      "****": 1948,
      "Ġcommand": 1949,
      "which": 1950,
      "ployment": 1951,
      "æĪ": 1952,
      "Ġax": 1953,
      "ann": 1954,
      "ãĥ³": 1955,
      "ä¸Ń": 1956,
      "Ġhour": 1957,
      "amed": 1958,
      "ĠSee": 1959,
      "Ġsecond": 1960,
      "bject": 1961,
      "oice": 1962,
      "uid": 1963,
      "you": 1964,
      "Ġoper": 1965,
      "Ġsure": 1966,
      "Ġexpress": 1967,
      "Ġcurrent": 1968,
      "`](/": 1969,
      "men": 1970,
      "Ġsize": 1971,
      "ams": 1972,
      "resp": 1973,
      "è¡": 1974,
      "requ": 1975,
      "aml": 1976,
      "ainer": 1977,
      "ops": 1978,
      "ameters": 1979,
      "Ġgiven": 1980,
      "md": 1981,
      "tp": 1982,
      "idth": 1983,
      "refore": 1984,
      "foo": 1985,
      "AD": 1986,
      "uple": 1987,
      "16": 1988,
      "sec": 1989,
      "Ġes": 1990,
      "Ġconf": 1991,
      "Ġobjects": 1992,
      "Ð¸": 1993,
      "Ġinc": 1994,
      "dev": 1995,
      "pk": 1996,
      "web": 1997,
      "ics": 1998,
      "los": 1999,
      "åº": 2000,
      "Ġbook": 2001,
      "Ġplay": 2002,
      "tle": 2003,
      "ëĭ¤": 2004,
      "Ġversion": 2005,
      "Ġwithin": 2006,
      "assertIs": 2007,
      "pport": 2008,
      "IL": 2009,
      "ached": 2010,
      "Ġposition": 2011,
      "ìĿ´": 2012,
      "Ġcourse": 2013,
      "dict": 2014,
      "rc": 2015,
      "viron": 2016,
      "Ġsince": 2017,
      "ĠĠĠĠĠĠĠĠĠĠĠĠĠ": 2018,
      "olume": 2019,
      "ĠPy": 2020,
      "Ġchildren": 2021,
      "AM": 2022,
      "ged": 2023,
      "kn": 2024,
      "max": 2025,
      "Ġbro": 2026,
      "ution": 2027,
      "urity": 2028,
      "ãģ¾": 2029,
      "client": 2030,
      "metadata": 2031,
      "hand": 2032,
      "ets": 2033,
      "Ġrece": 2034,
      "Ġ```": 2035,
      "ãģ«": 2036,
      "count": 2037,
      "Ġyang": 2038,
      "ALL": 2039,
      "ief": 2040,
      "pod": 2041,
      "18": 2042,
      "Ġfact": 2043,
      "ĠJohn": 2044,
      "Res": 2045,
      "ior": 2046,
      "hel": 2047
    },
    "merges": [
      [
        "Ġ",
        "Ġ"
      ],
      [
        "ĠĠ",
        "ĠĠ"
      ],
      [
        "Ġ",
        "t"
      ],
      [
        "h",
        "e"
      ],
      [
        "Ġ",
        "a"
      ],
      [
        "i",
        "n"
      ],
      [
        "e",
        "r"
      ],
      [
        "č",
        "Ċ"
      ],
      [
        "Ġ",
        "s"
      ],
      [
        "r",
        "e"
      ],
      [
        "Ġt",
        "he"
      ],
      [
        "o",
        "n"
      ],
      [
        "a",
        "t"
      ],
      [
        "Ġ",
        "w"
      ],
      [
        "e",
        "n"
      ],
      [
        "ĠĠ",
        "Ġ"
      ],
      [
        "Ġ",
        "o"
      ],
      [
        "e",
        "s"
      ],
      [
        "i",
        "s"
      ],
      [
        "o",
        "r"
      ],
      [
        "i",
        "t"
      ],
      [
        "n",
        "d"
      ],
      [
        "e",
        "d"
      ],
      [
        "Ġ",
        "c"
      ],
      [
        "ĠĠĠĠ",
        "ĠĠĠĠ"
      ],
      [
        "Ġ",
        "b"
      ],
      [
        "o",
        "u"
      ],
      [
        "Ġ",
        "f"
      ],
      [
        "a",
        "r"
      ],
      [
        "Ġ",
        "m"
      ],
      [
        "e",
        "l"
      ],
      [
        "a",
        "n"
      ],
      [
        "a",
        "l"
      ],
      [
        "in",
        "g"
      ],
      [
        "Ġ",
        "d"
      ],
      [
        "a",
        "s"
      ],
      [
        "Ġ",
        "h"
      ],
      [
        "Ġo",
        "f"
      ],
      [
        "Ġ",
        "p"
      ],
      [
        "Ġt",
        "o"
      ],
      [
        "l",
        "e"
      ],
      [
        "Ġa",
        "nd"
      ],
      [
        "Ġ",
        "in"
      ],
      [
        "Ġt",
        "h"
      ],
      [
        "ĠĠĠĠ",
        "ĠĠĠ"
      ],
      [
        "Ġ",
        "n"
      ],
      [
        "o",
        "m"
      ],
      [
        "i",
        "on"
      ],
      [
        "e",
        "t"
      ],
      [
        "i",
        "c"
      ],
      [
        "s",
        "t"
      ],
      [
        "en",
        "t"
      ],
      [
        "Ġ",
        "l"
      ],
      [
        "i",
        "l"
      ],
      [
        "a",
        "d"
      ],
      [
        "o",
        "t"
      ],
      [
        "Ġ",
        "re"
      ],
      [
        "a",
        "m"
      ],
      [
        "e",
        "c"
      ],
      [
        "u",
        "t"
      ],
      [
        "i",
        "m"
      ],
      [
        "o",
        "w"
      ],
      [
        "o",
        "d"
      ],
      [
        "c",
        "e"
      ],
      [
        "Ġ",
        "I"
      ],
      [
        "Ġ",
        "g"
      ],
      [
        "Ġ",
        "he"
      ],
      [
        "i",
        "d"
      ],
      [
        "-",
        "-"
      ],
      [
        "Ġ",
        "e"
      ],
      [
        "s",
        "e"
      ],
      [
        "Ġ",
        "\""
      ],
      [
        "el",
        "f"
      ],
      [
        "Ġ",
        "u"
      ],
      [
        "o",
        "l"
      ],
      [
        "u",
        "r"
      ],
      [
        "Ġb",
        "e"
      ],
      [
        "v",
        "er"
      ],
      [
        "Ġ",
        "T"
      ],
      [
        "v",
        "e"
      ],
      [
        "i",
        "g"
      ],
      [
        "l",
        "y"
      ],
      [
        "t",
        "r"
      ],
      [
        "it",
        "h"
      ],
      [
        "Ġ",
        "is"
      ],
      [
        "Ġ",
        "="
      ],
      [
        "a",
        "c"
      ],
      [
        "Ġf",
        "or"
      ],
      [
        "a",
        "y"
      ],
      [
        "i",
        "r"
      ],
      [
        "i",
        "f"
      ],
      [
        "Ġth",
        "at"
      ],
      [
        "ĠĠĠĠĠĠĠĠ",
        "ĠĠĠ"
      ],
      [
        "Ġa",
        "s"
      ],
      [
        "es",
        "t"
      ],
      [
        "Ġ",
        "on"
      ],
      [
        "r",
        "o"
      ],
      [
        "Ġ",
        "y"
      ],
      [
        "Ġ",
        "it"
      ],
      [
        "Ġw",
        "h"
      ],
      [
        "t",
        "er"
      ],
      [
        "Ġw",
        "ith"
      ],
      [
        "u",
        "l"
      ],
      [
        "Ġ",
        "A"
      ],
      [
        "q",
        "u"
      ],
      [
        "e",
        "m"
      ],
      [
        "Ġ",
        "'"
      ],
      [
        "Ġ",
        "S"
      ],
      [
        "h",
        "t"
      ],
      [
        "ec",
        "t"
      ],
      [
        "as",
        "s"
      ],
      [
        "0",
        "0"
      ],
      [
        "Ġw",
        "as"
      ],
      [
        "c",
        "h"
      ],
      [
        "t",
        "h"
      ],
      [
        "e",
        "f"
      ],
      [
        "a",
        "b"
      ],
      [
        "Ġs",
        "elf"
      ],
      [
        "a",
        "nd"
      ],
      [
        "a",
        "g"
      ],
      [
        "a",
        "p"
      ],
      [
        "Ġa",
        "l"
      ],
      [
        "a",
        "in"
      ],
      [
        "Ġa",
        "n"
      ],
      [
        "Ġ",
        "r"
      ],
      [
        "at",
        "ion"
      ],
      [
        "<",
        "/"
      ],
      [
        "Ġn",
        "ot"
      ],
      [
        "he",
        "r"
      ],
      [
        "l",
        "d"
      ],
      [
        "Ġy",
        "ou"
      ],
      [
        "er",
        "t"
      ],
      [
        "Ġs",
        "t"
      ],
      [
        "Ġc",
        "on"
      ],
      [
        "u",
        "n"
      ],
      [
        "k",
        "e"
      ],
      [
        "Ġ",
        "C"
      ],
      [
        "re",
        "s"
      ],
      [
        "am",
        "e"
      ],
      [
        "o",
        "c"
      ],
      [
        "u",
        "b"
      ],
      [
        "u",
        "m"
      ],
      [
        "il",
        "l"
      ],
      [
        "ĠĠĠĠĠĠĠĠ",
        "ĠĠĠĠĠĠĠĠ"
      ],
      [
        "p",
        "t"
      ],
      [
        "r",
        "i"
      ],
      [
        "es",
        "s"
      ],
      [
        "at",
        "e"
      ],
      [
        "Ġ",
        "("
      ],
      [
        "Ġ",
        "v"
      ],
      [
        "Ġh",
        "is"
      ],
      [
        "Ġ",
        "M"
      ],
      [
        "r",
        "om"
      ],
      [
        "Ġ",
        "`"
      ],
      [
        "e",
        "x"
      ],
      [
        "p",
        "e"
      ],
      [
        "u",
        "e"
      ],
      [
        "ĠT",
        "he"
      ],
      [
        "Ġs",
        "h"
      ],
      [
        "Ġ",
        "1"
      ],
      [
        "u",
        "s"
      ],
      [
        "al",
        "l"
      ],
      [
        "Ġe",
        "x"
      ],
      [
        "Ġ",
        "P"
      ],
      [
        "Ġo",
        "r"
      ],
      [
        "p",
        "l"
      ],
      [
        "o",
        "re"
      ],
      [
        "Ġa",
        "t"
      ],
      [
        "er",
        "s"
      ],
      [
        "is",
        "t"
      ],
      [
        "a",
        "ve"
      ],
      [
        "or",
        "t"
      ],
      [
        "s",
        "elf"
      ],
      [
        "en",
        "d"
      ],
      [
        ")",
        ":"
      ],
      [
        "Ġ",
        "B"
      ],
      [
        "Ġ",
        "H"
      ],
      [
        "Ġb",
        "y"
      ],
      [
        "ou",
        "ld"
      ],
      [
        "c",
        "t"
      ],
      [
        "ig",
        "ht"
      ],
      [
        "`",
        "`"
      ],
      [
        "ou",
        "r"
      ],
      [
        "o",
        "p"
      ],
      [
        ")",
        ","
      ],
      [
        "ã",
        "ģ"
      ],
      [
        "Ġ",
        "W"
      ],
      [
        "ic",
        "h"
      ],
      [
        "Ġ",
        "["
      ],
      [
        "Ġ",
        "k"
      ],
      [
        "t",
        "d"
      ],
      [
        "'",
        ","
      ],
      [
        "'",
        "s"
      ],
      [
        "u",
        "st"
      ],
      [
        "l",
        "o"
      ],
      [
        "n",
        "t"
      ],
      [
        "Ġ",
        "if"
      ],
      [
        "\"",
        ","
      ],
      [
        "Ġs",
        "e"
      ],
      [
        "Ġf",
        "rom"
      ],
      [
        "Ġd",
        "ef"
      ],
      [
        "Ġ",
        "N"
      ],
      [
        "Ġh",
        "ad"
      ],
      [
        "Ġ",
        "#"
      ],
      [
        "Ġal",
        "l"
      ],
      [
        "t",
        "he"
      ],
      [
        "Ġc",
        "om"
      ],
      [
        "Ġ",
        "L"
      ],
      [
        "Ġa",
        "re"
      ],
      [
        "ar",
        "t"
      ],
      [
        "on",
        "e"
      ],
      [
        "ar",
        "d"
      ],
      [
        "in",
        "e"
      ],
      [
        "Ġth",
        "is"
      ],
      [
        "Ġs",
        "u"
      ],
      [
        "Ġ",
        "F"
      ],
      [
        "#",
        "#"
      ],
      [
        "Ġhe",
        "r"
      ],
      [
        "o",
        "s"
      ],
      [
        "Ġw",
        "e"
      ],
      [
        "Ġh",
        "ave"
      ],
      [
        "ou",
        "t"
      ],
      [
        "od",
        "e"
      ],
      [
        "ĠĠĠĠĠĠĠĠ",
        "ĠĠĠĠĠĠĠ"
      ],
      [
        "Ġ",
        "{"
      ],
      [
        "Ġwh",
        "ich"
      ],
      [
        "an",
        "g"
      ],
      [
        "\"",
        ")"
      ],
      [
        "e",
        "w"
      ],
      [
        "i",
        "v"
      ],
      [
        "Ġc",
        "h"
      ],
      [
        "in",
        "d"
      ],
      [
        "an",
        "t"
      ],
      [
        "Ġ",
        "_"
      ],
      [
        "c",
        "on"
      ],
      [
        "ur",
        "n"
      ],
      [
        "(",
        "\""
      ],
      [
        "Ġw",
        "he"
      ],
      [
        "or",
        "d"
      ],
      [
        "ab",
        "le"
      ],
      [
        "t",
        "o"
      ],
      [
        "Ġm",
        "e"
      ],
      [
        "(",
        ")"
      ],
      [
        "Ġ",
        "<"
      ],
      [
        "ass",
        "ert"
      ],
      [
        "p",
        "le"
      ],
      [
        "m",
        "ent"
      ],
      [
        "it",
        "y"
      ],
      [
        "Ġ",
        "D"
      ],
      [
        "u",
        "re"
      ],
      [
        "ã",
        "ĥ"
      ],
      [
        "i",
        "ve"
      ],
      [
        "i",
        "b"
      ],
      [
        "Ġ",
        ","
      ],
      [
        "Ġb",
        "ut"
      ],
      [
        "Ġt",
        "r"
      ],
      [
        "c",
        "l"
      ],
      [
        "o",
        "k"
      ],
      [
        "a",
        "k"
      ],
      [
        "ag",
        "e"
      ],
      [
        "Ġp",
        "ro"
      ],
      [
        "el",
        "l"
      ],
      [
        "er",
        "e"
      ],
      [
        "ou",
        "g"
      ],
      [
        "Ġd",
        "e"
      ],
      [
        "Ġu",
        "s"
      ],
      [
        "s",
        "p"
      ],
      [
        "Ġ",
        "0"
      ],
      [
        "Ġs",
        "o"
      ],
      [
        "y",
        "pe"
      ],
      [
        "ul",
        "t"
      ],
      [
        "Ġm",
        "y"
      ],
      [
        "Ġu",
        "p"
      ],
      [
        "Ġh",
        "im"
      ],
      [
        "a",
        "ce"
      ],
      [
        "Ġ",
        "E"
      ],
      [
        "ac",
        "k"
      ],
      [
        "Ġ",
        "-"
      ],
      [
        "i",
        "le"
      ],
      [
        "Ġ",
        "R"
      ],
      [
        "ou",
        "s"
      ],
      [
        "=",
        "\""
      ],
      [
        "Ġ",
        "le"
      ],
      [
        "on",
        "g"
      ],
      [
        "ĠĠĠĠ",
        "Ġ"
      ],
      [
        "Ġs",
        "a"
      ],
      [
        "Ġa",
        "r"
      ],
      [
        "p",
        "p"
      ],
      [
        "Ġ",
        "."
      ],
      [
        "i",
        "re"
      ],
      [
        "as",
        "t"
      ],
      [
        "a",
        "re"
      ],
      [
        "--",
        "--"
      ],
      [
        "j",
        "ect"
      ],
      [
        "Ġ",
        "G"
      ],
      [
        "Ġthe",
        "y"
      ],
      [
        ".",
        "\""
      ],
      [
        "Ġw",
        "ill"
      ],
      [
        "ã",
        "Ĥ"
      ],
      [
        "Ġl",
        "o"
      ],
      [
        "f",
        "or"
      ],
      [
        "a",
        "v"
      ],
      [
        "i",
        "es"
      ],
      [
        "om",
        "e"
      ],
      [
        "Ġ",
        "O"
      ],
      [
        "Ġd",
        "o"
      ],
      [
        "ex",
        "t"
      ],
      [
        "at",
        "h"
      ],
      [
        "Ġc",
        "an"
      ],
      [
        "ou",
        "nd"
      ],
      [
        "en",
        "ce"
      ],
      [
        "im",
        "e"
      ],
      [
        "T",
        "he"
      ],
      [
        "Ġ",
        "im"
      ],
      [
        "ion",
        "s"
      ],
      [
        "r",
        "or"
      ],
      [
        "qu",
        "al"
      ],
      [
        "f",
        "f"
      ],
      [
        "Ġm",
        "an"
      ],
      [
        "i",
        "p"
      ],
      [
        "Ġ",
        "2"
      ],
      [
        "_",
        "_"
      ],
      [
        "Ġs",
        "p"
      ],
      [
        "Ġs",
        "he"
      ],
      [
        "t",
        "urn"
      ],
      [
        "an",
        "ce"
      ],
      [
        "Ġon",
        "e"
      ],
      [
        "Ġc",
        "l"
      ],
      [
        "res",
        "s"
      ],
      [
        "er",
        "n"
      ],
      [
        "o",
        "st"
      ],
      [
        "at",
        "ed"
      ],
      [
        "Ġthe",
        "m"
      ],
      [
        "ic",
        "e"
      ],
      [
        "ow",
        "n"
      ],
      [
        "Ġs",
        "tr"
      ],
      [
        "Ġw",
        "ere"
      ],
      [
        "]",
        "("
      ],
      [
        "Ġthe",
        "ir"
      ],
      [
        "re",
        "f"
      ],
      [
        "c",
        "om"
      ],
      [
        "ver",
        "y"
      ],
      [
        "o",
        "b"
      ],
      [
        ">",
        "<"
      ],
      [
        "p",
        "er"
      ],
      [
        "Ġre",
        "turn"
      ],
      [
        "Ġo",
        "ut"
      ],
      [
        "al",
        "ue"
      ],
      [
        "t",
        "her"
      ],
      [
        "el",
        "d"
      ],
      [
        "Ġ",
        "|"
      ],
      [
        "i",
        "z"
      ],
      [
        "Ġwh",
        "o"
      ],
      [
        "Ġu",
        "n"
      ],
      [
        "u",
        "d"
      ],
      [
        "Ġg",
        "o"
      ],
      [
        "}",
        "}"
      ],
      [
        "Ġa",
        "b"
      ],
      [
        "u",
        "g"
      ],
      [
        "st",
        "r"
      ],
      [
        "Ġn",
        "o"
      ],
      [
        "id",
        "e"
      ],
      [
        "Ġ",
        "en"
      ],
      [
        "ar",
        "g"
      ],
      [
        "p",
        "s"
      ],
      [
        "i",
        "eld"
      ],
      [
        "Ġt",
        "est"
      ],
      [
        "a",
        "ke"
      ],
      [
        "Ġwhe",
        "n"
      ],
      [
        "Ġp",
        "r"
      ],
      [
        ",",
        "\""
      ],
      [
        "e",
        "ar"
      ],
      [
        "ä",
        "¸"
      ],
      [
        "Ġ",
        "*"
      ],
      [
        "ol",
        "l"
      ],
      [
        "Ġ",
        "J"
      ],
      [
        "Ġp",
        "l"
      ],
      [
        "it",
        "t"
      ],
      [
        "in",
        "t"
      ],
      [
        "ĠT",
        "h"
      ],
      [
        "oug",
        "h"
      ],
      [
        "ig",
        "n"
      ],
      [
        "Ġ",
        "j"
      ],
      [
        "as",
        "e"
      ],
      [
        "er",
        "v"
      ],
      [
        "p",
        "ort"
      ],
      [
        "Ġa",
        "d"
      ],
      [
        "Ġ",
        "el"
      ],
      [
        "oc",
        "k"
      ],
      [
        "Ġo",
        "b"
      ],
      [
        "al",
        "ly"
      ],
      [
        "he",
        "d"
      ],
      [
        "Ġcon",
        "t"
      ],
      [
        "e",
        "p"
      ],
      [
        "for",
        "m"
      ],
      [
        "``",
        "`"
      ],
      [
        "e",
        "b"
      ],
      [
        "c",
        "ri"
      ],
      [
        "Ġsa",
        "id"
      ],
      [
        "n",
        "ame"
      ],
      [
        "it",
        "e"
      ],
      [
        "/",
        "/"
      ],
      [
        "re",
        "at"
      ],
      [
        "Ġ",
        "K"
      ],
      [
        "'",
        ")"
      ],
      [
        "Ġm",
        "ore"
      ],
      [
        "a",
        "is"
      ],
      [
        "g",
        "et"
      ],
      [
        "ac",
        "t"
      ],
      [
        "Ġk",
        "n"
      ],
      [
        "Ġ",
        "Ċ"
      ],
      [
        "Ġw",
        "or"
      ],
      [
        "à",
        "¦"
      ],
      [
        "E",
        "qual"
      ],
      [
        "a",
        "il"
      ],
      [
        "ã",
        "Ģ"
      ],
      [
        "ĠA",
        "nd"
      ],
      [
        "c",
        "c"
      ],
      [
        "an",
        "s"
      ],
      [
        "Ġh",
        "as"
      ],
      [
        "Ġre",
        "s"
      ],
      [
        "Ġg",
        "r"
      ],
      [
        "'",
        "t"
      ],
      [
        "Ġw",
        "ould"
      ],
      [
        "r",
        "ror"
      ],
      [
        "i",
        "ke"
      ],
      [
        "l",
        "l"
      ],
      [
        "o",
        "se"
      ],
      [
        "Ġan",
        "y"
      ],
      [
        "s",
        "h"
      ],
      [
        "Ġd",
        "is"
      ],
      [
        "Ġbe",
        "en"
      ],
      [
        "et",
        "es"
      ],
      [
        "Ġo",
        "ther"
      ],
      [
        ">",
        "</"
      ],
      [
        "00",
        "00"
      ],
      [
        "k",
        "ub"
      ],
      [
        "ar",
        "y"
      ],
      [
        "Ġb",
        "r"
      ],
      [
        "ern",
        "etes"
      ],
      [
        "Ġthe",
        "re"
      ],
      [
        "E",
        "rror"
      ],
      [
        "Ġa",
        "g"
      ],
      [
        "at",
        "a"
      ],
      [
        "c",
        "k"
      ],
      [
        "in",
        "k"
      ],
      [
        "Ġe",
        "v"
      ],
      [
        "pt",
        "ion"
      ],
      [
        "Ġn",
        "e"
      ],
      [
        "\"",
        "\""
      ],
      [
        "s",
        "s"
      ],
      [
        "ol",
        "d"
      ],
      [
        "et",
        "h"
      ],
      [
        "Ġyou",
        "r"
      ],
      [
        "ï",
        "¼"
      ],
      [
        "ing",
        "s"
      ],
      [
        "Ġas",
        "s"
      ],
      [
        "Ġ",
        "qu"
      ],
      [
        "d",
        "oc"
      ],
      [
        "re",
        "ad"
      ],
      [
        "assert",
        "Equal"
      ],
      [
        "ent",
        "s"
      ],
      [
        "b",
        "er"
      ],
      [
        "e",
        "v"
      ],
      [
        "Ġ",
        ")"
      ],
      [
        "E",
        "R"
      ],
      [
        "c",
        "ode"
      ],
      [
        "ac",
        "h"
      ],
      [
        "r",
        "ay"
      ],
      [
        "Ġs",
        "et"
      ],
      [
        "n",
        "g"
      ],
      [
        "o",
        "y"
      ],
      [
        "il",
        "d"
      ],
      [
        "o",
        "f"
      ],
      [
        "ver",
        "s"
      ],
      [
        "i",
        "al"
      ],
      [
        "on",
        "d"
      ],
      [
        "is",
        "h"
      ],
      [
        "it",
        "ion"
      ],
      [
        "n",
        "ot"
      ],
      [
        "s",
        "et"
      ],
      [
        "t",
        "ype"
      ],
      [
        "g",
        "r"
      ],
      [
        "ic",
        "t"
      ],
      [
        "ct",
        "ion"
      ],
      [
        "el",
        "y"
      ],
      [
        "en",
        "er"
      ],
      [
        ".",
        "_"
      ],
      [
        "Ġth",
        "an"
      ],
      [
        "w",
        "ay"
      ],
      [
        "ic",
        "k"
      ],
      [
        "Ġ",
        "U"
      ],
      [
        "Ġin",
        "to"
      ],
      [
        "Ġo",
        "ur"
      ],
      [
        "i",
        "ed"
      ],
      [
        "ç",
        "ļ"
      ],
      [
        "çļ",
        "Ħ"
      ],
      [
        "Ġt",
        "ime"
      ],
      [
        ")",
        ")"
      ],
      [
        "ir",
        "st"
      ],
      [
        "f",
        "ter"
      ],
      [
        "Ġ{",
        "{"
      ],
      [
        "Ġs",
        "ome"
      ],
      [
        "Ġsh",
        "ould"
      ],
      [
        "Ġ",
        "3"
      ],
      [
        "i",
        "ous"
      ],
      [
        "ar",
        "k"
      ],
      [
        "at",
        "ch"
      ],
      [
        "doc",
        "s"
      ],
      [
        "Ġon",
        "ly"
      ],
      [
        "ad",
        "e"
      ],
      [
        "a",
        "w"
      ],
      [
        "*",
        "*"
      ],
      [
        "ĠH",
        "e"
      ],
      [
        "u",
        "p"
      ],
      [
        "Ġa",
        "m"
      ],
      [
        "Ġp",
        "er"
      ],
      [
        "ĠI",
        "t"
      ],
      [
        "ou",
        "nt"
      ],
      [
        "or",
        "y"
      ],
      [
        "Ġit",
        "s"
      ],
      [
        "f",
        "er"
      ],
      [
        ":",
        "//"
      ],
      [
        "f",
        "ul"
      ],
      [
        "p",
        "ro"
      ],
      [
        "P",
        "I"
      ],
      [
        "on",
        "t"
      ],
      [
        "re",
        "e"
      ],
      [
        "Ġm",
        "ay"
      ],
      [
        "a",
        "ult"
      ],
      [
        "Ġo",
        "ver"
      ],
      [
        "Ġp",
        "re"
      ],
      [
        "ãĢ",
        "Ĥ"
      ],
      [
        "s",
        "o"
      ],
      [
        "Ġt",
        "w"
      ],
      [
        "i",
        "a"
      ],
      [
        "Ġn",
        "ame"
      ],
      [
        "ĠĠĠĠĠĠĠĠ",
        "ĠĠĠĠĠĠĠĠĠĠĠ"
      ],
      [
        "p",
        "ut"
      ],
      [
        "ow",
        "s"
      ],
      [
        "Ġs",
        "c"
      ],
      [
        "ĠI",
        "n"
      ],
      [
        "ke",
        "y"
      ],
      [
        "]",
        ","
      ],
      [
        "r",
        "y"
      ],
      [
        "p",
        "r"
      ],
      [
        "ot",
        "her"
      ],
      [
        "Ġwh",
        "at"
      ],
      [
        "I",
        "n"
      ],
      [
        "ap",
        "p"
      ],
      [
        "f",
        "o"
      ],
      [
        "Ġ",
        ">"
      ],
      [
        "t",
        "ps"
      ],
      [
        "w",
        "e"
      ],
      [
        "Ġ",
        "ì"
      ],
      [
        "Ġd",
        "es"
      ],
      [
        "\")",
        "}}"
      ],
      [
        "en",
        "s"
      ],
      [
        "Ġg",
        "et"
      ],
      [
        "Ġp",
        "art"
      ],
      [
        "Ġn",
        "ow"
      ],
      [
        "Ġl",
        "ike"
      ],
      [
        "u",
        "se"
      ],
      [
        "Ġ",
        "V"
      ],
      [
        "I",
        "N"
      ],
      [
        "\"",
        ":"
      ],
      [
        "Ġthe",
        "n"
      ],
      [
        "Ġf",
        "e"
      ],
      [
        "i",
        "ent"
      ],
      [
        "cri",
        "pt"
      ],
      [
        "nd",
        "er"
      ],
      [
        "qu",
        "est"
      ],
      [
        "i",
        "e"
      ],
      [
        "Ġ",
        "ro"
      ],
      [
        "ation",
        "s"
      ],
      [
        "Ġse",
        "e"
      ],
      [
        "g",
        "e"
      ],
      [
        "ce",
        "pt"
      ],
      [
        "ĠĠĠĠĠĠĠĠĠĠĠĠĠĠĠĠ",
        "ĠĠĠĠĠĠĠĠĠĠĠĠĠĠĠĠ"
      ],
      [
        "re",
        "d"
      ],
      [
        "is",
        "s"
      ],
      [
        "](",
        "/"
      ],
      [
        "U",
        "S"
      ],
      [
        "iz",
        "e"
      ],
      [
        "?",
        "\""
      ],
      [
        "o",
        "ok"
      ],
      [
        "h",
        "at"
      ],
      [
        "Ġ",
        "very"
      ],
      [
        "Ġb",
        "l"
      ],
      [
        "ang",
        "e"
      ],
      [
        "am",
        "ple"
      ],
      [
        "i",
        "x"
      ],
      [
        "con",
        "t"
      ],
      [
        "ĠĠĠĠ",
        "ĠĠ"
      ],
      [
        "itt",
        "le"
      ],
      [
        "Ġm",
        "ust"
      ],
      [
        "an",
        "c"
      ],
      [
        "----",
        "----"
      ],
      [
        "n",
        "ing"
      ],
      [
        "Ġc",
        "ould"
      ],
      [
        "our",
        "ce"
      ],
      [
        "Ġv",
        "alue"
      ],
      [
        "Ġ",
        ":"
      ],
      [
        "Ġg",
        "reat"
      ],
      [
        "Ġ\"",
        "\"\""
      ],
      [
        "p",
        "ar"
      ],
      [
        "a",
        "x"
      ],
      [
        "t",
        "y"
      ],
      [
        "is",
        "e"
      ],
      [
        "al",
        "se"
      ],
      [
        "f",
        "ig"
      ],
      [
        "Ġf",
        "l"
      ],
      [
        "Ġf",
        "irst"
      ],
      [
        "\"",
        ">"
      ],
      [
        "i",
        "o"
      ],
      [
        "u",
        "ch"
      ],
      [
        "Ġc",
        "all"
      ],
      [
        "ĠN",
        "one"
      ],
      [
        "Ġlo",
        "ok"
      ],
      [
        "Ġh",
        "and"
      ],
      [
        "_",
        "."
      ],
      [
        "od",
        "el"
      ],
      [
        "oug",
        "ht"
      ],
      [
        "Ġre",
        "m"
      ],
      [
        "Ġp",
        "o"
      ],
      [
        "Ġn",
        "ew"
      ],
      [
        "(",
        "'"
      ],
      [
        "he",
        "n"
      ],
      [
        "od",
        "y"
      ],
      [
        "m",
        "an"
      ],
      [
        "Ġab",
        "out"
      ],
      [
        "Ġa",
        "fter"
      ],
      [
        "Ġp",
        "ass"
      ],
      [
        "t",
        "est"
      ],
      [
        "ot",
        "h"
      ],
      [
        "Ġex",
        "p"
      ],
      [
        "at",
        "her"
      ],
      [
        "A",
        "L"
      ],
      [
        "Ġu",
        "nt"
      ],
      [
        "Ġc",
        "ol"
      ],
      [
        "or",
        "s"
      ],
      [
        "ï¼",
        "Į"
      ],
      [
        "Ġd",
        "id"
      ],
      [
        "Ġup",
        "on"
      ],
      [
        "Ġa",
        "p"
      ],
      [
        "n",
        "e"
      ],
      [
        "w",
        "ard"
      ],
      [
        "Ġob",
        "ject"
      ],
      [
        "Ġcom",
        "m"
      ],
      [
        "w",
        "n"
      ],
      [
        "v",
        "al"
      ],
      [
        "ht",
        "tps"
      ],
      [
        "l",
        "ed"
      ],
      [
        "Ġag",
        "ain"
      ],
      [
        "Ġth",
        "r"
      ],
      [
        "Ġb",
        "ec"
      ],
      [
        "Ġ",
        "@"
      ],
      [
        "am",
        "es"
      ],
      [
        "l",
        "ine"
      ],
      [
        "Ġh",
        "ow"
      ],
      [
        "m",
        "in"
      ],
      [
        "o",
        "ver"
      ],
      [
        "Ġw",
        "r"
      ],
      [
        "ĠTh",
        "is"
      ],
      [
        "Ġass",
        "ert"
      ],
      [
        "Ġl",
        "ittle"
      ],
      [
        "Ġthe",
        "se"
      ],
      [
        ")",
        "."
      ],
      [
        "'",
        "d"
      ],
      [
        "Ġfor",
        "m"
      ],
      [
        "ĠI",
        "f"
      ],
      [
        "Ġu",
        "se"
      ],
      [
        "T",
        "T"
      ],
      [
        "o",
        "g"
      ],
      [
        "Ġkn",
        "ow"
      ],
      [
        "Ġsu",
        "ch"
      ],
      [
        "Ġm",
        "en"
      ],
      [
        "Ġin",
        "d"
      ],
      [
        "o",
        "od"
      ],
      [
        "Ġtw",
        "o"
      ],
      [
        "if",
        "e"
      ],
      [
        "if",
        "ic"
      ],
      [
        "ub",
        "ernetes"
      ],
      [
        "Ġim",
        "port"
      ],
      [
        "Ġad",
        "d"
      ],
      [
        "t",
        "e"
      ],
      [
        "Ġ",
        "Y"
      ],
      [
        "r",
        "ue"
      ],
      [
        "d",
        "ef"
      ],
      [
        "cl",
        "ass"
      ],
      [
        "f",
        "ore"
      ],
      [
        "Ġwor",
        "k"
      ],
      [
        "tr",
        "ib"
      ],
      [
        "re",
        "ate"
      ],
      [
        "od",
        "u"
      ],
      [
        "em",
        "ent"
      ],
      [
        "Ġs",
        "y"
      ],
      [
        "Ġin",
        "ter"
      ],
      [
        "Ġl",
        "ist"
      ],
      [
        "Ġd",
        "ay"
      ],
      [
        "Ġsp",
        "ec"
      ],
      [
        "x",
        "ref"
      ],
      [
        "]",
        ")"
      ],
      [
        "Ġn",
        "p"
      ],
      [
        "a",
        "ir"
      ],
      [
        "he",
        "ck"
      ],
      [
        ".",
        "."
      ],
      [
        "O",
        "N"
      ],
      [
        "p",
        "ath"
      ],
      [
        "Ġb",
        "ack"
      ],
      [
        "ĠS",
        "t"
      ],
      [
        "Ġwhe",
        "re"
      ],
      [
        "ut",
        "h"
      ],
      [
        "â",
        "Ģ"
      ],
      [
        "ar",
        "s"
      ],
      [
        "Ġsh",
        "all"
      ],
      [
        "Ġgo",
        "od"
      ],
      [
        "pl",
        "ic"
      ],
      [
        "Ġcom",
        "p"
      ],
      [
        "l",
        "es"
      ],
      [
        "er",
        "ed"
      ],
      [
        "Ġp",
        "e"
      ],
      [
        "a",
        "use"
      ],
      [
        "b",
        "r"
      ],
      [
        "on",
        "s"
      ],
      [
        "Ġs",
        "ay"
      ],
      [
        "i",
        "an"
      ],
      [
        "el",
        "ect"
      ],
      [
        "Ġ(",
        "'"
      ],
      [
        "er",
        "ver"
      ],
      [
        "Ġbe",
        "fore"
      ],
      [
        "trib",
        "ut"
      ],
      [
        "en",
        "c"
      ],
      [
        "Ġa",
        "pp"
      ],
      [
        "Ġm",
        "ade"
      ],
      [
        "b",
        "e"
      ],
      [
        "i",
        "ew"
      ],
      [
        "Ġof",
        "f"
      ],
      [
        "n",
        "ess"
      ],
      [
        "ad",
        "d"
      ],
      [
        "ĠB",
        "ut"
      ],
      [
        "Ġs",
        "ub"
      ],
      [
        "Ġd",
        "own"
      ],
      [
        "Ġsu",
        "pp"
      ],
      [
        "as",
        "k"
      ],
      [
        "Ġ",
        "4"
      ],
      [
        "f",
        "rom"
      ],
      [
        "A",
        "R"
      ],
      [
        "Ġ",
        "end"
      ],
      [
        "d",
        "om"
      ],
      [
        "at",
        "ter"
      ],
      [
        "Ġl",
        "ong"
      ],
      [
        "ĠM",
        "r"
      ],
      [
        "c",
        "ess"
      ],
      [
        "Ġb",
        "et"
      ],
      [
        "Ġw",
        "ay"
      ],
      [
        "o",
        "ve"
      ],
      [
        "Ġhe",
        "ad"
      ],
      [
        "f",
        "t"
      ],
      [
        "Ġo",
        "wn"
      ],
      [
        "Ġp",
        "os"
      ],
      [
        "ĠC",
        "h"
      ],
      [
        "f",
        "ile"
      ],
      [
        "he",
        "s"
      ],
      [
        "Ġw",
        "ord"
      ],
      [
        "ais",
        "es"
      ],
      [
        "oll",
        "ow"
      ],
      [
        "il",
        "y"
      ],
      [
        "ob",
        "ject"
      ],
      [
        "ä",
        "»"
      ],
      [
        "Ġo",
        "ld"
      ],
      [
        "ul",
        "l"
      ],
      [
        "0",
        "1"
      ],
      [
        "p",
        "y"
      ],
      [
        "ou",
        "n"
      ],
      [
        "W",
        "eb"
      ],
      [
        "b",
        "y"
      ],
      [
        "w",
        "ith"
      ],
      [
        "a",
        "it"
      ],
      [
        "Ġ",
        "</"
      ],
      [
        "Ġm",
        "ake"
      ],
      [
        "Ġin",
        "st"
      ],
      [
        "um",
        "ent"
      ],
      [
        "u",
        "es"
      ],
      [
        "or",
        "k"
      ],
      [
        "!",
        "--"
      ],
      [
        "Ġ",
        "+"
      ],
      [
        "s",
        "c"
      ],
      [
        "ä",
        "½"
      ],
      [
        "O",
        "R"
      ],
      [
        "Ġm",
        "uch"
      ],
      [
        "Ġar",
        "g"
      ],
      [
        "erv",
        "ice"
      ],
      [
        "Ġs",
        "m"
      ],
      [
        "Ġe",
        "very"
      ],
      [
        "Ġal",
        "so"
      ],
      [
        "Ġv",
        "al"
      ],
      [
        "{",
        "{"
      ],
      [
        "ib",
        "le"
      ],
      [
        "Ġu",
        "nder"
      ],
      [
        "um",
        "ber"
      ],
      [
        "at",
        "es"
      ],
      [
        "Ġo",
        "p"
      ],
      [
        "Ġcl",
        "ass"
      ],
      [
        "l",
        "ess"
      ],
      [
        "ic",
        "al"
      ],
      [
        "ì",
        "Ŀ"
      ],
      [
        "ig",
        "h"
      ],
      [
        "er",
        "ror"
      ],
      [
        "at",
        "er"
      ],
      [
        "Ġa",
        "cc"
      ],
      [
        "Ġf",
        "ield"
      ],
      [
        "e",
        "ad"
      ],
      [
        "Ġm",
        "ost"
      ],
      [
        "vers",
        "ion"
      ],
      [
        "f",
        "ield"
      ],
      [
        "Ġre",
        "ad"
      ],
      [
        "er",
        "y"
      ],
      [
        "w",
        "r"
      ],
      [
        "i",
        "k"
      ],
      [
        "Ġth",
        "ose"
      ],
      [
        "p",
        "ert"
      ],
      [
        "Ġev",
        "en"
      ],
      [
        "å",
        "Ī"
      ],
      [
        "d",
        "er"
      ],
      [
        "v",
        "ed"
      ],
      [
        "S",
        "S"
      ],
      [
        "w",
        "h"
      ],
      [
        "en",
        "g"
      ],
      [
        "Ġb",
        "re"
      ],
      [
        "ou",
        "se"
      ],
      [
        "Ġf",
        "un"
      ],
      [
        "Ġ",
        "--"
      ],
      [
        "at",
        "ure"
      ],
      [
        "Ġr",
        "un"
      ],
      [
        "!",
        "\""
      ],
      [
        "re",
        "n"
      ],
      [
        "Ġp",
        "res"
      ],
      [
        "å",
        "ı"
      ],
      [
        "Ġw",
        "ell"
      ],
      [
        "w",
        "ord"
      ],
      [
        "A",
        "T"
      ],
      [
        "ect",
        "ion"
      ],
      [
        "Ġs",
        "ec"
      ],
      [
        "Ġc",
        "r"
      ],
      [
        "Ġre",
        "quest"
      ],
      [
        "Ġp",
        "ar"
      ],
      [
        "er",
        "ence"
      ],
      [
        "or",
        "m"
      ],
      [
        "Ġcont",
        "ain"
      ],
      [
        "ire",
        "d"
      ],
      [
        "ĠK",
        "ubernetes"
      ],
      [
        "h",
        "is"
      ],
      [
        "Ġus",
        "ed"
      ],
      [
        "Ġs",
        "ame"
      ],
      [
        "Ġcon",
        "s"
      ],
      [
        "ĠP",
        "od"
      ],
      [
        "A",
        "PI"
      ],
      [
        "ar",
        "n"
      ],
      [
        "ar",
        "ray"
      ],
      [
        "Ġf",
        "ollow"
      ],
      [
        "Ġd",
        "ec"
      ],
      [
        "ĠĠĠĠĠĠĠĠĠĠĠĠĠĠĠĠ",
        "ĠĠĠĠĠĠĠĠ"
      ],
      [
        "o",
        "ol"
      ],
      [
        "kub",
        "ernetes"
      ],
      [
        "it",
        "s"
      ],
      [
        "'",
        ":"
      ],
      [
        "ow",
        "er"
      ],
      [
        "Ġre",
        "l"
      ],
      [
        "eth",
        "od"
      ],
      [
        "u",
        "al"
      ],
      [
        "v",
        "el"
      ],
      [
        "Ġs",
        "l"
      ],
      [
        "Ġin",
        "t"
      ],
      [
        "Ġle",
        "t"
      ],
      [
        "are",
        "d"
      ],
      [
        "Ġe",
        "m"
      ],
      [
        "s",
        "u"
      ],
      [
        "å",
        "®"
      ],
      [
        "m",
        "l"
      ],
      [
        "Ġf",
        "r"
      ],
      [
        "a",
        "h"
      ],
      [
        "Ġt",
        "ype"
      ],
      [
        "Ġthr",
        "ough"
      ],
      [
        "Ġ",
        "5"
      ],
      [
        "Ġr",
        "ais"
      ],
      [
        "g",
        "g"
      ],
      [
        "Ġbe",
        "ing"
      ],
      [
        "assert",
        "R"
      ],
      [
        "<",
        "!--"
      ],
      [
        "Ġel",
        "se"
      ],
      [
        "R",
        "E"
      ],
      [
        "Ġb",
        "u"
      ],
      [
        "a",
        "ug"
      ],
      [
        "Ġm",
        "ight"
      ],
      [
        "th",
        "at"
      ],
      [
        "1",
        "0"
      ],
      [
        "S",
        "T"
      ],
      [
        "æ",
        "ľ"
      ],
      [
        "ain",
        "t"
      ],
      [
        "op",
        "le"
      ],
      [
        "e",
        "ver"
      ],
      [
        "o",
        "pe"
      ],
      [
        "ç",
        "Ķ"
      ],
      [
        "Ġ",
        "%"
      ],
      [
        "1",
        "2"
      ],
      [
        "'",
        "),"
      ],
      [
        "f",
        "l"
      ],
      [
        "at",
        "or"
      ],
      [
        "d",
        "ir"
      ],
      [
        "v",
        "es"
      ],
      [
        "v",
        "alue"
      ],
      [
        "re",
        "t"
      ],
      [
        "Ġ",
        "ë"
      ],
      [
        "ou",
        "p"
      ],
      [
        "Ġ=",
        "="
      ],
      [
        "Ġc",
        "ame"
      ],
      [
        "j",
        "s"
      ],
      [
        "Ġre",
        "sp"
      ],
      [
        "Ġwith",
        "out"
      ],
      [
        "arg",
        "s"
      ],
      [
        "Ġne",
        "ver"
      ],
      [
        "Ġ",
        "ke"
      ],
      [
        "Ġcom",
        "e"
      ],
      [
        "ire",
        "ct"
      ],
      [
        "p",
        "os"
      ],
      [
        "Ġd",
        "if"
      ],
      [
        "Ġb",
        "el"
      ],
      [
        "ect",
        "ed"
      ],
      [
        "Ġat",
        "t"
      ],
      [
        "Ġman",
        "y"
      ],
      [
        "in",
        "es"
      ],
      [
        "Ġj",
        "ust"
      ],
      [
        "e",
        "e"
      ],
      [
        "tr",
        "oll"
      ],
      [
        "Ġy",
        "ear"
      ],
      [
        "Ġa",
        "c"
      ],
      [
        "el",
        "et"
      ],
      [
        "Ġ",
        "/"
      ],
      [
        "C",
        "on"
      ],
      [
        "at",
        "ing"
      ],
      [
        "assertR",
        "aises"
      ],
      [
        "ter",
        "s"
      ],
      [
        "##",
        "##"
      ],
      [
        "Ġc",
        "ur"
      ],
      [
        "Ġhe",
        "re"
      ],
      [
        "m",
        "s"
      ],
      [
        "ãĥ",
        "¼"
      ],
      [
        "Ġe",
        "y"
      ],
      [
        "v",
        "ent"
      ],
      [
        "Ġ",
        "ent"
      ],
      [
        "Ġre",
        "c"
      ],
      [
        "ment",
        "s"
      ],
      [
        "Ġth",
        "ink"
      ],
      [
        "Ġ-",
        ">"
      ],
      [
        "or",
        "n"
      ],
      [
        "ĠF",
        "or"
      ],
      [
        "u",
        "res"
      ],
      [
        "re",
        "am"
      ],
      [
        "al",
        "k"
      ],
      [
        "Ġdef",
        "ault"
      ],
      [
        "ul",
        "ar"
      ],
      [
        "Ġl",
        "ine"
      ],
      [
        "Ġg",
        "l"
      ],
      [
        "d",
        "en"
      ],
      [
        "it",
        "her"
      ],
      [
        "Ġto",
        "o"
      ],
      [
        "R",
        "ef"
      ],
      [
        "S",
        "t"
      ],
      [
        "s",
        "l"
      ],
      [
        "Ġres",
        "ult"
      ],
      [
        "ar",
        "i"
      ],
      [
        "Ġl",
        "ast"
      ],
      [
        "h",
        "ing"
      ],
      [
        "í",
        "ķ"
      ],
      [
        "Ġch",
        "ild"
      ],
      [
        "Ġse",
        "em"
      ],
      [
        "T",
        "est"
      ],
      [
        "o",
        "int"
      ],
      [
        "å",
        "Ĳ"
      ],
      [
        "a",
        "z"
      ],
      [
        ",",
        "--"
      ],
      [
        "b",
        "le"
      ],
      [
        "Ġe",
        "ach"
      ],
      [
        "b",
        "sp"
      ],
      [
        "Ġ",
        "key"
      ],
      [
        "Ġd",
        "r"
      ],
      [
        "Ġf",
        "ound"
      ],
      [
        "ap",
        "e"
      ],
      [
        "i",
        "er"
      ],
      [
        "ag",
        "es"
      ],
      [
        "(",
        "["
      ],
      [
        "u",
        "nd"
      ],
      [
        "tr",
        "y"
      ],
      [
        "Ġf",
        "ile"
      ],
      [
        "Ġre",
        "g"
      ],
      [
        "`",
        "."
      ],
      [
        "in",
        "s"
      ],
      [
        "t",
        "ing"
      ],
      [
        "Ġth",
        "ou"
      ],
      [
        "b",
        "ody"
      ],
      [
        "il",
        "ity"
      ],
      [
        "al",
        "e"
      ],
      [
        "am",
        "et"
      ],
      [
        "Ġk",
        "ub"
      ],
      [
        "##",
        "#"
      ],
      [
        "in",
        "st"
      ],
      [
        "A",
        "nd"
      ],
      [
        "Ġpe",
        "ople"
      ],
      [
        "f",
        "il"
      ],
      [
        "n",
        "bsp"
      ],
      [
        "ĠĠĠĠĠĠĠĠĠĠĠĠĠĠĠĠ",
        "ĠĠĠĠĠĠĠ"
      ],
      [
        "dom",
        "xref"
      ],
      [
        "c",
        "ol"
      ],
      [
        "E",
        "N"
      ],
      [
        "N",
        "one"
      ],
      [
        "u",
        "ct"
      ],
      [
        "Ġth",
        "y"
      ],
      [
        "p",
        "h"
      ],
      [
        "Ġa",
        "ct"
      ],
      [
        "Ġd",
        "oc"
      ],
      [
        "ect",
        "l"
      ],
      [
        "m",
        "er"
      ],
      [
        "Ġst",
        "art"
      ],
      [
        "an",
        "k"
      ],
      [
        "ic",
        "es"
      ],
      [
        "Ġst",
        "ill"
      ],
      [
        "ar",
        "ri"
      ],
      [
        "E",
        "x"
      ],
      [
        "in",
        "ter"
      ],
      [
        "is",
        "hed"
      ],
      [
        "o",
        "x"
      ],
      [
        "at",
        "ive"
      ],
      [
        "Ġ",
        "}"
      ],
      [
        "Ġs",
        "om"
      ],
      [
        "Ġl",
        "ife"
      ],
      [
        "cl",
        "ud"
      ],
      [
        "ap",
        "i"
      ],
      [
        "t",
        "ime"
      ],
      [
        "z",
        "z"
      ],
      [
        "en",
        "ed"
      ],
      [
        "ap",
        "t"
      ],
      [
        "f",
        "un"
      ],
      [
        "a",
        "ut"
      ],
      [
        "2",
        "0"
      ],
      [
        "Ġwh",
        "ile"
      ],
      [
        "ĠS",
        "he"
      ],
      [
        "çĶ",
        "¨"
      ],
      [
        "p",
        "ress"
      ],
      [
        "an",
        "y"
      ],
      [
        "Ġd",
        "ata"
      ],
      [
        "Ġth",
        "ought"
      ],
      [
        "l",
        "ing"
      ],
      [
        "im",
        "it"
      ],
      [
        "Ġbe",
        "g"
      ],
      [
        "on",
        "se"
      ],
      [
        "al",
        "s"
      ],
      [
        "as",
        "ter"
      ],
      [
        "Ġg",
        "ener"
      ],
      [
        "lo",
        "ad"
      ],
      [
        "in",
        "ed"
      ],
      [
        "L",
        "E"
      ],
      [
        "h",
        "y"
      ],
      [
        "Ġtr",
        "y"
      ],
      [
        ".",
        "__"
      ],
      [
        "--",
        ">"
      ],
      [
        "ol",
        "ic"
      ],
      [
        "if",
        "y"
      ],
      [
        "im",
        "es"
      ],
      [
        "ri",
        "end"
      ],
      [
        ">",
        ">"
      ],
      [
        "T",
        "ype"
      ],
      [
        "s",
        "y"
      ],
      [
        "ãģ",
        "®"
      ],
      [
        "ĠW",
        "e"
      ],
      [
        "Ġsupp",
        "ort"
      ],
      [
        "T",
        "rue"
      ],
      [
        "Ġy",
        "et"
      ],
      [
        "em",
        "pl"
      ],
      [
        "Ġdo",
        "es"
      ],
      [
        "Ġ*",
        "*"
      ],
      [
        "Ġne",
        "ed"
      ],
      [
        "è",
        "¯"
      ],
      [
        "Ġ",
        "x"
      ],
      [
        "Ġ'",
        "\\"
      ],
      [
        "_",
        ","
      ],
      [
        "f",
        "e"
      ],
      [
        "I",
        "t"
      ],
      [
        "way",
        "s"
      ],
      [
        "e",
        "k"
      ],
      [
        "str",
        "ing"
      ],
      [
        "m",
        "et"
      ],
      [
        "Ġt",
        "ext"
      ],
      [
        "as",
        "h"
      ],
      [
        "w",
        "ork"
      ],
      [
        "Ġm",
        "em"
      ],
      [
        "ak",
        "ing"
      ],
      [
        "l",
        "and"
      ],
      [
        "n",
        "c"
      ],
      [
        "ĠA",
        "PI"
      ],
      [
        "ust",
        "er"
      ],
      [
        "a",
        "id"
      ],
      [
        "3",
        "0"
      ],
      [
        "id",
        "es"
      ],
      [
        "c",
        "es"
      ],
      [
        "ot",
        "e"
      ],
      [
        "0000",
        "0000"
      ],
      [
        "Ġar",
        "ray"
      ],
      [
        "l",
        "ist"
      ],
      [
        "è",
        "¿"
      ],
      [
        "d",
        "ata"
      ],
      [
        "Ġ>",
        ">>"
      ],
      [
        "f",
        "r"
      ],
      [
        "as",
        "on"
      ],
      [
        "Ġ",
        "id"
      ],
      [
        "å",
        "ħ"
      ],
      [
        "am",
        "p"
      ],
      [
        "Ġr",
        "ight"
      ],
      [
        "ĠĠĠĠĠĠĠĠ",
        "Ġ"
      ],
      [
        "Ġrais",
        "e"
      ],
      [
        "Ġt",
        "ake"
      ],
      [
        "el",
        "s"
      ],
      [
        "he",
        "re"
      ],
      [
        "ar",
        "r"
      ],
      [
        "Ġstr",
        "ing"
      ],
      [
        "ith",
        "ub"
      ],
      [
        "Ġch",
        "ar"
      ],
      [
        "Ġpl",
        "ace"
      ],
      [
        "00",
        "0"
      ],
      [
        "troll",
        "er"
      ],
      [
        "g",
        "ithub"
      ],
      [
        "Ġ",
        "6"
      ],
      [
        "Ġus",
        "ing"
      ],
      [
        "Ġc",
        "our"
      ],
      [
        "sp",
        "ec"
      ],
      [
        "Ġbec",
        "ause"
      ],
      [
        "we",
        "en"
      ],
      [
        "c",
        "ed"
      ],
      [
        "n",
        "er"
      ],
      [
        "in",
        "ce"
      ],
      [
        "e",
        "g"
      ],
      [
        "s",
        "ide"
      ],
      [
        "Ġw",
        "ant"
      ],
      [
        "Ġe",
        "ar"
      ],
      [
        "Ġpro",
        "v"
      ],
      [
        "t",
        "ext"
      ],
      [
        "Ġg",
        "u"
      ],
      [
        "C",
        "l"
      ],
      [
        "`",
        ","
      ],
      [
        "Ġpro",
        "pert"
      ],
      [
        "Ġa",
        "way"
      ],
      [
        "ar",
        "ch"
      ],
      [
        "Ġd",
        "et"
      ],
      [
        "ĠL",
        "E"
      ],
      [
        "Ġs",
        "erver"
      ],
      [
        "Ġt",
        "er"
      ],
      [
        "ĠThe",
        "y"
      ],
      [
        "ä",
        "º"
      ],
      [
        "Ġn",
        "umber"
      ],
      [
        "'",
        "ll"
      ],
      [
        "I",
        "s"
      ],
      [
        "Ġc",
        "oun"
      ],
      [
        "m",
        "y"
      ],
      [
        "pl",
        "oy"
      ],
      [
        "Ġunt",
        "o"
      ],
      [
        "Ġex",
        "ample"
      ],
      [
        "m",
        "ost"
      ],
      [
        "Ġ",
        "Ð"
      ],
      [
        "m",
        "b"
      ],
      [
        "Ġg",
        "iv"
      ],
      [
        "com",
        "p"
      ],
      [
        "ain",
        "ed"
      ],
      [
        "ĠG",
        "od"
      ],
      [
        "Ġs",
        "im"
      ],
      [
        "b",
        "ack"
      ],
      [
        "an",
        "e"
      ],
      [
        "c",
        "reate"
      ],
      [
        "l",
        "i"
      ],
      [
        "Ġf",
        "ind"
      ],
      [
        ")",
        ";"
      ],
      [
        "-",
        "@"
      ],
      [
        "Ġd",
        "ist"
      ],
      [
        "ent",
        "ly"
      ],
      [
        "Ġ1",
        "9"
      ],
      [
        "Ġ@",
        "-@"
      ],
      [
        "T",
        "H"
      ],
      [
        "t",
        "able"
      ],
      [
        "o",
        "ption"
      ],
      [
        "à",
        "§"
      ],
      [
        "Ġd",
        "el"
      ],
      [
        "Ġas",
        "k"
      ],
      [
        "Ġst",
        "y"
      ],
      [
        "s",
        "ub"
      ],
      [
        "Ġm",
        "ethod"
      ],
      [
        "val",
        "id"
      ],
      [
        "ãģ",
        "Ļ"
      ],
      [
        "s",
        "he"
      ],
      [
        "Ġap",
        "pe"
      ],
      [
        "Ġf",
        "riend"
      ],
      [
        "m",
        "e"
      ],
      [
        "Ġb",
        "oth"
      ],
      [
        "Ġhim",
        "self"
      ],
      [
        "ro",
        "ss"
      ],
      [
        "Ġex",
        "t"
      ],
      [
        "s",
        "el"
      ],
      [
        "Ġw",
        "ent"
      ],
      [
        "Ġdif",
        "fer"
      ],
      [
        "I",
        "D"
      ],
      [
        "Ġc",
        "ert"
      ],
      [
        "B",
        "ut"
      ],
      [
        "s",
        "ize"
      ],
      [
        "ur",
        "ing"
      ],
      [
        "av",
        "ing"
      ],
      [
        "Ġbre",
        "ak"
      ],
      [
        "Ġm",
        "in"
      ],
      [
        "Ð",
        "µ"
      ],
      [
        "Ġ",
        "å"
      ],
      [
        "Ġs",
        "pe"
      ],
      [
        "Ġel",
        "ement"
      ],
      [
        "um",
        "e"
      ],
      [
        "as",
        "ed"
      ],
      [
        "=",
        "'"
      ],
      [
        "b",
        "ut"
      ],
      [
        "n",
        "o"
      ],
      [
        "pl",
        "es"
      ],
      [
        "arg",
        "e"
      ],
      [
        "E",
        "D"
      ],
      [
        "Ġthe",
        "e"
      ],
      [
        "ain",
        "s"
      ],
      [
        "TT",
        "ER"
      ],
      [
        "ĠT",
        "o"
      ],
      [
        "I",
        "G"
      ],
      [
        "l",
        "p"
      ],
      [
        "t",
        "ed"
      ],
      [
        "im",
        "port"
      ],
      [
        "s",
        "w"
      ],
      [
        "Ġc",
        "ode"
      ],
      [
        "if",
        "ied"
      ],
      [
        "=",
        "="
      ],
      [
        "T",
        "M"
      ],
      [
        "Ġwor",
        "ld"
      ],
      [
        "Ġre",
        "qu"
      ],
      [
        "v",
        "iew"
      ],
      [
        "it",
        "le"
      ],
      [
        "ĠLE",
        "TTER"
      ],
      [
        "a",
        "im"
      ],
      [
        "t",
        "on"
      ],
      [
        "Ġey",
        "es"
      ],
      [
        ";",
        "&"
      ],
      [
        "it",
        "er"
      ],
      [
        "Ġh",
        "ouse"
      ],
      [
        "st",
        "em"
      ],
      [
        "object",
        "s"
      ],
      [
        "c",
        "i"
      ],
      [
        "h",
        "n"
      ],
      [
        "Ġm",
        "ind"
      ],
      [
        "lo",
        "se"
      ],
      [
        "6",
        "4"
      ],
      [
        "re",
        "nt"
      ],
      [
        "Ġp",
        "ers"
      ],
      [
        "Ġ_",
        "_"
      ],
      [
        "Ġan",
        "other"
      ],
      [
        "H",
        "e"
      ],
      [
        "o",
        "in"
      ],
      [
        "Ġt",
        "urn"
      ],
      [
        "Ġcont",
        "in"
      ],
      [
        "iv",
        "ed"
      ],
      [
        "Ġbet",
        "ween"
      ],
      [
        "om",
        "an"
      ],
      [
        "are",
        "nt"
      ],
      [
        "odu",
        "le"
      ],
      [
        "\"",
        "),"
      ],
      [
        "Ġw",
        "ar"
      ],
      [
        "Ġbe",
        "h"
      ],
      [
        "v",
        "en"
      ],
      [
        "Ġd",
        "on"
      ],
      [
        "cc",
        "ess"
      ],
      [
        "b",
        "u"
      ],
      [
        "Ġc",
        "heck"
      ],
      [
        "Ġex",
        "cept"
      ],
      [
        "Ref",
        "erence"
      ],
      [
        "Ġpos",
        "s"
      ],
      [
        "I",
        "C"
      ],
      [
        "ãĢ",
        "ģ"
      ],
      [
        "Ġcall",
        "ed"
      ],
      [
        "Ġfun",
        "ction"
      ],
      [
        "p",
        "ec"
      ],
      [
        "Ġs",
        "ur"
      ],
      [
        "Ġp",
        "od"
      ],
      [
        "Ġal",
        "ways"
      ],
      [
        "Ġagain",
        "st"
      ],
      [
        "ĠE",
        "x"
      ],
      [
        "eng",
        "th"
      ],
      [
        "d",
        "is"
      ],
      [
        "as",
        "es"
      ],
      [
        "im",
        "al"
      ],
      [
        "Ġhe",
        "art"
      ],
      [
        "th",
        "on"
      ],
      [
        "Ġ1",
        "0"
      ],
      [
        "Ġo",
        "s"
      ],
      [
        "m",
        "ed"
      ],
      [
        "Ġs",
        "ign"
      ],
      [
        "Ġyou",
        "ng"
      ],
      [
        "Ġg",
        "ive"
      ],
      [
        "r",
        "un"
      ],
      [
        "Ġb",
        "o"
      ],
      [
        "Ġon",
        "ce"
      ],
      [
        "Ġc",
        "re"
      ],
      [
        "Ġf",
        "ar"
      ],
      [
        "Ġ",
        "8"
      ],
      [
        "Ġf",
        "in"
      ],
      [
        "Ġn",
        "or"
      ],
      [
        "id",
        "er"
      ],
      [
        "Ġst",
        "ate"
      ],
      [
        "ub",
        "l"
      ],
      [
        "Ġe",
        "ver"
      ],
      [
        "olic",
        "y"
      ],
      [
        "1",
        "9"
      ],
      [
        "Y",
        "ou"
      ],
      [
        "Ġn",
        "ear"
      ],
      [
        "em",
        "pt"
      ],
      [
        "ers",
        "ion"
      ],
      [
        "I",
        "f"
      ],
      [
        "e",
        "qual"
      ],
      [
        "Ġp",
        "le"
      ],
      [
        "(",
        "),"
      ],
      [
        "C",
        "ont"
      ],
      [
        "Ġ",
        "æ"
      ],
      [
        "Ġd",
        "irect"
      ],
      [
        "Ġre",
        "p"
      ],
      [
        "Ġtr",
        "ue"
      ],
      [
        "e",
        "y"
      ],
      [
        "y",
        "p"
      ],
      [
        "ow",
        "ed"
      ],
      [
        "ĠC",
        "on"
      ],
      [
        "k",
        "en"
      ],
      [
        "th",
        "ing"
      ],
      [
        "Ġ>",
        "}}"
      ],
      [
        "it",
        "ies"
      ],
      [
        "Ġp",
        "ut"
      ],
      [
        "Ġn",
        "ight"
      ],
      [
        "uth",
        "or"
      ],
      [
        "ĠA",
        "l"
      ],
      [
        "Ġk",
        "ind"
      ],
      [
        "kub",
        "ectl"
      ],
      [
        "ust",
        "om"
      ],
      [
        "Ġth",
        "ree"
      ],
      [
        "A",
        "N"
      ],
      [
        "ĠT",
        "rue"
      ],
      [
        "t",
        "es"
      ],
      [
        "ĠA",
        "s"
      ],
      [
        "ou",
        "d"
      ],
      [
        "Ġf",
        "il"
      ],
      [
        "Ġlo",
        "ve"
      ],
      [
        "Ġf",
        "ail"
      ],
      [
        "ac",
        "he"
      ],
      [
        "lo",
        "b"
      ],
      [
        "iz",
        "ed"
      ],
      [
        "O",
        "M"
      ],
      [
        "Ġl",
        "ight"
      ],
      [
        "ap",
        "s"
      ],
      [
        "Ġle",
        "ft"
      ],
      [
        "com",
        "m"
      ],
      [
        "Ġf",
        "ace"
      ],
      [
        "Ġv",
        "is"
      ],
      [
        "ĠB",
        "r"
      ],
      [
        "Ġt",
        "ell"
      ],
      [
        "Ġd",
        "one"
      ],
      [
        "ĠA",
        "n"
      ],
      [
        "Ġpo",
        "int"
      ],
      [
        "Ġ",
        "error"
      ],
      [
        "Ġs",
        "ing"
      ],
      [
        "Ġre",
        "st"
      ],
      [
        "alue",
        "Error"
      ],
      [
        "c",
        "all"
      ],
      [
        "i",
        "et"
      ],
      [
        "m",
        "odel"
      ],
      [
        "ĠY",
        "ou"
      ],
      [
        "d",
        "ate"
      ],
      [
        "è",
        "®"
      ],
      [
        "Ġs",
        "cript"
      ],
      [
        "ig",
        "in"
      ],
      [
        "ĠThe",
        "re"
      ],
      [
        "ĠW",
        "hen"
      ],
      [
        "Ġop",
        "en"
      ],
      [
        "Ġf",
        "ather"
      ],
      [
        "Ġd",
        "type"
      ],
      [
        "ad",
        "ata"
      ],
      [
        "Ġre",
        "f"
      ],
      [
        "ht",
        "ml"
      ],
      [
        "Ġdis",
        "c"
      ],
      [
        "TT",
        "P"
      ],
      [
        "Ġsty",
        "le"
      ],
      [
        "Ġth",
        "ough"
      ],
      [
        "Ġin",
        "clud"
      ],
      [
        "ãĤ",
        "Ĵ"
      ],
      [
        "b",
        "ar"
      ],
      [
        "c",
        "hed"
      ],
      [
        "r",
        "u"
      ],
      [
        "--",
        "-"
      ],
      [
        "Ġus",
        "er"
      ],
      [
        "p",
        "re"
      ],
      [
        "t",
        "en"
      ],
      [
        "ess",
        "age"
      ],
      [
        "pl",
        "ace"
      ],
      [
        "\"",
        "]"
      ],
      [
        "V",
        "ersion"
      ],
      [
        "s",
        "er"
      ],
      [
        "Ġ",
        "i"
      ],
      [
        "Ġs",
        "k"
      ],
      [
        "Ġf",
        "am"
      ],
      [
        "Ġor",
        "der"
      ],
      [
        "end",
        "ed"
      ],
      [
        "F",
        "alse"
      ],
      [
        "Ġcon",
        "n"
      ],
      [
        "Ġunt",
        "il"
      ],
      [
        "T",
        "his"
      ],
      [
        "c",
        "ss"
      ],
      [
        "w",
        "as"
      ],
      [
        "Ã",
        "©"
      ],
      [
        "Ġ",
        "âĢ"
      ],
      [
        "Ġc",
        "le"
      ],
      [
        "ut",
        "e"
      ],
      [
        "Ġe",
        "ff"
      ],
      [
        "ĭ",
        "¤"
      ],
      [
        "Ġc",
        "ase"
      ],
      [
        "Ġp",
        "ath"
      ],
      [
        "Ġth",
        "ings"
      ],
      [
        "Ġen",
        "c"
      ],
      [
        "Ġval",
        "ues"
      ],
      [
        "p",
        "art"
      ],
      [
        "u",
        "ally"
      ],
      [
        "Ġpr",
        "ot"
      ],
      [
        "Ġ",
        "z"
      ],
      [
        "it",
        "em"
      ],
      [
        "ĠTh",
        "at"
      ],
      [
        "b",
        "l"
      ],
      [
        "Ġ",
        "7"
      ],
      [
        "Ġc",
        "o"
      ],
      [
        "iv",
        "es"
      ],
      [
        "s",
        "erv"
      ],
      [
        "lo",
        "g"
      ],
      [
        "Ġc",
        "or"
      ],
      [
        "Ġh",
        "app"
      ],
      [
        "ir",
        "on"
      ],
      [
        "oc",
        "al"
      ],
      [
        "ant",
        "s"
      ],
      [
        "ak",
        "es"
      ],
      [
        "ock",
        "et"
      ],
      [
        "Ġyear",
        "s"
      ],
      [
        "c",
        "heck"
      ],
      [
        "Ġa",
        "v"
      ],
      [
        "in",
        "fo"
      ],
      [
        "it",
        "ed"
      ],
      [
        "ce",
        "ption"
      ],
      [
        "Ġnot",
        "hing"
      ],
      [
        "sp",
        "an"
      ],
      [
        "b",
        "ed"
      ],
      [
        "Ġst",
        "and"
      ],
      [
        "in",
        "ess"
      ],
      [
        "Ġo",
        "cc"
      ],
      [
        "le",
        "t"
      ],
      [
        "2",
        "5"
      ],
      [
        "3",
        "4"
      ],
      [
        "he",
        "ad"
      ],
      [
        "Ġn",
        "ext"
      ],
      [
        "ag",
        "er"
      ],
      [
        "Ġsa",
        "w"
      ],
      [
        "Ġ",
        "à¦"
      ],
      [
        "ĠW",
        "h"
      ],
      [
        "al",
        "f"
      ],
      [
        "Ġar",
        "t"
      ],
      [
        "ĠJ",
        "o"
      ],
      [
        "Ġev",
        "ent"
      ],
      [
        "ãĥ¼",
        "ãĥ"
      ],
      [
        "m",
        "iss"
      ],
      [
        "ä¸",
        "ª"
      ],
      [
        "{{",
        "<"
      ],
      [
        "3",
        "2"
      ],
      [
        "em",
        "ents"
      ],
      [
        "Ġfollow",
        "ing"
      ],
      [
        "E",
        "L"
      ],
      [
        "re",
        "m"
      ],
      [
        "--------",
        "--------"
      ],
      [
        "Ġpres",
        "ent"
      ],
      [
        "Ġs",
        "ent"
      ],
      [
        "Ġs",
        "erv"
      ],
      [
        "st",
        "and"
      ],
      [
        "ac",
        "es"
      ],
      [
        "ri",
        "v"
      ],
      [
        "ure",
        "d"
      ],
      [
        "d",
        "iv"
      ],
      [
        "Ġm",
        "et"
      ],
      [
        "Ġm",
        "od"
      ],
      [
        "le",
        "ct"
      ],
      [
        "ter",
        "n"
      ],
      [
        "op",
        "y"
      ],
      [
        "ple",
        "ment"
      ],
      [
        "pt",
        "ions"
      ],
      [
        "ä¸",
        "Ģ"
      ],
      [
        "r",
        "ist"
      ],
      [
        "Ġwh",
        "om"
      ],
      [
        "ĠF",
        "alse"
      ],
      [
        ".",
        ","
      ],
      [
        "T",
        "o"
      ],
      [
        "i",
        "ver"
      ],
      [
        "Ġw",
        "ind"
      ],
      [
        "tribut",
        "e"
      ],
      [
        "Ġcon",
        "tr"
      ],
      [
        "Ġ1",
        "8"
      ],
      [
        "u",
        "ck"
      ],
      [
        "ab",
        "el"
      ],
      [
        "p",
        "ace"
      ],
      [
        "en",
        "se"
      ],
      [
        "Ġf",
        "ew"
      ],
      [
        "Ġg",
        "re"
      ],
      [
        "ĠW",
        "hat"
      ],
      [
        "Ġh",
        "igh"
      ],
      [
        "ĠH",
        "ow"
      ],
      [
        "wr",
        "ap"
      ],
      [
        "g",
        "ener"
      ],
      [
        "Ð",
        "¾"
      ],
      [
        ".",
        "</"
      ],
      [
        "Ġa",
        "ff"
      ],
      [
        "ĠA",
        "t"
      ],
      [
        "Ġex",
        "c"
      ],
      [
        "eth",
        "ing"
      ],
      [
        "Ġm",
        "o"
      ],
      [
        "Ġ`",
        "`"
      ],
      [
        "Ġs",
        "w"
      ],
      [
        "el",
        "t"
      ],
      [
        "cont",
        "ext"
      ],
      [
        "d",
        "d"
      ],
      [
        "Ġm",
        "er"
      ],
      [
        "Ġh",
        "um"
      ],
      [
        "Ġcon",
        "fig"
      ],
      [
        "at",
        "ic"
      ],
      [
        "at",
        "tr"
      ],
      [
        "ir",
        "d"
      ],
      [
        "ord",
        "er"
      ],
      [
        "Ġcan",
        "not"
      ],
      [
        "plic",
        "ation"
      ],
      [
        "n",
        "ames"
      ],
      [
        "o",
        "ot"
      ],
      [
        "Ġp",
        "ort"
      ],
      [
        "Ġre",
        "fer"
      ],
      [
        "Ġtr",
        "ans"
      ],
      [
        "sel",
        "ves"
      ],
      [
        ".",
        "'"
      ],
      [
        "W",
        "e"
      ],
      [
        "d",
        "e"
      ],
      [
        "å",
        "Ĭ"
      ],
      [
        "Ġreturn",
        "ed"
      ],
      [
        "Ġs",
        "elect"
      ],
      [
        "Ġp",
        "ur"
      ],
      [
        "Ġ[",
        "`"
      ],
      [
        "Ġse",
        "en"
      ],
      [
        "get",
        "her"
      ],
      [
        "Ġcon",
        "d"
      ],
      [
        "pl",
        "ied"
      ],
      [
        "ult",
        "i"
      ],
      [
        "cri",
        "ption"
      ],
      [
        "Ġdoc",
        "ument"
      ],
      [
        "r",
        "ow"
      ],
      [
        "t",
        "itle"
      ],
      [
        "ou",
        "b"
      ],
      [
        "id",
        "ed"
      ],
      [
        "ĠA",
        "r"
      ],
      [
        "Ġsm",
        "all"
      ],
      [
        "C",
        "E"
      ],
      [
        "Ġm",
        "odel"
      ],
      [
        "ĠP",
        "ar"
      ],
      [
        "Ġke",
        "ep"
      ],
      [
        "empl",
        "ate"
      ],
      [
        "N",
        "ot"
      ],
      [
        "S",
        "cript"
      ],
      [
        "d",
        "ay"
      ],
      [
        "t",
        "body"
      ],
      [
        "ç",
        "»"
      ],
      [
        "H",
        "E"
      ],
      [
        "n",
        "p"
      ],
      [
        "our",
        "ces"
      ],
      [
        "ak",
        "en"
      ],
      [
        "Ġde",
        "v"
      ],
      [
        "x",
        "y"
      ],
      [
        "Ñ",
        "Ĥ"
      ],
      [
        "Ġ",
        "9"
      ],
      [
        "Ġt",
        "e"
      ],
      [
        "Ġt",
        "ri"
      ],
      [
        "Ġa",
        "w"
      ],
      [
        "Ġs",
        "er"
      ],
      [
        "ĠĠĠĠĠĠĠĠ",
        "ĠĠ"
      ],
      [
        "Ġf",
        "ell"
      ],
      [
        "__",
        "("
      ],
      [
        "A",
        "t"
      ],
      [
        "c",
        "le"
      ],
      [
        "l",
        "s"
      ],
      [
        "s",
        "cript"
      ],
      [
        "in",
        "it"
      ],
      [
        "Ġs",
        "ide"
      ],
      [
        "Ġm",
        "on"
      ],
      [
        "Ġth",
        "ing"
      ],
      [
        "c",
        "ur"
      ],
      [
        "or",
        "age"
      ],
      [
        "A",
        "A"
      ],
      [
        "P",
        "od"
      ],
      [
        "[",
        "\""
      ],
      [
        "l",
        "er"
      ],
      [
        "is",
        "ter"
      ],
      [
        "read",
        "y"
      ],
      [
        "Ġam",
        "ong"
      ],
      [
        "ib",
        "ility"
      ],
      [
        "Ġbet",
        "ter"
      ],
      [
        "å",
        "ľ"
      ],
      [
        "Ġin",
        "form"
      ],
      [
        "ad",
        "y"
      ],
      [
        "Ġwho",
        "le"
      ],
      [
        "n",
        "s"
      ],
      [
        "Ġs",
        "il"
      ],
      [
        "Ġg",
        "ot"
      ],
      [
        "A",
        "B"
      ],
      [
        "Ġ",
        "Q"
      ],
      [
        "Ġc",
        "reate"
      ],
      [
        "Ġhe",
        "lp"
      ],
      [
        "ol",
        "y"
      ],
      [
        "ä¸",
        "º"
      ],
      [
        "TM",
        "L"
      ],
      [
        "he",
        "ight"
      ],
      [
        "ur",
        "ation"
      ],
      [
        "1",
        "5"
      ],
      [
        "m",
        "a"
      ],
      [
        "at",
        "s"
      ],
      [
        "at",
        "us"
      ],
      [
        "Ġv",
        "iew"
      ],
      [
        "ĠE",
        "ng"
      ],
      [
        "Ġdiffer",
        "ent"
      ],
      [
        "N",
        "ame"
      ],
      [
        "o",
        "ff"
      ],
      [
        "p",
        "oint"
      ],
      [
        "Ġp",
        "ower"
      ],
      [
        "Ġto",
        "ok"
      ],
      [
        "tr",
        "ue"
      ],
      [
        "Ġ1",
        "2"
      ],
      [
        "us",
        "ed"
      ],
      [
        "ows",
        "er"
      ],
      [
        "R",
        "e"
      ],
      [
        "Ġex",
        "ist"
      ],
      [
        "/",
        ")"
      ],
      [
        "g",
        "er"
      ],
      [
        "re",
        "g"
      ],
      [
        "ĠThe",
        "n"
      ],
      [
        "%",
        ";"
      ],
      [
        "F",
        "ield"
      ],
      [
        "Ġl",
        "ess"
      ],
      [
        "am",
        "b"
      ],
      [
        "ward",
        "s"
      ],
      [
        "E",
        "T"
      ],
      [
        "a",
        "ff"
      ],
      [
        "Ġ",
        "et"
      ],
      [
        "am",
        "ples"
      ],
      [
        "ce",
        "ed"
      ],
      [
        "Ġy",
        "e"
      ],
      [
        "Ġh",
        "ard"
      ],
      [
        "Ġn",
        "ames"
      ],
      [
        "Ġcert",
        "ain"
      ],
      [
        "l",
        "ike"
      ],
      [
        "Ġb",
        "est"
      ],
      [
        "st",
        "art"
      ],
      [
        "Ġl",
        "and"
      ],
      [
        "Ġan",
        "sw"
      ],
      [
        "un",
        "t"
      ],
      [
        "ĠN",
        "o"
      ],
      [
        "Ġword",
        "s"
      ],
      [
        "Ġchar",
        "ac"
      ],
      [
        "u",
        "c"
      ],
      [
        "Ġa",
        "ut"
      ],
      [
        "Ġb",
        "ody"
      ],
      [
        "Ġf",
        "ull"
      ],
      [
        "pl",
        "ay"
      ],
      [
        "cont",
        "ent"
      ],
      [
        "def",
        "ault"
      ],
      [
        "T",
        "E"
      ],
      [
        "Ġc",
        "are"
      ],
      [
        "Ġh",
        "t"
      ],
      [
        "end",
        "ing"
      ],
      [
        "Ġk",
        "ing"
      ],
      [
        "Ġpropert",
        "y"
      ],
      [
        "Ġs",
        "at"
      ],
      [
        "at",
        "ely"
      ],
      [
        "Ġw",
        "ater"
      ],
      [
        "ab",
        "ly"
      ],
      [
        "us",
        "h"
      ],
      [
        "**",
        "**"
      ],
      [
        "Ġcomm",
        "and"
      ],
      [
        "wh",
        "ich"
      ],
      [
        "ploy",
        "ment"
      ],
      [
        "æ",
        "Ī"
      ],
      [
        "Ġa",
        "x"
      ],
      [
        "an",
        "n"
      ],
      [
        "ãĥ",
        "³"
      ],
      [
        "ä¸",
        "Ń"
      ],
      [
        "Ġh",
        "our"
      ],
      [
        "am",
        "ed"
      ],
      [
        "ĠS",
        "ee"
      ],
      [
        "Ġsec",
        "ond"
      ],
      [
        "b",
        "ject"
      ],
      [
        "o",
        "ice"
      ],
      [
        "u",
        "id"
      ],
      [
        "y",
        "ou"
      ],
      [
        "Ġo",
        "per"
      ],
      [
        "Ġsu",
        "re"
      ],
      [
        "Ġexp",
        "ress"
      ],
      [
        "Ġcur",
        "rent"
      ],
      [
        "`",
        "](/"
      ],
      [
        "m",
        "en"
      ],
      [
        "Ġs",
        "ize"
      ],
      [
        "am",
        "s"
      ],
      [
        "res",
        "p"
      ],
      [
        "è",
        "¡"
      ],
      [
        "re",
        "qu"
      ],
      [
        "am",
        "l"
      ],
      [
        "ain",
        "er"
      ],
      [
        "op",
        "s"
      ],
      [
        "amet",
        "ers"
      ],
      [
        "Ġgiv",
        "en"
      ],
      [
        "m",
        "d"
      ],
      [
        "t",
        "p"
      ],
      [
        "id",
        "th"
      ],
      [
        "ref",
        "ore"
      ],
      [
        "fo",
        "o"
      ],
      [
        "A",
        "D"
      ],
      [
        "u",
        "ple"
      ],
      [
        "1",
        "6"
      ],
      [
        "s",
        "ec"
      ],
      [
        "Ġ",
        "es"
      ],
      [
        "Ġcon",
        "f"
      ],
      [
        "Ġobject",
        "s"
      ],
      [
        "Ð",
        "¸"
      ],
      [
        "Ġin",
        "c"
      ],
      [
        "d",
        "ev"
      ],
      [
        "p",
        "k"
      ],
      [
        "w",
        "eb"
      ],
      [
        "ic",
        "s"
      ],
      [
        "lo",
        "s"
      ],
      [
        "å",
        "º"
      ],
      [
        "Ġb",
        "ook"
      ],
      [
        "Ġpl",
        "ay"
      ],
      [
        "t",
        "le"
      ],
      [
        "ë",
        "ĭ¤"
      ],
      [
        "Ġ",
        "version"
      ],
      [
        "Ġwith",
        "in"
      ],
      [
        "assert",
        "Is"
      ],
      [
        "pp",
        "ort"
      ],
      [
        "I",
        "L"
      ],
      [
        "ac",
        "hed"
      ],
      [
        "Ġpos",
        "ition"
      ],
      [
        "ìĿ",
        "´"
      ],
      [
        "Ġcour",
        "se"
      ],
      [
        "d",
        "ict"
      ],
      [
        "r",
        "c"
      ],
      [
        "v",
        "iron"
      ],
      [
        "Ġs",
        "ince"
      ],
      [
        "ĠĠĠĠĠĠĠĠ",
        "ĠĠĠĠĠ"
      ],
      [
        "ol",
        "ume"
      ],
      [
        "ĠP",
        "y"
      ],
      [
        "Ġchild",
        "ren"
      ],
      [
        "A",
        "M"
      ],
      [
        "g",
        "ed"
      ],
      [
        "k",
        "n"
      ],
      [
        "m",
        "ax"
      ],
      [
        "Ġb",
        "ro"
      ],
      [
        "ut",
        "ion"
      ],
      [
        "ur",
        "ity"
      ],
      [
        "ãģ",
        "¾"
      ],
      [
        "cl",
        "ient"
      ],
      [
        "met",
        "adata"
      ],
      [
        "h",
        "and"
      ],
      [
        "et",
        "s"
      ],
      [
        "Ġre",
        "ce"
      ],
      [
        "Ġ`",
        "``"
      ],
      [
        "ãģ",
        "«"
      ],
      [
        "c",
        "ount"
      ],
      [
        "Ġy",
        "ang"
      ],
      [
        "AL",
        "L"
      ],
      [
        "i",
        "ef"
      ],
      [
        "p",
        "od"
      ],
      [
        "1",
        "8"
      ],
      [
        "Ġf",
        "act"
      ],
      [
        "ĠJo",
        "hn"
      ],
      [
        "R",
        "es"
      ],
      [
        "i",
        "or"
      ],
      [
        "he",
        "l"
      ]
    ]
  }
}