{
  "version": "1.0",
  "truncation": null,
  "padding": null,
  "added_tokens": [],
  "normalizer": null,
  "pre_tokenizer": {
    "type": "ByteLevel",
    "add_prefix_space": false,
    "trim_offsets": true,
    "use_regex": true
  },
  "post_processor": null,
  "decoder": {
    "type": "ByteLevel",
    "add_prefix_space": true,
    "trim_offsets": true,
    "use_regex": true
  },
  "model": {
    "type": "BPE",
    "dropout": null,
    "unk_token": null,
    "continuing_subword_prefix": null,
    "end_of_word_suffix": null,
    "fuse_unk": false,
    "byte_fallback": false,
    "ignore_merges": false,
    "vocab": {
      "!": 0,
      "\"": 1,
      "#": 2,
      "$": 3,
      "%": 4,
      "&": 5,
      "'": 6,
      "(": 7,
      ")": 8,
      "*": 9,
      "+": 10,
      ",": 11,
      "-": 12,
      ".": 13,
      "/": 14,
      "0": 15,
      "1": 16,
      "2": 17,
      "3": 18,
      "4": 19,
      "5": 20,
      "6": 21,
      "7": 22,
      "8": 23,
      "9": 24,
      ":": 25,
      ";": 26,
      "<": 27,
      "=": 28,
      ">": 29,
      "?": 30,
      "@": 31,
      "A": 32,
      "B": 33,
      "C": 34,
      "D": 35,
      "E": 36,
      "F": 37,
      "G": 38,
      "H": 39,
      "I": 40,
      "J": 41,
      "K": 42,
      "L": 43,
      "M": 44,
      "N": 45,
      "O": 46,
      "P": 47,
      "Q": 48,
      "R": 49,
      "S": 50,
      "T": 51,
      "U": 52,
      "V": 53,
      "W": 54,
      "X": 55,
      "Y": 56,
      "Z": 57,
      "[": 58,
      "\\": 59,
      "]": 60,
      "^": 61,
      "_": 62,
      "`": 63,
      "a": 64,
      "b": 65,
      "c": 66,
      "d": 67,
      "e": 68,
      "f": 69,
      "g": 70,
      "h": 71,
      "i": 72,
      "j": 73,
      "k": 74,
      "l": 75,
      "m": 76,
      "n": 77,
      "o": 78,
      "p": 79,
      "q": 80,
      "r": 81,
      "s": 82,
      "t": 83,
      "u": 84,
      "v": 85,
      "w": 86,
      "x": 87,
      "y": 88,
      "z": 89,
      "{": 90,
      "|": 91,
      "}": 92,
      "~": 93,
      "¡": 94,
      "¢": 95,
      "£": 96,
      "¤": 97,
      "¥": 98,
      "¦": 99,
      "§": 100,
      "¨": 101,
      "©": 102,
      "ª": 103,
      "«": 104,
      "¬": 105,
      "®": 106,
      "¯": 107,
      "°": 108,
      "±": 109,
      "²": 110,
      "³": 111,
      "´": 112,
      "µ": 113,
      "¶": 114,
      "·": 115,
      "¸": 116,
      "¹": 117,
      "º": 118,
      "»": 119,
      "¼": 120,
      "½": 121,
      "¾": 122,
      "¿": 123,
      "À": 124,
      "Á": 125,
      "Â": 126,
      "Ã": 127,
      "Ä": 128,
      "Å": 129,
      "Æ": 130,
      "Ç": 131,
      "È": 132,
      "É": 133,
      "Ê": 134,
      "Ë": 135,
      "Ì": 136,
      "Í": 137,
      "Î": 138,
      "Ï": 139,
      "Ð": 140,
      "Ñ": 141,
      "Ò": 142,
      "Ó": 143,
      "Ô": 144,
      "Õ": 145,
      "Ö": 146,
      "×": 147,
      "Ø": 148,
      "Ù": 149,
      "Ú": 150,
      "Û": 151,
      "Ü": 152,
      "Ý": 153,
      "Þ": 154,
      "ß": 155,
      "à": 156,
      "á": 157,
      "â": 158,
      "ã": 159,
      "ä": 160,
      "å": 161,
      "æ": 162,
      "ç": 163,
      "è": 164,
      "é": 165,
      "ê": 166,
      "ë": 167,
      "ì": 168,
      "í": 169,
      "î": 170,
      "ï": 171,
      "ð": 172,
      "ñ": 173,
      "ò": 174,
      "ó": 175,
      "ô": 176,
      "õ": 177,
      "ö": 178,
      "÷": 179,
      "ø": 180,
      "ù": 181,
      "ú": 182,
      "û": 183,
      "ü": 184,
      "ý": 185,
      "þ": 186,
      "ÿ": 187,
      "Ā": 188,
      "ā": 189,
      "Ă": 190,
      "ă": 191,
      "Ą": 192,
      "ą": 193,
      "Ć": 194,
      "ć": 195,
      "Ĉ": 196,
      "ĉ": 197,
      "Ċ": 198,
      "ċ": 199,
      "Č": 200,
      "č": 201,
      "Ď": 202,
      "ď": 203,
      "Đ": 204,
      "đ": 205,
      "Ē": 206,
      "ē": 207,
      "Ĕ": 208,
      "ĕ": 209,
      "Ė": 210,
      "ė": 211,
      "Ę": 212,
      "ę": 213,
      "Ě": 214,
      "ě": 215,
      "Ĝ": 216,
      "ĝ": 217,
      "Ğ": 218,
      "ğ": 219,
      "Ġ": 220,
      "ġ": 221,
      "Ģ": 222,
      "ģ": 223,
      "Ĥ": 224,
      "ĥ": 225,
      "Ħ": 226,
      "ħ": 227,
      "Ĩ": 228,
      "ĩ": 229,
      "Ī": 230,
      "ī": 231,
      "Ĭ": 232,
      "ĭ": 233,
      "Į": 234,
      "į": 235,
      "İ": 236,
      "ı": 237,
      "Ĳ": 238,
      "ĳ": 239,
      "Ĵ": 240,
      "ĵ": 241,
      "Ķ": 242,
      "ķ": 243,
      "ĸ": 244,
      "Ĺ": 245,
      "ĺ": 246,
      "Ļ": 247,
      "ļ": 248,
      "Ľ": 249,
      "ľ": 250,
      "Ŀ": 251,
      "ŀ": 252,
      "Ł": 253,
      "ł": 254,
      "Ń": 255,
      "ĠĠ": 256,
      "ĠĠĠĠ": 257,
      "Ġt": 258,
      "he": 259,
      "Ġa": 260,
      "in": 261,
      "er": 262,
      "čĊ": 263,
      "re": 264,
      "Ġs": 265,
      "on": 266,
      "Ġthe": 267,
      "Ġw": 268,
      "at": 269,
      "ĠĠĠ": 270,
      "Ġo": 271,
      "en": 272,
      "es": 273,
      "is": 274,
      "or": 275,
      "it": 276,
      "nd": 277,
      "ed": 278,
      "Ġc": 279,
      "ĠĠĠĠĠĠĠĠ": 280,
      "ou": 281,
      "Ġb": 282,
      "Ġf": 283,
      "el": 284,
      "Ġm": 285,
      "ar": 286,
      "as": 287,
      "al": 288,
      "ing": 289,
      "Ġd": 290,
      "an": 291,
      "Ġh": 292,
      "Ġof": 293,
      "Ġp": 294,
      "le": 295,
      "Ġto": 296,
      "Ġand": 297,
      "Ġin": 298,
      "ĠĠĠĠĠĠĠ": 299,
      "Ġth": 300,
      "Ġn": 301,
      "om": 302,
      "et": 303,
      "ion": 304,
      "ic": 305,
      "st": 306,
      "Ġl": 307,
      "ent": 308,
      "ad": 309,
      "il": 310,
      "ot": 311,
      "Ġre": 312,
      "ut": 313,
      "ec": 314,
      "am": 315,
      "im": 316,
      "od": 317,
      "ow": 318,
      "Ġhe": 319,
      "ce": 320,
      "--": 321,
      "elf": 322,
      "id": 323,
      "ĠI": 324,
      "Ġe": 325,
      "Ġg": 326,
      "Ġ\"": 327,
      "ur": 328,
      "se": 329,
      "Ġu": 330,
      "Ġbe": 331,
      "ol": 332,
      "ig": 333,
      "ver": 334,
      "ĠT": 335,
      "ve": 336,
      "ith": 337,
      "ly": 338,
      "est": 339,
      "Ġ=": 340,
      "Ġis": 341,
      "ĠĠĠĠĠĠĠĠĠĠĠ": 342,
      "ac": 343,
      "Ġfor": 344,
      "ay": 345,
      "tr": 346,
      "Ġthat": 347,
      "ir": 348,
      "if": 349,
      "Ġy": 350,
      "Ġas": 351,
      "qu": 352,
      "Ġon": 353,
      "ro": 354,
      "Ġwh": 355,
      "Ġit": 356,
      "ter": 357,
      "Ġwith": 358,
      "ul": 359,
      "ĠA": 360,
      "ass": 361,
      "Ġself": 362,
      "Ġde": 363,
      "ĠS": 364,
      "and": 365,
      "Ġwas": 366,
      "em": 367,
      "ht": 368,
      "ect": 369,
      "ch": 370,
      "th": 371,
      "ert": 372,
      "ag": 373,
      "ain": 374,
      "ation": 375,
      "ab": 376,
      "ap": 377,
      "ld": 378,
      "her": 379,
      "Ġyou": 380,
      "Ġan": 381,
      "Ġal": 382,
      "Ġnot": 383,
      "Ġst": 384,
      "Ġ'": 385,
      "Ġcon": 386,
      "Ġr": 387,
      "ame": 388,
      "un": 389,
      "ke": 390,
      "ĠC": 391,
      "</": 392,
      "res": 393,
      "oc": 394,
      "ãģ": 395,
      "Ġhis": 396,
      "ess": 397,
      "ate": 398,
      "Ġv": 399,
      "00": 400,
      "ill": 401,
      "ub": 402,
      "um": 403,
      "Ġ(": 404,
      "pt": 405,
      "rom": 406,
      "ri": 407,
      "ĠM": 408,
      "ex": 409,
      "ĠĠĠĠĠĠĠĠĠĠĠĠĠĠĠĠ": 410,
      "):": 411,
      "ue": 412,
      "all": 413,
      "ĠThe": 414,
      "ore": 415,
      "self": 416,
      "Ġ`": 417,
      "pe": 418,
      "Ġex": 419,
      "ers": 420,
      "us": 421,
      "Ġ1": 422,
      "Ġat": 423,
      "Ġsh": 424,
      "ĠP": 425,
      "ave": 426,
      "ort": 427,
      "ĠH": 428,
      "ould": 429,
      "ĠB": 430,
      "Ġor": 431,
      "ct": 432,
      "ist": 433,
      "end": 434,
      "Ġby": 435,
      "ight": 436,
      "pl": 437,
      "our": 438,
      "os": 439,
      "ich": 440,
      "ĠW": 441,
      "Ġdef": 442,
      "'s": 443,
      "),": 444,
      "Ġ#": 445,
      "\",": 446,
      "to": 447,
      "one": 448,
      "assert": 449,
      "Ġhad": 450,
      "Ġk": 451,
      "ust": 452,
      "Ġcom": 453,
      "ĠN": 454,
      "``": 455,
      "Ġfrom": 456,
      "Ġ[": 457,
      "oo": 458,
      "ãĥ": 459,
      "Ġif": 460,
      "Ġthis": 461,
      "##": 462,
      "ĠL": 463,
      "td": 464,
      "art": 465,
      "ple": 466,
      "Ġse": 467,
      "the": 468,
      "Ġare": 469,
      "ãĤ": 470,
      "Ġwe": 471,
      "ĠF": 472,
      "Ġall": 473,
      "ard": 474,
      "ew": 475,
      "ĠĠĠĠĠĠĠĠĠĠĠĠĠĠĠ": 476,
      "con": 477,
      "Ġsu": 478,
      "ind": 479,
      "ode": 480,
      "urn": 481,
      "Ġwhich": 482,
      "ĠD": 483,
      "Ġme": 484,
      "Ġhave": 485,
      "ant": 486,
      "()": 487,
      "nt": 488,
      "Ġher": 489,
      "out": 490,
      "cl": 491,
      "ord": 492,
      "iv": 493,
      "ine": 494,
      "ell": 495,
      "\")": 496,
      "Ġ_": 497,
      "ang": 498,
      "Ġwhe": 499,
      "Ġch": 500,
      "Ġbut": 501,
      "ure": 502,
      "Ġmy": 503,
      "Ġ{": 504,
      "ere": 505,
      "Ġhim": 506,
      "(\"": 507,
      "oug": 508,
      "pp": 509,
      "ity": 510,
      "able": 511,
      "=\"": 512,
      "age": 513,
      "ĠR": 514,
      "Ġ<": 515,
      "ack": 516,
      "Ġso": 517,
      "ment": 518,
      "ult": 519,
      "',": 520,
      "ĠE": 521,
      "Ġus": 522,
      "Ġtr": 523,
      "av": 524,
      "ib": 525,
      "ef": 526,
      "ast": 527,
      "ive": 528,
      ".\"": 529,
      "ous": 530,
      "Ġcl": 531,
      "ace": 532,
      "Ġpro": 533,
      "Ġle": 534,
      "ĠG": 535,
      "ile": 536,
      "qual": 537,
      "Ġup": 538,
      "Ġ,": 539,
      "ak": 540,
      "ath": 541,
      "Ġ-": 542,
      "Ġ0": 543,
      "are": 544,
      "Ġ.": 545,
      "sp": 546,
      "----": 547,
      "Ġar": 548,
      "ong": 549,
      "ire": 550,
      "ype": 551,
      "ĠĠĠĠĠ": 552,
      "ime": 553,
      "ome": 554,
      "ound": 555,
      "Ġthey": 556,
      "ĠO": 557,
      "ost": 558,
      "ies": 559,
      "Ġsp": 560,
      "The": 561,
      "Ġun": 562,
      "Ġsa": 563,
      "ject": 564,
      "Ġwill": 565,
      "ff": 566,
      "Ġcan": 567,
      "Ġdo": 568,
      "Ġim": 569,
      "ence": 570,
      "Ġman": 571,
      "ions": 572,
      "Ġwere": 573,
      "ror": 574,
      "lo": 575,
      "Ġtest": 576,
      "per": 577,
      "Ġret": 578,
      "Ġ2": 579,
      "ext": 580,
      "__": 581,
      "com": 582,
      "Ġone": 583,
      "get": 584,
      "for": 585,
      "Ġout": 586,
      "Ġstr": 587,
      "Ġthem": 588,
      "ook": 589,
      "ref": 590,
      "Ġshe": 591,
      "Ġno": 592,
      "ps": 593,
      "own": 594,
      "eld": 595,
      "}}": 596,
      "str": 597,
      "ide": 598,
      "very": 599,
      "Ġtheir": 600,
      "ud": 601,
      "Ġwho": 602,
      "Ġreturn": 603,
      "ance": 604,
      "ated": 605,
      "int": 606,
      "ther": 607,
      "ice": 608,
      "iz": 609,
      "Equal": 610,
      "ield": 611,
      "alue": 612,
      "ear": 613,
      "Ġab": 614,
      "ake": 615,
      "ern": 616,
      "op": 617,
      "Ġgo": 618,
      "ase": 619,
      "port": 620,
      "Ġ*": 621,
      "ĠJ": 622,
      "itt": 623,
      ",\"": 624,
      "Ġwhen": 625,
      "ough": 626,
      "ip": 627,
      "à¦": 628,
      "ress": 629,
      "Ġpl": 630,
      "ug": 631,
      "Ġen": 632,
      "ãĢ": 633,
      "Ġpr": 634,
      "assertEqual": 635,
      "](": 636,
      "ĠTh": 637,
      "hed": 638,
      "Ġcont": 639,
      "ite": 640,
      "name": 641,
      "bject": 642,
      "><": 643,
      "ock": 644,
      "ep": 645,
      "Ġj": 646,
      "Ġ|": 647,
      "Ġad": 648,
      "ign": 649,
      "\"\"": 650,
      "ose": 651,
      "ail": 652,
      "Ġkn": 653,
      "Ġì": 654,
      "reat": 655,
      "act": 656,
      "ial": 657,
      "arg": 658,
      "oll": 659,
      "Ġel": 660,
      "ä¸": 661,
      "Ġmore": 662,
      "Ġqu": 663,
      "//": 664,
      "Ġwould": 665,
      "ary": 666,
      "Ġsaid": 667,
      "Ġbeen": 668,
      "```": 669,
      "cc": 670,
      "')": 671,
      "Ġdis": 672,
      "Ġgr": 673,
      "Ġhas": 674,
      "Ġwor": 675,
      "ck": 676,
      "Ġne": 677,
      "Ġres": 678,
      "Ġthere": 679,
      "ings": 680,
      "Ġbr": 681,
      "Ġyour": 682,
      "'t": 683,
      "Ġother": 684,
      "eb": 685,
      "ata": 686,
      "ais": 687,
      "Ġag": 688,
      "Ġany": 689,
      "code": 690,
      "ike": 691,
      "ĠK": 692,
      "ans": 693,
      "eth": 694,
      "ond": 695,
      "Ġsc": 696,
      "ll": 697,
      "rror": 698,
      "._": 699,
      "erv": 700,
      "cept": 701,
      "Ġev": 702,
      "ents": 703,
      "sh": 704,
      "ĠAnd": 705,
      "Error": 706,
      "ber": 707,
      "))": 708,
      "ish": 709,
      "ink": 710,
      "ie": 711,
      "doc": 712,
      "old": 713,
      "Ġinto": 714,
      "ally": 715,
      "gr": 716,
      "ely": 717,
      "kub": 718,
      "ild": 719,
      "Ġass": 720,
      "></": 721,
      "form": 722,
      "ful": 723,
      "ĠHe": 724,
      "ï¼": 725,
      "Ġ)": 726,
      "of": 727,
      "ick": 728,
      "not": 729,
      "ER": 730,
      "ng": 731,
      "ach": 732,
      "aw": 733,
      "Ġour": 734,
      "ction": 735,
      "Ġtime": 736,
      "app": 737,
      "fter": 738,
      "ied": 739,
      "Ġ{{": 740,
      "ays": 741,
      "set": 742,
      "Ġthan": 743,
      "('": 744,
      "Ġshould": 745,
      "ãĢĤ": 746,
      "etes": 747,
      "ree": 748,
      "ade": 749,
      "ernetes": 750,
      "Ġset": 751,
      "read": 752,
      "ĠĊ": 753,
      "vers": 754,
      "Ġsome": 755,
      "Ġ3": 756,
      "ict": 757,
      "Ġtw": 758,
      "arr": 759,
      "irst": 760,
      "other": 761,
      "ount": 762,
      "Ġam": 763,
      "çļ": 764,
      "çļĦ": 765,
      "ious": 766,
      "In": 767,
      "Ġlo": 768,
      "ory": 769,
      "ĠĠĠĠĠĠĠĠĠĠĠĠĠĠĠĠĠĠĠ": 770,
      "so": 771,
      "red": 772,
      "cri": 773,
      "ows": 774,
      "ev": 775,
      "ations": 776,
      "Ġmay": 777,
      "put": 778,
      "Ġper": 779,
      "docs": 780,
      "Ġname": 781,
      "ĠIn": 782,
      "**": 783,
      "atch": 784,
      "type": 785,
      "ĠIt": 786,
      "nder": 787,
      "Ġwhat": 788,
      "ĠU": 789,
      "],": 790,
      "ĠNone": 791,
      "we": 792,
      "Ġonly": 793,
      "ition": 794,
      "ark": 795,
      "Ġ>": 796,
      "Ġ\"\"\"": 797,
      "Ġover": 798,
      "ont": 799,
      "ret": 800,
      "0000": 801,
      "up": 802,
      "Ġits": 803,
      "..": 804,
      "ener": 805,
      "oy": 806,
      "IN": 807,
      "ault": 808,
      "pr": 809,
      "\">": 810,
      "ss": 811,
      "iss": 812,
      "Ġthen": 813,
      "Ġro": 814,
      "test": 815,
      "key": 816,
      "ia": 817,
      "Ġ@": 818,
      "io": 819,
      "ens": 820,
      "fer": 821,
      "://": 822,
      "ĠV": 823,
      "che": 824,
      "ix": 825,
      "Ġdes": 826,
      "Ġexp": 827,
      "Ġnow": 828,
      "man": 829,
      "Ġcall": 830,
      "--------": 831,
      "quest": 832,
      "fig": 833,
      "use": 834,
      "Ġfe": 835,
      "ìĿ": 836,
      "?\"": 837,
      "Ġpart": 838,
      "ange": 839,
      "pro": 840,
      "PI": 841,
      "Ġcould": 842,
      "\")}}": 843,
      "Ġlike": 844,
      "Ġhand": 845,
      "ty": 846,
      "ge": 847,
      "odu": 848,
      "ittle": 849,
      "Ġvalue": 850,
      "\":": 851,
      "Ġsee": 852,
      "Ġvery": 853,
      "ry": 854,
      "alse": 855,
      "ought": 856,
      "ning": 857,
      "ĠĠĠĠĠĠĠĠĠĠĠĠĠĠĠĠĠĠĠĠĠĠĠĠĠĠĠĠĠĠĠĠ": 858,
      "ample": 859,
      "Ġfl": 860,
      "Ġbl": 861,
      "rue": 862,
      "Ġgreat": 863,
      "par": 864,
      "ces": 865,
      "uch": 866,
      "hat": 867,
      "Ġget": 868,
      "Ġupon": 869,
      "](/": 870,
      "Ġpass": 871,
      "Ġnew": 872,
      "htt": 873,
      "Ġmust": 874,
      "Ġrem": 875,
      "ood": 876,
      "ĠY": 877,
      "Ġfirst": 878,
      "Ġabout": 879,
      "Ġcomm": 880,
      "Ġpo": 881,
      ").": 882,
      "ames": 883,
      "ient": 884,
      "Ġap": 885,
      "Ġafter": 886,
      "ne": 887,
      "ather": 888,
      "ax": 889,
      "ource": 890,
      "ward": 891,
      "cont": 892,
      "Ġind": 893,
      "Ġagain": 894,
      "ption": 895,
      "ob": 896,
      "Ġhow": 897,
      "US": 898,
      "oss": 899,
      "fore": 900,
      "def": 901,
      "Ġdid": 902,
      "led": 903,
      "odel": 904,
      "oth": 905,
      "hen": 906,
      "class": 907,
      "Ġtwo": 908,
      "ĠĠĠĠĠĠ": 909,
      "wn": 910,
      "ors": 911,
      "Ġlook": 912,
      "Ġclass": 913,
      "Ġobject": 914,
      "Ġimport": 915,
      "ize": 916,
      "Ġwr": 917,
      "min": 918,
      "Ġcol": 919,
      "Ġknow": 920,
      "line": 921,
      "Ġuse": 922,
      "Ġthr": 923,
      "Ġform": 924,
      "path": 925,
      "ĠThis": 926,
      "Ġtoo": 927,
      "with": 928,
      "Ġlittle": 929,
      "air": 930,
      "Ġsuch": 931,
      "ise": 932,
      "ON": 933,
      "from": 934,
      "uth": 935,
      "Ġinter": 936,
      "val": 937,
      "])": 938,
      "Ġcomp": 939,
      "ife": 940,
      "Ġë": 941,
      "be": 942,
      "over": 943,
      "Ġ4": 944,
      "Ġbefore": 945,
      "les": 946,
      "ft": 947,
      "Ġwhere": 948,
      "Ġ:": 949,
      "Ġbec": 950,
      "ars": 951,
      "ered": 952,
      "âĢ": 953,
      "íķ": 954,
      "Ġspec": 955,
      "'d": 956,
      "Ġpre": 957,
      "ĠBut": 958,
      "ä»": 959,
      "Ġthese": 960,
      "Ġwork": 961,
      "ected": 962,
      "Ġlist": 963,
      "ness": 964,
      "Ġoff": 965,
      "ons": 966,
      "Ġassert": 967,
      "ues": 968,
      "ĠSt": 969,
      "Ġmade": 970,
      "Ġmen": 971,
      "!--": 972,
      "og": 973,
      "Ġadd": 974,
      "ĠÐ": 975,
      "ian": 976,
      "Ġapp": 977,
      "add": 978,
      "Ġdown": 979,
      "Ġlong": 980,
      "oun": 981,
      "ĠCh": 982,
      "ead": 983,
      "Ġbet": 984,
      "Ġpe": 985,
      "trib": 986,
      "{{": 987,
      "Ġshall": 988,
      "Ġgood": 989,
      "https": 990,
      "ove": 991,
      "Ġback": 992,
      "ific": 993,
      "iew": 994,
      "ody": 995,
      "Ġval": 996,
      "01": 997,
      "error": 998,
      "ause": 999,
      "Ġsy": 1000,
      "Ġ+": 1001,
      "AL": 1002,
      "Ġsub": 1003,
      "ical": 1004,
      "ĠIf": 1005,
      "pport": 1006,
      "ull": 1007,
      "Ġaw": 1008,
      "ement": 1009,
      "-->": 1010,
      "ask": 1011,
      "ä½": 1012,
      "!\"": 1013,
      "ved": 1014,
      "Ġ->": 1015,
      "Ġsm": 1016,
      "ubernetes": 1017,
      "reate": 1018,
      "ï¼Į": 1019,
      "OR": 1020,
      "åı": 1021,
      "erver": 1022,
      "Ġend": 1023,
      "file": 1024,
      "Ġint": 1025,
      "ced": 1026,
      "Ġmake": 1027,
      "igh": 1028,
      "Ġown": 1029,
      "xref": 1030,
      "tribut": 1031,
      "ection": 1032,
      "ater": 1033,
      "Test": 1034,
      "field": 1035,
      "ĠMr": 1036,
      "Ġold": 1037,
      "ates": 1038,
      "Ġnp": 1039,
      "ollow": 1040,
      "eg": 1041,
      "Ġinst": 1042,
      "AR": 1043,
      "ES": 1044,
      "Ġhead": 1045,
      "Ġwell": 1046,
      "aises": 1047,
      "Ġevery": 1048,
      "wr": 1049,
      "li": 1050,
      "Ġmuch": 1051,
      "AT": 1052,
      "ible": 1053,
      "ual": 1054,
      "wh": 1055,
      "ork": 1056,
      "Ġcons": 1057,
      "Ġcr": 1058,
      "atter": 1059,
      "Ġob": 1060,
      "Ġword": 1061,
      "Ġop": 1062,
      "Ġunder": 1063,
      "ãĥ¼": 1064,
      "Ġdec": 1065,
      "Ġmost": 1066,
      "Ġacc": 1067,
      "ethod": 1068,
      "his": 1069,
      "ool": 1070,
      "Ġfield": 1071,
      "ms": 1072,
      "Web": 1073,
      "resent": 1074,
      "Ġsame": 1075,
      "py": 1076,
      "çĶ": 1077,
      "Ġalso": 1078,
      "Ð¾": 1079,
      "####": 1080,
      "Ġ</": 1081,
      "Ġsec": 1082,
      "Ġfun": 1083,
      "Ġbre": 1084,
      "ait": 1085,
      "Ġnum": 1086,
      "à¤": 1087,
      "Ġeven": 1088,
      "ily": 1089,
      "<!--": 1090,
      "fl": 1091,
      "==": 1092,
      "object": 1093,
      "Ġread": 1094,
      "Ġday": 1095,
      "ãģ®": 1096,
      "less": 1097,
      "aint": 1098,
      "ouse": 1099,
      "_.": 1100,
      "Ġche": 1101,
      "br": 1102,
      "ature": 1103,
      "å®": 1104,
      "cript": 1105,
      "Ġ%": 1106,
      "der": 1107,
      "Ġent": 1108,
      "ren": 1109,
      "Ġfr": 1110,
      "Ġway": 1111,
      "by": 1112,
      "Ġsay": 1113,
      "dom": 1114,
      "Ġrun": 1115,
      "ET": 1116,
      "Ġem": 1117,
      "ray": 1118,
      "su": 1119,
      "Ġ/": 1120,
      "Ġ5": 1121,
      "æľ": 1122,
      "args": 1123,
      "vel": 1124,
      "arn": 1125,
      "met": 1126,
      "Ġ**": 1127,
      "ery": 1128,
      "Ġlet": 1129,
      "Ðµ": 1130,
      "Ġthose": 1131,
      "Ġcontain": 1132,
      "eng": 1133,
      "ired": 1134,
      "cess": 1135,
      "fo": 1136,
      "Ġgl": 1137,
      "Ġyear": 1138,
      "ble": 1139,
      "col": 1140,
      "Ġthrough": 1141,
      "Ġsl": 1142,
      "plic": 1143,
      "word": 1144,
      "ared": 1145,
      "ower": 1146,
      "abel": 1147,
      "uct": 1148,
      "Ġnever": 1149,
      "Ġdel": 1150,
      "True": 1151,
      "its": 1152,
      "Ġhere": 1153,
      "ĠPod": 1154,
      "js": 1155,
      "Ġelse": 1156,
      "Ġey": 1157,
      "that": 1158,
      "Ġmight": 1159,
      "Ġcame": 1160,
      "Ġfollow": 1161,
      "åĪ": 1162,
      "comm": 1163,
      "Ġresult": 1164,
      "Ġac": 1165,
      "Ġused": 1166,
      "ever": 1167,
      "te": 1168,
      "ines": 1169,
      "Ġbeing": 1170,
      "aug": 1171,
      "sc": 1172,
      "Ġcome": 1173,
      "10": 1174,
      "version": 1175,
      "Ġbel": 1176,
      "Ġlast": 1177,
      "ĠFor": 1178,
      "ner": 1179,
      "ating": 1180,
      "EN": 1181,
      "ument": 1182,
      "Ġdr": 1183,
      "Ġarg": 1184,
      "Ġatt": 1185,
      "ope": 1186,
      "value": 1187,
      "try": 1188,
      "ĠĠĠĠĠĠĠĠĠĠĠĠĠĠĠĠĠĠĠĠĠĠĠĠ": 1189,
      "Ġthou": 1190,
      "Ġdif": 1191,
      "ator": 1192,
      "irect": 1193,
      "sel": 1194,
      "ters": 1195,
      "Ġmany": 1196,
      "çĶ¨": 1197,
      "Ġrequest": 1198,
      "ins": 1199,
      "Ġwithout": 1200,
      "Ġpar": 1201,
      "ople": 1202,
      "Ġthink": 1203,
      "Ġcur": 1204,
      "Ġjust": 1205,
      "Ġrec": 1206,
      "assertR": 1207,
      "ves": 1208,
      "åĲ": 1209,
      "ked": 1210,
      "St": 1211,
      "ures": 1212,
      "Ġtype": 1213,
      "Ġfound": 1214,
      "az": 1215,
      "ash": 1216,
      "clud": 1217,
      "Ġx": 1218,
      "erence": 1219,
      "Ġbu": 1220,
      "pos": 1221,
      "ph": 1222,
      "ee": 1223,
      "pert": 1224,
      "Ġseem": 1225,
      "Ð°": 1226,
      "###": 1227,
      "Ġresp": 1228,
      "orm": 1229,
      "And": 1230,
      "odule": 1231,
      "12": 1232,
      "ãģĻ": 1233,
      "ãĢģ": 1234,
      "assertRaises": 1235,
      "ĠKubernetes": 1236,
      "Ġdata": 1237,
      "Ġfile": 1238,
      "Ġwhile": 1239,
      "ervice": 1240,
      "None": 1241,
      "ither": 1242,
      "ting": 1243,
      "my": 1244,
      "Ġke": 1245,
      "Ġ==": 1246,
      "time": 1247,
      "TER": 1248,
      "Ġrais": 1249,
      "ream": 1250,
      "ages": 1251,
      "Ġrel": 1252,
      "Ġeach": 1253,
      "aut": 1254,
      "Ġchild": 1255,
      "Ġstring": 1256,
      "It": 1257,
      "Ġ>}}": 1258,
      "ÑĤ": 1259,
      "ined": 1260,
      "Ex": 1261,
      "Ġlife": 1262,
      "ried": 1263,
      "':": 1264,
      "array": 1265,
      "Ġkey": 1266,
      "Ġbeg": 1267,
      "inter": 1268,
      "yn": 1269,
      "ments": 1270,
      "Ġreg": 1271,
      "amet": 1272,
      "Ġneed": 1273,
      "aid": 1274,
      "ah": 1275,
      "ished": 1276,
      "fil": 1277,
      "kubernetes": 1278,
      "land": 1279,
      "ml": 1280,
      "Ġstill": 1281,
      "ince": 1282,
      "po": 1283,
      "Ġthy": 1284,
      "Ġact": 1285,
      "vent": 1286,
      "ened": 1287,
      "here": 1288,
      "ank": 1289,
      "Ġthought": 1290,
      "ĠWe": 1291,
      "und": 1292,
      "riend": 1293,
      "ĠAPI": 1294,
      "ocal": 1295,
      "Ġgener": 1296,
      "ectl": 1297,
      "yle": 1298,
      "ility": 1299,
      "ns": 1300,
      "ular": 1301,
      "aking": 1302,
      "LE": 1303,
      "mer": 1304,
      "ling": 1305,
      "è¿": 1306,
      "fr": 1307,
      "Type": 1308,
      "me": 1309,
      "dd": 1310,
      "ken": 1311,
      "onse": 1312,
      "fun": 1313,
      "ier": 1314,
      "back": 1315,
      "Ġexcept": 1316,
      "data": 1317,
      "hing": 1318,
      "Ġdoes": 1319,
      "Ġright": 1320,
      "ari": 1321,
      "ason": 1322,
      "Ġsom": 1323,
      "hy": 1324,
      "imes": 1325,
      "apt": 1326,
      "Ġgiv": 1327,
      ".__": 1328,
      "aster": 1329,
      "ices": 1330,
      "Ġpeople": 1331,
      "Ġtake": 1332,
      "Ġ__": 1333,
      "ĭ¤": 1334,
      "Ġturn": 1335,
      "iter": 1336,
      "load": 1337,
      "Ġear": 1338,
      "string": 1339,
      "Ġprov": 1340,
      "oup": 1341,
      "Ġbo": 1342,
      "([": 1343,
      "API": 1344,
      "cy": 1345,
      "SS": 1346,
      "Ġter": 1347,
      "Ġstart": 1348,
      "Ġwant": 1349,
      "elet": 1350,
      "'ll": 1351,
      "Ð¸": 1352,
      "Ġ'\\": 1353,
      "olic": 1354,
      "ween": 1355,
      "`.": 1356,
      "Ġyet": 1357,
      "Ġdefault": 1358,
      "Ġtry": 1359,
      "ative": 1360,
      "log": 1361,
      "comp": 1362,
      "ape": 1363,
      "work": 1364,
      "Ġ}": 1365,
      "Ġfind": 1366,
      "ĠShe": 1367,
      "sub": 1368,
      "ĠGod": 1369,
      "AN": 1370,
      "ĠĠĠĠĠĠĠĠĠĠĠĠĠĠĠĠĠĠĠĠĠĠĠ": 1371,
      "à§": 1372,
      "rec": 1373,
      "Ġplace": 1374,
      "no": 1375,
      "Ġsupport": 1376,
      "aving": 1377,
      "oh": 1378,
      "Ġexample": 1379,
      "ST": 1380,
      "äº": 1381,
      "-@": 1382,
      "Ġ@-@": 1383,
      "Ġaway": 1384,
      "fe": 1385,
      "Ġchar": 1386,
      "30": 1387,
      "Ref": 1388,
      "Is": 1389,
      "Ġcoun": 1390,
      "Ġhimself": 1391,
      "ified": 1392,
      "span": 1393,
      "è¯": 1394,
      "ãĤĴ": 1395,
      "{{<": 1396,
      "ident": 1397,
      "Ġ6": 1398,
      "Ġcontr": 1399,
      "Ġput": 1400,
      "body": 1401,
      "ĠThey": 1402,
      "uring": 1403,
      "ways": 1404,
      "HT": 1405,
      "api": 1406,
      "side": 1407,
      "Ġspe": 1408,
      "most": 1409,
      "Ġusing": 1410,
      "Ġmin": 1411,
      "`,": 1412,
      "ained": 1413,
      "Ġcour": 1414,
      "uster": 1415,
      "list": 1416,
      "Ġrep": 1417,
      "ote": 1418,
      "Ġcor": 1419,
      "Ġthee": 1420,
      "Ġappe": 1421,
      "20": 1422,
      "import": 1423,
      "Ġkub": 1424,
      "any": 1425,
      "cle": 1426,
      "Ġmem": 1427,
      "Ġeyes": 1428,
      "url": 1429,
      "dir": 1430,
      "alk": 1431,
      "RE": 1432,
      "yp": 1433,
      "sy": 1434,
      "sw": 1435,
      "ĠYou": 1436,
      "Ġref": 1437,
      "ĠĠĠĠĠĠĠĠĠ": 1438,
      "_,": 1439,
      "bo": 1440,
      "ľë": 1441,
      "ted": 1442,
      "inst": 1443,
      "Ġtext": 1444,
      "Ġdet": 1445,
      "ited": 1446,
      ",--": 1447,
      "ides": 1448,
      "arch": 1449,
      "ven": 1450,
      "Ġfil": 1451,
      "Con": 1452,
      "Ġnumber": 1453,
      "uthor": 1454,
      "ache": 1455,
      "Ġcode": 1456,
      "als": 1457,
      "config": 1458,
      "Ġbreak": 1459,
      "Ġí": 1460,
      "Ġmethod": 1461,
      "Ġheart": 1462,
      "Ġboth": 1463,
      "Ġ('": 1464,
      "Ġthree": 1465,
      "Ġ19": 1466,
      "Ġwent": 1467,
      "med": 1468,
      "Ġline": 1469,
      "åħ": 1470,
      "but": 1471,
      "Ġleft": 1472,
      "Ð¾Ð": 1473,
      "olum": 1474,
      "Ġanother": 1475,
      "TH": 1476,
      "amp": 1477,
      "ched": 1478,
      "ik": 1479,
      "Ġpath": 1480,
      "ify": 1481,
      "ric": 1482,
      "Ġpers": 1483,
      "ane": 1484,
      "Ġdoc": 1485,
      "Ġco": 1486,
      "Ġhouse": 1487,
      "check": 1488,
      "Ġfriend": 1489,
      "ton": 1490,
      "ertain": 1491,
      "mb": 1492,
      "Ġ10": 1493,
      "Ġdep": 1494,
      "ĠTo": 1495,
      "ubl": 1496,
      ");": 1497,
      "lect": 1498,
      "ross": 1499,
      "empl": 1500,
      "Ġwar": 1501,
      "Ġbetween": 1502,
      "ĠEx": 1503,
      ">>": 1504,
      "But": 1505,
      "Ġcalled": 1506,
      "Ġi": 1507,
      "essage": 1508,
      "view": 1509,
      "lp": 1510,
      "Ġ--": 1511,
      "Ġz": 1512,
      "ased": 1513,
      "ived": 1514,
      "Ġever": 1515,
      "ains": 1516,
      "Ġposs": 1517,
      "Ġworld": 1518,
      "ek": 1519,
      "Ġbecause": 1520,
      "aps": 1521,
      "Ġagainst": 1522,
      "iver": 1523,
      "rent": 1524,
      "Ġrequ": 1525,
      "000": 1526,
      "dis": 1527,
      "Ġgu": 1528,
      "He": 1529,
      "Ġdon": 1530,
      "Ġwom": 1531,
      "Ġkind": 1532,
      "Ġcheck": 1533,
      "Ġdiffer": 1534,
      "(),": 1535,
      "miss": 1536,
      "Ġfunction": 1537,
      "Ġcontin": 1538,
      "'),": 1539,
      "False": 1540,
      "Ġdist": 1541,
      "domxref": 1542,
      "label": 1543,
      "ãģ«": 1544,
      "date": 1545,
      "Ġraise": 1546,
      "Ġunt": 1547,
      "elt": 1548,
      "You": 1549,
      "ustom": 1550,
      "idd": 1551,
      "Ġfar": 1552,
      "init": 1553,
      "ÑĢ": 1554,
      "arge": 1555,
      "Ġtell": 1556,
      "row": 1557,
      "Ġtrue": 1558,
      "sl": 1559,
      "Ġdisc": 1560,
      "This": 1561,
      "run": 1562,
      "----------------": 1563,
      "Ġerror": 1564,
      "Ġthough": 1565,
      "was": 1566,
      "valid": 1567,
      "__(": 1568,
      "Ġsim": 1569,
      "amesp": 1570,
      "Ġos": 1571,
      "text": 1572,
      "Ġyoung": 1573,
      "ale": 1574,
      "Ð½": 1575,
      "ML": 1576,
      "spec": 1577,
      "Ġstyle": 1578,
      "bu": 1579,
      "Ġser": 1580,
      "Ã©": 1581,
      "ems": 1582,
      "ĠWhen": 1583,
      "nb": 1584,
      "thing": 1585,
      "create": 1586,
      "cod": 1587,
      "Ġpresent": 1588,
      "gg": 1589,
      "Ġonce": 1590,
      "exp": 1591,
      "Ġart": 1592,
      "Ġple": 1593,
      "itle": 1594,
      "kubectl": 1595,
      "Ġnor": 1596,
      "ĠAs": 1597,
      "æĪ": 1598,
      "ength": 1599,
      "elect": 1600,
      "ĠThere": 1601,
      "Ġå": 1602,
      "Ġyears": 1603,
      "Cont": 1604,
      "Ġopen": 1605,
      "ru": 1606,
      "64": 1607,
      "ples": 1608,
      "ized": 1609,
      "Ġsur": 1610,
      "Ġbeh": 1611,
      "reg": 1612,
      "she": 1613,
      "orn": 1614,
      "thon": 1615,
      "aim": 1616,
      "table": 1617,
      "Ġmind": 1618,
      "Ġpoint": 1619,
      "alf": 1620,
      "Ġgive": 1621,
      "ãĥ³": 1622,
      "iet": 1623,
      "Ġlove": 1624,
      "ey": 1625,
      "ĠAr": 1626,
      "objects": 1627,
      "Ġê": 1628,
      "sec": 1629,
      "Ġrest": 1630,
      "att": 1631,
      "ended": 1632,
      "ĠTrue": 1633,
      "equal": 1634,
      "Ġcle": 1635,
      "empt": 1636,
      "ãĤĭ": 1637,
      "Ġfew": 1638,
      "oice": 1639,
      "owed": 1640,
      "tt": 1641,
      "Ġnight": 1642,
      "Ġsaw": 1643,
      "ãģĹ": 1644,
      "Ġnear": 1645,
      "oud": 1646,
      "Ġvalues": 1647,
      "Ġface": 1648,
      "inal": 1649,
      "head": 1650,
      "ĠBr": 1651,
      "è®": 1652,
      "ãģ¾": 1653,
      "Ġcase": 1654,
      "oin": 1655,
      "\"),": 1656,
      "='": 1657,
      "IG": 1658,
      "Ġserver": 1659,
      "nbsp": 1660,
      "ities": 1661,
      "ccess": 1662,
      "Ñģ": 1663,
      "11": 1664,
      "ases": 1665,
      "aces": 1666,
      "00000000": 1667,
      "ister": 1668,
      "bl": 1669,
      "Ġà¦": 1670,
      "Cl": 1671,
      "arent": 1672,
      "Ġdirect": 1673,
      "Ġmod": 1674,
      "ithub": 1675,
      "Ġed": 1676,
      "Ġalways": 1677,
      "Ġarray": 1678,
      "ider": 1679,
      ".'": 1680,
      "div": 1681,
      "rem": 1682,
      "Ġext": 1683,
      "perty": 1684,
      "olicy": 1685,
      "ured": 1686,
      "Ġmon": 1687,
      "github": 1688,
      "ech": 1689,
      "ersion": 1690,
      "Ġfather": 1691,
      "To": 1692,
      "CH": 1693,
      "ute": 1694,
      "Ġsing": 1695,
      "ìĿ´": 1696,
      "Ġmet": 1697,
      "Ġinclud": 1698,
      "Ġlight": 1699,
      "hes": 1700,
      "Ġexpected": 1701,
      "Ġsign": 1702,
      "anc": 1703,
      "ĠâĢ": 1704,
      "foo": 1705,
      "pec": 1706,
      "ser": 1707,
      "Ġsmall": 1708,
      "ĠAn": 1709,
      "lement": 1710,
      "ten": 1711,
      "Ġstand": 1712,
      "akes": 1713,
      "ĠWh": 1714,
      "Ġthings": 1715,
      "Ġimp": 1716,
      "Ġcommand": 1717,
      "Ġmodel": 1718,
      "call": 1719,
      "bar": 1720,
      "Ġ8": 1721,
      "Ġav": 1722,
      "stem": 1723,
      "åĬ": 1724,
      "Ġsent": 1725,
      "Ĭ¤": 1726,
      "ĠThat": 1727,
      "css": 1728,
      "ts": 1729,
      "Ġsw": 1730,
      "Ġocc": 1731,
      "ameters": 1732,
      "Ġeff": 1733,
      "Ġwater": 1734,
      "rew": 1735,
      "If": 1736,
      "ats": 1737,
      "tribute": 1738,
      "ets": 1739,
      "Ġpur": 1740,
      "ìĹ": 1741,
      "è¡": 1742,
      "gether": 1743,
      "[\"": 1744,
      "ĠFalse": 1745,
      "ething": 1746,
      "Ġside": 1747,
      "ression": 1748,
      "men": 1749,
      "Ġhapp": 1750,
      "Ġoper": 1751,
      "ants": 1752,
      "iness": 1753,
      "els": 1754,
      "Ġstate": 1755,
      "que": 1756,
      "/)": 1757,
      "Ġhigh": 1758,
      "wrap": 1759,
      "Script": 1760,
      "Field": 1761,
      "Ġdone": 1762,
      "Ġgiven": 1763,
      "uration": 1764,
      "ploy": 1765,
      "25": 1766,
      "Version": 1767,
      "ĠEng": 1768,
      "Ġfollowing": 1769,
      "Ġvis": 1770,
      "ually": 1771,
      "Ġtook": 1772,
      "model": 1773,
      "stand": 1774,
      "\"]": 1775,
      "atic": 1776,
      "Ġwind": 1777,
      "Ġnothing": 1778,
      "resp": 1779,
      "Ġaff": 1780,
      "oot": 1781,
      "Ġcannot": 1782,
      "Ġuser": 1783,
      "Ġnext": 1784,
      "lob": 1785,
      "oub": 1786,
      "tes": 1787,
      "Ġ>>>": 1788,
      "åľ": 1789,
      "Ġorder": 1790,
      "num": 1791,
      "atus": 1792,
      "Ġsk": 1793,
      "---": 1794,
      "Ġconfig": 1795,
      "Ġ7": 1796,
      "Ġhour": 1797,
      "Ġansw": 1798,
      "TP": 1799,
      "Ġpri": 1800,
      "ember": 1801,
      "ĠUn": 1802,
      "Ġpod": 1803,
      "assertIs": 1804,
      "ãģ¯": 1805,
      "ĠAl": 1806,
      "IC": 1807,
      "ager": 1808,
      "Ġ18": 1809,
      "now": 1810,
      "Ġgot": 1811,
      "ptions": 1812,
      "ided": 1813,
      "wards": 1814,
      "Ġelement": 1815,
      "OM": 1816,
      "ception": 1817,
      "Ġamong": 1818,
      "ci": 1819,
      "ING": 1820,
      "ync": 1821,
      "99": 1822,
      "amespace": 1823,
      "ady": 1824,
      "ĠJoh": 1825,
      "Ġunto": 1826,
      "Ġmo": 1827,
      "dec": 1828,
      "ately": 1829,
      "attr": 1830,
      "Ġsecond": 1831,
      "new": 1832,
      "ler": 1833,
      "Not": 1834,
      "default": 1835,
      "Ġcond": 1836,
      "orage": 1837,
      "ĬĶ": 1838,
      "ĠTest": 1839,
      "ĠThen": 1840,
      "osed": 1841,
      "aken": 1842,
      "Ġfell": 1843,
      "mon": 1844,
      "æĸ": 1845,
      "ãĥ¼ãĥ": 1846,
      "Ġ(\"": 1847,
      "Ġless": 1848,
      "refore": 1849,
      "Ġes": 1850,
      "order": 1851,
      "html": 1852,
      "Ġwhom": 1853,
      "Ġ...": 1854,
      "ED": 1855,
      "amb": 1856,
      "ird": 1857,
      "EL": 1858,
      "Ġfull": 1859,
      "outh": 1860,
      "Ġcharac": 1861,
      "Ġexc": 1862,
      "Ġpos": 1863,
      "Ġconn": 1864,
      "Reference": 1865,
      "play": 1866,
      "opy": 1867,
      "org": 1868,
      "ãĤ¹": 1869,
      "ources": 1870,
      "Ġfam": 1871,
      "Ġred": 1872,
      "adata": 1873,
      "pped": 1874,
      "Ġland": 1875,
      "ches": 1876,
      "Ch": 1877,
      "ives": 1878,
      "which": 1879,
      "pre": 1880,
      "Ġuntil": 1881,
      "Ġthing": 1882,
      "Ġseen": 1883,
      "32": 1884,
      "ann": 1885,
      "day": 1886,
      "():": 1887,
      "Ġhelp": 1888,
      "idth": 1889,
      "Ġmer": 1890,
      "Ġtrans": 1891,
      "ãģ§": 1892,
      "Ġfail": 1893,
      "start": 1894,
      "ename": 1895,
      "Ġmom": 1896,
      "Ġcare": 1897,
      "alueError": 1898,
      "Ġhum": 1899,
      "Ġkeep": 1900,
      "ĠOn": 1901,
      "Ġcountry": 1902,
      "ently": 1903,
      "ĠHT": 1904,
      "âĢĻ": 1905,
      "bed": 1906,
      "uck": 1907,
      "Ġbetter": 1908,
      "Ġrece": 1909,
      "place": 1910,
      "Ġmor": 1911,
      "plied": 1912,
      "imit": 1913,
      "ango": 1914,
      "ä¸Ģ": 1915,
      "IT": 1916,
      ".,": 1917,
      "Ġinc": 1918,
      "ĠAt": 1919,
      "emp": 1920,
      "selves": 1921,
      "iron": 1922,
      "ĠCon": 1923,
      "åı¯": 1924,
      "Ġoutput": 1925,
      "Ġte": 1926,
      "ements": 1927,
      "Ġbro": 1928,
      "16": 1929,
      "Ġwithin": 1930,
      "æĺ": 1931,
      "Ġconf": 1932,
      "state": 1933,
      "Ġpower": 1934,
      "struct": 1935,
      "Ġreturned": 1936,
      "db": 1937,
      "Ġbest": 1938,
      "olume": 1939,
      "ung": 1940,
      "ready": 1941,
      "ĠWhat": 1942,
      "ETTER": 1943,
      "Ġcre": 1944,
      "used": 1945,
      "Ġcomple": 1946,
      "ffer": 1947,
      "ley": 1948,
      "Ġversion": 1949,
      "eed": 1950,
      "ense": 1951,
      "unt": 1952,
      "Ġserv": 1953,
      "ma": 1954,
      "ulti": 1955,
      "emplate": 1956,
      "Ġhard": 1957,
      "irl": 1958,
      "OT": 1959,
      "Ġcar": 1960,
      "Ġtyp": 1961,
      "owser": 1962,
      "module": 1963,
      "AD": 1964,
      "ìĬ¤": 1965,
      "Ar": 1966,
      "count": 1967,
      "å¤": 1968,
      "ceed": 1969,
      "ä½¿": 1970,
      "ĠNo": 1971,
      "urs": 1972,
      "Ġsupp": 1973,
      "serv": 1974,
      "Ġcontent": 1975,
      "ĠLETTER": 1976,
      "Ġdays": 1977,
      "Ġcertain": 1978,
      "Ġview": 1979,
      "Ġid": 1980,
      "Ġchang": 1981,
      "Ġheard": 1982,
      "content": 1983,
      "ists": 1984,
      "example": 1985,
      "AM": 1986,
      "err": 1987,
      "ached": 1988,
      "jango": 1989,
      "Ġsat": 1990,
      "Ġhalf": 1991,
      "Ġplay": 1992,
      "We": 1993,
      "pod": 1994,
      "Ġdifferent": 1995,
      "Ġest": 1996,
      "Ġlay": 1997,
      "requ": 1998,
      "Ġaut": 1999,
      "rel": 2000,
      "tern": 2001,
      "Ġsure": 2002,
      "Ġsoon": 2003,
      "Ġhands": 2004,
      "åľ¨": 2005,
      "plement": 2006,
      "Ġwhole": 2007,
      "size": 2008,
      "Ġnec": 2009,
      "Ġinform": 2010,
      "ç»": 2011,
      ";&": 2012,
      "ilt": 2013,
      "reen": 2014,
      "ãģ¦": 2015,
      "ëĬĶ": 2016,
      "AC": 2017,
      "ra": 2018,
      "íķĺ": 2019,
      "Ġinv": 2020,
      "you": 2021,
      "ĠHow": 2022,
      "imal": 2023,
      "Ġsil": 2024,
      "Ġmother": 2025,
      "====": 2026,
      "18": 2027,
      "Th": 2028,
      "Ġhome": 2029,
      "ĠSh": 2030,
      "itor": 2031,
      "ëĵ": 2032,
      "info": 2033,
      "Ġlooked": 2034,
      "Ġobjects": 2035,
      "Ġdev": 2036,
      "point": 2037,
      "())": 2038,
      "oop": 2039,
      "ĠMy": 2040,
      "Ġfour": 2041,
      "arget": 2042,
      "ãģ¾ãģĻ": 2043,
      "As": 2044,
      "At": 2045,
      "ged": 2046,
      "like": 2047,
      "ules": 2048,
      "Ġye": 2049,
      "ä»¥": 2050,
      "Ġseemed": 2051,
      "ances": 2052,
      "Ġhref": 2053,
      "augh": 2054,
      "Ġsince": 2055,
      "ably": 2056,
      "ush": 2057,
      "ieve": 2058,
      "oke": 2059,
      "de": 2060,
      "dev": 2061,
      "For": 2062,
      "Ġ[`": 2063,
      "index": 2064,
      "amed": 2065,
      "ief": 2066,
      "title": 2067,
      "Ġadv": 2068,
      "Ġpubl": 2069,
      "ocket": 2070,
      "Ġgoing": 2071,
      "Ġhaving": 2072,
      "way": 2073,
      "23": 2074,
      "Ġwords": 2075,
      "ID": 2076,
      "off": 2077,
      "Ġfeel": 2078,
      "Ġtre": 2079,
      "Ġsys": 2080,
      "ĠTH": 2081,
      "Ġheav": 2082,
      "Ġfin": 2083,
      "Ġpres": 2084,
      "height": 2085,
      "np": 2086,
      "Ġmoment": 2087,
      "Ġtold": 2088,
      "lib": 2089,
      "Ġasked": 2090,
      "rist": 2091,
      "ution": 2092,
      "user": 2093,
      "ĠHis": 2094,
      "hel": 2095,
      "Ġbody": 2096,
      "ä¸ª": 2097,
      "Ġenough": 2098,
      "14": 2099,
      "Ġste": 2100,
      "part": 2101,
      "let": 2102,
      "ĠčĊ": 2103,
      "hand": 2104,
      "oul": 2105,
      "Ġboy": 2106,
      "func": 2107,
      "Ġabove": 2108,
      "Ġevent": 2109,
      "option": 2110,
      "Ġbook": 2111,
      "ending": 2112,
      "IL": 2113,
      "ĠIs": 2114,
      "igr": 2115,
      "lish": 2116,
      "Ġet": 2117,
      "Ġmean": 2118,
      "ires": 2119,
      "sg": 2120,
      "Ġ9": 2121,
      "ĠQ": 2122,
      "Ġrange": 2123,
      "Ġrefer": 2124,
      "Ġfall": 2125,
      "Ġwhose": 2126,
      "ava": 2127,
      "append": 2128,
      "Ġlarge": 2129,
      "No": 2130,
      "Ġcurrent": 2131,
      "ession": 2132,
      "ention": 2133,
      "Ġmil": 2134,
      "15": 2135,
      "æī": 2136,
      "ĠAll": 2137,
      "ĠCom": 2138,
      "Ġrather": 2139,
      "context": 2140,
      "ìĹĲ": 2141,
      "Ġround": 2142,
      "Ġfact": 2143,
      "Re": 2144,
      "Ġshow": 2145,
      "sk": 2146,
      "ks": 2147,
      "ibility": 2148,
      "ĠX": 2149,
      "ä½¿çĶ¨": 2150,
      "ressed": 2151,
      "Ġduring": 2152,
      "Ġwoman": 2153,
      "Ġroom": 2154,
      "Ġcreate": 2155,
      "Ġsomething": 2156,
      "mod": 2157,
      "Ġking": 2158,
      "amples": 2159,
      "ainer": 2160,
      "Ġtri": 2161,
      "Ġfore": 2162,
      "mission": 2163,
      "Ġhear": 2164,
      "Ġcourse": 2165,
      "cription": 2166,
      "ags": 2167,
      "fully": 2168,
      "urity": 2169,
      "do": 2170,
      "max": 2171,
      "Ġchildren": 2172,
      "ips": 2173,
      "Ġhor": 2174,
      "ä¸Ń": 2175,
      "ience": 2176,
      "%;": 2177,
      "Ġsir": 2178,
      "alt": 2179,
      "ised": 2180,
      "xy": 2181,
      "å®ļ": 2182,
      "Ġknew": 2183,
      "ìĦ": 2184,
      "OL": 2185,
      "dat": 2186,
      "Ġdeath": 2187,
      "Ġprom": 2188,
      "ĠSee": 2189,
      "eturn": 2190,
      "tra": 2191,
      "Ġprodu": 2192,
      "ĠSo": 2193,
      ".</": 2194,
      "']": 2195,
      "24": 2196,
      "Ġgave": 2197,
      "['": 2198,
      "ene": 2199,
      "Ġknown": 2200,
      "contr": 2201,
      "efault": 2202,
      "¥¼": 2203,
      "Ġ//": 2204,
      "ĠSir": 2205,
      "etime": 2206,
      "Ġresponse": 2207,
      "haps": 2208,
      "reference": 2209,
      "Ġson": 2210,
      "Ġprot": 2211,
      "Ġmatter": 2212,
      "Ġhowever": 2213,
      "Un": 2214,
      "æķ": 2215,
      "ìļ": 2216,
      "uple": 2217,
      "Ġsever": 2218,
      "Ġut": 2219,
      "Ġoption": 2220,
      "Ġlaw": 2221,
      "cepts": 2222,
      "è¡Į": 2223,
      "request": 2224,
      "ë¡": 2225,
      "ences": 2226,
      "Ġhon": 2227,
      "ics": 2228,
      "Name": 2229,
      "ãģĦ": 2230,
      "Ġ&": 2231,
      "Ġpassed": 2232,
      "Ġorig": 2233,
      "aced": 2234,
      "ä¸º": 2235,
      "ï¼ļ": 2236,
      "wargs": 2237,
      "Ġtogether": 2238,
      "Ġalong": 2239,
      "instance": 2240,
      "ision": 2241,
      "Ġcent": 2242,
      "Ġprocess": 2243,
      "ams": 2244,
      "ison": 2245,
      "Ġreal": 2246,
      "OU": 2247,
      "Ġdtype": 2248,
      "Ġver": 2249,
      "Ġgirl": 2250,
      "Ġappro": 2251,
      "co": 2252,
      "entle": 2253,
      "join": 2254,
      "Ġreason": 2255,
      "Ġmeans": 2256,
      "itted": 2257,
      "local": 2258,
      "ĠPar": 2259,
      "ĠInd": 2260,
      "mp": 2261,
      "Ġthus": 2262,
      "ķãĤ": 2263,
      "ored": 2264,
      "ww": 2265,
      "Res": 2266,
      "éĢ": 2267,
      "md": 2268,
      "ving": 2269,
      "oly": 2270,
      "olog": 2271,
      "web": 2272,
      "resource": 2273,
      "Ġprint": 2274,
      "Ġquite": 2275,
      "len": 2276,
      "ailable": 2277,
      "only": 2278,
      "åº": 2279,
      "Ġspir": 2280,
      "13": 2281,
      "ìł": 2282,
      "avaScript": 2283,
      "Pod": 2284,
      "mark": 2285,
      "Ġswe": 2286,
      "pk": 2287,
      "ott": 2288,
      "plication": 2289,
      "ãĥĪ": 2290,
      "Ġport": 2291,
      "ãģ¨": 2292,
      "ior": 2293,
      "ols": 2294,
      "ittest": 2295,
      "undred": 2296,
      "ism": 2297,
      "gener": 2298,
      "ãģĮ": 2299,
      "host": 2300,
      "Ġexist": 2301,
      "input": 2302,
      "Ġproperty": 2303,
      "ury": 2304,
      "Ġleast": 2305,
      "face": 2306,
      "Ġeither": 2307,
      "åĻ": 2308,
      "Ġmar": 2309,
      "åĻ¨": 2310,
      "Ġsum": 2311,
      "ground": 2312,
      "ok": 2313,
      "Ġflo": 2314,
      "Ġconst": 2315,
      "IS": 2316,
      "had": 2317,
      "à¥": 2318,
      "alth": 2319,
      "Ġwhite": 2320,
      "ites": 2321,
      "ony": 2322,
      "Ġbegan": 2323,
      "ĠWith": 2324,
      "There": 2325,
      "ĠJohn": 2326,
      "Ġcolspan": 2327,
      "Ġwait": 2328,
      "ĠCl": 2329,
      "Set": 2330,
      "ux": 2331,
      "æĹ": 2332,
      "Ġdocument": 2333,
      "ĠLord": 2334,
      "Ġmsg": 2335,
      "ables": 2336,
      "ians": 2337,
      "Ġbrought": 2338,
      "ORD": 2339,
      "`](/": 2340,
      "Ġmatch": 2341,
      "fort": 2342,
      "Case": 2343,
      "Ġfire": 2344,
      "17": 2345,
      "Ñĥ": 2346,
      "List": 2347,
      "TypeError": 2348,
      "bers": 2349,
      "sole": 2350,
      "Ġspeak": 2351,
      "ç½": 2352,
      "Ġquest": 2353,
      "metadata": 2354,
      "Ġpoor": 2355,
      "oint": 2356,
      "Ġsun": 2357,
      "Ġwhether": 2358,
      "method": 2359,
      "Str": 2360,
      "iting": 2361,
      "Ġhtt": 2362,
      "Ġmark": 2363,
      "Ġdoor": 2364,
      "oller": 2365,
      "Ġalready": 2366,
      "px": 2367,
      "angu": 2368,
      "Ġ20": 2369,
      "format": 2370,
      "Ġbeaut": 2371,
      "arry": 2372,
      "Ġsingle": 2373,
      "å°": 2374,
      "Ġnode": 2375,
      "aff": 2376,
      "ALL": 2377,
      "ils": 2378,
      "Ġ130": 2379,
      "\\\\": 2380,
      "urch": 2381,
      "this": 2382,
      "Ġinterest": 2383,
      "'ve": 2384,
      "Ġcluster": 2385,
      "What": 2386,
      "ĠFr": 2387,
      "Ġturned": 2388,
      "Ġair": 2389,
      "uc": 2390,
      "åŃ": 2391,
      "const": 2392,
      "ially": 2393,
      "Ġsuper": 2394,
      "common": 2395,
      "Ġweb": 2396,
      "ntax": 2397,
      "æľī": 2398,
      "color": 2399,
      "Ġstre": 2400,
      "oney": 2401,
      "ION": 2402,
      "When": 2403,
      "Ġeas": 2404,
      "Ġcontainer": 2405,
      "((": 2406,
      "Ġalmost": 2407,
      "Ġque": 2408,
      "19": 2409,
      "inc": 2410,
      "Ġvari": 2411,
      "Ġshort": 2412,
      "resh": 2413,
      "Ġnon": 2414,
      "Ġdecl": 2415,
      "RL": 2416,
      "ots": 2417,
      "Ġtimes": 2418,
      "elector": 2419,
      "Ġvoice": 2420,
      "atur": 2421,
      "Ġappear": 2422,
      "Pro": 2423,
      "kind": 2424,
      "box": 2425,
      "ĠRe": 2426,
      "Ġhold": 2427,
      "That": 2428,
      "22": 2429,
      "æĺ¯": 2430,
      "vious": 2431,
      "Ġperson": 2432,
      "})": 2433,
      "ards": 2434,
      "action": 2435,
      "ĠPr": 2436,
      "ìĿĦ": 2437,
      "viron": 2438,
      "Ð»": 2439,
      "illed": 2440,
      "Ġexec": 2441,
      "On": 2442,
      "ude": 2443,
      "Ġsize": 2444,
      "ĠPro": 2445,
      "Ġdraw": 2446,
      "kn": 2447,
      "rc": 2448,
      "ued": 2449,
      "ATIN": 2450,
      "Ġothers": 2451,
      "him": 2452,
      "Ġchange": 2453,
      "ger": 2454,
      "Ġtaken": 2455,
      "itions": 2456,
      "true": 2457,
      "write": 2458,
      "Ġlord": 2459,
      "Ġmyself": 2460,
      "Ġcapt": 2461,
      "Ġmodule": 2462,
      "ND": 2463,
      "Ġscri": 2464,
      "aged": 2465,
      "ĠLATIN": 2466,
      "Ġoften": 2467,
      "Ġfeet": 2468,
      "å¯": 2469,
      "leep": 2470,
      "AS": 2471,
      "ends": 2472,
      "Ġcontext": 2473,
      "à¦¾": 2474,
      "onder": 2475,
      "uff": 2476,
      "obj": 2477,
      "Ġeffect": 2478,
      "Ġhost": 2479,
      "Ġlive": 2480,
      "Ġnecess": 2481,
      "ĠMiss": 2482,
      "refix": 2483,
      "Com": 2484,
      "aml": 2485,
      "à¦°": 2486,
      "Ġcharacter": 2487,
      "II": 2488,
      "Ġlead": 2489,
      "Ġformat": 2490,
      "ĠZ": 2491,
      "Ġdi": 2492,
      "ĠGr": 2493,
      "Ġresource": 2494,
      "des": 2495,
      "shell": 2496,
      "Ġpossible": 2497,
      "can": 2498,
      "ization": 2499,
      "eger": 2500,
      "Ġlog": 2501,
      "EC": 2502,
      "Ġservice": 2503,
      "è¦": 2504,
      "lease": 2505,
      "client": 2506,
      "coding": 2507,
      "tbody": 2508,
      "Ġdark": 2509,
      "ĠPy": 2510,
      "ĠMrs": 2511,
      "sign": 2512,
      "iving": 2513,
      "fect": 2514,
      "Ġarr": 2515,
      "Ġbus": 2516,
      "result": 2517,
      "ails": 2518,
      "irt": 2519,
      "ãĤ¯": 2520,
      "Ġdoub": 2521,
      "ĠChrist": 2522,
      "metric": 2523,
      "¦Ĥ": 2524,
      "Ġtill": 2525,
      "admin": 2526,
      "well": 2527,
      "ĠBy": 2528,
      "Ġtable": 2529,
      "Ġ```": 2530,
      "Ġsort": 2531,
      "En": 2532,
      "Ġfear": 2533,
      "Ġthemselves": 2534,
      "AB": 2535,
      "typ": 2536,
      "'m": 2537,
      "ĠOF": 2538,
      "Ġvalid": 2539,
      "gy": 2540,
      "arning": 2541,
      "Ġscript": 2542,
      "].": 2543,
      "aves": 2544,
      "inary": 2545,
      "Ġspecified": 2546,
      "Ġhundred": 2547,
      "########": 2548,
      "IP": 2549,
      "ones": 2550,
      "dict": 2551,
      "aj": 2552,
      "ãģĻãĤĭ": 2553,
      "Element": 2554,
      "Ġstrong": 2555,
      "ëĭ¤": 2556,
      "etwork": 2557,
      "aught": 2558,
      "anger": 2559,
      "medi": 2560,
      "pass": 2561,
      "Ĭ¸": 2562,
      "Ġtop": 2563,
      "34": 2564,
      "concepts": 2565,
      "Ġallow": 2566,
      "uss": 2567,
      "ä¹": 2568,
      "Ġpret": 2569,
      "Ġinformation": 2570,
      "ship": 2571,
      "With": 2572,
      "Ġcommon": 2573,
      "Ġ``": 2574,
      "ively": 2575,
      "Ġmorning": 2576,
      "Ġload": 2577,
      "æŃ": 2578,
      "ĠNot": 2579,
      "ousand": 2580,
      "Ġtherefore": 2581,
      "ouble": 2582,
      "Ġins": 2583,
      "support": 2584,
      "Ġmeet": 2585,
      "ĠGer": 2586,
      "ĠĠĠĠĠĠĠĠĠĠĠĠĠ": 2587,
      "ump": 2588,
      "Ġbuild": 2589,
      "arm": 2590,
      "Ġdat": 2591,
      "'re": 2592,
      "node": 2593,
      "has": 2594,
      "\"><": 2595,
      "meric": 2596,
      "Ġign": 2597,
      "Ġdead": 2598,
      "plit": 2599,
      "overed": 2600,
      "æĮ": 2601,
      "ender": 2602,
      "pri": 2603,
      "Ġgentle": 2604,
      "ĥ½": 2605,
      "Ġpleas": 2606,
      "Ġearth": 2607,
      "Model": 2608,
      "kube": 2609,
      "atures": 2610,
      "Ġwatch": 2611,
      "ĠĠĠĠĠĠĠĠĠĠĠĠĠĠĠĠĠĠĠĠĠĠĠĠĠĠĠ": 2612,
      "ĠMar": 2613,
      "Ġitself": 2614,
      "--\"": 2615,
      "item": 2616,
      "Ġcount": 2617,
      "Ø§": 2618,
      "Ġobj": 2619,
      "conn": 2620,
      "Ġabs": 2621,
      "yaml": 2622,
      "Ġdest": 2623,
      "une": 2624,
      "Ġclear": 2625,
      "group": 2626,
      "Ġ17": 2627,
      "/#": 2628,
      "Ġfields": 2629,
      "},": 2630,
      "She": 2631,
      "LO": 2632,
      "Ġide": 2633,
      "Ġcir": 2634,
      "Ġpol": 2635,
      "íĬ¸": 2636,
      "Ġrepresent": 2637,
      "ãģŁ": 2638,
      "straint": 2639,
      "da": 2640,
      "fic": 2641,
      "50": 2642,
      "Ġlocal": 2643,
      "quence": 2644,
      "Ġà¤": 2645,
      "wise": 2646,
      "Ġblock": 2647,
      "Ġconc": 2648,
      "ä¾": 2649,
      "Ġpartic": 2650,
      "Ġfair": 2651,
      "though": 2652,
      "they": 2653,
      "Ġsuccess": 2654,
      "cr": 2655,
      "Ġmount": 2656,
      "Ġaccess": 2657,
      ".\"\"\"": 2658,
      "aph": 2659,
      "Ġpage": 2660,
      "Ġstood": 2661,
      "()\")}}": 2662,
      "ĠĠĠĠĠĠĠĠĠĠ": 2663,
      "enty": 2664,
      "ë¥¼": 2665,
      ")),": 2666,
      "Ġbar": 2667,
      "UT": 2668,
      "mo": 2669,
      "Ġ200": 2670,
      "function": 2671,
      "ĠĠĠĠĠĠĠĠĠĠĠĠĠĠĠĠĠĠĠĠĠĠĠĠĠĠĠĠĠ": 2672,
      "orth": 2673,
      "Ġaround": 2674,
      "Ġfeature": 2675,
      "ius": 2676,
      "Ġperform": 2677,
      ".]": 2678,
      "Ġexpl": 2679,
      "\">--": 2680,
      "Ġdro": 2681,
      "TestCase": 2682,
      "Ġmodels": 2683,
      "Ġposition": 2684,
      "AP": 2685,
      "Ġblo": 2686,
      "Ġsoul": 2687,
      "Ġdeep": 2688,
      "ift": 2689,
      "åĨ": 2690,
      "Ġdear": 2691,
      "ording": 2692,
      "dtype": 2693,
      "cssxref": 2694,
      "eta": 2695,
      "Ġfelt": 2696,
      ">`": 2697,
      "CSS": 2698,
      "Ġ]": 2699,
      "iled": 2700,
      "son": 2701,
      "ero": 2702,
      "ľëĭ¤": 2703,
      "light": 2704,
      "æĢ": 2705,
      "Ġhope": 2706,
      "ĠTHE": 2707,
      "Ġconsider": 2708,
      "Ġlen": 2709,
      "Ġph": 2710,
      "iers": 2711,
      "Ġimage": 2712,
      "Ġdri": 2713,
      "RO": 2714,
      "Ġcap": 2715,
      "filter": 2716,
      "ployment": 2717,
      "::": 2718,
      ",'": 2719,
      "ested": 2720,
      "çī": 2721,
      "Ġsound": 2722,
      "Ġcal": 2723,
      "msg": 2724,
      "Ġsix": 2725,
      "Ġstream": 2726,
      "å¼": 2727,
      "ament": 2728,
      "è¦ģ": 2729,
      "main": 2730,
      "pty": 2731,
      "Ġinstance": 2732,
      "Ġdiv": 2733,
      "Ġund": 2734,
      "Ġhath": 2735,
      "An": 2736,
      "ring": 2737,
      "have": 2738,
      "ç½®": 2739,
      "pack": 2740,
      "uments": 2741,
      "ENT": 2742,
      "open": 2743,
      "Time": 2744,
      "unity": 2745,
      "Ġsays": 2746,
      "à§į": 2747,
      "Ġadded": 2748,
      "æİ": 2749,
      "Ġlearn": 2750,
      "Ġrequired": 2751,
      "ãģª": 2752,
      "Ġ12": 2753,
      "efore": 2754,
      "Ġseveral": 2755,
      "Ġinstead": 2756,
      "ĠĠĠĠĠĠĠĠĠĠĠĠ": 2757,
      "04": 2758,
      "Ġsch": 2759,
      "down": 2760,
      "Ġsol": 2761,
      "Ġlib": 2762,
      "task": 2763,
      "Ġclose": 2764,
      "Ġdescri": 2765,
      "Ġcontinue": 2766,
      "Ġequal": 2767,
      "look": 2768,
      "abc": 2769,
      "å¿": 2770,
      "Ġauthor": 2771,
      "idden": 2772,
      "dden": 2773,
      "lean": 2774,
      "Ġclient": 2775,
      "parameters": 2776,
      "ĠBe": 2777,
      "iec": 2778,
      "istent": 2779,
      "Ġelements": 2780,
      "Ġgone": 2781,
      "python": 2782,
      "ä½ľ": 2783,
      "ultiple": 2784,
      "Tr": 2785,
      "http": 2786,
      "().": 2787,
      "Ġsudden": 2788,
      "æķ°": 2789,
      "Ġwife": 2790,
      "etimes": 2791,
      "icle": 2792,
      "Ġìŀ": 2793,
      "Ġavailable": 2794,
      "EST": 2795,
      "Ġnote": 2796,
      "utes": 2797,
      "au": 2798,
      "Ġill": 2799,
      "Ġfur": 2800,
      "ĠNew": 2801,
      "ination": 2802,
      "By": 2803,
      "oid": 2804,
      "Ġca": 2805,
      "Ġblack": 2806,
      "ney": 2807,
      "Class": 2808,
      "Ġtypes": 2809,
      "Ġadm": 2810,
      "Ġbelieve": 2811,
      "link": 2812,
      "Ðº": 2813,
      "tor": 2814,
      "Ġord": 2815,
      "uid": 2816,
      "Ġsuff": 2817,
      "fields": 2818,
      "tings": 2819,
      "Ġalone": 2820,
      "tw": 2821,
      "known": 2822,
      "server": 2823,
      "Ġleave": 2824,
      "ĠRes": 2825,
      "Ġargs": 2826,
      "Ġinit": 2827,
      "Ġinput": 2828,
      "aining": 2829,
      "Ġaccount": 2830,
      "Ġlow": 2831,
      "Ġcreated": 2832,
      "tered": 2833,
      "Ġbecame": 2834,
      "Ġspirit": 2835,
      "length": 2836,
      "80": 2837,
      "Ġmax": 2838,
      "IO": 2839,
      "ä¼": 2840,
      "Ġcity": 2841,
      "Ġmis": 2842,
      "ìĿĺ": 2843,
      "Ġpat": 2844,
      "itten": 2845,
      "Ġsource": 2846,
      "IM": 2847,
      "Ġvar": 2848,
      "Ġcried": 2849,
      "ically": 2850,
      "iful": 2851,
      "HTML": 2852,
      "Ġmain": 2853,
      "ole": 2854,
      "Ġ[\"": 2855,
      "æĿ": 2856,
      "Ġthousand": 2857,
      "å¦Ĥ": 2858,
      "where": 2859,
      "Ġground": 2860,
      "à§ĩ": 2861,
      ".--": 2862,
      "umn": 2863,
      "ãĤ¤": 2864,
      "Ġmemory": 2865,
      "Wh": 2866,
      "Ġlength": 2867,
      "perties": 2868,
      "Ġ{#": 2869,
      "ĠEnglish": 2870,
      "Kubernetes": 2871,
      "base": 2872,
      "Ġleg": 2873,
      "ension": 2874,
      "Ġ16": 2875,
      "event": 2876,
      "Ġsystem": 2877,
      "Ġten": 2878,
      "Ġtalk": 2879,
      "ëĵľ": 2880,
      "Ġhttps": 2881,
      "Ġbound": 2882,
      "iction": 2883,
      "ron": 2884,
      "Ġbad": 2885,
      "pper": 2886,
      "Ġanything": 2887,
      "script": 2888,
      "Ġax": 2889,
      "Ġattribute": 2890,
      "andom": 2891,
      "My": 2892,
      "alid": 2893,
      "ValueError": 2894,
      "map": 2895,
      "Ġimplement": 2896,
      "ops": 2897,
      "ĠAmeric": 2898,
      "odes": 2899,
      "ĠĠĠĠĠĠĠĠĠĠĠĠĠĠĠĠĠĠĠĠĠĠĠĠĠĠĠĠĠĠĠĠĠĠĠĠĠĠĠĠĠĠĠĠĠĠĠĠĠĠĠĠĠĠĠĠĠĠĠĠĠĠĠĠ": 2900,
      "Ġ[]": 2901,
      "Ġindic": 2902,
      "ãĥª": 2903,
      "Ġ-->": 2904,
      "Ġlater": 2905,
      "ze": 2906,
      "Ġyield": 2907,
      "Ġconnection": 2908,
      "Ġgeneral": 2909,
      "aring": 2910,
      "Ġmessage": 2911,
      "Ġbring": 2912,
      "ĠKing": 2913,
      "close": 2914,
      "ĠOf": 2915,
      "Ġnames": 2916,
      "Ġindeed": 2917,
      "uk": 2918,
      "ĠReturn": 2919,
      "kwargs": 2920,
      "56": 2921,
      "go": 2922,
      "Ġsubject": 2923,
      "lobal": 2924,
      "°Ģ": 2925,
      "Ġsn": 2926,
      "iddle": 2927,
      "Ġfive": 2928,
      "Ġsweet": 2929,
      "Gr": 2930,
      "ĠìĿ": 2931,
      "ĠOr": 2932,
      "under": 2933,
      "Ġmonth": 2934,
      "anguage": 2935,
      "airs": 2936,
      "Ġhast": 2937,
      "ĠLORD": 2938,
      "cache": 2939,
      "Ġquestion": 2940,
      "json": 2941,
      "Ġhuman": 2942,
      "Sec": 2943,
      "iff": 2944,
      "assertTrue": 2945,
      "ä¿": 2946,
      "mand": 2947,
      "Ġthread": 2948,
      "åĲį": 2949,
      "thead": 2950,
      "ĠType": 2951,
      "ixed": 2952,
      "iod": 2953,
      "Ġtruth": 2954,
      "ĠHTTP": 2955,
      "UL": 2956,
      "pose": 2957,
      "Ġmoney": 2958,
      "Ġable": 2959,
      "Ġwhy": 2960,
      "ĠNow": 2961,
      "Ġrunning": 2962,
      "iment": 2963,
      "Ġdoubt": 2964,
      "lin": 2965,
      "erson": 2966,
      "ĠWill": 2967,
      "Object": 2968,
      "Ġlines": 2969,
      "èĥ½": 2970,
      "Ġmine": 2971,
      "claim": 2972,
      "Ġproject": 2973,
      "Ġla": 2974,
      "Ġbrother": 2975,
      "edia": 2976,
      "Ġunderstand": 2977,
      "Ġbecome": 2978,
      "command": 2979,
      "Ġfamily": 2980,
      "ĠSp": 2981,
      "oper": 2982,
      "output": 2983,
      "Ġdevel": 2984,
      "ĠHer": 2985,
      "process": 2986,
      "Ġanswered": 2987,
      "Ġquick": 2988,
      "Ġmaking": 2989,
      "rect": 2990,
      "ë¦": 2991,
      "Ġsea": 2992,
      "ä¸į": 2993,
      "Oh": 2994,
      "Ġsight": 2995,
      "ĠCol": 2996,
      "Yes": 2997,
      "Ġbehind": 2998,
      "ĠGerman": 2999,
      "Ġspecific": 3000,
      "aughter": 3001,
      "Then": 3002,
      "æł": 3003,
      "ule": 3004,
      "eadm": 3005,
      "Ġcontrol": 3006,
      "ique": 3007,
      "Ġacross": 3008,
      "uture": 3009,
      "Ġcreat": 3010,
      "ency": 3011,
      "Ġpublic": 3012,
      "§Ģ": 3013,
      "ĠTr": 3014,
      "ä»¶": 3015,
      "ormal": 3016,
      "lex": 3017,
      "sing": 3018,
      "ä½ł": 3019,
      "tributes": 3020,
      "width": 3021,
      "ĠWeb": 3022,
      "Ġcut": 3023,
      "200": 3024,
      "OS": 3025,
      "Ġlost": 3026,
      "idence": 3027,
      "hedul": 3028,
      "Ġmus": 3029,
      "Ġgroup": 3030,
      "aith": 3031,
      "cent": 3032,
      "ocation": 3033,
      "Ġheld": 3034,
      "æŀ": 3035,
      "ĠOne": 3036,
      "Ġeye": 3037,
      "skip": 3038,
      "Ġ),": 3039,
      "ertific": 3040,
      "Ġmode": 3041,
      "rench": 3042,
      "OD": 3043,
      "Ġsend": 3044,
      "ãģĵ": 3045,
      "cur": 3046,
      "ability": 3047,
      "=\"{{<": 3048,
      "Ġsecret": 3049,
      "Ġinf": 3050,
      "types": 3051,
      "Ġbrowser": 3052,
      "Ġbelow": 3053,
      "Ġ>}}\">": 3054,
      "Ġweek": 3055,
      "Ġfriends": 3056,
      "Ġ!": 3057,
      "Ġbase": 3058,
      "Ġpast": 3059,
      "33": 3060,
      "Key": 3061,
      "right": 3062,
      "Ġfiles": 3063,
      "Ġresol": 3064,
      "asion": 3065,
      "level": 3066,
      "Ġask": 3067,
      "Ġlonger": 3068,
      "Ġcause": 3069,
      "oes": 3070,
      "Ġstud": 3071,
      "Ġlady": 3072,
      "oved": 3073,
      "=[": 3074,
      "select": 3075,
      "opt": 3076,
      "icient": 3077,
      "Ġcustom": 3078,
      "ĠIN": 3079,
      "band": 3080,
      "Ġpars": 3081,
      "acy": 3082,
      "Ġbes": 3083,
      "Ġargument": 3084,
      "éĹ": 3085,
      "ĴĮ": 3086,
      "Ġpap": 3087,
      "...": 3088,
      "ivers": 3089,
      "oe": 3090,
      "Ġoffer": 3091,
      "owing": 3092,
      "ium": 3093,
      "Ġpop": 3094,
      "Ġfree": 3095,
      "íķľëĭ¤": 3096,
      "Ġ\\": 3097,
      "coun": 3098,
      "Ġfoot": 3099,
      "Ġwild": 3100,
      "bit": 3101,
      "äºİ": 3102,
      "Ľ´": 3103,
      "ï¼Ī": 3104,
      "Ġbit": 3105,
      "Im": 3106,
      "Ġcolor": 3107,
      "Ġasync": 3108,
      "0001": 3109,
      "ouch": 3110,
      "after": 3111,
      "gu": 3112,
      "ĠDr": 3113,
      "Ġdjango": 3114,
      "Ġbegin": 3115,
      "std": 3116,
      "Ġperhaps": 3117,
      "Ġident": 3118,
      "Ġbed": 3119,
      "stance": 3120,
      "ï¼ī": 3121,
      "Ġdisplay": 3122,
      "IR": 3123,
      "prot": 3124,
      "Ġpack": 3125,
      "()`": 3126,
      "Ġwish": 3127,
      "Ġopp": 3128,
      "var": 3129,
      "ermin": 3130,
      "orrow": 3131,
      "dep": 3132,
      "flo": 3133,
      "They": 3134,
      "Ġcast": 3135,
      "Ġoffic": 3136,
      "gl": 3137,
      "Ġwonder": 3138,
      "ential": 3139,
      "abled": 3140,
      "ĠThese": 3141,
      "Ġremember": 3142,
      "Ġreceived": 3143,
      "ĠSc": 3144,
      "Ġobserv": 3145,
      "ficult": 3146,
      "using": 3147,
      "ë¡ľ": 3148,
      "Ġparticular": 3149,
      "auth": 3150,
      "Ġreport": 3151,
      "Ġstat": 3152,
      "../": 3153,
      "opment": 3154,
      "first": 3155,
      "zz": 3156,
      "lines": 3157,
      "Ġmaster": 3158,
      "Ġmove": 3159,
      "Ġ`<": 3160,
      "Ġcold": 3161,
      "ê³": 3162,
      "Ġwrite": 3163,
      "éĻ": 3164,
      "ster": 3165,
      "Ġquery": 3166,
      "ying": 3167,
      "Ġsit": 3168,
      "assertIn": 3169,
      "patch": 3170,
      "vironment": 3171,
      "ql": 3172,
      "ctions": 3173,
      "Ġempty": 3174,
      "ĠçļĦ": 3175,
      "All": 3176,
      "Ġwon": 3177,
      "ossary": 3178,
      "Ġfav": 3179,
      "ilar": 3180,
      "Ġarm": 3181,
      "Ġrequests": 3182,
      "03": 3183,
      "semb": 3184,
      "Ġlooking": 3185,
      "itude": 3186,
      "onds": 3187,
      "Ð°Ð": 3188,
      "note": 3189,
      "ging": 3190,
      "ĠCont": 3191,
      "owers": 3192,
      "their": 3193,
      "ÛĮ": 3194,
      "gin": 3195,
      "åĢ": 3196,
      "Ġmat": 3197,
      "unic": 3198,
      "ĠSM": 3199,
      "Ġparent": 3200,
      "Ġforth": 3201,
      "ational": 3202,
      "Ġesc": 3203,
      "det": 3204,
      "RI": 3205,
      "ìŀ": 3206,
      "author": 3207,
      "isf": 3208,
      "Al": 3209,
      "some": 3210,
      "af": 3211,
      "Ġmanner": 3212,
      "ators": 3213,
      "trans": 3214,
      "27": 3215,
      "Ġgold": 3216,
      "attle": 3217,
      "Policy": 3218,
      "åĩ": 3219,
      "ustr": 3220,
      "Ġtown": 3221,
      "PU": 3222,
      "Ġ100": 3223,
      "root": 3224,
      "comple": 3225,
      "Ġanswer": 3226,
      "How": 3227,
      "Ġblood": 3228,
      "Ġisinstance": 3229,
      "Py": 3230,
      "were": 3231,
      "Ġnone": 3232,
      "Ñı": 3233,
      "Ġ{\"": 3234,
      "SON": 3235,
      "Path": 3236,
      "when": 3237,
      "\"\"\"": 3238,
      "Selector": 3239,
      "'))": 3240,
      "Ġindex": 3241,
      "char": 3242,
      "æĹ¶": 3243,
      "Ġwood": 3244,
      "Ġprob": 3245,
      "Ġearly": 3246,
      "Ġage": 3247,
      "Ġ$": 3248,
      "\"],": 3249,
      "nal": 3250,
      "Ġlabel": 3251,
      "filename": 3252,
      "spect": 3253,
      "Ġwomen": 3254,
      "Ġpriv": 3255,
      "Ġintr": 3256,
      "exec": 3257,
      "Ġsold": 3258,
      "room": 3259,
      "Ġrespect": 3260,
      "è¿Ļ": 3261,
      "Ã³": 3262,
      "ãĥ¼ãĤ": 3263,
      "Ġmiss": 3264,
      "100": 3265,
      "Ġfort": 3266,
      "usp": 3267,
      "bs": 3268,
      "page": 3269,
      "will": 3270,
      "false": 3271,
      "imple": 3272,
      "\".": 3273,
      "ħį": 3274,
      "Ġnature": 3275,
      "vert": 3276,
      "Ġelif": 3277,
      "iety": 3278,
      "Ã¡": 3279,
      "oose": 3280,
      "'\\": 3281,
      "Ġpick": 3282,
      "there": 3283,
      "Ġchanges": 3284,
      "201": 3285,
      "Ġtask": 3286,
      "Ġcross": 3287,
      "Ġexper": 3288,
      "Ġwalk": 3289,
      "long": 3290,
      "Ġbig": 3291,
      "pret": 3292,
      "items": 3293,
      "29": 3294,
      "Mr": 3295,
      "TAL": 3296,
      "enc": 3297,
      "iar": 3298,
      "cluster": 3299,
      "ensions": 3300,
      "Ġregard": 3301,
      "Event": 3302,
      "ority": 3303,
      "Ġpract": 3304,
      "Ġremark": 3305,
      "fox": 3306,
      "tx": 3307,
      "ears": 3308,
      "Ġfollowed": 3309,
      "ĠLet": 3310,
      "åĮ": 3311,
      "response": 3312,
      "empor": 3313,
      "ìļ©": 3314,
      "etch": 3315,
      "Ġdelet": 3316,
      "à¦¿": 3317,
      "Ġfine": 3318,
      "Ġherself": 3319,
      "cd": 3320,
      "atform": 3321,
      "Ġpost": 3322,
      "sys": 3323,
      "File": 3324,
      "find": 3325,
      "idget": 3326,
      "quot": 3327,
      "à¦¨": 3328,
      "Ġscope": 3329,
      "Ġprof": 3330,
      "Ġpray": 3331,
      "names": 3332,
      "bb": 3333,
      "inner": 3334,
      "Ġdu": 3335,
      "Ġbur": 3336,
      "oman": 3337,
      "gram": 3338,
      "åĪ¶": 3339,
      "cls": 3340,
      "Ġframe": 3341,
      "Ġpy": 3342,
      "Ġeng": 3343,
      "Ġterm": 3344,
      "annot": 3345,
      "Context": 3346,
      "ĮĮ": 3347,
      "ogn": 3348,
      "éħį": 3349,
      "gle": 3350,
      "oad": 3351,
      "Ġevents": 3352,
      "21": 3353,
      "Ġlim": 3354,
      "aud": 3355,
      "copy": 3356,
      "ĠEngland": 3357,
      "service": 3358,
      "verse": 3359,
      "Ġ15": 3360,
      "Ġjud": 3361,
      "Ġsupported": 3362,
      "ç§": 3363,
      "Ĥ¬": 3364,
      "Ġrecord": 3365,
      "bug": 3366,
      "vern": 3367,
      "Ġresources": 3368,
      "uous": 3369,
      "otion": 3370,
      "ĠDe": 3371,
      "devel": 3372,
      "rest": 3373,
      "Ġready": 3374,
      "ada": 3375,
      "ĠâĢĶ": 3376,
      "ä¸Ģä¸ª": 3377,
      "hook": 3378,
      "Ġsoft": 3379,
      "ĠSec": 3380,
      "ours": 3381,
      "Ġcls": 3382,
      "jsxref": 3383,
      "RA": 3384,
      "container": 3385,
      "ansp": 3386,
      "Ġkept": 3387,
      "Ġprevious": 3388,
      "non": 3389,
      "return": 3390,
      "template": 3391,
      "Ġaction": 3392,
      "ĠSMALL": 3393,
      "40": 3394,
      "ĠĠĠĠĠĠĠĠĠĠĠĠĠĠĠĠĠĠĠĠĠĠĠĠĠĠĠĠĠĠĠĠĠĠĠĠĠĠĠĠĠĠĠĠĠĠĠĠĠĠĠĠĠĠĠĠĠĠĠĠĠ": 3395,
      "Ġkubelet": 3396,
      "Ġrender": 3397,
      "mit": 3398,
      "26": 3399,
      "got": 3400,
      "thread": 3401,
      "Ġ;": 3402,
      "Ġlevel": 3403,
      "Ġaddress": 3404,
      "elled": 3405,
      "ges": 3406,
      "gress": 3407,
      "ãģķãĤ": 3408,
      "Ġnecessary": 3409,
      "arnings": 3410,
      "namespace": 3411,
      "tract": 3412,
      "aul": 3413,
      "mem": 3414,
      "\");": 3415,
      "how": 3416,
      "Ad": 3417,
      "pat": 3418,
      "Ġve": 3419,
      "ĠLe": 3420,
      "Ġexpect": 3421,
      "chang": 3422,
      "indows": 3423,
      "Form": 3424,
      "Ġattempt": 3425,
      "ĠCSS": 3426,
      "oci": 3427,
      "Ġtowards": 3428,
      "ëĲ": 3429,
      "Īĺ": 3430,
      "åı¯ä»¥": 3431,
      "reed": 3432,
      "Ġexpression": 3433,
      "ledge": 3434,
      "storage": 3435,
      "ãĥ©": 3436,
      "Config": 3437,
      "Ġincre": 3438,
      "Ġpods": 3439,
      "values": 3440,
      "Ġresults": 3441,
      "Ġwindow": 3442,
      "itting": 3443,
      "Gu": 3444,
      "Ġanim": 3445,
      "Ġdefined": 3446,
      "Now": 3447,
      "ools": 3448,
      "more": 3449,
      "å®¹": 3450,
      "atural": 3451,
      "ameter": 3452,
      "Ġfurther": 3453,
      "á»": 3454,
      "den": 3455,
      "round": 3456,
      "models": 3457,
      "Ġquiet": 3458,
      "Ġcirc": 3459,
      "erc": 3460,
      "top": 3461,
      "__,": 3462,
      "Ġcopy": 3463,
      "Ġmock": 3464,
      "clus": 3465,
      "ãģķãĤĮ": 3466,
      "ills": 3467,
      "Per": 3468,
      "status": 3469,
      "book": 3470,
      "itable": 3471,
      "Ġmakes": 3472,
      "Ġcoming": 3473,
      "just": 3474,
      "ded": 3475,
      "Ġreally": 3476,
      "ãĥ³ãĥ": 3477,
      "ening": 3478,
      "expected": 3479,
      "JavaScript": 3480,
      "split": 3481,
      "match": 3482,
      "them": 3483,
      "ias": 3484,
      "ĠDec": 3485,
      "ãĤ³": 3486,
      "Ġtarget": 3487,
      "repr": 3488,
      "Ġhur": 3489,
      "28": 3490,
      "ĠSy": 3491,
      "Ġdoesn": 3492,
      "ories": 3493,
      "irefox": 3494,
      "igned": 3495,
      "KE": 3496,
      "child": 3497,
      "Ġprovided": 3498,
      "Ġdom": 3499,
      "Ġcomes": 3500,
      "Well": 3501,
      "Ġriver": 3502,
      "Ġmiles": 3503,
      "raw": 3504,
      "Of": 3505,
      "what": 3506,
      "Ġfalse": 3507,
      "hold": 3508,
      "Ġstory": 3509,
      "ĠURL": 3510,
      "æı": 3511,
      "aven": 3512,
      "Ġyang": 3513,
      "Ġwritten": 3514,
      "datetime": 3515,
      "--------------------------------": 3516,
      "Ġseems": 3517,
      "Ġbas": 3518,
      "sig": 3519,
      "ĠPer": 3520,
      "íķľ": 3521,
      "ĠBrit": 3522,
      "lay": 3523,
      "Ĥ¹": 3524,
      "Ġdifficult": 3525,
      "gar": 3526,
      "èĢ": 3527,
      "apis": 3528,
      "irm": 3529,
      "unittest": 3530,
      "ãģĹãģ¦": 3531,
      "Ġforce": 3532,
      "antly": 3533,
      "Ġawait": 3534,
      "ivid": 3535,
      "Ġstruct": 3536,
      "Ġgame": 3537,
      "]:": 3538,
      "Ġhorse": 3539,
      "Ġsleep": 3540,
      "æĢ§": 3541,
      "source": 3542,
      "ĠIP": 3543,
      "String": 3544,
      "lock": 3545,
      "OP": 3546,
      "raises": 3547,
      "bin": 3548,
      "Ġwidth": 3549,
      "ãĤĬ": 3550,
      "å¯¹": 3551,
      "position": 3552,
      "Ġlimit": 3553,
      "Ġhours": 3554,
      "ĠValueError": 3555,
      "Up": 3556,
      "Ġinfl": 3557,
      "ì§Ģ": 3558,
      "Ġworth": 3559,
      "meta": 3560,
      "Ġbuilt": 3561,
      "ĠFrench": 3562,
      "æĸĩ": 3563,
      "Ñĭ": 3564,
      "ĠAd": 3565,
      "ĠCAPI": 3566,
      "Ð¼": 3567,
      "iously": 3568,
      "Ġallowed": 3569,
      "Ġimmedi": 3570,
      "ĠSe": 3571,
      "ries": 3572,
      "Ġinstall": 3573,
      "Ġhig": 3574,
      "AME": 3575,
      "send": 3576,
      "Ġbox": 3577,
      "ĠPh": 3578,
      "Ġerr": 3579,
      "anced": 3580,
      "come": 3581,
      "inct": 3582,
      "Ġforward": 3583,
      "Ġroad": 3584,
      "ny": 3585,
      "å°Ĩ": 3586,
      "ĠCAPITAL": 3587,
      "ÑĮ": 3588,
      "anch": 3589,
      "Ġwall": 3590,
      "hent": 3591,
      "Ġenem": 3592,
      "ught": 3593,
      "´ë": 3594,
      "Ġarri": 3595,
      "Ġcollect": 3596,
      "osp": 3597,
      "Ġreturns": 3598,
      "mask": 3599,
      "fail": 3600,
      "Ġ\"../": 3601,
      "åĢ¼": 3602,
      "rough": 3603,
      "would": 3604,
      "çĤ¹": 3605,
      "Ġreplied": 3606,
      "åıĤ": 3607,
      "helper": 3608,
      "iol": 3609,
      "Ġ['": 3610,
      "Ġbusiness": 3611,
      "derr": 3612,
      "Ġsepar": 3613,
      "éĩ": 3614,
      "Ġtwenty": 3615,
      "FF": 3616,
      "So": 3617,
      "ê°Ģ": 3618,
      "Ġlate": 3619,
      "roy": 3620,
      "Ġ201": 3621,
      "Ġminutes": 3622,
      "({": 3623,
      "night": 3624,
      "active": 3625,
      "Ġfront": 3626,
      "Ġaxis": 3627,
      "ital": 3628,
      "alked": 3629,
      "ĠAfter": 3630,
      "query": 3631,
      "Ġpeace": 3632,
      "usband": 3633,
      "attern": 3634,
      "å¹": 3635,
      "Ġpretty": 3636,
      "Pr": 3637,
      "ĠEn": 3638,
      "block": 3639,
      "ham": 3640,
      "Ġitems": 3641,
      "UM": 3642,
      "Ġmist": 3643,
      "Ġwat": 3644,
      "Ġpiec": 3645,
      "Ġlink": 3646,
      "Ġsave": 3647,
      "Ġslow": 3648,
      "Reg": 3649,
      "bre": 3650,
      "loop": 3651,
      "cons": 3652,
      "Ġnamed": 3653,
      "Ġsaying": 3654,
      "Ġfaith": 3655,
      "pha": 3656,
      "GE": 3657,
      "ĠFrom": 3658,
      "Ġrock": 3659,
      "Ġshard": 3660,
      "abs": 3661,
      "ĠGener": 3662,
      "Array": 3663,
      "ancy": 3664,
      "last": 3665,
      "ingly": 3666,
      "36": 3667,
      "message": 3668,
      "itive": 3669,
      "Ġconfiguration": 3670,
      "Ġplain": 3671,
      "Ġsometimes": 3672,
      "Read": 3673,
      "å¾": 3674,
      "ĠWhy": 3675,
      "ĠCan": 3676,
      "æīĢ": 3677,
      "èµ": 3678,
      "Ġmultiple": 3679,
      "ITH": 3680,
      "hentic": 3681,
      "Ġsense": 3682,
      "Ġletter": 3683,
      "Ġsqu": 3684,
      "arp": 3685,
      "Ġdut": 3686,
      "Default": 3687,
      "istr": 3688,
      "iding": 3689,
      "åĳ": 3690,
      "heck": 3691,
      "Ġfig": 3692,
      "Run": 3693,
      "Ġgovern": 3694,
      "site": 3695,
      "Ġinclude": 3696,
      "Ã£": 3697,
      "abase": 3698,
      "Ġtests": 3699,
      "Ġ30": 3700,
      "çĽ": 3701,
      "æŁ": 3702,
      "è§": 3703,
      "ival": 3704,
      "åį": 3705,
      "Ġìł": 3706,
      "Ġoptions": 3707,
      "Ġpay": 3708,
      "Ġvill": 3709,
      "exception": 3710,
      "cour": 3711,
      "aceback": 3712,
      "åĬ¡": 3713,
      "tim": 3714,
      "Ġaddition": 3715,
      "ĠHTML": 3716,
      "Ġentire": 3717,
      "Ġproperties": 3718,
      "Ind": 3719,
      "ume": 3720,
      "parse": 3721,
      "ering": 3722,
      "Ġ!=": 3723,
      "ocol": 3724,
      "äºĨ": 3725,
      "ĠØ": 3726,
      "Ġkubectl": 3727,
      "iqu": 3728,
      "Ġnamespace": 3729,
      "Ġrequire": 3730,
      "image": 3731,
      "Ġiter": 3732,
      "ising": 3733,
      "refer": 3734,
      "Ġdeg": 3735,
      "Ġrepe": 3736,
      "mn": 3737,
      "ai": 3738,
      "olt": 3739,
      "kubelet": 3740,
      "37": 3741,
      "make": 3742,
      "Des": 3743,
      "IA": 3744,
      "](#": 3745,
      "Ġreference": 3746,
      "ĠìŀĪ": 3747,
      "Ġfif": 3748,
      "Ġpen": 3749,
      "idered": 3750,
      "Ġprec": 3751,
      "ĠâĢĵ": 3752,
      "Ġheight": 3753,
      "apping": 3754,
      "Ġspace": 3755,
      "Ġwrong": 3756,
      "Ġreached": 3757,
      "cn": 3758,
      "ining": 3759,
      "Ġitem": 3760,
      "Content": 3761,
      "Ġfellow": 3762,
      "Qu": 3763,
      "urope": 3764,
      "Ã£o": 3765,
      "Ġfight": 3766,
      "========": 3767,
      "ĠSome": 3768,
      "éĽ": 3769,
      "Ġmur": 3770,
      "\"))": 3771,
      "Ġaccept": 3772,
      "88": 3773,
      "Ð²": 3774,
      "eno": 3775,
      "æŀľ": 3776,
      "Ġinside": 3777,
      "Ġsimple": 3778,
      "ĠStr": 3779,
      "Ħ¤": 3780,
      "ĠDefault": 3781,
      "Ġmethods": 3782,
      "æĽ´": 3783,
      "Ġperiod": 3784,
      "Ġshape": 3785,
      "loads": 3786,
      "sa": 3787,
      "Ġspoke": 3788,
      "bytes": 3789,
      ";\">": 3790,
      "Sy": 3791,
      "Ġchief": 3792,
      "Ġimag": 3793,
      "master": 3794,
      "sequ": 3795,
      "Ġann": 3796,
      "Ġparty": 3797,
      "ĠAND": 3798,
      "Ġgreater": 3799,
      "oices": 3800,
      "shape": 3801,
      "Ġmask": 3802,
      "ĠService": 3803,
      "Ġsel": 3804,
      "Ġarms": 3805,
      "Ġseason": 3806,
      "float": 3807,
      "Ġvolume": 3808,
      "Ġscr": 3809,
      "****": 3810,
      "LI": 3811,
      "Ġmag": 3812,
      "exc": 3813,
      "ology": 3814,
      "[:": 3815,
      "è¨": 3816,
      "Ġcamp": 3817,
      "Ġerrors": 3818,
      "mode": 3819,
      "Node": 3820,
      "Ġden": 3821,
      "ĠÐ²": 3822,
      "clude": 3823,
      "www": 3824,
      "Ġshad": 3825,
      "then": 3826,
      "yond": 3827,
      "Ġtoken": 3828,
      "Ġled": 3829,
      "Ġperfect": 3830,
      "Ġcondition": 3831,
      "mar": 3832,
      "ĠìĪĺ": 3833,
      "iles": 3834,
      "ĠRun": 3835,
      "Se": 3836,
      "Ġidea": 3837,
      "update": 3838,
      "elete": 3839,
      "'.": 3840,
      "Ġsugg": 3841,
      "Ġtuple": 3842,
      "Ġ([": 3843,
      "Ġappeared": 3844,
      "rary": 3845,
      "55": 3846,
      "cal": 3847,
      "ãĥĹ": 3848,
      "rupt": 3849,
      "Ġworks": 3850,
      "Ġvirt": 3851,
      "Ġsav": 3852,
      "Ġwit": 3853,
      "Ġapply": 3854,
      "zen": 3855,
      "Ġhot": 3856,
      "Ġdim": 3857,
      "onent": 3858,
      "ìĿĢ": 3859,
      "iling": 3860,
      "Ġiss": 3861,
      "none": 3862,
      "eter": 3863,
      "Ġcompany": 3864,
      "Ġspecify": 3865,
      "Ġburn": 3866,
      "idge": 3867,
      "æŃ¤": 3868,
      "ertificate": 3869,
      "Ġeverything": 3870,
      "sm": 3871,
      "Ġdie": 3872,
      "Ġsong": 3873,
      "ÑģÑĤ": 3874,
      "net": 3875,
      "irection": 3876,
      "HTTP": 3877,
      "è®¤": 3878,
      "Ġclos": 3879,
      "Ġopin": 3880,
      "Ġbeautiful": 3881,
      "¸°": 3882,
      "ä¸Ĭ": 3883,
      "ride": 3884,
      "æĪĸ": 3885,
      "ls": 3886,
      "strict": 3887,
      "ä¸ĭ": 3888,
      "frame": 3889,
      "Ġsimilar": 3890,
      "ä¼ļ": 3891,
      "tag": 3892,
      "migr": 3893,
      "illa": 3894,
      "EM": 3895,
      "Ġsoc": 3896,
      "ĠGe": 3897,
      "tasks": 3898,
      "arc": 3899,
      "Sh": 3900,
      "æľ¬": 3901,
      "oolean": 3902,
      "Ġacqu": 3903,
      "Ġdanger": 3904,
      "Ġfeatures": 3905,
      "dist": 3906,
      "Ġexact": 3907,
      "åī": 3908,
      "Ġrev": 3909,
      "ĠĠĠĠĠĠĠĠĠĠĠĠĠĠ": 3910,
      "Ġvers": 3911,
      "Ġdream": 3912,
      "Ġproper": 3913,
      "Ġweak": 3914,
      "ĠChar": 3915,
      "Ġ+=": 3916,
      "Ġ11": 3917,
      "print": 3918,
      "board": 3919,
      "Ġaccording": 3920,
      "ĠIm": 3921,
      "rief": 3922,
      "Ġthird": 3923,
      "uce": 3924,
      "Ġbear": 3925,
      "Ġjoy": 3926,
      "appe": 3927,
      "Ġquar": 3928,
      "Ġevening": 3929,
      "essed": 3930,
      "Ġneither": 3931,
      "gs": 3932,
      "ety": 3933,
      "Ġoccasion": 3934,
      "Ġcontinued": 3935,
      "(_": 3936,
      "Add": 3937,
      "target": 3938,
      "UN": 3939,
      "resourceVersion": 3940,
      "umber": 3941,
      "Ġextra": 3942,
      "Ġheaven": 3943,
      "gan": 3944,
      "ĠíĮĮ": 3945,
      "Why": 3946,
      "oles": 3947,
      "Ġcry": 3948,
      "abit": 3949,
      "Ġraised": 3950,
      "Ġought": 3951,
      "ulation": 3952,
      "Fr": 3953,
      "ë¦¬": 3954,
      "å½": 3955,
      "prefix": 3956,
      "Ġheader": 3957,
      "çĲ": 3958,
      "æľį": 3959,
      "ecause": 3960,
      "-\\": 3961,
      "post": 3962,
      "ox": 3963,
      "settings": 3964,
      "Ġoriginal": 3965,
      "æľįåĬ¡": 3966,
      "Ġstay": 3967,
      "ifications": 3968,
      "æ±": 3969,
      "ternal": 3970,
      "ĠHere": 3971,
      "who": 3972,
      "Ġlaid": 3973,
      "åĪ°": 3974,
      "install": 3975,
      "itical": 3976,
      "'):": 3977,
      "59": 3978,
      "çĲĨ": 3979,
      "Dec": 3980,
      "into": 3981,
      "Ġselect": 3982,
      "Int": 3983,
      "Ġfill": 3984,
      "imum": 3985,
      "ĠPods": 3986,
      "è¯·": 3987,
      "Ġoperation": 3988,
      "Ġoptional": 3989,
      "bas": 3990,
      "Ġsto": 3991,
      "Ġcontains": 3992,
      "house": 3993,
      "Ġmill": 3994,
      "ĠSIG": 3995,
      "asure": 3996,
      "Ġparts": 3997,
      "Tests": 3998,
      "ĠMan": 3999,
      "Ġtrav": 4000,
      "Ġrose": 4001,
      "Ġbright": 4002,
      "Ġdidn": 4003,
      "ware": 4004,
      "before": 4005,
      "Ġuses": 4006,
      "ãĥ«": 4007,
      "Ġespec": 4008,
      "ipe": 4009,
      "Ġstreng": 4010,
      "/>": 4011,
      "ambda": 4012,
      "78": 4013,
      "range": 4014,
      "Ġbug": 4015,
      "style": 4016,
      "Ġcases": 4017,
      "Ġschool": 4018,
      "Ð´": 4019,
      "Ġdict": 4020,
      "Ġtree": 4021,
      "Ġcook": 4022,
      "Ġbott": 4023,
      "åŃĺ": 4024,
      ":--": 4025,
      "Ġmut": 4026,
      "econ": 4027,
      "Ġconv": 4028,
      "ESS": 4029,
      "keys": 4030,
      "Ġeight": 4031,
      "ĠìĤ¬": 4032,
      "plicit": 4033,
      "Ġhar": 4034,
      "Ġpolicy": 4035,
      "Ġanc": 4036,
      "Ġbehav": 4037,
      "qs": 4038,
      "eless": 4039,
      "Ġbytes": 4040,
      "æĪĲ": 4041,
      "Ġsatisf": 4042,
      "bes": 4043,
      "ÐµÐ½": 4044,
      "From": 4045,
      "next": 4046,
      "fd": 4047,
      "lection": 4048,
      "see": 4049,
      "Ġlad": 4050,
      "Ġlarg": 4051,
      "orig": 4052,
      "Ġlanguage": 4053,
      "cher": 4054,
      "Ġsusp": 4055,
      "Ġbackground": 4056,
      "Sub": 4057,
      "agr": 4058,
      "Request": 4059,
      "DE": 4060,
      "Ġgen": 4061,
      "aise": 4062,
      "Ġdeal": 4063,
      "kan": 4064,
      "sql": 4065,
      "ality": 4066,
      "Ġroot": 4067,
      "respond": 4068,
      "ĠEd": 4069,
      "MLE": 4070,
      "oups": 4071,
      "Ġhusband": 4072,
      "Ġimportant": 4073,
      "ĠMay": 4074,
      "ĠÐ¿": 4075,
      "empty": 4076,
      "Ġexception": 4077,
      "MLElement": 4078,
      "address": 4079,
      "kubeadm": 4080,
      "del": 4081,
      "uit": 4082,
      "render": 4083,
      "Ġ/>": 4084,
      "TR": 4085,
      "assertNot": 4086,
      "Ġstarted": 4087,
      "ighb": 4088,
      "Ġglad": 4089,
      "ĠBl": 4090,
      "hood": 4091,
      "erve": 4092,
      "Ġchurch": 4093,
      "Ġfinally": 4094,
      "ipp": 4095,
      "ifest": 4096,
      "ĠĠĠĠĠĠĠĠĠĠĠĠĠĠĠĠĠĠĠĠ": 4097,
      "Ġliving": 4098,
      "tree": 4099,
      "aly": 4100,
      "Ġ%}}": 4101,
      "Ġdue": 4102,
      "PE": 4103,
      "build": 4104,
      "Ġaud": 4105,
      "unk": 4106,
      "assertFalse": 4107,
      "ername": 4108,
      "Ġurl": 4109,
      "Ġfuture": 4110,
      "ERS": 4111,
      "Ġarguments": 4112,
      "Ġdaughter": 4113,
      "Ġlab": 4114,
      "agement": 4115,
      "Ġ'<": 4116,
      "Message": 4117,
      "Ġdetails": 4118,
      "\"`": 4119,
      "Ġ{}": 4120,
      "pen": 4121,
      "ìĭ": 4122,
      "\"):": 4123,
      "NS": 4124,
      "custom": 4125,
      "Ġrelease": 4126,
      "Ġattack": 4127,
      "ĠEurope": 4128,
      "ocker": 4129,
      "Ġfunc": 4130,
      "ously": 4131,
      "Ġlik": 4132,
      "should": 4133,
      "Ġproceed": 4134,
      ";\"><": 4135,
      "Ġtaking": 4136,
      "Ġstrange": 4137,
      "number": 4138,
      "Ã§": 4139,
      "orld": 4140,
      "gen": 4141,
      "ĠPl": 4142,
      "src": 4143,
      "è¯ģ": 4144,
      "na": 4145,
      "Ġmention": 4146,
      "Ġprep": 4147,
      "Ġbeyond": 4148,
      "enced": 4149,
      "ĠQu": 4150,
      "Ġnd": 4151,
      "Ġclaim": 4152,
      "Ġhair": 4153,
      "Ġcloud": 4154,
      "Range": 4155,
      "ounds": 4156,
      "weight": 4157,
      "Ġneeds": 4158,
      "flow": 4159,
      "90": 4160,
      "Ġspo": 4161,
      "files": 4162,
      "Ġcorrect": 4163,
      "aa": 4164,
      "posed": 4165,
      "ponse": 4166,
      "inline": 4167,
      "options": 4168,
      "OW": 4169,
      "Ġtim": 4170,
      "Ġclean": 4171,
      "Ġben": 4172,
      "ãĤ¢": 4173,
      "\").": 4174,
      "Ġlaug": 4175,
      "Ġapplication": 4176,
      "åĲĪ": 4177,
      "ossible": 4178,
      "Ġopened": 4179,
      "Ġdied": 4180,
      "Ġrelig": 4181,
      "Ġcache": 4182,
      "rop": 4183,
      "Ġconsidered": 4184,
      "mitted": 4185,
      "aching": 4186,
      "Ġvisit": 4187,
      "ieved": 4188,
      "Ġvarious": 4189,
      "CE": 4190,
      "ĠNor": 4191,
      "tle": 4192,
      "ðŁ": 4193,
      "Ġ--------": 4194,
      "åĴĮ": 4195,
      "æĶ": 4196,
      "Ext": 4197,
      "Ġpurpose": 4198,
      "Ġinitial": 4199,
      "Ġnearly": 4200,
      "Ġinflu": 4201,
      "ìľ": 4202,
      "èĬ": 4203,
      "case": 4204,
      "Ġtem": 4205,
      "Ġ=>": 4206,
      "Ġflag": 4207,
      "ä¾ĭ": 4208,
      "Ġintrodu": 4209,
      "eness": 4210,
      "Ġhist": 4211,
      "Ġassoci": 4212,
      "Ġentered": 4213,
      "Ġdetermin": 4214,
      "uation": 4215,
      "Ġfast": 4216,
      "joy": 4217,
      "ral": 4218,
      "Ġbool": 4219,
      "Ġimpro": 4220,
      "erved": 4221,
      "\";": 4222,
      "Ġhappy": 4223,
      "Ġcarried": 4224,
      "éĽĨ": 4225,
      "Ġfresh": 4226,
      "Ġknowledge": 4227,
      "ĠPython": 4228,
      "Ġsens": 4229,
      "element": 4230,
      "Ġliter": 4231,
      "header": 4232,
      "44": 4233,
      "Ġformer": 4234,
      "èĬĤ": 4235,
      "env": 4236,
      "even": 4237,
      "vis": 4238,
      "Ġspecial": 4239,
      "Ġmed": 4240,
      "ebug": 4241,
      "invalid": 4242,
      "ãģĹãģ¾ãģĻ": 4243,
      "onel": 4244,
      "Ġgreen": 4245,
      "Ġencoding": 4246,
      "azy": 4247,
      "resources": 4248,
      "umb": 4249,
      "ĠDu": 4250,
      "ming": 4251,
      "Ġrich": 4252,
      "æº": 4253,
      "reet": 4254,
      "ãĥŃ": 4255,
      "dt": 4256,
      "Ġsurpr": 4257,
      "replace": 4258,
      "ondon": 4259,
      "hys": 4260,
      "offset": 4261,
      "core": 4262,
      "uel": 4263,
      "socket": 4264,
      "recated": 4265,
      "la": 4266,
      "async": 4267,
      "cond": 4268,
      "asp": 4269,
      "ividual": 4270,
      "çŃ": 4271,
      "fact": 4272,
      "ĠAdd": 4273,
      "vas": 4274,
      "Ãª": 4275,
      "Ġwis": 4276,
      "ĠĠĠĠĠĠĠĠĠĠĠĠĠĠĠĠĠ": 4277,
      "Ġjour": 4278,
      "Info": 4279,
      "Ġtrust": 4280,
      "sample": 4281,
      "nson": 4282,
      "å¿ħ": 4283,
      "aled": 4284,
      "Ġplan": 4285,
      "æĪ·": 4286,
      "Ġhistory": 4287,
      "Ġactual": 4288,
      "uly": 4289,
      "ç«": 4290,
      "å·": 4291,
      "ina": 4292,
      "utor": 4293,
      "Ġdoing": 4294,
      "shot": 4295,
      "ĠWITH": 4296,
      "ĠJavaScript": 4297,
      "Ġgrow": 4298,
      "æĮĩ": 4299,
      "apped": 4300,
      "....": 4301,
      "ç®": 4302,
      "ĠEm": 4303,
      "security": 4304,
      "DW": 4305,
      "Ġlogg": 4306,
      "={": 4307,
      "70": 4308,
      "»ĺ": 4309,
      "Ġinvalid": 4310,
      "ĠFl": 4311,
      "aptain": 4312,
      "ellow": 4313,
      "Data": 4314,
      "Ġincluding": 4315,
      "Ġdirectory": 4316,
      "èĩ": 4317,
      "Ħë": 4318,
      "Ġmouth": 4319,
      "Ġtot": 4320,
      "Ġprobably": 4321,
      "ises": 4322,
      "Ġprin": 4323,
      "console": 4324,
      "Ġremain": 4325,
      "Ġsuddenly": 4326,
      "aries": 4327,
      "Ġpain": 4328,
      "Ġdelight": 4329,
      "mat": 4330,
      "æĿ¥": 4331,
      "TC": 4332,
      "Ġdate": 4333,
      "è®¾": 4334,
      "orge": 4335,
      "ailed": 4336,
      "proxy": 4337,
      "allow": 4338,
      "ĠWho": 4339,
      "é¡": 4340,
      "Ġmaj": 4341,
      "æ±Ĥ": 4342,
      "'],": 4343,
      "Ġimmediately": 4344,
      "errors": 4345,
      "åºĶ": 4346,
      "rees": 4347,
      "reek": 4348,
      "slug": 4349,
      "å¸": 4350,
      "Ġfont": 4351,
      "Valid": 4352,
      "Ġran": 4353,
      "Ġborder": 4354,
      "isted": 4355,
      "manager": 4356,
      "Par": 4357,
      "Ġsearch": 4358,
      "great": 4359,
      "ha": 4360,
      "aste": 4361,
      "pop": 4362,
      "Ġsac": 4363,
      "sv": 4364,
      "Ġful": 4365,
      "Ġalthough": 4366,
      "35": 4367,
      "Ġrecogn": 4368,
      "Ġpal": 4369,
      "Ġlower": 4370,
      "Ġtitle": 4371,
      "Ġfoo": 4372,
      "earn": 4373,
      "tests": 4374,
      "ublic": 4375,
      "Ġbased": 4376,
      "Ġdistance": 4377,
      "ĠDo": 4378,
      "Ġopt": 4379,
      "Ġcomb": 4380,
      "Ġcost": 4381,
      "about": 4382,
      "ushed": 4383,
      "Ł¬": 4384,
      "Ġlie": 4385,
      "Ġ`\"": 4386,
      "orses": 4387,
      "utf": 4388,
      "Ġfinal": 4389,
      "60": 4390,
      "Spec": 4391,
      "ÙĨ": 4392,
      "ivil": 4393,
      "Ġunittest": 4394,
      "NOT": 4395,
      "Ġcarry": 4396,
      "Ġtrack": 4397,
      "Ġcharacters": 4398,
      "Ġorigin": 4399,
      "Ġeasy": 4400,
      "ideo": 4401,
      "íķł": 4402,
      "claimed": 4403,
      "Ġcontaining": 4404,
      "ales": 4405,
      "ĠWhere": 4406,
      "oped": 4407,
      "Ġisn": 4408,
      "Ġoccur": 4409,
      "SI": 4410,
      "fin": 4411,
      "Ġmid": 4412,
      "42": 4413,
      "stack": 4414,
      "atever": 4415,
      "ãĥķãĤ": 4416,
      "éĢļ": 4417,
      "etry": 4418,
      "Ġsomew": 4419,
      "å®¹åĻ¨": 4420,
      "Ġstep": 4421,
      "ĠState": 4422,
      "flags": 4423,
      "ìĿ¸": 4424,
      "collect": 4425,
      "Ġprovide": 4426,
      "ĠLady": 4427,
      "property": 4428,
      "Ġthick": 4429,
      "Ġlatter": 4430,
      "Ġstatus": 4431,
      "been": 4432,
      "é»ĺ": 4433,
      "Ġremoved": 4434,
      "Ġpaper": 4435,
      "som": 4436,
      "wait": 4437,
      "Ġbird": 4438,
      "Ġpict": 4439,
      "token": 4440,
      "Ġgrand": 4441,
      "cceed": 4442,
      "gt": 4443,
      "ests": 4444,
      "ãģį": 4445,
      "Ġ{{<": 4446,
      "except": 4447,
      "Ġcorrespond": 4448,
      "One": 4449,
      "mock": 4450,
      "_(": 4451,
      "bel": 4452,
      "Ġviol": 4453,
      "Ġexpress": 4454,
      "æĸ°": 4455,
      "ĠĠčĊ": 4456,
      "iffer": 4457,
      "schedul": 4458,
      "uction": 4459,
      "Ġvia": 4460,
      "áº": 4461,
      "ounded": 4462,
      "help": 4463,
      "ç¤": 4464,
      "overn": 4465,
      "aria": 4466,
      "aight": 4467,
      "lass": 4468,
      "02": 4469,
      "Man": 4470,
      "é»ĺè®¤": 4471,
      "Ġwest": 4472,
      "ĠRob": 4473,
      "Ġblue": 4474,
      "Ġsouth": 4475,
      "Ġ],": 4476,
      "Ġdemand": 4477,
      "ca": 4478,
      "Ġsuppose": 4479,
      "itary": 4480,
      "olly": 4481,
      "apiserver": 4482,
      "Ġgrace": 4483,
      "LS": 4484,
      "ele": 4485,
      "parent": 4486,
      "Ġfood": 4487,
      "avig": 4488,
      "ìĦľ": 4489,
      "Ġgate": 4490,
      "Ġast": 4491,
      "subTest": 4492,
      "Ġconcern": 4493,
      "ĠCar": 4494,
      "anks": 4495,
      "Ġtrees": 4496,
      "arrow": 4497,
      "Ġhealth": 4498,
      "APTER": 4499,
      "Ġprevent": 4500,
      "éĿ": 4501,
      "lying": 4502,
      "ulated": 4503,
      "Ġfat": 4504,
      "Ġroll": 4505,
      "ç¾": 4506,
      "Ġê²": 4507,
      "OST": 4508,
      "sum": 4509,
      "Ġ\"\"": 4510,
      "Ġ14": 4511,
      "two": 4512,
      "Base": 4513,
      "encode": 4514,
      "Ġeat": 4515,
      "rip": 4516,
      "ansport": 4517,
      "Ġmad": 4518,
      "Ġuseful": 4519,
      "¢«": 4520,
      "Ġchanged": 4521,
      "åĨħ": 4522,
      "è¢«": 4523,
      "38": 4524,
      "Ġnoble": 4525,
      "Ġequ": 4526,
      "change": 4527,
      "Ġcompat": 4528,
      "Ġbroken": 4529,
      "Ġnorth": 4530,
      "Ġestab": 4531,
      "Ãł": 4532,
      "HTMLElement": 4533,
      "Ġenter": 4534,
      "together": 4535,
      "Or": 4536,
      "ague": 4537,
      "Ġarch": 4538,
      "çī¹": 4539,
      "Ġcred": 4540,
      "Ġcalls": 4541,
      "Ġhonour": 4542,
      "zh": 4543,
      "force": 4544,
      "Ġinqu": 4545,
      "Ġshut": 4546,
      "æŁ¥": 4547,
      "Ġarmy": 4548,
      "000000000000": 4549,
      "éľ": 4550,
      "Ġship": 4551,
      "CHAPTER": 4552,
      "Ġbeauty": 4553,
      "riage": 4554,
      "Ġfunctions": 4555,
      "Ġnatural": 4556,
      "Ġbreath": 4557,
      "Ġstrength": 4558,
      "Ġdesire": 4559,
      "ìĦ±": 4560,
      "asi": 4561,
      "Ġdig": 4562,
      "Ġtakes": 4563,
      "Ġcomfort": 4564,
      "\")}},": 4565,
      "Ġwanted": 4566,
      "cor": 4567,
      "ĠPat": 4568,
      "ĠìĤ¬ìļ©": 4569,
      "Ġlooks": 4570,
      "_.--": 4571,
      "Ġur": 4572,
      "Ġstorage": 4573,
      "ãĤĪ": 4574,
      "cp": 4575,
      "VG": 4576,
      "Ġìķ": 4577,
      "sure": 4578,
      "''": 4579,
      "Ø±": 4580,
      "Ġoutside": 4581,
      "teen": 4582,
      "AA": 4583,
      "Ġdry": 4584,
      "acing": 4585,
      "uses": 4586,
      "ĠNode": 4587,
      "Ġupdate": 4588,
      "Ġunless": 4589,
      "ification": 4590,
      "Ġ},": 4591,
      "Ġsocket": 4592,
      "ĠBritish": 4593,
      "tic": 4594,
      "ae": 4595,
      "yl": 4596,
      "press": 4597,
      "agg": 4598,
      "Ġweight": 4599,
      "Ġfilename": 4600,
      "Ġsection": 4601,
      ")))": 4602,
      "left": 4603,
      "Ġtoward": 4604,
      "hash": 4605,
      "Ġstd": 4606,
      "Ġupd": 4607,
      "æºĲ": 4608,
      "capi": 4609,
      "ims": 4610,
      ")]": 4611,
      "THE": 4612,
      "istry": 4613,
      "Exception": 4614,
      "Ġgenerally": 4615,
      "éħįç½®": 4616,
      "eries": 4617,
      "MA": 4618,
      "Ġdesp": 4619,
      "Ġpara": 4620,
      "ĠReturns": 4621,
      "(*": 4622,
      "Ġbelong": 4623,
      "UR": 4624,
      "Gener": 4625,
      "Ġrele": 4626,
      "ĠParameters": 4627,
      "Ġgentleman": 4628,
      "beta": 4629,
      "èĬĤçĤ¹": 4630,
      "mut": 4631,
      "Ġplaced": 4632,
      "Ġcircum": 4633,
      "ĠAmerican": 4634,
      "Pl": 4635,
      "safe": 4636,
      "your": 4637,
      "conf": 4638,
      "Ġpresence": 4639,
      "pick": 4640,
      "road": 4641,
      "Ġsufficient": 4642,
      "irth": 4643,
      "upon": 4644,
      "Ġcompan": 4645,
      "Ġdrink": 4646,
      "æłĩ": 4647,
      "ned": 4648,
      "ibly": 4649,
      "Ġ%}": 4650,
      "Ġcover": 4651,
      "Ġmusic": 4652,
      "å¹¶": 4653,
      "Ġplease": 4654,
      "?'": 4655,
      "Ġdepend": 4656,
      "secret": 4657,
      "39": 4658,
      "Ġwriting": 4659,
      "stdout": 4660,
      "access": 4661,
      "ients": 4662,
      "esc": 4663,
      "EX": 4664,
      "ainers": 4665,
      "izer": 4666,
      "onents": 4667,
      "Ġlif": 4668,
      "ĠJack": 4669,
      "Ġslight": 4670,
      "Ġconce": 4671,
      "Ġfeeling": 4672,
      "oltip": 4673,
      "bd": 4674,
      "athe": 4675,
      "Description": 4676,
      "Ġprop": 4677,
      "Ġcourt": 4678,
      "Ġwide": 4679,
      "txt": 4680,
      "ĠDefaults": 4681,
      "acity": 4682,
      "Col": 4683,
      "Warning": 4684,
      "Ġvict": 4685,
      "Ġmoved": 4686,
      "Ġparser": 4687,
      "Map": 4688,
      "Ġsin": 4689,
      "Ġstop": 4690,
      ":</": 4691,
      "æ®": 4692,
      "æį": 4693,
      "bad": 4694,
      "Ġmonths": 4695,
      "inux": 4696,
      "controller": 4697,
      "################": 4698,
      "Wr": 4699,
      "Ġtab": 4700,
      "Value": 4701,
      "Ġorgan": 4702,
      "strong": 4703,
      "Ġdepart": 4704,
      "æĸĩä»¶": 4705,
      "éľĢ": 4706,
      "Ġfit": 4707,
      "Ġwarm": 4708,
      "Ġabsol": 4709,
      "irty": 4710,
      "Ġsteps": 4711,
      "Ġappearance": 4712,
      "ilities": 4713,
      "Ġ\"--": 4714,
      "Ġheavy": 4715,
      "Ġcontainers": 4716,
      "ĠĠĠĠĠĠĠĠĠĠĠĠĠĠĠĠĠĠ": 4717,
      "Ġpleasure": 4718,
      "Ġopinion": 4719,
      "again": 4720,
      "Ġparameter": 4721,
      "cast": 4722,
      "Ġyouth": 4723,
      "Ġeditor": 4724,
      "Ġtouch": 4725,
      "Ġep": 4726,
      "olumes": 4727,
      "Ġum": 4728,
      "Ġduty": 4729,
      "Ġfro": 4730,
      "çİ": 4731,
      "Ġcrow": 4732,
      "å»": 4733,
      "Ġlived": 4734,
      "Ġjoin": 4735,
      "Ġsche": 4736,
      "Ġprivate": 4737,
      "45": 4738,
      "Ġhel": 4739,
      "ĠMad": 4740,
      "ãĤ¹ãĤ": 4741,
      "connection": 4742,
      "rep": 4743,
      "Ġgrad": 4744,
      "å¦Ĥæŀľ": 4745,
      "little": 4746,
      "Ġforms": 4747,
      "Ġdirection": 4748,
      "direct": 4749,
      "Ġqual": 4750,
      "isk": 4751,
      "Ġplaces": 4752,
      "Ġbecom": 4753,
      "ander": 4754,
      "Ġsem": 4755,
      "Ġfool": 4756,
      "imp": 4757,
      "Ġconstruct": 4758,
      "Instance": 4759,
      "rael": 4760,
      "Ġtreat": 4761,
      "ignore": 4762,
      "Ġneighb": 4763,
      ".)": 4764,
      "Ġproble": 4765,
      "ector": 4766,
      "ĠYork": 4767,
      "Ġobt": 4768,
      "timeout": 4769,
      "andid": 4770,
      "hern": 4771,
      "Ġotherwise": 4772,
      "Ġcaught": 4773,
      "ãĥĥ": 4774,
      "Ġhidden": 4775,
      "umed": 4776,
      "SE": 4777,
      "river": 4778,
      "66": 4779,
      "Ġvariable": 4780,
      "Ġer": 4781,
      "ĠÑģ": 4782,
      "Ġsty": 4783,
      "Ġsup": 4784,
      ")</": 4785,
      "debug": 4786,
      "pip": 4787,
      "Ġconsole": 4788,
      "elling": 4789,
      "Ġpor": 4790,
      "åĽ": 4791,
      "pkg": 4792,
      "anted": 4793,
      "Ġ@.": 4794,
      "Ġattention": 4795,
      "Ġbroad": 4796,
      "Ġgod": 4797,
      "Ġsucceed": 4798,
      "Ġhandle": 4799,
      "ĠYet": 4800,
      "Ġ@.@": 4801,
      "ford": 4802,
      "Ġprefix": 4803,
      "Ġmigr": 4804,
      "Ġprison": 4805,
      "Ġdoth": 4806,
      "LA": 4807,
      "iant": 4808,
      "Ġindividual": 4809,
      "OC": 4810,
      "bet": 4811,
      "could": 4812,
      "ĠĠĠĠĠĠĠĠĠĠĠĠĠĠĠĠĠĠĠĠĠĠĠĠĠĠĠĠĠĠĠ": 4813,
      "Ġwrote": 4814,
      "Ġce": 4815,
      "æ³": 4816,
      "tooltip": 4817,
      "win": 4818,
      "æĭ": 4819,
      "Ġlips": 4820,
      "ìĿ´ë": 4821,
      "inx": 4822,
      "straints": 4823,
      "Ġespecially": 4824,
      "Ġseven": 4825,
      "Ð¾Ð²": 4826,
      "Ġfloat": 4827,
      "Ġeasily": 4828,
      "static": 4829,
      "Ġstrings": 4830,
      "oted": 4831,
      "();": 4832,
      "=(": 4833,
      "Access": 4834,
      "Ġdesired": 4835,
      "Id": 4836,
      "fraid": 4837,
      "ç¤º": 4838,
      "Ġpress": 4839,
      "ado": 4840,
      "ĠSpec": 4841,
      "åħ¶": 4842,
      "nan": 4843,
      "aped": 4844,
      "network": 4845,
      "emon": 4846,
      "Ġrout": 4847,
      "Ġrule": 4848,
      "unc": 4849,
      "Ġseek": 4850,
      "Ġdatetime": 4851,
      "Ġstraight": 4852,
      "epend": 4853,
      "Ġyourself": 4854,
      "Ġzip": 4855,
      "eds": 4856,
      "Head": 4857,
      "ĠĠĠĠĠĠĠĠĠĠĠĠĠĠĠĠĠĠĠĠĠ": 4858,
      "ãĤĮ": 4859,
      "`:": 4860,
      "indow": 4861,
      "05": 4862,
      "Volume": 4863,
      "rey": 4864,
      "Ġchance": 4865,
      "udd": 4866,
      "Contr": 4867,
      "clean": 4868,
      "Ġsal": 4869,
      "Ġstandard": 4870,
      "]),": 4871,
      "Ġdrew": 4872,
      "ĠST": 4873,
      "íķ´": 4874,
      "system": 4875,
      "izing": 4876,
      "Ġglossary": 4877,
      "~~": 4878,
      "Ġfrequ": 4879,
      "å¼ı": 4880,
      "Ġ):": 4881,
      "Ġmel": 4882,
      "è¿ĩ": 4883,
      "Ġfamil": 4884,
      "short": 4885,
      "development": 4886,
      "Ġtried": 4887,
      "Ġmaint": 4888,
      "ester": 4889,
      "Ġcompl": 4890,
      "ishing": 4891,
      "Ġtermin": 4892,
      "=\"/": 4893,
      "åŃĹ": 4894,
      "è¿Ĳ": 4895,
      "Let": 4896,
      "stream": 4897,
      "ĠThou": 4898,
      "Ġago": 4899,
      "ĠJohnson": 4900,
      "lig": 4901,
      "wd": 4902,
      "ateg": 4903,
      "Ġallows": 4904,
      "without": 4905,
      "Ġregular": 4906,
      "éĹ´": 4907,
      "delete": 4908,
      "ëł": 4909,
      "ĠChristian": 4910,
      "policy": 4911,
      "Ġcod": 4912,
      "through": 4913,
      "Ġfailed": 4914,
      "Here": 4915,
      "eal": 4916,
      "Ġobserved": 4917,
      "stderr": 4918,
      "Ġenjoy": 4919,
      "asc": 4920,
      "Ġphys": 4921,
      "Ġknows": 4922,
      "Ġsetting": 4923,
      "ç¾¤": 4924,
      "Ġnodes": 4925,
      "extra": 4926,
      "ashion": 4927,
      "Date": 4928,
      "contin": 4929,
      "limit": 4930,
      "Ġ13": 4931,
      "åĩº": 4932,
      "ĠLondon": 4933,
      "æıĲ": 4934,
      "Ġhorses": 4935,
      "Ġstar": 4936,
      "Ġ50": 4937,
      "annel": 4938,
      "Ġsilence": 4939,
      "æ®µ": 4940,
      "ĠWest": 4941,
      "mt": 4942,
      "null": 4943,
      "Ġcomplete": 4944,
      "gment": 4945,
      "Ġways": 4946,
      "Ġevil": 4947,
      "Ġserve": 4948,
      "\"])": 4949,
      "itch": 4950,
      "State": 4951,
      "VE": 4952,
      "osity": 4953,
      "Ġdesign": 4954,
      "points": 4955,
      "ille": 4956,
      "Ġmeant": 4957,
      "èµĦ": 4958,
      "ects": 4959,
      "clear": 4960,
      "ĠHowever": 4961,
      "ĠFrance": 4962,
      "iam": 4963,
      "ĠGu": 4964,
      "ners": 4965,
      "stances": 4966,
      "called": 4967,
      "aur": 4968,
      "tuple": 4969,
      "oured": 4970,
      "than": 4971,
      "Ġannot": 4972,
      "Ġusers": 4973,
      "Ġpoints": 4974,
      "ĠHen": 4975,
      "isc": 4976,
      "Ġmass": 4977,
      "Ġoccup": 4978,
      "è¡¨": 4979,
      "Ġexisting": 4980,
      "éĽĨç¾¤": 4981,
      "Ġtemplate": 4982,
      "Ġsuffer": 4983,
      "Ġneeded": 4984,
      "Ġdirectly": 4985,
      "UB": 4986,
      "ades": 4987,
      "icked": 4988,
      "Ġautom": 4989,
      "inition": 4990,
      "ä¿¡": 4991,
      "NAME": 4992,
      "{%": 4993,
      "while": 4994,
      "ĠĠĠĠĠĠĠĠĠĠĠĠĠĠĠĠĠĠĠĠĠĠĠĠĠ": 4995,
      "å»º": 4996,
      "èµĦæºĲ": 4997,
      "Ġwin": 4998,
      "isting": 4999,
      "Ġrelated": 5000,
      "cii": 5001,
      "æİ§": 5002,
      "^^": 5003,
      "utils": 5004,
      "Ġoffset": 5005,
      "wo": 5006,
      "Guides": 5007,
      "Ġremained": 5008,
      "buffer": 5009,
      "Ġcomplex": 5010,
      "ìĬ¤í": 5011,
      "ĵį": 5012,
      "75": 5013,
      "simple": 5014,
      "Ñĩ": 5015,
      "ĠCH": 5016,
      "scr": 5017,
      "fs": 5018,
      "whe": 5019,
      "Ġguard": 5020,
      "Ġsand": 5021,
      "Ġsite": 5022,
      "Ġshown": 5023,
      "ouses": 5024,
      "'])": 5025,
      "compat": 5026,
      "TEST": 5027,
      "iration": 5028,
      "param": 5029,
      "Ġquickly": 5030,
      "Ġsmile": 5031,
      "Ġremove": 5032,
      "sche": 5033,
      "ä¸İ": 5034,
      "è´": 5035,
      "Ġgun": 5036,
      "Ġincluded": 5037,
      "[-": 5038,
      "Ġpot": 5039,
      "Ġworking": 5040,
      "(-": 5041,
      "ĠAm": 5042,
      "000000000000000": 5043,
      "98": 5044,
      "Ġkeys": 5045,
      "Ġapplied": 5046,
      "browser": 5047,
      "Ġrespons": 5048,
      "Index": 5049,
      "Ġtotal": 5050,
      "Ġ{'": 5051,
      "Ġgoes": 5052,
      "è¿Ľ": 5053,
      "rs": 5054,
      "ante": 5055,
      "examples": 5056,
      "ĠÐº": 5057,
      "oses": 5058,
      "events": 5059,
      "Ġdesc": 5060,
      "ÐµÑĢ": 5061,
      "Ġkube": 5062,
      "Ġignore": 5063,
      "ĠSecret": 5064,
      "ares": 5065,
      "ulate": 5066,
      "full": 5067,
      "Ġsett": 5068,
      "ĠChurch": 5069,
      "65": 5070,
      "Ġli": 5071,
      "configure": 5072,
      "stood": 5073,
      "ugust": 5074,
      ")).": 5075,
      "ĠOR": 5076,
      "password": 5077,
      "ĠTypeError": 5078,
      "Text": 5079,
      "button": 5080,
      "è¿Ĳè¡Į": 5081,
      "Ġdestroy": 5082,
      "Ġfilled": 5083,
      "ĠSet": 5084,
      "apshot": 5085,
      "Ġbattle": 5086,
      "Ġrow": 5087,
      "fast": 5088,
      "AND": 5089,
      "eneath": 5090,
      "verage": 5091,
      "åĲĮ": 5092,
      "ĠìĿ´": 5093,
      "sembly": 5094,
      "ugin": 5095,
      "Ġenemy": 5096,
      "ells": 5097,
      "His": 5098,
      "umns": 5099,
      "apid": 5100,
      "ngress": 5101,
      "Ġfixed": 5102,
      "apter": 5103,
      "uted": 5104,
      "ĠEl": 5105,
      "Ġlearned": 5106,
      "Ùħ": 5107,
      "hest": 5108,
      "encoding": 5109,
      "Ġunknown": 5110,
      "Ġbehavior": 5111,
      "ìľ¼": 5112,
      "Ùĩ": 5113,
      "osing": 5114,
      "Ġgovernment": 5115,
      "ections": 5116,
      "ĠĠĠĠĠĠĠĠĠĠĠĠĠĠĠĠĠĠĠĠĠĠ": 5117,
      "Ġpersons": 5118,
      "]]": 5119,
      "Ġir": 5120,
      "aded": 5121,
      "Ġspring": 5122,
      "å¤ļ": 5123,
      "Ġmoon": 5124,
      "Group": 5125,
      "Ġ\"/": 5126,
      "Ġavoid": 5127,
      "Ġboat": 5128,
      "fall": 5129,
      "Ġder": 5130,
      "Ġrules": 5131,
      "ĠUp": 5132,
      "ĠÐ¸": 5133,
      "CON": 5134,
      "ĠExamples": 5135,
      "ials": 5136,
      "INE": 5137,
      "good": 5138,
      "apps": 5139,
      "ãģĤ": 5140,
      "à¦Ł": 5141,
      "Ġfigure": 5142,
      "è®¾ç½®": 5143,
      "parser": 5144,
      "Return": 5145,
      "Ġmach": 5146,
      "Ġreceive": 5147,
      "Ġshows": 5148,
      "Work": 5149,
      "ascii": 5150,
      "aging": 5151,
      "48": 5152,
      "hip": 5153,
      "sort": 5154,
      "PR": 5155,
      "ìĸ": 5156,
      "¤ë": 5157,
      "Ġ*/": 5158,
      "Ġlikely": 5159,
      "ipped": 5160,
      "emo": 5161,
      "Ġclosed": 5162,
      "Ġsyn": 5163,
      "Service": 5164,
      "decode": 5165,
      "ĠIsrael": 5166,
      "found": 5167,
      "zip": 5168,
      "herit": 5169,
      "ĠMo": 5170,
      "adding": 5171,
      "ÃŃ": 5172,
      "Ð¿": 5173,
      "Ġborn": 5174,
      "ros": 5175,
      "åĪĨ": 5176,
      "Ġboys": 5177,
      "åıĤæķ°": 5178,
      "said": 5179,
      "osop": 5180,
      "setup": 5181,
      "Ġinteger": 5182,
      "Ġhun": 5183,
      "Ġgetting": 5184,
      "çķ": 5185,
      "Ġsyntax": 5186,
      "ãģĵãģ¨": 5187,
      ",@": 5188,
      "Sc": 5189,
      "31": 5190,
      "arily": 5191,
      "Ġ[!": 5192,
      "Ġlock": 5193,
      "Ġanx": 5194,
      "ìłķ": 5195,
      "Ġtro": 5196,
      "Ġbooks": 5197,
      "font": 5198,
      "Ġrequires": 5199,
      "\"{": 5200,
      "Ġmiddle": 5201,
      "antic": 5202,
      "evel": 5203,
      "Only": 5204,
      "such": 5205,
      "ĠDon": 5206,
      "Ġgrass": 5207,
      "apiVersion": 5208,
      "Ġseries": 5209,
      "Ġjourney": 5210,
      "Ġpour": 5211,
      "ĠCaptain": 5212,
      "FN": 5213,
      "rit": 5214,
      "Ġgiving": 5215,
      "ç¨": 5216,
      "iced": 5217,
      "ĠCPU": 5218,
      "ĠMore": 5219,
      "mi": 5220,
      "ilosop": 5221,
      "acher": 5222,
      "Ġneg": 5223,
      "Ġamount": 5224,
      "Ġ@,@": 5225,
      "Ġ----": 5226,
      "Ġsword": 5227,
      "Ġstack": 5228,
      "Char": 5229,
      "Ġetc": 5230,
      "Ġhigher": 5231,
      "ĠAb": 5232,
      "search": 5233,
      "Ġ`--": 5234,
      "Ġkeyword": 5235,
      "ĠCheck": 5236,
      "ãģĨ": 5237,
      "Ġafraid": 5238,
      "ixt": 5239,
      "control": 5240,
      "!'": 5241,
      "Ġeffort": 5242,
      "After": 5243,
      "EP": 5244,
      "ĠMary": 5245,
      "Ġexclaimed": 5246,
      "current": 5247,
      "Ġtears": 5248,
      "inity": 5249,
      "Ġsister": 5250,
      "ifier": 5251,
      "Ġë°": 5252,
      "Ġmembers": 5253,
      "Ġfle": 5254,
      "Ġusual": 5255,
      "esh": 5256,
      "pping": 5257,
      "Ġstruck": 5258,
      "ãĥ¼ãĥī": 5259,
      "âĶ": 5260,
      "ĠAnt": 5261,
      "Ġrandom": 5262,
      "Ġpassing": 5263,
      "Ġdescribed": 5264,
      "Ġforest": 5265,
      "Regex": 5266,
      "OK": 5267,
      "stat": 5268,
      "Ġsafe": 5269,
      "Ġconduct": 5270,
      "Ġancient": 5271,
      "every": 5272,
      "fill": 5273,
      "Ġpip": 5274,
      "Ġutil": 5275,
      "Ġbeginning": 5276,
      "Ġloop": 5277,
      "ĠSu": 5278,
      "ivity": 5279,
      "Ġ'__": 5280,
      "åīį": 5281,
      "ç«¯": 5282,
      "CT": 5283,
      "ugg": 5284,
      "Ġdiscuss": 5285,
      "Ĩãĥ": 5286,
      "Ġforget": 5287,
      "ando": 5288,
      "Ġtrouble": 5289,
      "Ħ°": 5290,
      "Ġnormal": 5291,
      "Ġprogram": 5292,
      "Ġslowly": 5293,
      "FA": 5294,
      "eper": 5295,
      "inf": 5296,
      "erm": 5297,
      "Ġfing": 5298,
      "Ġdam": 5299,
      "Ġpun": 5300,
      "essages": 5301,
      "imate": 5302,
      "âĢĿ": 5303,
      "Ġissue": 5304,
      "è½": 5305,
      "usion": 5306,
      "Ġemploy": 5307,
      "ãĥ³ãĥĪ": 5308,
      "asons": 5309,
      "Ġenv": 5310,
      "ãģ®ãĥ": 5311,
      "Ġinfluence": 5312,
      "Ġ`/": 5313,
      "Ġ42": 5314,
      "96": 5315,
      "Ġball": 5316,
      "resents": 5317,
      "Ġ(_": 5318,
      "SC": 5319,
      "Ġband": 5320,
      "ĠJer": 5321,
      "Ġcertainly": 5322,
      "Ġcentury": 5323,
      "Ġthoughts": 5324,
      "Ġadvant": 5325,
      "è¯·æ±Ĥ": 5326,
      "cs": 5327,
      "Ġprovides": 5328,
      "ê³ł": 5329,
      "umer": 5330,
      "Ġbottom": 5331,
      "Ġsharp": 5332,
      "ĠÐ½": 5333,
      "ses": 5334,
      "Ñĸ": 5335,
      "Ġconvers": 5336,
      "Ġdog": 5337,
      "Ġsnow": 5338,
      "ica": 5339,
      "imary": 5340,
      "åıĳ": 5341,
      "ainted": 5342,
      "Ġê°": 5343,
      "User": 5344,
      "ellig": 5345,
      "itect": 5346,
      "Su": 5347,
      "è¾": 5348,
      "NOTE": 5349,
      "pers": 5350,
      "Ġhappened": 5351,
      "Ġvillage": 5352,
      "sock": 5353,
      "Ø¯": 5354,
      "echn": 5355,
      "Ġcaptain": 5356,
      "Firefox": 5357,
      "Ġsummer": 5358,
      "\"></": 5359,
      "Ġgaz": 5360,
      "Ġutter": 5361,
      "Ġcalc": 5362,
      "Ġlaughed": 5363,
      "/).": 5364,
      "ria": 5365,
      "assertIsInstance": 5366,
      "Ġescape": 5367,
      "eline": 5368,
      "Ġbeat": 5369,
      "yr": 5370,
      "release": 5371,
      "Ġhill": 5372,
      "Ġones": 5373,
      "istic": 5374,
      "integer": 5375,
      "section": 5376,
      "zilla": 5377,
      "Ġforgot": 5378,
      "Sir": 5379,
      "XX": 5380,
      "Ġdress": 5381,
      "Ġlot": 5382,
      "Ġexam": 5383,
      "Ġshr": 5384,
      "Ġenabled": 5385,
      "Ġgall": 5386,
      "ĠDav": 5387,
      "aked": 5388,
      "íķĺëĬĶ": 5389,
      "Ġdeclared": 5390,
      "Ġoppos": 5391,
      "ĠGeorge": 5392,
      "Ġspeech": 5393,
      "Ġcovered": 5394,
      "Ġwhis": 5395,
      "arden": 5396,
      "eps": 5397,
      "yal": 5398,
      "Ġnetwork": 5399,
      "Ġcharge": 5400,
      "Ġspread": 5401,
      "Ġthine": 5402,
      "][": 5403,
      "othes": 5404,
      "Ġadmin": 5405,
      "hentication": 5406,
      "ifies": 5407,
      "ĠThus": 5408,
      "random": 5409,
      "åł": 5410,
      "Ġshalt": 5411,
      "graph": 5412,
      "many": 5413,
      "Ġcivil": 5414,
      "Ġlat": 5415,
      "Ġ[_": 5416,
      "ìķ": 5417,
      "ãģĭ": 5418,
      "Ġensure": 5419,
      "ĠÐ¾": 5420,
      "ĠshardRange": 5421,
      "Match": 5422,
      "django": 5423,
      "lim": 5424,
      "Ġnative": 5425,
      "inding": 5426,
      "argin": 5427,
      "othing": 5428,
      "æĮģ": 5429,
      "ores": 5430,
      "otype": 5431,
      "Ġearn": 5432,
      "QU": 5433,
      "Ġdt": 5434,
      "conc": 5435,
      "ĠRome": 5436,
      "Hand": 5437,
      "atives": 5438,
      "application": 5439,
      "Ġcolumn": 5440,
      "nginx": 5441,
      "Ġpackage": 5442,
      "ĠWindows": 5443,
      "Ġvain": 5444,
      "Ġexperience": 5445,
      "Ġsrc": 5446,
      "Ġusually": 5447,
      "è¯¥": 5448,
      "Dis": 5449,
      "Ġreach": 5450,
      "register": 5451,
      "struction": 5452,
      "77": 5453,
      "Ġprogress": 5454,
      "Ġ25": 5455,
      "Ġrole": 5456,
      "Ġgirls": 5457,
      "ĠRep": 5458,
      "06": 5459,
      "Ġnation": 5460,
      "noon": 5461,
      "FI": 5462,
      "Ġsad": 5463,
      "Ġwarnings": 5464,
      "related": 5465,
      "08": 5466,
      "may": 5467,
      "Ġbread": 5468,
      "ama": 5469,
      "Ġgrew": 5470,
      "Ġstore": 5471,
      ",)": 5472,
      "ys": 5473,
      "Ġguide": 5474,
      "Response": 5475,
      "\"'": 5476,
      "stit": 5477,
      "olution": 5478,
      "rible": 5479,
      "à¦¯": 5480,
      "Ġentry": 5481,
      "oring": 5482,
      "tar": 5483,
      "Ġtong": 5484,
      "Ġmult": 5485,
      "Ġeq": 5486,
      "Ġscene": 5487,
      "Ġmodern": 5488,
      "Ġattr": 5489,
      "ĠOur": 5490,
      "à¦ķ": 5491,
      "Ġgives": 5492,
      "strip": 5493,
      "Ġpul": 5494,
      "Ġupper": 5495,
      "åı¯èĥ½": 5496,
      "Status": 5497,
      "Ġhang": 5498,
      "Ġkill": 5499,
      "Ġkwargs": 5500,
      "Ġenvironment": 5501,
      "Ġglass": 5502,
      "ãģ§ãģį": 5503,
      "package": 5504,
      "Get": 5505,
      "ĠOther": 5506,
      "Ġspot": 5507,
      "tribution": 5508,
      "ĠCa": 5509,
      "usted": 5510,
      "Ġ`.": 5511,
      "Ġloss": 5512,
      "Ġstanding": 5513,
      "arcely": 5514,
      "zone": 5515,
      "ê²": 5516,
      "Ġlives": 5517,
      "ĠDoc": 5518,
      "ĠOh": 5519,
      "Ġpiece": 5520,
      "Ele": 5521,
      "watch": 5522,
      "Ġheading": 5523,
      "oined": 5524,
      "itation": 5525,
      "ĮĢ": 5526,
      "Ġnumbers": 5527,
      "URL": 5528,
      "Ġprefer": 5529,
      "Ġisland": 5530,
      "à¦²": 5531,
      "params": 5532,
      "ĉĉ": 5533,
      "Ġpattern": 5534,
      "tools": 5535,
      "Global": 5536,
      "ĠTom": 5537,
      "Ġparameters": 5538,
      "Learn": 5539,
      "ĠìĦ": 5540,
      "nce": 5541,
      "æĮĩå®ļ": 5542,
      "lt": 5543,
      "Ġhash": 5544,
      "Ġrecent": 5545,
      "äºĽ": 5546,
      "éĻĲ": 5547,
      "bur": 5548,
      "Ġsick": 5549,
      "uge": 5550,
      "Ġcalling": 5551,
      "Ġë³": 5552,
      "ĠìŀĪëĭ¤": 5553,
      "Oper": 5554,
      "Ġrain": 5555,
      "Ġnumpy": 5556,
      "åĬ¨": 5557,
      "pol": 5558,
      "Ġ}}": 5559,
      "esty": 5560,
      "Ġvess": 5561,
      "auto": 5562,
      "Ġwaiting": 5563,
      "IME": 5564,
      "ħ¸": 5565,
      "oogle": 5566,
      "oft": 5567,
      "produ": 5568,
      "gypt": 5569,
      "ĠCr": 5570,
      "aling": 5571,
      "ãĥ¥": 5572,
      "ĠDes": 5573,
      "ARD": 5574,
      "tmp": 5575,
      "Ġdread": 5576,
      "Ġattributes": 5577,
      "Ġinterface": 5578,
      "ãĥªãĤ": 5579,
      "Ġcompatibility": 5580,
      "86": 5581,
      "HA": 5582,
      "happ": 5583,
      "ãģı": 5584,
      "ĠBel": 5585,
      "Ag": 5586,
      "oned": 5587,
      "icode": 5588,
      "pan": 5589,
      "»¨": 5590,
      "heart": 5591,
      "inks": 5592,
      "Ġletters": 5593,
      "Ġdevice": 5594,
      "ĠValid": 5595,
      "Ġwalked": 5596,
      "ua": 5597,
      "Ġglo": 5598,
      "Ġstone": 5599,
      "ĠMin": 5600,
      "ãĤ°": 5601,
      "ĠWhich": 5602,
      "egr": 5603,
      "ê¸°": 5604,
      "Ġegg": 5605,
      "Ġrise": 5606,
      "Ġ[])": 5607,
      "never": 5608,
      "åĪĻ": 5609,
      "ald": 5610,
      "Ġminute": 5611,
      "Ġassociated": 5612,
      "Ġcat": 5613,
      "prov": 5614,
      "changed": 5615,
      "Ġchair": 5616,
      "ìĹĲìĦľ": 5617,
      "ãĤ³ãĥ³ãĥ": 5618,
      "vents": 5619,
      "ycle": 5620,
      "ĠGo": 5621,
      "Inline": 5622,
      "column": 5623,
      "Ġbeside": 5624,
      "Ġrecomm": 5625,
      "Ġuntuk": 5626,
      "nec": 5627,
      "Ġwarning": 5628,
      "ĠAN": 5629,
      "ĠBar": 5630,
      "ĠRoman": 5631,
      "Ġà¦ķ": 5632,
      "Ġhat": 5633,
      "Ġhardly": 5634,
      "FOR": 5635,
      "ĠJob": 5636,
      "Ġseeing": 5637,
      "ÐµÑĤ": 5638,
      "Ġearli": 5639,
      "olved": 5640,
      "ĠJes": 5641,
      "Ġdocumentation": 5642,
      "Be": 5643,
      "Ġess": 5644,
      "Ġwinter": 5645,
      "ë²": 5646,
      "Ġhandler": 5647,
      "ĠPers": 5648,
      "Ġbutton": 5649,
      "Ġstopped": 5650,
      "Ġactually": 5651,
      "Ġinn": 5652,
      "Ġsym": 5653,
      "tis": 5654,
      "Ġedge": 5655,
      "ara": 5656,
      "Ġreading": 5657,
      "Ð°Ð½": 5658,
      "display": 5659,
      "æĸ¹": 5660,
      "Ġbow": 5661,
      "ĠIS": 5662,
      "Ġwise": 5663,
      "asing": 5664,
      "ocr": 5665,
      "unch": 5666,
      "Ġdeliver": 5667,
      "ypes": 5668,
      "requires": 5669,
      "Ġmeaning": 5670,
      "Ġspl": 5671,
      "Ġmaid": 5672,
      "sued": 5673,
      "Ġexactly": 5674,
      "Ġwhatever": 5675,
      "compl": 5676,
      "ntaxError": 5677,
      "Configuration": 5678,
      "ëı": 5679,
      "Ġnumer": 5680,
      "SP": 5681,
      "ingu": 5682,
      "Ġ\"-": 5683,
      "ĠAugust": 5684,
      "cing": 5685,
      "Ġrace": 5686,
      "sidebar": 5687,
      "vari": 5688,
      "Ġsle": 5689,
      "ensive": 5690,
      "Ġformed": 5691,
      "Ġoffice": 5692,
      "Ġsilent": 5693,
      "æľįåĬ¡åĻ¨": 5694,
      "ç®¡": 5695,
      "Ġsomewhat": 5696,
      "Ġarticle": 5697,
      "Ġproduced": 5698,
      "ĠEven": 5699,
      "MS": 5700,
      "dr": 5701,
      "Ñİ": 5702,
      "iny": 5703,
      "Ġber": 5704,
      "Ġnod": 5705,
      "Doc": 5706,
      "leg": 5707,
      "Ġsaf": 5708,
      "ointed": 5709,
      "pretty": 5710,
      "Ġtransl": 5711,
      "Ð·": 5712,
      "æģ": 5713,
      "Ġing": 5714,
      "Ġlambda": 5715,
      "Ġkilled": 5716,
      "Ġplatform": 5717,
      "Ġcorner": 5718,
      "ĠAg": 5719,
      "Ġcommunic": 5720,
      "Ġdiscovered": 5721,
      "IGHT": 5722,
      "Ġrepeated": 5723,
      "remove": 5724,
      "ĠResource": 5725,
      "ĠNorth": 5726,
      "Ġsecure": 5727,
      "à¤°": 5728,
      "GL": 5729,
      "wer": 5730,
      "Ġselector": 5731,
      "Ġpa": 5732,
      "(\"/": 5733,
      "pytest": 5734,
      "Ġsecurity": 5735,
      "Ġcorresponding": 5736,
      "SVG": 5737,
      "íģ": 5738,
      "Ġsalt": 5739,
      "Ġevident": 5740,
      "DB": 5741,
      "Ġzero": 5742,
      "Ġserved": 5743,
      "ĠColonel": 5744,
      "Ġleaving": 5745,
      "ollows": 5746,
      "Ġmember": 5747,
      "amespaces": 5748,
      "ĠWhile": 5749,
      "Ġconditions": 5750,
      "ANT": 5751,
      "åĬł": 5752,
      "Ġoperations": 5753,
      "Ġsor": 5754,
      "ä¿Ŀ": 5755,
      "DI": 5756,
      "plies": 5757,
      "Ġproud": 5758,
      "Ġloved": 5759,
      "ashing": 5760,
      "Ġring": 5761,
      "ĠĠĠĠĠĠĠĠĠĠĠĠĠĠĠĠĠĠĠĠĠĠĠĠĠĠĠĠ": 5762,
      "Ġcomplet": 5763,
      "bing": 5764,
      "Ġmere": 5765,
      "ashed": 5766,
      "Ġstir": 5767,
      "year": 5768,
      "Ġlords": 5769,
      "akan": 5770,
      "Ġschedul": 5771,
      "Ġgreatest": 5772,
      "Ġfavour": 5773,
      "dig": 5774,
      "mult": 5775,
      "åħ¥": 5776,
      "Ġpure": 5777,
      "Ġloc": 5778,
      "Ġang": 5779,
      "Book": 5780,
      "ĠĠĠĠĠĠĠĠĠĠĠĠĠĠĠĠĠĠĠĠĠĠĠĠĠĠ": 5781,
      "Ġshadow": 5782,
      "ordin": 5783,
      "ĠìĹ": 5784,
      "ialog": 5785,
      "Ġoblig": 5786,
      "Ġthinking": 5787,
      "Ġrelative": 5788,
      "Ġextension": 5789,
      "Ġnotice": 5790,
      "Ġvalley": 5791,
      "Bu": 5792,
      "must": 5793,
      "Ġspr": 5794,
      "cert": 5795,
      "ply": 5796,
      "Ġhop": 5797,
      "ocus": 5798,
      "Ġcontroller": 5799,
      "ç»Ħ": 5800,
      "git": 5801,
      "kbd": 5802,
      "alpha": 5803,
      "Ġstorm": 5804,
      "Ġmetadata": 5805,
      "ĠConfig": 5806,
      "ids": 5807,
      "Ġru": 5808,
      "optional": 5809,
      "ĠFOR": 5810,
      "ookie": 5811,
      "ĠJSON": 5812,
      "åĪĽ": 5813,
      "Ġstrict": 5814,
      "ancing": 5815,
      "Ġdelete": 5816,
      "Ġkiss": 5817,
      "elta": 5818,
      "cre": 5819,
      "Ġinstant": 5820,
      "95": 5821,
      "ĠSm": 5822,
      "Ġdescription": 5823,
      "ARIA": 5824,
      "Ġìĥ": 5825,
      "ä»¤": 5826,
      "Ġbrows": 5827,
      "Ġbroke": 5828,
      "iring": 5829,
      "Ġarrived": 5830,
      "blob": 5831,
      "cf": 5832,
      "Ġles": 5833,
      "Ġlaugh": 5834,
      "Ġge": 5835,
      "Ġ'-": 5836,
      "ĠÐ´": 5837,
      "project": 5838,
      "super": 5839,
      "Ġoperator": 5840,
      "memory": 5841,
      "ĨãĥĬ": 5842,
      "Ġbeneath": 5843,
      "Ġmeeting": 5844,
      "bound": 5845,
      "cm": 5846,
      "Ġlin": 5847,
      "Ġpoet": 5848,
      "assertRaisesRegex": 5849,
      "know": 5850,
      "Ġeast": 5851,
      "Ġspeed": 5852,
      "ĠGeneral": 5853,
      "ĠPe": 5854,
      "Ġtrying": 5855,
      "Ġdrawn": 5856,
      "Ġselected": 5857,
      "wood": 5858,
      "é¢": 5859,
      "Ġiron": 5860,
      "Ġ\"<": 5861,
      "åĪĽå»º": 5862,
      "Do": 5863,
      "Sl": 5864,
      "high": 5865,
      "modules": 5866,
      "Ġmountain": 5867,
      "ĠCome": 5868,
      "Ġshowed": 5869,
      "ACK": 5870,
      "è°": 5871,
      "Ġpull": 5872,
      "enter": 5873,
      "Ġassist": 5874,
      "recation": 5875,
      "Ġexcell": 5876,
      "46": 5877,
      "Gl": 5878,
      "ç©": 5879,
      "Ġcool": 5880,
      "Ġbold": 5881,
      "ãĤ¸": 5882,
      "ĠOS": 5883,
      "Ġìĺ": 5884,
      "save": 5885,
      "Who": 5886,
      "Ġindicates": 5887,
      "Ġprinci": 5888,
      "esar": 5889,
      "standing": 5890,
      "è·": 5891,
      "override": 5892,
      "emporary": 5893,
      "aft": 5894,
      "ĠID": 5895,
      "Ġ\"\",": 5896,
      "ëĵľë": 5897,
      "Ġperformance": 5898,
      "47": 5899,
      "ye": 5900,
      "Ġrapid": 5901,
      "certain": 5902,
      "Ġcomment": 5903,
      "anges": 5904,
      "Stream": 5905,
      "internal": 5906,
      "Ġappears": 5907,
      "à¥ĩ": 5908,
      "Ġmentioned": 5909,
      "rix": 5910,
      "Ġcontents": 5911,
      "Ġfruit": 5912,
      "ecs": 5913,
      "Ġcompar": 5914,
      "Ġmanifest": 5915,
      "Ġafterwards": 5916,
      "Ġcoll": 5917,
      "Ġbutter": 5918,
      "ebr": 5919,
      "missions": 5920,
      "Ġä¸Ń": 5921,
      "Ġnews": 5922,
      "Ġgar": 5923,
      "verb": 5924,
      "Ġleaves": 5925,
      "Ġmarried": 5926,
      "Ġstreet": 5927,
      "ATION": 5928,
      "Ġprepared": 5929,
      "flict": 5930,
      "Ġfilter": 5931,
      "Ġdifference": 5932,
      "ustration": 5933,
      "çĶ¨æĪ·": 5934,
      "ä¾Ľ": 5935,
      "econfig": 5936,
      "èĩª": 5937,
      "blog": 5938,
      "orter": 5939,
      "ìĿ¼": 5940,
      "Ġintended": 5941,
      "suff": 5942,
      "Ġtransform": 5943,
      "Ġpromise": 5944,
      "09": 5945,
      "Ġdinner": 5946,
      "Ġdetermined": 5947,
      "lers": 5948,
      "lower": 5949,
      "real": 5950,
      "Ġwine": 5951,
      "ailing": 5952,
      "Ġstatement": 5953,
      "Ġsoldiers": 5954,
      "ìľ¼ë¡ľ": 5955,
      "zil": 5956,
      "ĠAss": 5957,
      "ĠNote": 5958,
      "Resource": 5959,
      "DOM": 5960,
      "acter": 5961,
      "Ġsole": 5962,
      "unction": 5963,
      "Claim": 5964,
      "çīĪ": 5965,
      "Ġopport": 5966,
      "amber": 5967,
      "exit": 5968,
      "Ġpaths": 5969,
      "72": 5970,
      "ĠYour": 5971,
      "Ġtemper": 5972,
      "ç©º": 5973,
      "\"</": 5974,
      "made": 5975,
      "uced": 5976,
      "detail": 5977,
      "Manager": 5978,
      "Ġvan": 5979,
      "ĠPeter": 5980,
      "ĠEgypt": 5981,
      "aval": 5982,
      "Ġgrave": 5983,
      "Ġtur": 5984,
      "stract": 5985,
      "bugzil": 5986,
      "Ġversions": 5987,
      "ĠWell": 5988,
      "Ġchoose": 5989,
      "Ġgetattr": 5990,
      "èĢħ": 5991,
      "UE": 5992,
      "zer": 5993,
      "ULL": 5994,
      "Ġtone": 5995,
      "orough": 5996,
      "istory": 5997,
      "ja": 5998,
      "ĠCreate": 5999,
      "ynam": 6000,
      "Ġturning": 6001,
      "water": 6002,
      "ãĥ¬": 6003,
      "Ġimpossible": 6004,
      "dest": 6005,
      "Ġreject": 6006,
      "Ġbuilding": 6007,
      "éĻ¤": 6008,
      "ĠEach": 6009,
      "awn": 6010,
      "Some": 6011,
      "acle": 6012,
      "ĠWhe": 6013,
      "axis": 6014,
      "iler": 6015,
      "([[": 6016,
      "Ġsociety": 6017,
      "ading": 6018,
      "Unless": 6019,
      "fam": 6020,
      "father": 6021,
      "íĶ": 6022,
      "Ġtender": 6023,
      "Ġmort": 6024,
      "ERT": 6025,
      "Ġreader": 6026,
      "Ġauto": 6027,
      "warnings": 6028,
      "¹Ħ": 6029,
      "ana": 6030,
      "inder": 6031,
      "ords": 6032,
      "xx": 6033,
      "Ġdoll": 6034,
      "Ġcomput": 6035,
      "åħ³": 6036,
      "echan": 6037,
      "ìĭľ": 6038,
      "bro": 6039,
      "almost": 6040,
      "icious": 6041,
      "Ġremains": 6042,
      "Ġfurn": 6043,
      "Ġant": 6044,
      "123": 6045,
      "Ġspeaking": 6046,
      "Ġseconds": 6047,
      "æģ¯": 6048,
      "/><": 6049,
      "olve": 6050,
      "ç¨ĭ": 6051,
      "AG": 6052,
      "Ġwidget": 6053,
      "Ġholy": 6054,
      "Ġsky": 6055,
      "æİ§åĪ¶": 6056,
      "·¸": 6057,
      "Ġretr": 6058,
      "break": 6059,
      "rf": 6060,
      "Ġsitting": 6061,
      "migrations": 6062,
      "').": 6063,
      "ĠArt": 6064,
      "Ġdegree": 6065,
      "Ġmater": 6066,
      "Ġreflect": 6067,
      "Ġsimply": 6068,
      "atically": 6069,
      "Ġshot": 6070,
      "Ġcaused": 6071,
      "ëĲĺ": 6072,
      "origin": 6073,
      "emed": 6074,
      "ĠTheir": 6075,
      "()),": 6076,
      "Trans": 6077,
      "enth": 6078,
      "Ġstarting": 6079,
      "Ġfinished": 6080,
      "ĠDavid": 6081,
      "ĠSouth": 6082,
      "ĠEar": 6083,
      "Ġdevelopment": 6084,
      "85": 6085,
      "alu": 6086,
      "closed": 6087,
      "Ġsets": 6088,
      "Ġfeed": 6089,
      "ĠStates": 6090,
      "hello": 6091,
      "Ġauthority": 6092,
      "draw": 6093,
      "Exp": 6094,
      "Ġfloor": 6095,
      "ĠWar": 6096,
      "Ġmanager": 6097,
      "Ġapparent": 6098,
      "Ġinfo": 6099,
      "Ġmerely": 6100,
      "itecture": 6101,
      "gry": 6102,
      "Ġassign": 6103,
      "eltane": 6104,
      "plemented": 6105,
      "ãĥ§": 6106,
      "Ġ<!--": 6107,
      "Ġterms": 6108,
      "Ġsupposed": 6109,
      "Ġbitter": 6110,
      "Ġfavor": 6111,
      "account": 6112,
      "erty": 6113,
      "ĠMor": 6114,
      "Ġteam": 6115,
      "Ġdatabase": 6116,
      "overnment": 6117,
      "ħĮ": 6118,
      "Ġshare": 6119,
      "Ġourselves": 6120,
      "INT": 6121,
      "hens": 6122,
      "Ġactive": 6123,
      "second": 6124,
      "Ġsignal": 6125,
      "Ġentirely": 6126,
      "çİ°": 6127,
      "Can": 6128,
      "è±": 6129,
      "ĠRich": 6130,
      "Ġëª": 6131,
      "until": 6132,
      "Rec": 6133,
      "Ġtaste": 6134,
      "ello": 6135,
      "compan": 6136,
      "ĠAmerica": 6137,
      "Ġtrain": 6138,
      "asts": 6139,
      "ssl": 6140,
      "Ġwhisper": 6141,
      "Ġdouble": 6142,
      "Ġpec": 6143,
      "ĠAR": 6144,
      "ĠíĮĮëĵľ": 6145,
      "Ġ(`": 6146,
      "ĠOld": 6147,
      "åıĸ": 6148,
      "ĠException": 6149,
      "pods": 6150,
      "ĠBook": 6151,
      "Ġdefine": 6152,
      "Ġflowers": 6153,
      "YPE": 6154,
      "platform": 6155,
      "ãĤµ": 6156,
      "ĠUnited": 6157,
      "Ġdeclar": 6158,
      "friend": 6159,
      "might": 6160,
      "Ġreplace": 6161,
      "ãĤī": 6162,
      "Ġscarcely": 6163,
      "Ġpublished": 6164,
      "76": 6165,
      "Media": 6166,
      "icks": 6167,
      "Ġsuggest": 6168,
      "username": 6169,
      "Ġdecided": 6170,
      "Ġfully": 6171,
      "iation": 6172,
      "ĠHel": 6173,
      "ĠOct": 6174,
      "ounced": 6175,
      "uliar": 6176,
      "Ġgrav": 6177,
      "Ġpleasant": 6178,
      "ãĤ¤ãĥ": 6179,
      "Ġmotion": 6180,
      "icles": 6181,
      "shall": 6182,
      "Ġimplementation": 6183,
      "Ġwitness": 6184,
      "Accessibility": 6185,
      "Iter": 6186,
      "PL": 6187,
      "Ġcatch": 6188,
      "Ġpopular": 6189,
      "YR": 6190,
      "ìħ": 6191,
      "Ġcab": 6192,
      "portion": 6193,
      "Ġrelation": 6194,
      "èª": 6195,
      "Ġmot": 6196,
      "ĠPath": 6197,
      "ĠDis": 6198,
      "Ġglory": 6199,
      "clusive": 6200,
      "sn": 6201,
      "Ġcrown": 6202,
      "Ġoffered": 6203,
      "did": 6204,
      "ĠJud": 6205,
      "Ġsession": 6206,
      "ĠKey": 6207,
      "retched": 6208,
      "Ġheaders": 6209,
      "Ġanimal": 6210,
      "Ġbehold": 6211,
      "0000000000000000": 6212,
      "Ġcrowd": 6213,
      "fn": 6214,
      "sed": 6215,
      "Ġwid": 6216,
      "vey": 6217,
      "ĠMac": 6218,
      "Ġunique": 6219,
      "ollers": 6220,
      "ĠĠĠĠĠĠĠĠĠĠĠĠĠĠĠĠĠĠĠĠĠĠĠĠĠĠĠĠĠĠĠĠĠĠĠĠĠĠĠĠĠĠĠĠĠĠĠĠĠĠĠĠĠĠĠĠĠĠĠĠĠĠĠĠĠĠĠĠĠĠĠĠĠĠĠĠĠĠĠĠĠĠĠĠĠĠĠĠĠĠĠĠĠĠĠĠĠĠĠĠĠĠĠĠĠĠĠĠĠĠĠĠĠĠĠĠĠĠĠĠĠĠĠĠĠĠĠĠ": 6221,
      "Acc": 6222,
      "ii": 6223,
      "req": 6224,
      "ĠIndian": 6225,
      "è±¡": 6226,
      "FC": 6227,
      "spe": 6228,
      "ural": 6229,
      "these": 6230,
      "Ġpassion": 6231,
      "åĳ½": 6232,
      "Ġadditional": 6233,
      "ih": 6234,
      "Ġrad": 6235,
      "Ġproxy": 6236,
      "Ġclasses": 6237,
      "Options": 6238,
      "Ġtag": 6239,
      "Ġtool": 6240,
      "Ġconver": 6241,
      "Ġamb": 6242,
      "Listener": 6243,
      "Ġmarked": 6244,
      "Ġleading": 6245,
      "End": 6246,
      "lat": 6247,
      "mail": 6248,
      "éĺ": 6249,
      "ĠJew": 6250,
      "aily": 6251,
      "Ġstudy": 6252,
      "07": 6253,
      "ĨĮ": 6254,
      "ĠOnly": 6255,
      "ov": 6256,
      "Ġ{{%": 6257,
      "Ġthank": 6258,
      "ABLE": 6259,
      "Ġfollows": 6260,
      "illy": 6261,
      "ousin": 6262,
      "ÑĤÐµ": 6263,
      "Ġunivers": 6264,
      "ĠUser": 6265,
      "Ġproduce": 6266,
      "Ġtemp": 6267,
      "Ġcertificate": 6268,
      "*.": 6269,
      "eav": 6270,
      "lished": 6271,
      "à¦¸": 6272,
      "Ġarrang": 6273,
      "Down": 6274,
      "Ill": 6275,
      "ese": 6276,
      "mac": 6277,
      "éĥ": 6278,
      "ishment": 6279,
      "assertRaisesMessage": 6280,
      "Ġdropped": 6281,
      "rad": 6282,
      "è°ĥ": 6283,
      "same": 6284,
      "Ġsons": 6285,
      "Ġfashion": 6286,
      "Ġpaid": 6287,
      "Ġreli": 6288,
      "ĠUse": 6289,
      "Ġinterpret": 6290,
      "Ġverb": 6291,
      "mor": 6292,
      "Ġvideo": 6293,
      "erness": 6294,
      "Ġcounter": 6295,
      "åħ¨": 6296,
      "Ġsolid": 6297,
      "éĥ¨": 6298,
      "Ġbank": 6299,
      "ĠPR": 6300,
      "Ġcheek": 6301,
      "UC": 6302,
      "Ġdir": 6303,
      "Ġthin": 6304,
      "ĠCON": 6305,
      "Ġvol": 6306,
      "Ġhabit": 6307,
      "arts": 6308,
      "eping": 6309,
      "initial": 6310,
      "Ã§Ã£o": 6311,
      "mas": 6312,
      "Ġpred": 6313,
      "ĠSer": 6314,
      "9999": 6315,
      "æį®": 6316,
      "Ġtongue": 6317,
      "ĠëĮĢ": 6318,
      "Ġapproach": 6319,
      "íĭ": 6320,
      "eral": 6321,
      "Ġhero": 6322,
      "sequence": 6323,
      "Ġstock": 6324,
      "ĠPo": 6325,
      "Ġprove": 6326,
      "Ġbrown": 6327,
      "ãĤ¯ãĥ©": 6328,
      "ĠPhil": 6329,
      "Ġfifty": 6330,
      "Elements": 6331,
      "(?": 6332,
      "Call": 6333,
      "æĥ": 6334,
      "mbol": 6335,
      "encies": 6336,
      "normal": 6337,
      "ĠPri": 6338,
      "æİ¥": 6339,
      "athered": 6340,
      "Ġlies": 6341,
      "Ġafternoon": 6342,
      "ä»¬": 6343,
      "WebExt": 6344,
      "community": 6345,
      "çº": 6346,
      "Ġfirm": 6347,
      "Ġdwell": 6348,
      "ĠGermany": 6349,
      "elcome": 6350,
      "1234": 6351,
      "æıĲä¾Ľ": 6352,
      "ç®¡çĲĨ": 6353,
      "Foot": 6354,
      "See": 6355,
      "ë©": 6356,
      "Ġrepl": 6357,
      "irit": 6358,
      "Ġìľ": 6359,
      "Ġpractice": 6360,
      "Ġconversation": 6361,
      "based": 6362,
      "Ġears": 6363,
      "Ġrid": 6364,
      "ĠCall": 6365,
      "à¦¬": 6366,
      "icate": 6367,
      "çĽ®": 6368,
      ";\"": 6369,
      ">'": 6370,
      "Ġinj": 6371,
      "Ġinstruct": 6372,
      "ĠRuss": 6373,
      "ĠQue": 6374,
      "ĠDecimal": 6375,
      "efined": 6376,
      "Ġtimeout": 6377,
      "éĩı": 6378,
      "ORT": 6379,
      "Mode": 6380,
      "low": 6381,
      "ÙĪ": 6382,
      "acious": 6383,
      "ĠAng": 6384,
      "These": 6385,
      "')}}": 6386,
      "]])": 6387,
      "choices": 6388,
      "Ġflags": 6389,
      "Ġwatched": 6390,
      "follow": 6391,
      "much": 6392,
      "ĠFirst": 6393,
      "ĠRiver": 6394,
      "domain": 6395,
      "Ġordered": 6396,
      "Ġstdout": 6397,
      "morrow": 6398,
      "volume": 6399,
      "Ġtechn": 6400,
      "Ġshout": 6401,
      "ĠReg": 6402,
      "Inter": 6403,
      "Ġservices": 6404,
      "ĠRequest": 6405,
      "Ġtend": 6406,
      "Ġthirty": 6407,
      "ginx": 6408,
      "Ġlarger": 6409,
      "Ġheat": 6410,
      "Ġsugar": 6411,
      "Ġhonest": 6412,
      "OF": 6413,
      "Ġarea": 6414,
      "aved": 6415,
      "handler": 6416,
      "íĭ°": 6417,
      "sur": 6418,
      "Ġfancy": 6419,
      "Ġì»¨": 6420,
      "ÑĨ": 6421,
      "Ġíķ": 6422,
      "Ġinsp": 6423,
      "Ġnarrow": 6424,
      "Ġbuffer": 6425,
      "à¥į": 6426,
      "Ġdan": 6427,
      "quire": 6428,
      "ĠMon": 6429,
      "Ġsequence": 6430,
      "__)": 6431,
      "counter": 6432,
      "ĠRead": 6433,
      "**:": 6434,
      "Ġ>=": 6435,
      "Ġapi": 6436,
      "Ġcheer": 6437,
      "Ġcam": 6438,
      "Ġrestrict": 6439,
      "chief": 6440,
      "thought": 6441,
      "ĠEvery": 6442,
      "lineno": 6443,
      "Ġbenef": 6444,
      "arange": 6445,
      "Ġhung": 6446,
      "Ġinh": 6447,
      "Ð¹": 6448,
      "Ġspent": 6449,
      "æľĢ": 6450,
      "Validation": 6451,
      "Ġfol": 6452,
      "elve": 6453,
      "Ġcircumstances": 6454,
      "EAD": 6455,
      "fold": 6456,
      "math": 6457,
      "Ġ\"__": 6458,
      "Ġdevelop": 6459,
      "ãĤ³ãĥ³ãĥĨãĥĬ": 6460,
      "Ġ\"ðŁ": 6461,
      "Ġstead": 6462,
      "Ġsurface": 6463,
      "ä¿¡æģ¯": 6464,
      "Ġglobal": 6465,
      "Ġrare": 6466,
      "Ġimages": 6467,
      "à¤¾": 6468,
      "ĠíĶ": 6469,
      "emporal": 6470,
      "Ġstyles": 6471,
      "Ġmissing": 6472,
      "ivalent": 6473,
      "ìĸ´": 6474,
      "omen": 6475,
      "ĠBase": 6476,
      "ĠRust": 6477,
      "åł´": 6478,
      "Joh": 6479,
      "uary": 6480,
      "Ġjob": 6481,
      "ĠAny": 6482,
      "UP": 6483,
      "ìļ°": 6484,
      "Ġladies": 6485,
      "widget": 6486,
      "Ġpreced": 6487,
      "åº¦": 6488,
      "Frame": 6489,
      "Ġcou": 6490,
      "ented": 6491,
      "ĠAfr": 6492,
      "allowed": 6493,
      "Ġblind": 6494,
      "Ġdesert": 6495,
      "Ġboard": 6496,
      "ceived": 6497,
      "ĠHam": 6498,
      "classes": 6499,
      "Ġsurround": 6500,
      "clock": 6501,
      "çīĪæľ¬": 6502,
      "GET": 6503,
      "ko": 6504,
      "Ġpatch": 6505,
      "issues": 6506,
      "Enter": 6507,
      "show": 6508,
      "Ġmighty": 6509,
      "generated": 6510,
      "enance": 6511,
      "Ġfault": 6512,
      "Ġpan": 6513,
      "quis": 6514,
      "Ġexceed": 6515,
      "Ġexerc": 6516,
      "Ġexplicit": 6517,
      "ìŀĲ": 6518,
      "ien": 6519,
      "ĠRed": 6520,
      "Ġ24": 6521,
      "Ġwished": 6522,
      "editor": 6523,
      "ĠGood": 6524,
      "Ġetcd": 6525,
      "Ġpicture": 6526,
      "itic": 6527,
      "ifying": 6528,
      ":`": 6529,
      "Ġruns": 6530,
      "Ġlibrary": 6531,
      "¼Ģ": 6532,
      "otal": 6533,
      "ĠTO": 6534,
      "Ġasp": 6535,
      "plain": 6536,
      "Ġmeas": 6537,
      "Ġattend": 6538,
      "himself": 6539,
      "Ġcult": 6540,
      "Ġsake": 6541,
      "Ġkingdom": 6542,
      "ãĥ§ãĥ³": 6543,
      "png": 6544,
      "Ġpit": 6545,
      "three": 6546,
      "umph": 6547,
      "Ġ..": 6548,
      "plicate": 6549,
      "Ġplayed": 6550,
      "ĠHenry": 6551,
      "Ð±": 6552,
      "Ġpleased": 6553,
      "ãĥ¼ãĥ«": 6554,
      "Sequence": 6555,
      "cap": 6556,
      "hor": 6557,
      "imation": 6558,
      "Ġ(*": 6559,
      "retch": 6560,
      "Ġbreast": 6561,
      "Ð¾Ð»": 6562,
      "Aut": 6563,
      "Ġsock": 6564,
      "Ġwrit": 6565,
      "headers": 6566,
      "Tis": 6567,
      "ober": 6568,
      "orious": 6569,
      "Ġlean": 6570,
      "ãĤ¹ãĥĪ": 6571,
      "Ġlaws": 6572,
      "åĮħ": 6573,
      "89": 6574,
      "Load": 6575,
      "xc": 6576,
      "Ġnginx": 6577,
      "ãģ¤": 6578,
      "Ġpassage": 6579,
      "Ġvisible": 6580,
      "Ġneck": 6581,
      "Ġhom": 6582,
      "ãĤ»": 6583,
      "incip": 6584,
      "driver": 6585,
      "rid": 6586,
      "role": 6587,
      "Ġcommunity": 6588,
      "}\"": 6589,
      "osen": 6590,
      "Ġscale": 6591,
      "Ġfold": 6592,
      "Ġpair": 6593,
      "Ġvast": 6594,
      "ILL": 6595,
      "Ġadvantage": 6596,
      "cir": 6597,
      "trace": 6598,
      "aper": 6599,
      "initions": 6600,
      "required": 6601,
      "`)": 6602,
      "isters": 6603,
      "Ġcel": 6604,
      "Ġhills": 6605,
      "ĠCal": 6606,
      "Ġpride": 6607,
      "Ġruntime": 6608,
      "tab": 6609,
      "Ġtall": 6610,
      "Ġspecies": 6611,
      "starts": 6612,
      "bec": 6613,
      "hib": 6614,
      "ernal": 6615,
      "çĶŁ": 6616,
      "hs": 6617,
      "Ġdiscover": 6618,
      "Illustration": 6619,
      "Don": 6620,
      "Out": 6621,
      "stant": 6622,
      "Ġdeb": 6623,
      "ĠCor": 6624,
      "Ġbelieved": 6625,
      "assertIsNone": 6626,
      "Ġmilitary": 6627,
      "79": 6628,
      "Ġsides": 6629,
      "Ġëĭ¤": 6630,
      "Ġpossess": 6631,
      "ÑĢÐµ": 6632,
      "built": 6633,
      "Ã³n": 6634,
      "ç±": 6635,
      "Ġlogging": 6636,
      "Ġ\"%": 6637,
      "********": 6638,
      "Ġwear": 6639,
      "ART": 6640,
      "Ġemb": 6641,
      "åł´åĲĪ": 6642,
      "Ġsorrow": 6643,
      "eling": 6644,
      "ĠSw": 6645,
      "udio": 6646,
      "insert": 6647,
      "éĢī": 6648,
      "é»ĺè®¤åĢ¼": 6649,
      "Ġthreat": 6650,
      "Ġdebug": 6651,
      "ĠGreat": 6652,
      "Init": 6653,
      "Ġforeign": 6654,
      "ptember": 6655,
      "Ġexit": 6656,
      "Ġmeat": 6657,
      "grid": 6658,
      "plications": 6659,
      "END": 6660,
      "Ġrepresenting": 6661,
      "apes": 6662,
      "ãĤģ": 6663,
      "cles": 6664,
      "Ġsettings": 6665,
      "å½ĵ": 6666,
      "ç±»": 6667,
      "æ¨": 6668,
      "à¦¤": 6669,
      "nother": 6670,
      "Ġëħ¸": 6671,
      "Ġvalidation": 6672,
      "Ġdescribe": 6673,
      "prototype": 6674,
      "éĢļè¿ĩ": 6675,
      "ĠMaster": 6676,
      "ĠHigh": 6677,
      "ĠBeltane": 6678,
      "Ġquant": 6679,
      "engan": 6680,
      "Ġdoctor": 6681,
      "Ġhighest": 6682,
      "Ġwalls": 6683,
      "something": 6684,
      "Header": 6685,
      "Øª": 6686,
      "ĠAuthor": 6687,
      "Ġshore": 6688,
      "ĠBoy": 6689,
      "Ġpolitical": 6690,
      "Ġmurder": 6691,
      "Ġimprove": 6692,
      "Ġauth": 6693,
      "ĠMe": 6694,
      "ĠBo": 6695,
      "Ġenable": 6696,
      "Ġevidence": 6697,
      "Ġrepresents": 6698,
      "ĠDeployment": 6699,
      "Ġabsolute": 6700,
      "Footnote": 6701,
      "Ŀ¼": 6702,
      "ergy": 6703,
      "å®Ł": 6704,
      "Ġserious": 6705,
      "Ġappropri": 6706,
      "Ġofficers": 6707,
      "oked": 6708,
      "Ġinner": 6709,
      "Ġscreen": 6710,
      "Ġjustice": 6711,
      "Ġportion": 6712,
      "skipUnless": 6713,
      "æĦ": 6714,
      "omy": 6715,
      "Ġeager": 6716,
      "ĠCo": 6717,
      "ĠBO": 6718,
      "deployment": 6719,
      "pet": 6720,
      "ĠLou": 6721,
      "ĠList": 6722,
      "Ġservant": 6723,
      "Ġcm": 6724,
      "___": 6725,
      "Ġopening": 6726,
      "Ġà¤ķ": 6727,
      "Ġweeks": 6728,
      "Ġbecomes": 6729,
      "law": 6730,
      "Ġgro": 6731,
      "rose": 6732,
      "Ġraw": 6733,
      "usal": 6734,
      "ĠPaul": 6735,
      "Ġcomponent": 6736,
      "åĲ¯": 6737,
      "ĠåĴĮ": 6738,
      "children": 6739,
      "æīĢæľī": 6740,
      "Live": 6741,
      "æĵį": 6742,
      "Ġbab": 6743,
      "ĠSim": 6744,
      "erable": 6745,
      "Ġbal": 6746,
      "exists": 6747,
      "Ġlov": 6748,
      "Ġflat": 6749,
      "TESTFN": 6750,
      "ATH": 6751,
      "marks": 6752,
      "Ġphilosop": 6753,
      "Implemented": 6754,
      "ãĥ¼ãĤ¸": 6755,
      "Sample": 6756,
      "íĸ": 6757,
      "Ġreview": 6758,
      "utable": 6759,
      "Ġkubeadm": 6760,
      "Ġtroops": 6761,
      "æĵįä½ľ": 6762,
      "éģ": 6763,
      "Ġq": 6764,
      "alar": 6765,
      "Ġ80": 6766,
      "Ġmilk": 6767,
      "Ġmatches": 6768,
      "Ġpieces": 6769,
      "HN": 6770,
      "ĠRec": 6771,
      "Ġwriter": 6772,
      "cluded": 6773,
      "Ġeduc": 6774,
      "Ah": 6775,
      "Where": 6776,
      "Ġgarden": 6777,
      "ĠSam": 6778,
      "ishop": 6779,
      "ä½ķ": 6780,
      "Ġsilver": 6781,
      "Ġsaved": 6782,
      "\"\\": 6783,
      "Def": 6784,
      "Ġstatic": 6785,
      "Ġflesh": 6786,
      "43": 6787,
      "Ġincl": 6788,
      "iments": 6789,
      "ĠII": 6790,
      "ĠMaj": 6791,
      "tributeError": 6792,
      "Ġflow": 6793,
      "Ġunderstood": 6794,
      "ä¹ĭ": 6795,
      "session": 6796,
      "Ġho": 6797,
      "gh": 6798,
      "reason": 6799,
      "omin": 6800,
      "pril": 6801,
      "Ġpytest": 6802,
      "ç§°": 6803,
      "worth": 6804,
      "Ġanimals": 6805,
      "Ġfamiliar": 6806,
      "Ġmechan": 6807,
      "ĠAlso": 6808,
      "OUR": 6809,
      "Ġarrays": 6810,
      "Ġsituation": 6811,
      "Ġfortune": 6812,
      "necess": 6813,
      "boolean": 6814,
      "Ġmap": 6815,
      "Ġpages": 6816,
      "Ġ\"'": 6817,
      "ĠPort": 6818,
      "Ġflour": 6819,
      "Ġdistinct": 6820,
      "ĠCaesar": 6821,
      "cb": 6822,
      "Ñħ": 6823,
      "Ġbare": 6824,
      "aret": 6825,
      "Ġintellig": 6826,
      "Ġcruel": 6827,
      "Ġspoken": 6828,
      "Source": 6829,
      "mary": 6830,
      "¿ãĥ¼": 6831,
      "enn": 6832,
      "compile": 6833,
      "Seconds": 6834,
      "complex": 6835,
      "world": 6836,
      "åŁ": 6837,
      "ãĤĤ": 6838,
      "Ġagree": 6839,
      "mbed": 6840,
      "fortun": 6841,
      "Ġhttp": 6842,
      "ushing": 6843,
      "Ġdistingu": 6844,
      "\"--": 6845,
      "Ġ23": 6846,
      "Ġpale": 6847,
      "Ġseat": 6848,
      "Ġinteractive": 6849,
      "ĠComp": 6850,
      "Ġdrawing": 6851,
      "clusion": 6852,
      "åĪĹ": 6853,
      "Ġha": 6854,
      "stone": 6855,
      "umps": 6856,
      "__',": 6857,
      "Ġtear": 6858,
      "Ġhouses": 6859,
      "Ġwouldn": 6860,
      "Ġignor": 6861,
      "Ġcalm": 6862,
      "ĠJesus": 6863,
      "iance": 6864,
      "Ġsought": 6865,
      "Ġbirth": 6866,
      "Ġstage": 6867,
      "Ð¾ÑĢ": 6868,
      "Ġdepth": 6869,
      "Ġdriver": 6870,
      "Core": 6871,
      "atory": 6872,
      "edelta": 6873,
      "acc": 6874,
      "ĠLinux": 6875,
      "Ġworse": 6876,
      "Ġspirits": 6877,
      "Ġstructure": 6878,
      "istration": 6879,
      "bus": 6880,
      "ĠApp": 6881,
      "Ġthrow": 6882,
      "Ġfailure": 6883,
      "Ġwaters": 6884,
      "Ġquarter": 6885,
      "Ġrepr": 6886,
      "ĠBen": 6887,
      "Ġsail": 6888,
      "Server": 6889,
      "VER": 6890,
      "ball": 6891,
      "olation": 6892,
      "Ġshame": 6893,
      "Ġtrade": 6894,
      "Ġgrid": 6895,
      "Ġsmaller": 6896,
      "Ġcommands": 6897,
      "Ġrequested": 6898,
      "coded": 6899,
      "Ġpersonal": 6900,
      "looking": 6901,
      "warn": 6902,
      "Ġbod": 6903,
      "argument": 6904,
      "Ġthrown": 6905,
      "description": 6906,
      "layout": 6907,
      "âĶĢ": 6908,
      "\"}": 6909,
      "ĠTur": 6910,
      "Ġforced": 6911,
      "Ġvent": 6912,
      "Ð¾Ð¼": 6913,
      "Ġsignific": 6914,
      "Ġseparate": 6915,
      "held": 6916,
      "Ġsheep": 6917,
      "åĲİ": 6918,
      "Ġstation": 6919,
      "people": 6920,
      "Ġ<=": 6921,
      "tributed": 6922,
      "attered": 6923,
      "Ġchecks": 6924,
      "IUS": 6925,
      "forms": 6926,
      "basic": 6927,
      "romise": 6928,
      "ÑĤÑĮ": 6929,
      "Ge": 6930,
      "IX": 6931,
      "éª": 6932,
      "Ġhint": 6933,
      "agon": 6934,
      "ĠIndians": 6935,
      "Ġearnest": 6936,
      "/*": 6937,
      "Sp": 6938,
      "iber": 6939,
      "udo": 6940,
      "Ġprotocol": 6941,
      "éĿ¢": 6942,
      "EE": 6943,
      "Ġtor": 6944,
      "ellect": 6945,
      "Ġnations": 6946,
      "Ġbless": 6947,
      "Ġindepend": 6948,
      "Ġemail": 6949,
      "ĠRuntime": 6950,
      "41": 6951,
      "temp": 6952,
      "Ġapart": 6953,
      "Ġinstances": 6954,
      "Ġsupports": 6955,
      "Ġdrop": 6956,
      "Port": 6957,
      "greg": 6958,
      "overy": 6959,
      "ĠJune": 6960,
      "IZ": 6961,
      "Ġflex": 6962,
      "stead": 6963,
      "Ġreverse": 6964,
      "ãģĹãģŁ": 6965,
      "Ġparticularly": 6966,
      "ĠÃł": 6967,
      "Ġded": 6968,
      "Ġlack": 6969,
      "Ġtrad": 6970,
      "echo": 6971,
      "ĠParis": 6972,
      "ifferent": 6973,
      ".\",": 6974,
      "8000000000000000": 6975,
      "Ġfac": 6976,
      "Ġlose": 6977,
      "osition": 6978,
      "ĠFather": 6979,
      "Ġchoice": 6980,
      "Ġsmiled": 6981,
      "aches": 6982,
      "Ġprompt": 6983,
      "ãĤĬãģ¾ãģĻ": 6984,
      "Ġsquare": 6985,
      "Ġperfectly": 6986,
      "andidate": 6987,
      "Ġ\"_": 6988,
      "\")}}.": 6989,
      "Ġmillion": 6990,
      "Ġmedia": 6991,
      "arest": 6992,
      "spam": 6993,
      "AY": 6994,
      "Eng": 6995,
      "Ġnull": 6996,
      "Ġlying": 6997,
      "Ġwealth": 6998,
      "Ġusage": 6999,
      "Ġreply": 7000,
      "Ġlabels": 7001,
      "Ġupdated": 7002,
      "oms": 7003,
      "Ġreasons": 7004,
      "cloud": 7005,
      "Ġdish": 7006,
      "Ġblow": 7007,
      "{{%": 7008,
      "month": 7009,
      "Ġstars": 7010,
      "Ġdise": 7011,
      "ãģ¦ãģĦ": 7012,
      "ĠPrince": 7013,
      "PY": 7014,
      "ë¥": 7015,
      "ouched": 7016,
      "Ġshell": 7017,
      "serve": 7018,
      "Ġpeculiar": 7019,
      "king": 7020,
      "QL": 7021,
      "tries": 7022,
      "ĠJan": 7023,
      "Ġenc": 7024,
      "Ġhearts": 7025,
      "Ġquestions": 7026,
      "God": 7027,
      "aclass": 7028,
      "ĠFile": 7029,
      "person": 7030,
      "__.": 7031,
      "ĠVal": 7032,
      "Ġincludes": 7033,
      "Ġfix": 7034,
      "Ġhide": 7035,
      "utely": 7036,
      "Count": 7037,
      "éĸ": 7038,
      "Ġpada": 7039,
      "effect": 7040,
      "aker": 7041,
      "apper": 7042,
      "izes": 7043,
      "iah": 7044,
      "Ġadvance": 7045,
      "connect": 7046,
      "éĩį": 7047,
      "Ġssl": 7048,
      "Ġloud": 7049,
      "Ġrate": 7050,
      "Ġcoast": 7051,
      "Ġjudge": 7052,
      "Ġdomain": 7053,
      "ĠEnter": 7054,
      "Ġproblem": 7055,
      "Ġdelay": 7056,
      "Create": 7057,
      "æµ": 7058,
      "Ġinspect": 7059,
      "seek": 7060,
      "irgin": 7061,
      "Ġbirds": 7062,
      "49": 7063,
      "IF": 7064,
      "ìĨĮ": 7065,
      "ugins": 7066,
      "Ġendeav": 7067,
      "startswith": 7068,
      "íħĮ": 7069,
      "Admin": 7070,
      "scheduler": 7071,
      "GR": 7072,
      "µ¬": 7073,
      "ìĽ": 7074,
      "ĠFort": 7075,
      "grade": 7076,
      "Ġheads": 7077,
      "à§ģ": 7078,
      "Ġenemies": 7079,
      "Ġhence": 7080,
      "Ġdece": 7081,
      "æĪĳ": 7082,
      "Ġasyncio": 7083,
      "Ġsurprise": 7084,
      "De": 7085,
      "Ġnavig": 7086,
      "Ġforty": 7087,
      "Ġproved": 7088,
      "ĠHeaven": 7089,
      "priv": 7090,
      "Ġreligious": 7091,
      "Br": 7092,
      "Le": 7093,
      "gate": 7094,
      "Ġbill": 7095,
      "Ġpassword": 7096,
      "rics": 7097,
      "è§£": 7098,
      "Ġreligion": 7099,
      "Dict": 7100,
      "Ġdengan": 7101,
      "Ġíģ": 7102,
      "sequent": 7103,
      "mic": 7104,
      "Ġpet": 7105,
      "Ġships": 7106,
      "ĠBet": 7107,
      "Ġgets": 7108,
      "ìĹ¬": 7109,
      "Handler": 7110,
      "Ġbrief": 7111,
      "Ġunset": 7112,
      "Ġsurely": 7113,
      "Ġmargin": 7114,
      "those": 7115,
      "ĠNOT": 7116,
      "ãĥ¼ãĤ¹": 7117,
      "Ġdarkness": 7118,
      "ĠWilliam": 7119,
      "Ab": 7120,
      "Ġlocation": 7121,
      "aming": 7122,
      "oreign": 7123,
      "formance": 7124,
      "Ġrendered": 7125,
      "etc": 7126,
      "classmethod": 7127,
      "åĲ«": 7128,
      "supported": 7129,
      "appeared": 7130,
      "æ³ķ": 7131,
      ":#": 7132,
      "å±": 7133,
      "oration": 7134,
      "Ġhasattr": 7135,
      "feature": 7136,
      "Ġscroll": 7137,
      "hance": 7138,
      "oon": 7139,
      "Ġdistr": 7140,
      "Ġregion": 7141,
      "Fe": 7142,
      "isher": 7143,
      "Ġaltern": 7144,
      "ãģ§ãģĻ": 7145,
      "è¨Ń": 7146,
      "say": 7147,
      "Ġhy": 7148,
      "izont": 7149,
      "Ġfallen": 7150,
      ";':": 7151,
      "bool": 7152,
      "sit": 7153,
      "Ġice": 7154,
      "Ġforces": 7155,
      "Invalid": 7156,
      "Ġgreatly": 7157,
      "Ġregister": 7158,
      "require": 7159,
      "country": 7160,
      "Ġearlier": 7161,
      "ĠHor": 7162,
      "extend": 7163,
      "disc": 7164,
      "ĠContainer": 7165,
      "Ġpickle": 7166,
      "factory": 7167,
      "Ġopposite": 7168,
      "Ġdefines": 7169,
      "eph": 7170,
      "Ġhappen": 7171,
      "car": 7172,
      "tml": 7173,
      "warning": 7174,
      "æ¯": 7175,
      "ë³": 7176,
      "Ġwindows": 7177,
      "Ġvariables": 7178,
      "Ġopportunity": 7179,
      "ĠOctober": 7180,
      "çĬ": 7181,
      "ĠMake": 7182,
      "ĠâĢľ": 7183,
      "Ġfre": 7184,
      "Ġfier": 7185,
      "Ġgrief": 7186,
      "Ġ\".": 7187,
      "ĠCA": 7188,
      "Ġplugin": 7189,
      "ĠsetUp": 7190,
      "plicas": 7191,
      "Ġguess": 7192,
      "*):": 7193,
      "bum": 7194,
      "ees": 7195,
      "email": 7196,
      "ĠDNS": 7197,
      "Ġ40": 7198,
      "ACE": 7199,
      "Ġcreating": 7200,
      "cmd": 7201,
      "consc": 7202,
      "Ø§Ø": 7203,
      "utions": 7204,
      "Ġyellow": 7205,
      "kew": 7206,
      "endor": 7207,
      "ãĤ·": 7208,
      "ĠJuly": 7209,
      "Ġjson": 7210,
      "å®ĥ": 7211,
      "ĠSince": 7212,
      "ê³¼": 7213,
      "Ġsplit": 7214,
      "Ġthro": 7215,
      "strings": 7216,
      "standard": 7217,
      "ULT": 7218,
      "çĬ¶": 7219,
      "Author": 7220,
      "containers": 7221,
      "III": 7222,
      "Ġlimits": 7223,
      "Ġintroduced": 7224,
      "Ġbul": 7225,
      "Ġ'%": 7226,
      "ardon": 7227,
      "Ġtwice": 7228,
      "Ġhonor": 7229,
      "Ġofficer": 7230,
      "COM": 7231,
      "]))": 7232,
      "tk": 7233,
      "Ġ\"\\": 7234,
      "Ġdemon": 7235,
      "Ġtrait": 7236,
      "å·¥": 7237,
      "RTC": 7238,
      "iate": 7239,
      "mes": 7240,
      "ĠìĦľë": 7241,
      "LiveSample": 7242,
      "capt": 7243,
      "ç¼": 7244,
      "Ġdust": 7245,
      "ĠRem": 7246,
      "Ġcollection": 7247,
      "poses": 7248,
      "Ġinteresting": 7249,
      "Python": 7250,
      "Log": 7251,
      "give": 7252,
      "Ġimper": 7253,
      "being": 7254,
      "ATE": 7255,
      "Ġglance": 7256,
      "87": 7257,
      "iest": 7258,
      "Ġfly": 7259,
      "Ġduration": 7260,
      "Ġhither": 7261,
      "Ġrough": 7262,
      "Ġprepar": 7263,
      "mount": 7264,
      "stats": 7265,
      "ecting": 7266,
      "ĠMarch": 7267,
      "ĠHouse": 7268,
      "Ġplane": 7269,
      "background": 7270,
      "expression": 7271,
      "KEY": 7272,
      "ç¡": 7273,
      "ulous": 7274,
      "aints": 7275,
      "Ġparse": 7276,
      "late": 7277,
      "Ġpity": 7278,
      "Ġns": 7279,
      "ĠLamb": 7280,
      "ENTS": 7281,
      "Ġworthy": 7282,
      "ani": 7283,
      "Ġtrace": 7284,
      "ĠSeptember": 7285,
      "turn": 7286,
      "Ġalive": 7287,
      "Ġmeasure": 7288,
      "Ġtroub": 7289,
      "Ġadding": 7290,
      "Ġsuggested": 7291,
      "cil": 7292,
      "wik": 7293,
      "ĠSom": 7294,
      "ĠThy": 7295,
      "fulSet": 7296,
      "è¯¢": 7297,
      "complete": 7298,
      "Ġexists": 7299,
      "Ġscar": 7300,
      "Ġpowerful": 7301,
      "Ġremarked": 7302,
      "Ġban": 7303,
      "Ġhall": 7304,
      "Ġìĭ": 7305,
      "Ġgrowing": 7306,
      "aturally": 7307,
      "resourceVersionMatch": 7308,
      "tz": 7309,
      "Ġlisten": 7310,
      "Ġtalking": 7311,
      "Account": 7312,
      "è¨Ńå®ļ": 7313,
      "either": 7314,
      "Ġtar": 7315,
      "astic": 7316,
      "Ġtreated": 7317,
      ">\"": 7318,
      "xa": 7319,
      "appro": 7320,
      "dry": 7321,
      "íĥ": 7322,
      "inite": 7323,
      "Ġhtml": 7324,
      "ube": 7325,
      "Ġprev": 7326,
      "Ġentr": 7327,
      "ECT": 7328,
      "adv": 7329,
      "ĠMer": 7330,
      "Ġexamples": 7331,
      "iveness": 7332,
      "aks": 7333,
      "Ġune": 7334,
      "åĲįç§°": 7335,
      "Ġndarray": 7336,
      "mbedLiveSample": 7337,
      "Ġpowers": 7338,
      "Ġmoral": 7339,
      "Ġdeleted": 7340,
      "ky": 7341,
      "nie": 7342,
      "Ġ*,": 7343,
      "actions": 7344,
      "çķ¥": 7345,
      "Clean": 7346,
      "Ġfaint": 7347,
      "Ġfaces": 7348,
      "ĠEnd": 7349,
      "Item": 7350,
      "Ġmachine": 7351,
      "Ú©": 7352,
      "Ġdign": 7353,
      "another": 7354,
      "Ġworker": 7355,
      "Ġfeelings": 7356,
      "four": 7357,
      "Ġfond": 7358,
      "Ġcho": 7359,
      "mean": 7360,
      "Ġsacr": 7361,
      "Your": 7362,
      "gn": 7363,
      "ê·¸": 7364,
      "Ġmac": 7365,
      "Ġpadding": 7366,
      "peror": 7367,
      "Ġconsc": 7368,
      "annotate": 7369,
      "Check": 7370,
      "Watch": 7371,
      "ooth": 7372,
      "sent": 7373,
      "het": 7374,
      "Ġ26": 7375,
      "bey": 7376,
      "Ġcurious": 7377,
      "Ġtid": 7378,
      "æľŁ": 7379,
      "Ġpriest": 7380,
      "Result": 7381,
      "ĠDuke": 7382,
      "heritance": 7383,
      "enge": 7384,
      "ĠDev": 7385,
      "ĠGet": 7386,
      "Ġrob": 7387,
      "Ġcouldn": 7388,
      "Ġfright": 7389,
      "Ġconstit": 7390,
      "xml": 7391,
      "Ġaid": 7392,
      "atively": 7393,
      "Ġmulti": 7394,
      "Ġgathered": 7395,
      "Ġstranger": 7396,
      "icted": 7397,
      "ĻĢ": 7398,
      "Ġmal": 7399,
      "Ġdare": 7400,
      "Ġmanagement": 7401,
      "Ġ21": 7402,
      "Ġê¸°": 7403,
      "ancel": 7404,
      "Ġexistence": 7405,
      "éĹ®": 7406,
      "ĠCharles": 7407,
      "Ġestablished": 7408,
      "è·¯": 7409,
      "Label": 7410,
      "bash": 7411,
      "Ġgri": 7412,
      "agged": 7413,
      "ãĥī": 7414,
      "æľº": 7415,
      "Storage": 7416,
      "choice": 7417,
      "Ġ22": 7418,
      "Ġmoving": 7419,
      "Ġcarefully": 7420,
      "Ġdegrees": 7421,
      "against": 7422,
      "Ġrever": 7423,
      "Ġaside": 7424,
      "Ġclub": 7425,
      "forward": 7426,
      "preter": 7427,
      "imental": 7428,
      "Objects": 7429,
      "æŁ¥è¯¢": 7430,
      "rehens": 7431,
      "Ġgh": 7432,
      "Ġnotes": 7433,
      "ĠCustom": 7434,
      "Ġignored": 7435,
      "ermine": 7436,
      "mber": 7437,
      "vars": 7438,
      "otes": 7439,
      "ĠWorld": 7440,
      "Ġremaining": 7441,
      "ä»£": 7442,
      "Ġmatters": 7443,
      "Ġfish": 7444,
      "astr": 7445,
      "ĠAh": 7446,
      "ĠAre": 7447,
      "Ġrub": 7448,
      "View": 7449,
      "present": 7450,
      "Ġhit": 7451,
      "decl": 7452,
      "Ġaudio": 7453,
      "Ġvirtue": 7454,
      "cpu": 7455,
      "éľĢè¦ģ": 7456,
      "Ġautomatically": 7457,
      "Ġbrowsers": 7458,
      "Ġexcellent": 7459,
      "five": 7460,
      "tear": 7461,
      "take": 7462,
      "ĠSch": 7463,
      "BU": 7464,
      "ita": 7465,
      "alias": 7466,
      "apat": 7467,
      "Ġthroughout": 7468,
      "sat": 7469,
      "Ġeld": 7470,
      "Ġmarry": 7471,
      "ãģķ": 7472,
      "ĠHar": 7473,
      "iven": 7474,
      "Ġë¦": 7475,
      ")<": 7476,
      "gor": 7477,
      "éķ": 7478,
      "Ġda": 7479,
      "ometry": 7480,
      "ĠTwo": 7481,
      "GRE": 7482,
      "hum": 7483,
      "Ġwond": 7484,
      "ĠFirefox": 7485,
      "Ġpermission": 7486,
      "Ġbasic": 7487,
      "ĠApril": 7488,
      "outine": 7489,
      "Ġremo": 7490,
      "Ġaware": 7491,
      "Ġbusy": 7492,
      "åĮĸ": 7493,
      "ixin": 7494,
      "Integer": 7495,
      "bind": 7496,
      "Ġfate": 7497,
      "Ġtransport": 7498,
      "inking": 7499,
      "ĠSIGN": 7500,
      "power": 7501,
      "ĠJust": 7502,
      "Ġcomponents": 7503,
      "Ġcourage": 7504,
      "256": 7505,
      "}'": 7506,
      "Ġctx": 7507,
      "ãĤ£": 7508,
      "ARK": 7509,
      "lookup": 7510,
      "éªĮ": 7511,
      "ĠEst": 7512,
      "Ġimportance": 7513,
      "front": 7514,
      "Ġpresented": 7515,
      "condition": 7516,
      ")):": 7517,
      "environ": 7518,
      "ĠWork": 7519,
      "Ġroyal": 7520,
      "Ġdeprecated": 7521,
      "Ġresolved": 7522,
      "================": 7523,
      "Ġequivalent": 7524,
      "Ġreleased": 7525,
      "Ġsolemn": 7526,
      "íĸī": 7527,
      "orous": 7528,
      "alter": 7529,
      "Ġstarts": 7530,
      "ĠUncle": 7531,
      "Ġtriumph": 7532,
      "Ġprinted": 7533,
      "æĢģ": 7534,
      "MAX": 7535,
      "Ġsorry": 7536,
      "Ġshook": 7537,
      "Ġtwelve": 7538,
      "success": 7539,
      "because": 7540,
      "include": 7541,
      "Ġ[[": 7542,
      "å®ŀ": 7543,
      "ãĢģ`": 7544,
      "Ġdistant": 7545,
      "Ġhighly": 7546,
      "cience": 7547,
      "assertNotIn": 7548,
      "stable": 7549,
      "ands": 7550,
      "ĠDRA": 7551,
      "Ġchain": 7552,
      "Ġchap": 7553,
      "Ġjoined": 7554,
      "ds": 7555,
      "ker": 7556,
      "loc": 7557,
      "Ġhistor": 7558,
      "rize": 7559,
      "too": 7560,
      "engine": 7561,
      "Ġcreation": 7562,
      "èĢĮ": 7563,
      "IAL": 7564,
      "Miss": 7565,
      "Ġach": 7566,
      "ĠSuch": 7567,
      "ĠMc": 7568,
      "Ġchosen": 7569,
      "Ġterrible": 7570,
      "Ġdrive": 7571,
      "Ġwonderful": 7572,
      "ategory": 7573,
      "ĠPRO": 7574,
      "Ġplant": 7575,
      "Ġaffection": 7576,
      "alian": 7577,
      "ĠWas": 7578,
      "pute": 7579,
      "screen": 7580,
      "Prot": 7581,
      "Ġsocial": 7582,
      ">,": 7583,
      "Ġexternal": 7584,
      "coder": 7585,
      "svg": 7586,
      "Ġsucceeded": 7587,
      "hr": 7588,
      "ì¹": 7589,
      "Ġcow": 7590,
      "ãģł": 7591,
      "Point": 7592,
      "cat": 7593,
      "stall": 7594,
      "ä»İ": 7595,
      "Ġworked": 7596,
      "Ġgentlemen": 7597,
      "ĠSH": 7598,
      "ĠCount": 7599,
      "Ġdefe": 7600,
      "ĠGl": 7601,
      "ĠOpen": 7602,
      "redential": 7603,
      "arser": 7604,
      "å®ī": 7605,
      "Ġgenerated": 7606,
      "94": 7607,
      "Ġæĺ¯": 7608,
      "Ġbent": 7609,
      "seen": 7610,
      "Ġweather": 7611,
      "ĠRom": 7612,
      "ĠVer": 7613,
      "neg": 7614,
      "ĠíĻ": 7615,
      "ynamic": 7616,
      "Ġtaught": 7617,
      "Ġadmission": 7618,
      "Ġshoulder": 7619,
      "Ġeggs": 7620,
      "ĠÃ©": 7621,
      "Ġfem": 7622,
      "Ġ'_": 7623,
      "Ġclothes": 7624,
      "Ġengaged": 7625,
      "Ġinstalled": 7626,
      "Ġmasked": 7627,
      "ä¾ĭå¦Ĥ": 7628,
      "Ġphysical": 7629,
      "Ġain": 7630,
      "amu": 7631,
      "urse": 7632,
      "Ġyards": 7633,
      "Ġinterval": 7634,
      "INGS": 7635,
      "course": 7636,
      "ãĤĪãģĨ": 7637,
      "EXT": 7638,
      "mother": 7639,
      "itche": 7640,
      "Ġstderr": 7641,
      "Ġrank": 7642,
      "ä»ĸ": 7643,
      "Ġparams": 7644,
      "Ġmovement": 7645,
      "days": 7646,
      "ective": 7647,
      "runtime": 7648,
      "Any": 7649,
      "Ġthreading": 7650,
      "¿ł": 7651,
      "Ġwisdom": 7652,
      "schema": 7653,
      "SequenceEqual": 7654,
      "Note": 7655,
      "xRef": 7656,
      "elle": 7657,
      "Ġforb": 7658,
      "Ġgroups": 7659,
      "çĶ¨äºİ": 7660,
      "Conn": 7661,
      "Ġordinary": 7662,
      "Decimal": 7663,
      "\"})": 7664,
      "occ": 7665,
      "ĦëĦ¤": 7666,
      "¿łë²": 7667,
      "ĠìĬ¤": 7668,
      "Ġbackend": 7669,
      "Ġfails": 7670,
      "ASC": 7671,
      "ĦëĦ¤íĭ°": 7672,
      "¿łë²ĦëĦ¤íĭ°": 7673,
      "Ġjump": 7674,
      "Ġhappiness": 7675,
      "ä¹¦": 7676,
      "¿łë²ĦëĦ¤íĭ°ìĬ¤": 7677,
      "jud": 7678,
      "Ġsan": 7679,
      "ĠHave": 7680,
      "paramet": 7681,
      "Ġswift": 7682,
      "ãģŁãĤģ": 7683,
      "Ġreported": 7684,
      "ëıĦ": 7685,
      "?--": 7686,
      "een": 7687,
      "squ": 7688,
      "{\"": 7689,
      "Ġstates": 7690,
      "Ġvig": 7691,
      "Ġ()": 7692,
      "ĠLike": 7693,
      "Ġdescript": 7694,
      "Start": 7695,
      "Comp": 7696,
      "Security": 7697,
      "åŃĹæ®µ": 7698,
      "Ġíģ´ë": 7699,
      "ding": 7700,
      "essor": 7701,
      "ordinary": 7702,
      "ìłģ": 7703,
      "ental": 7704,
      "Ġreq": 7705,
      "ĠSub": 7706,
      "Ġdefinition": 7707,
      "aution": 7708,
      "Ġcurrently": 7709,
      "Ġmurm": 7710,
      "parametrize": 7711,
      "NE": 7712,
      "don": 7713,
      "prom": 7714,
      "Ġthrew": 7715,
      "('-": 7716,
      "Ġservants": 7717,
      "84": 7718,
      "Dev": 7719,
      "double": 7720,
      "Ġow": 7721,
      "ico": 7722,
      "Ġgain": 7723,
      "ĠAp": 7724,
      "usters": 7725,
      "Ġassume": 7726,
      "ounce": 7727,
      "Ġquietly": 7728,
      "window": 7729,
      "arther": 7730,
      "away": 7731,
      "Ġperformed": 7732,
      "rupted": 7733,
      "ĠSan": 7734,
      "Ġamid": 7735,
      "Ġfreed": 7736,
      "ĠCSI": 7737,
      "ĠĠĠĠĠĠĠĠĠĠĠĠĠĠĠĠĠĠĠĠĠĠĠĠĠĠĠĠĠĠĠĠĠĠĠ": 7738,
      "angers": 7739,
      "Ġdaily": 7740,
      "ĠCoun": 7741,
      "ummy": 7742,
      "assertSequenceEqual": 7743,
      "ĠUsing": 7744,
      "plica": 7745,
      "numpy": 7746,
      "è¯ģä¹¦": 7747,
      "æĦı": 7748,
      ":**": 7749,
      "ĠHad": 7750,
      "Ġbrave": 7751,
      "express": 7752,
      "ĠRunning": 7753,
      "continue": 7754,
      "cut": 7755,
      "curs": 7756,
      "alam": 7757,
      "ĠMark": 7758,
      "Ġuncle": 7759,
      "tributors": 7760,
      "Ġminds": 7761,
      "Ġburst": 7762,
      "Ġmajor": 7763,
      "Ġoccurred": 7764,
      "TO": 7765,
      "asy": 7766,
      "ĠIngress": 7767,
      "Ġ[],": 7768,
      "ĠDOM": 7769,
      "await": 7770,
      "missing": 7771,
      "Ġskin": 7772,
      "Ġconstant": 7773,
      "directory": 7774,
      "è½½": 7775,
      ".\")": 7776,
      "FO": 7777,
      "iÃ³n": 7778,
      "sor": 7779,
      "always": 7780,
      "Ġinfer": 7781,
      "Ġvolumes": 7782,
      "groups": 7783,
      "nothing": 7784,
      "READ": 7785,
      "Ġmountains": 7786,
      "Ġgods": 7787,
      "zk": 7788,
      "Ġhate": 7789,
      "Ġreve": 7790,
      "Ġaltogether": 7791,
      "Ġprincip": 7792,
      "document": 7793,
      "Ġrespond": 7794,
      "Ġdetermine": 7795,
      "pickle": 7796,
      "Using": 7797,
      "ì¼Ģ": 7798,
      "Ġtalked": 7799,
      "Ġrul": 7800,
      "ovember": 7801,
      "Ġscheme": 7802,
      "admission": 7803,
      "ĠModel": 7804,
      "ãĥĨ": 7805,
      "ĠLove": 7806,
      "âĢĶ": 7807,
      "ARY": 7808,
      "Ġà¦ª": 7809,
      "ä»¥ä¸ĭ": 7810,
      "ĠNotImplemented": 7811,
      "appear": 7812,
      "gments": 7813,
      "Ġnine": 7814,
      "urd": 7815,
      "Ġshared": 7816,
      "ãĥĩ": 7817,
      "Ġcolumns": 7818,
      "Ġends": 7819,
      "Ġconsiderable": 7820,
      "Ġliberty": 7821,
      "Ġestablish": 7822,
      "ãģ§ãģįãģ¾ãģĻ": 7823,
      "Ġinnoc": 7824,
      "ador": 7825,
      "Ġgather": 7826,
      "Ġinternal": 7827,
      "ĠĠĠĠĠĠĠĠĠĠĠĠĠĠĠĠĠĠĠĠĠĠĠĠĠĠĠĠĠĠ": 7828,
      "Ġskip": 7829,
      "ìħĺ": 7830,
      "BER": 7831,
      "Ġec": 7832,
      "orthern": 7833,
      "Ġwilling": 7834,
      "getvalue": 7835,
      "ĠThom": 7836,
      "features": 7837,
      "Ġprior": 7838,
      "Look": 7839,
      "lambda": 7840,
      "ĠLittle": 7841,
      "Ġ28": 7842,
      "signature": 7843,
      "Ġequally": 7844,
      "done": 7845,
      "Ĥĺ": 7846,
      "ĠMus": 7847,
      "Ġmaximum": 7848,
      "hard": 7849,
      "jo": 7850,
      "specific": 7851,
      "Ġideas": 7852,
      "Ġrepresented": 7853,
      "xe": 7854,
      "Ġdeploy": 7855,
      "Ġproof": 7856,
      "erves": 7857,
      "Ġremote": 7858,
      "unday": 7859,
      "ĠString": 7860,
      "SyntaxError": 7861,
      "Ġproperly": 7862,
      "JSON": 7863,
      "lazy": 7864,
      "times": 7865,
      "Ġcop": 7866,
      "Ġasc": 7867,
      "Ġrot": 7868,
      "grace": 7869,
      "Ġadvanced": 7870,
      "Ġsettled": 7871,
      "Come": 7872,
      "ups": 7873,
      "Ġsig": 7874,
      "Ġaccompl": 7875,
      "iddleware": 7876,
      "Hub": 7877,
      "éĶ": 7878,
      "quired": 7879,
      "Ġ''": 7880,
      "wheel": 7881,
      "Ġere": 7882,
      "words": 7883,
      "prep": 7884,
      ",))": 7885,
      "Events": 7886,
      "Var": 7887,
      "mind": 7888,
      "rb": 7889,
      "track": 7890,
      "ĠCEL": 7891,
      "Ġsport": 7892,
      "Ġnovel": 7893,
      "ĠJames": 7894,
      "ancer": 7895,
      "Child": 7896,
      "iated": 7897,
      "ç¬": 7898,
      "stop": 7899,
      "ĠDep": 7900,
      "grad": 7901,
      "services": 7902,
      "ĠScot": 7903,
      "Ġforgotten": 7904,
      "Ġappropriate": 7905,
      "Foo": 7906,
      "hidden": 7907,
      "ifice": 7908,
      "Ġserial": 7909,
      "database": 7910,
      "Ġdifficulty": 7911,
      "Ġsatisfied": 7912,
      "Will": 7913,
      "sup": 7914,
      "zero": 7915,
      "intr": 7916,
      "isions": 7917,
      "Ġinline": 7918,
      "rier": 7919,
      "grap": 7920,
      "Ġblank": 7921,
      "ãĤĴä½¿çĶ¨": 7922,
      "Ġviews": 7923,
      "Ġanxious": 7924,
      "pid": 7925,
      "once": 7926,
      "lege": 7927,
      "ĠMany": 7928,
      "ĠLook": 7929,
      "angle": 7930,
      "ĠOption": 7931,
      "Ġstands": 7932,
      "izontal": 7933,
      "OHN": 7934,
      "Ġsigh": 7935,
      "Ġwheel": 7936,
      "Ġolder": 7937,
      "Ġwants": 7938,
      "ruption": 7939,
      "Ġconfidence": 7940,
      "è¿Ľè¡Į": 7941,
      "Ġreign": 7942,
      "irs": 7943,
      "Ġsevent": 7944,
      "ological": 7945,
      "Ġmarriage": 7946,
      "Ġeffects": 7947,
      "Ġobliged": 7948,
      "Ġ000": 7949,
      "Ġdeployment": 7950,
      "Ġconcept": 7951,
      "Ġshoot": 7952,
      "outhern": 7953,
      "avy": 7954,
      "Ġencour": 7955,
      "Ġvert": 7956,
      "Ġsympath": 7957,
      "93": 7958,
      "EF": 7959,
      "Mock": 7960,
      "bon": 7961,
      "pattern": 7962,
      "Ġfinding": 7963,
      "Ġaffairs": 7964,
      "mdn": 7965,
      "Ġfrequently": 7966,
      ")],": 7967,
      "iso": 7968,
      "ilst": 7969,
      "ĠLa": 7970,
      "çĽ¸": 7971,
      "Ġsacred": 7972,
      "/\",": 7973,
      "éļ": 7974,
      "urrent": 7975,
      "ĠCity": 7976,
      "('\\": 7977,
      "Ġlayout": 7978,
      "Attributes": 7979,
      "deg": 7980,
      "eq": 7981,
      "addr": 7982,
      "does": 7983,
      "Ġcompanion": 7984,
      "Over": 7985,
      "life": 7986,
      "arse": 7987,
      "ota": 7988,
      "sem": 7989,
      "Ġ',": 7990,
      "ĠMont": 7991,
      "Ġclients": 7992,
      "ports": 7993,
      "Ġagreed": 7994,
      "frames": 7995,
      "Ġloaded": 7996,
      "ictionary": 7997,
      "çī¹æĢ§": 7998,
      "æŁ¥è¯¢åıĤæķ°": 7999,
      "total": 8000,
      "Ġfetch": 8001,
      "Ġlearning": 8002,
      "Ġspake": 8003,
      "Ġproto": 8004,
      "Ġhurt": 8005,
      "glob": 8006,
      "\",\"": 8007,
      "ĠNature": 8008,
      "astern": 8009,
      "å¤ĸ": 8010,
      "EventListener": 8011,
      "Meta": 8012,
      "Temporal": 8013,
      "ette": 8014,
      "Ġcolour": 8015,
      "annels": 8016,
      "ä¹ī": 8017,
      "Ġwoods": 8018,
      "Local": 8019,
      "kens": 8020,
      "tell": 8021,
      "acon": 8022,
      "ĠMart": 8023,
      "contrib": 8024,
      "ĠYes": 8025,
      "Ġintellect": 8026,
      "liament": 8027,
      "Ġdefaults": 8028,
      "Ġdivine": 8029,
      "Ġremarkable": 8030,
      "ëĲľ": 8031,
      "Ġanimation": 8032,
      "Ġaccepted": 8033,
      "Ġobtained": 8034,
      "Ġodd": 8035,
      "Ġpounds": 8036,
      "igg": 8037,
      "ĠMag": 8038,
      "Ġcallback": 8039,
      "Ġtea": 8040,
      "handle": 8041,
      "92": 8042,
      "Container": 8043,
      "å¸¸": 8044,
      "DN": 8045,
      "Our": 8046,
      "ba": 8047,
      "ĦĪ": 8048,
      "Ġwicked": 8049,
      "Ġash": 8050,
      "ĠTherefore": 8051,
      "arded": 8052,
      "ä»»": 8053,
      "ĠFrank": 8054,
      "Controller": 8055,
      "job": 8056,
      "orne": 8057,
      "images": 8058,
      "Ġyes": 8059,
      "Ġrail": 8060,
      "Ġmyst": 8061,
      "coming": 8062,
      "ĠKING": 8063,
      "tyle": 8064,
      "white": 8065,
      "Ġfacts": 8066,
      "Template": 8067,
      "andy": 8068,
      "rence": 8069,
      "Ġtyping": 8070,
      "raft": 8071,
      "Hello": 8072,
      "ı¬": 8073,
      "ishes": 8074,
      "else": 8075,
      "unique": 8076,
      "ĠRog": 8077,
      "Ġscience": 8078,
      "Ġemp": 8079,
      "Ġpossession": 8080,
      "Ġexplained": 8081,
      "LY": 8082,
      "fp": 8083,
      "mir": 8084,
      "woman": 8085,
      "Ġmile": 8086,
      "Ġfamous": 8087,
      "Ġcircle": 8088,
      "Ġrocks": 8089,
      "Ġë¦¬": 8090,
      "54": 8091,
      "yes": 8092,
      "Ġip": 8093,
      "Ġtables": 8094,
      "Ġconstraint": 8095,
      "Ġsplend": 8096,
      "cross": 8097,
      "ston": 8098,
      "Ġ[(": 8099,
      "click": 8100,
      "ĠJe": 8101,
      "STR": 8102,
      "ä¸ŃçļĦ": 8103,
      "single": 8104,
      "unicode": 8105,
      "Ġincreased": 8106,
      "mal": 8107,
      "Ã¨": 8108,
      "Ġmir": 8109,
      "allel": 8110,
      "Ġteeth": 8111,
      "LOAD": 8112,
      "CL": 8113,
      "cell": 8114,
      "windows": 8115,
      "olf": 8116,
      "ĠTime": 8117,
      "Ġkeeping": 8118,
      "ĠOnce": 8119,
      "pres": 8120,
      "sleep": 8121,
      "Ġtel": 8122,
      "rome": 8123,
      "ĠField": 8124,
      "Ġoverview": 8125,
      "Ġholding": 8126,
      "æĶ¯": 8127,
      "57": 8128,
      "Ġwelcome": 8129,
      "Ġalbum": 8130,
      "Ġspite": 8131,
      "Ġextrem": 8132,
      ">.": 8133,
      "ums": 8134,
      "Ġreturning": 8135,
      "(['": 8136,
      "buah": 8137,
      "Ġlogs": 8138,
      "Ġgolden": 8139,
      "networking": 8140,
      ")\"": 8141,
      "Ġconqu": 8142,
      "Ġouter": 8143,
      "ìĿĮ": 8144,
      "Ġinsert": 8145,
      "Ġpreviously": 8146,
      "erity": 8147,
      "enate": 8148,
      "Ġbinary": 8149,
      "elist": 8150,
      "ãģĿ": 8151,
      "ĠBer": 8152,
      "Ġgrat": 8153,
      "workloads": 8154,
      "Ġkubeconfig": 8155,
      "Ġdisplayed": 8156,
      "Are": 8157,
      "live": 8158,
      "ora": 8159,
      "Ġnice": 8160,
      "Ġclim": 8161,
      "ĠGreek": 8162,
      "Custom": 8163,
      "New": 8164,
      "bert": 8165,
      "Ġble": 8166,
      "omic": 8167,
      "available": 8168,
      "Ġduplicate": 8169,
      "Ġdemanded": 8170,
      "Back": 8171,
      "Good": 8172,
      "}\")": 8173,
      "Ġio": 8174,
      "Ġtruly": 8175,
      "Ġpossibly": 8176,
      "Ġremembered": 8177,
      "æĥħ": 8178,
      "97": 8179,
      "uint": 8180,
      "ĠPres": 8181,
      "Ġpoem": 8182,
      "callback": 8183,
      "Ġorders": 8184,
      "Ġparents": 8185,
      "eous": 8186,
      "Ġrising": 8187,
      "orted": 8188,
      "space": 8189,
      "ĠVen": 8190,
      "Ġexpressed": 8191,
      "Ġ**`": 8192,
      "Ġcompleted": 8193,
      "Ġincrease": 8194,
      "Ġê²½": 8195,
      "ĠOSError": 8196,
      "ĠìĦ¤": 8197,
      "olled": 8198,
      "ÑĢÐ°Ð": 8199,
      "Ġdevil": 8200,
      "istentVolume": 8201,
      "æķ°æį®": 8202,
      "íģ¬": 8203,
      "Number": 8204,
      "VAL": 8205,
      "Ġqs": 8206,
      "Ġtent": 8207,
      "inn": 8208,
      "etr": 8209,
      "ãģ£": 8210,
      "Ġìĭ¤": 8211,
      "olling": 8212,
      "views": 8213,
      "small": 8214,
      "ĠRobert": 8215,
      "usalem": 8216,
      "SIG": 8217,
      "Ġsample": 8218,
      "Ġharm": 8219,
      "Ġpu": 8220,
      "uries": 8221,
      "ĠInter": 8222,
      "Ġproduction": 8223,
      "Ġfingers": 8224,
      "ĠConfigMap": 8225,
      "named": 8226,
      "reme": 8227,
      "configuration": 8228,
      "Ġtells": 8229,
      "Ġconfigur": 8230,
      "escape": 8231,
      "Ġëħ¸ëĵľ": 8232,
      "Many": 8233,
      "İãĥ¼ãĥī": 8234,
      "llib": 8235,
      "ĠUS": 8236,
      "Ġrefused": 8237,
      "Ġpointed": 8238,
      "234": 8239,
      "52": 8240,
      "separ": 8241,
      "ubelet": 8242,
      "Ġshowing": 8243,
      "deprecated": 8244,
      "ĠDecember": 8245,
      "Ġmaterial": 8246,
      "67": 8247,
      "Tim": 8248,
      "Ġsebuah": 8249,
      "ĠDocker": 8250,
      "ephen": 8251,
      "ARE": 8252,
      "Ġsuccessful": 8253,
      "Mrs": 8254,
      "Ġjudgment": 8255,
      "Ġexpressions": 8256,
      "Ġemployed": 8257,
      "vere": 8258,
      "ĠDE": 8259,
      "APIRef": 8260,
      "Ġcompletely": 8261,
      "poss": 8262,
      "abilities": 8263,
      "Ġattract": 8264,
      "Ġ32": 8265,
      "addEventListener": 8266,
      "Ġplaying": 8267,
      "Ð»Ð¸": 8268,
      "Ġsuffered": 8269,
      "Ġmidst": 8270,
      "John": 8271,
      "Ed": 8272,
      "ìĻĢ": 8273,
      "Ġconflict": 8274,
      "ĠHim": 8275,
      "Ġproc": 8276,
      "aws": 8277,
      "eval": 8278,
      "Thus": 8279,
      "Ġsnapshot": 8280,
      "ë©´": 8281,
      "maid": 8282,
      "ta": 8283,
      "inv": 8284,
      "inth": 8285,
      "Ġcup": 8286,
      "ĠAct": 8287,
      "æĺİ": 8288,
      "Ġtremb": 8289,
      "future": 8290,
      "ĠInt": 8291,
      "Ġsuit": 8292,
      "weet": 8293,
      "ĠYe": 8294,
      "Ġadmitted": 8295,
      "Ġlinks": 8296,
      "Ġcouple": 8297,
      "éªĮè¯ģ": 8298,
      "Ġwasn": 8299,
      "ĠGRE": 8300,
      "ĠTypeScript": 8301,
      "Ãº": 8302,
      "inet": 8303,
      "attributes": 8304,
      "Ġinstr": 8305,
      "ĠIr": 8306,
      "ĠText": 8307,
      "Ġstable": 8308,
      "Ġknowing": 8309,
      "Ġmercy": 8310,
      "Initial": 8311,
      "language": 8312,
      "nes": 8313,
      "uf": 8314,
      "ĠAndy": 8315,
      "Input": 8316,
      "Ġslice": 8317,
      "Ġparam": 8318,
      "Ġfilm": 8319,
      "htmlelement": 8320,
      "administer": 8321,
      "Ġcrossed": 8322,
      "çŃĸ": 8323,
      "Parser": 8324,
      "ino": 8325,
      "Ġwarn": 8326,
      "Ġpocket": 8327,
      "uten": 8328,
      "ĠRev": 8329,
      "ĠError": 8330,
      "icket": 8331,
      "Ġcontained": 8332,
      "ĠContr": 8333,
      "å¾Ħ": 8334,
      "Ġdollars": 8335,
      "ãĤ¯ãĥ©ãĤ¹ãĤ": 8336,
      "Ġcell": 8337,
      "ĠCOM": 8338,
      "Ġtraff": 8339,
      "Ġadopt": 8340,
      "syml": 8341,
      "going": 8342,
      "Ġengine": 8343,
      "UD": 8344,
      "ĠTLS": 8345,
      "ago": 8346,
      "ĠDid": 8347,
      "Ġapplications": 8348,
      "Ġê°Ģ": 8349,
      "Ġmodified": 8350,
      "Ġconstructor": 8351,
      "Łèĥ½": 8352,
      "ĠOut": 8353,
      "Ġgrown": 8354,
      "labels": 8355,
      "Contains": 8356,
      "Ġaston": 8357,
      "Ġthorough": 8358,
      "Ġul": 8359,
      "à¦ª": 8360,
      "Ġconsistent": 8361,
      "Ġdiff": 8362,
      "Ġdisci": 8363,
      "å¤§": 8364,
      "Dep": 8365,
      "Mixin": 8366,
      "lor": 8367,
      "rev": 8368,
      "atin": 8369,
      "Ġlake": 8370,
      "cean": 8371,
      "osom": 8372,
      "testcapi": 8373,
      "Ġpresently": 8374,
      "skin": 8375,
      "While": 8376,
      "ĠRichard": 8377,
      "è·¯å¾Ħ": 8378,
      "->": 8379,
      "81": 8380,
      "Module": 8381,
      "entry": 8382,
      "Ġbesides": 8383,
      "Ġlimited": 8384,
      "Ġtravel": 8385,
      "æ¨¡": 8386,
      "IV": 8387,
      "\")),": 8388,
      "Ġchannel": 8389,
      "å®ļä¹ī": 8390,
      "Ġcentre": 8391,
      "Ġspiritual": 8392,
      "ìĿ´ëĦĪ": 8393,
      "itory": 8394,
      "Ġcousin": 8395,
      "ulations": 8396,
      "ĠSk": 8397,
      "Ġalt": 8398,
      "unakan": 8399,
      "ĠCour": 8400,
      "Ġcanvas": 8401,
      "çĶ±": 8402,
      "Ġminister": 8403,
      "ĠQueen": 8404,
      "First": 8405,
      "rows": 8406,
      "Ġpraise": 8407,
      "Ġbranch": 8408,
      "Ġintention": 8409,
      "({\"": 8410,
      "Cleanup": 8411,
      "AF": 8412,
      "Ġtesting": 8413,
      "Ġprince": 8414,
      "Ġdistur": 8415,
      "anny": 8416,
      "ursive": 8417,
      "Ġcaptured": 8418,
      "Ġnecessity": 8419,
      "west": 8420,
      "etcd": 8421,
      "ĠPark": 8422,
      "ĠBefore": 8423,
      "ivision": 8424,
      "Ġnoise": 8425,
      "Ġscen": 8426,
      "à§ĭ": 8427,
      "Ġpromised": 8428,
      "ç§į": 8429,
      "ãĥĹãĥŃ": 8430,
      "ĠìķĬ": 8431,
      "ealous": 8432,
      "Glossary": 8433,
      "ourn": 8434,
      "ustri": 8435,
      "Ġevalu": 8436,
      "ĠIts": 8437,
      "Ġsoldier": 8438,
      "è¿ĻäºĽ": 8439,
      "Ġcookie": 8440,
      "Ġdemonstr": 8441,
      ")[": 8442,
      "/{": 8443,
      "prec": 8444,
      "tp": 8445,
      "Ġtempt": 8446,
      "Ġmarch": 8447,
      "Ġtools": 8448,
      "conver": 8449,
      "Ġproportion": 8450,
      "Ġ27": 8451,
      "supports": 8452,
      "Ġroute": 8453,
      "=[\"": 8454,
      "ë§": 8455,
      "plex": 8456,
      "ĠresourceVersion": 8457,
      "Ġwatching": 8458,
      "failure": 8459,
      "Ġissues": 8460,
      "Ġepis": 8461,
      "Ġlatest": 8462,
      "AST": 8463,
      "]],": 8464,
      "mk": 8465,
      "Ġcities": 8466,
      "ĠAcc": 8467,
      "ĠNovember": 8468,
      "Ġexecution": 8469,
      "Ġfp": 8470,
      "Ġfocus": 8471,
      "oler": 8472,
      "ãĤ§": 8473,
      "Ġimm": 8474,
      "ĠThough": 8475,
      "login": 8476,
      "Ġexplain": 8477,
      "ç©ºéĹ´": 8478,
      "Ġalpha": 8479,
      "ĠJul": 8480,
      "Ġfrag": 8481,
      "ãģĻãĤĭãģĵãģ¨": 8482,
      "={\"": 8483,
      "Ġvessel": 8484,
      "51": 8485,
      "cel": 8486,
      "Ġarose": 8487,
      "itiz": 8488,
      "Ġfarther": 8489,
      "Ġnational": 8490,
      "article": 8491,
      "ĠDuring": 8492,
      "Ġsmooth": 8493,
      "Ġ/*": 8494,
      "OUT": 8495,
      "Ġfifteen": 8496,
      "Ġannotation": 8497,
      "Ġtail": 8498,
      "util": 8499,
      "Ġenumer": 8500,
      "need": 8501,
      "Ġrecommended": 8502,
      "Ġnumerous": 8503,
      "Ġrelief": 8504,
      "Did": 8505,
      "XR": 8506,
      "Ġblog": 8507,
      "ĠMost": 8508,
      "Ġyours": 8509,
      "ODE": 8510,
      "CharField": 8511,
      "53": 8512,
      "void": 8513,
      "arged": 8514,
      "Ġworship": 8515,
      "profile": 8516,
      "Ġendpoint": 8517,
      "Ġintegr": 8518,
      "loader": 8519,
      "ikan": 8520,
      "Ġhearing": 8521,
      "æĶ¯æĮģ": 8522,
      "è£": 8523,
      "ìĥ": 8524,
      "Ġskew": 8525,
      "pload": 8526,
      "Ġflight": 8527,
      "signal": 8528,
      "fetch": 8529,
      "uits": 8530,
      "Ġboolean": 8531,
      "Ġdapat": 8532,
      "estic": 8533,
      "uggle": 8534,
      "Ġwebhook": 8535,
      "sigs": 8536,
      "ste": 8537,
      "oder": 8538,
      "ĠRef": 8539,
      "Ġwhence": 8540,
      "Ġpersu": 8541,
      "Ġdiscovery": 8542,
      "wrapper": 8543,
      "ç¡®": 8544,
      "uan": 8545,
      "æ¬": 8546,
      "Ġlangu": 8547,
      "ĠMount": 8548,
      "ĠEast": 8549,
      "reader": 8550,
      "Ġaccident": 8551,
      "agraph": 8552,
      "iform": 8553,
      "ĠCons": 8554,
      "Ġproposed": 8555,
      "Ġterr": 8556,
      "åľ°": 8557,
      "61": 8558,
      "Like": 8559,
      "anches": 8560,
      "ĠKe": 8561,
      "Ġvision": 8562,
      "ãĥ¼ãĥĪ": 8563,
      "came": 8564,
      "Ġstored": 8565,
      "Ġbelief": 8566,
      "ÑĤÐ°": 8567,
      "pointer": 8568,
      "Ġconscious": 8569,
      "Pri": 8570,
      "Ġhosp": 8571,
      "Ġcenter": 8572,
      "generic": 8573,
      "Ġmagn": 8574,
      "Ġwhispered": 8575,
      "Ġlovely": 8576,
      "traceback": 8577,
      "chron": 8578,
      "ĠGit": 8579,
      "Ġsupply": 8580,
      "partial": 8581,
      "Ġcapital": 8582,
      "Ġcredential": 8583,
      "åģ": 8584,
      "Ġanch": 8585,
      "ĠOver": 8586,
      "åıĺ": 8587,
      "Ġcreature": 8588,
      "ĠContent": 8589,
      "family": 8590,
      "AGE": 8591,
      "half": 8592,
      "environment": 8593,
      "Ġma": 8594,
      "Ġdost": 8595,
      "ĠBecause": 8596,
      "Ġmanaged": 8597,
      "ĠStorage": 8598,
      "Ass": 8599,
      "Render": 8600,
      "yer": 8601,
      "reverse": 8602,
      "ĠMoses": 8603,
      "oute": 8604,
      "reating": 8605,
      "Ġexped": 8606,
      "ATA": 8607,
      "ãģĮãģĤ": 8608,
      "ĠProv": 8609,
      "Ġprofession": 8610,
      "Ġcodecs": 8611,
      "border": 8612,
      "ç³": 8613,
      "still": 8614,
      "estamp": 8615,
      "Ġadvent": 8616,
      "ä¸»": 8617,
      "shard": 8618,
      "Ġfled": 8619,
      "atterns": 8620,
      "Ġextended": 8621,
      "Ġpapers": 8622,
      "between": 8623,
      "ios": 8624,
      "ĠÑĥ": 8625,
      "Ġ(**": 8626,
      "ãĥĲ": 8627,
      "ĠAPIs": 8628,
      "subclass": 8629,
      "architecture": 8630,
      "Ġsuperior": 8631,
      "Ġlegs": 8632,
      "xf": 8633,
      "Ġtmp": 8634,
      "ompress": 8635,
      "ategy": 8636,
      "acks": 8637,
      "Ġfrozen": 8638,
      "hus": 8639,
      "});": 8640,
      "Ġbones": 8641,
      "Ġlod": 8642,
      "tering": 8643,
      "ffff": 8644,
      "Ġbrain": 8645,
      "DateTime": 8646,
      "ìĬ¤íĦ°": 8647,
      "å®Łè¡Į": 8648,
      "Ġbodies": 8649,
      "icon": 8650,
      "Ġ'\\\\": 8651,
      "ĠBrowser": 8652,
      "hostname": 8653,
      "Ġstreets": 8654,
      "Ġwalking": 8655,
      "necessary": 8656,
      "Ġangry": 8657,
      "Po": 8658,
      "store": 8659,
      "Ġpolice": 8660,
      "Ġundert": 8661,
      "Ġprivile": 8662,
      "Page": 8663,
      "Rem": 8664,
      "ĠChe": 8665,
      "Ġextr": 8666,
      "company": 8667,
      "Ġmodules": 8668,
      "blo": 8669,
      "ĠDick": 8670,
      "Ġsaith": 8671,
      "comment": 8672,
      "ĠJac": 8673,
      "Ġwaited": 8674,
      "8859": 8675,
      "Ġmigrations": 8676,
      "¹ĦìĬ¤": 8677,
      "Ph": 8678,
      "TION": 8679,
      "reated": 8680,
      "Ġdari": 8681,
      "ctx": 8682,
      "Ġkubernetes": 8683,
      "ONE": 8684,
      "ĠÐ·": 8685,
      "Ġpurposes": 8686,
      "Ġregarded": 8687,
      "multip": 8688,
      "ãĤ¯ãĥ©ãĤ¹ãĤ¿ãĥ¼": 8689,
      "Next": 8690,
      "Ġpaint": 8691,
      "Ġ\"{%": 8692,
      "ĠTe": 8693,
      "ĠAustr": 8694,
      "Ġassigned": 8695,
      "seconds": 8696,
      "ĠRobin": 8697,
      "tearray": 8698,
      "91": 8699,
      "Ġdem": 8700,
      "Ġroof": 8701,
      "Ġlifted": 8702,
      "Ġtraffic": 8703,
      "åĭ": 8704,
      "Ġfn": 8705,
      "Ġreck": 8706,
      "Ġended": 8707,
      "Compat": 8708,
      "metrics": 8709,
      "oreignKey": 8710,
      "Ġsending": 8711,
      "ena": 8712,
      "Ġ64": 8713,
      "Ġåľ": 8714,
      "Environment": 8715,
      "ĠMadame": 8716,
      "Buffer": 8717,
      "íĶĮ": 8718,
      "docker": 8719,
      "ê°": 8720,
      "keeper": 8721,
      "aren": 8722,
      "ieu": 8723,
      "Ġpurch": 8724,
      "queue": 8725,
      "Ġmerch": 8726,
      "Ġwebsite": 8727,
      "Ġcauses": 8728,
      "Ġquality": 8729,
      "Ġoccupied": 8730,
      "ç³»": 8731,
      "pace": 8732,
      "syntax": 8733,
      "ELL": 8734,
      "ãģĵãģ®": 8735,
      "Image": 8736,
      "Ġinquir": 8737,
      "exper": 8738,
      "Ġboil": 8739,
      "Ġ60": 8740,
      "decimal": 8741,
      "Ġqueen": 8742,
      "Ġfairly": 8743,
      "Ġdangerous": 8744,
      "Ġlabour": 8745,
      "é¡»": 8746,
      "kw": 8747,
      "Ġrepro": 8748,
      "igger": 8749,
      "theless": 8750,
      "Ġ});": 8751,
      "Ġcreates": 8752,
      "utorial": 8753,
      "location": 8754,
      "xF": 8755,
      "åĥ": 8756,
      "Ġdownload": 8757,
      "Ġdecor": 8758,
      "Ġgeneric": 8759,
      "Ġsorted": 8760,
      "å¿ħè¦ģ": 8761,
      "Rev": 8762,
      "bell": 8763,
      "pull": 8764,
      "Ġmessages": 8765,
      "ads": 8766,
      "ĠPol": 8767,
      "ĠFeb": 8768,
      "ĠEv": 8769,
      "Ġextent": 8770,
      "Thou": 8771,
      "Ġinterested": 8772,
      "scheduling": 8773,
      "Ġinhabit": 8774,
      "íħĮìĿ´ëĦĪ": 8775,
      "App": 8776,
      "stems": 8777,
      "ĠCam": 8778,
      "Ġdogs": 8779,
      "oseph": 8780,
      "sets": 8781,
      "LOC": 8782,
      "character": 8783,
      "assertNotEqual": 8784,
      "Ł¬ìĬ¤íĦ°": 8785,
      "gorith": 8786,
      "ael": 8787,
      "iour": 8788,
      "ris": 8789,
      "éĴ": 8790,
      "uls": 8791,
      "keep": 8792,
      "ĠDel": 8793,
      "().__": 8794,
      "Ġspan": 8795,
      "udden": 8796,
      "Ġslave": 8797,
      "iteral": 8798,
      "Ġnearer": 8799,
      "Ġedit": 8800,
      "remote": 8801,
      "ãģ§ãģ¯": 8802,
      "Ġvariety": 8803,
      "83": 8804,
      "ÑĦ": 8805,
      "Ġconvert": 8806,
      "ints": 8807,
      "ERC": 8808,
      "Ġpartial": 8809,
      "Ġteach": 8810,
      "ĠGrace": 8811,
      "å¿Ĺ": 8812,
      ".[": 8813,
      "UID": 8814,
      "ieur": 8815,
      "added": 8816,
      "Ġburied": 8817,
      "å·²": 8818,
      "hancements": 8819,
      "Window": 8820,
      "kins": 8821,
      "§ĭ": 8822,
      "Ġhab": 8823,
      "sep": 8824,
      "Ġshoulders": 8825,
      "Ġblessed": 8826,
      "82": 8827,
      "Ġlb": 8828,
      "ĠSol": 8829,
      "__()": 8830,
      "Ġworst": 8831,
      "OND": 8832,
      "Ġvisited": 8833,
      "Ġcombined": 8834,
      "ĠJanuary": 8835,
      "Her": 8836,
      "pu": 8837,
      "Ġaim": 8838,
      "Ġmess": 8839,
      "Ġtoler": 8840,
      "Ġunable": 8841,
      "Ġsmoke": 8842,
      "vention": 8843,
      "Format": 8844,
      "çŃĸçķ¥": 8845,
      ":\\": 8846,
      "Ġou": 8847,
      "foot": 8848,
      "interface": 8849,
      "Ġvictory": 8850,
      "æĪĳä»¬": 8851,
      "adow": 8852,
      "emple": 8853,
      "emory": 8854,
      "thur": 8855,
      "ĠNever": 8856,
      "ãĥĿ": 8857,
      "Ġreferences": 8858,
      "Admission": 8859,
      "å¯¹è±¡": 8860,
      "uated": 8861,
      "oded": 8862,
      "ĠPerson": 8863,
      "ĠGovernment": 8864,
      "Ġmanage": 8865,
      "Ġprimary": 8866,
      "Ġlists": 8867,
      "Ġbuff": 8868,
      "Ð¾Ð´": 8869,
      "Ġholds": 8870,
      "Subclass": 8871,
      "çŃ¾": 8872,
      "osh": 8873,
      "Ġamaz": 8874,
      "paths": 8875,
      "Ġë§": 8876,
      "Ġdecimal": 8877,
      "olicies": 8878,
      "ÑĢÐ¸": 8879,
      "íķĺìĹ¬": 8880,
      "Assembly": 8881,
      "Ġproduct": 8882,
      "Connection": 8883,
      "Mo": 8884,
      "born": 8885,
      "curl": 8886,
      "Ġmixed": 8887,
      "ĠDen": 8888,
      "Ġknock": 8889,
      "à¤¨": 8890,
      "special": 8891,
      "deep": 8892,
      "Ġmistress": 8893,
      "Ġclosely": 8894,
      "ĠSmith": 8895,
      "companied": 8896,
      "aire": 8897,
      "Ġgently": 8898,
      "Ġanger": 8899,
      "exact": 8900,
      "record": 8901,
      "åºı": 8902,
      "afford": 8903,
      "Ġproceeded": 8904,
      "åŁº": 8905,
      "multiple": 8906,
      "xA": 8907,
      "itement": 8908,
      "lets": 8909,
      "ifted": 8910,
      "Ġknight": 8911,
      "controllers": 8912,
      "transform": 8913,
      "execute": 8914,
      "SM": 8915,
      "åĿ": 8916,
      "health": 8917,
      "Ġsli": 8918,
      "eder": 8919,
      "Ġfired": 8920,
      "ĠCR": 8921,
      "ĠDef": 8922,
      "Ġagent": 8923,
      "issue": 8924,
      "Ġfighting": 8925,
      "ÐµÐ½Ð¸": 8926,
      "catch": 8927,
      "icated": 8928,
      "termin": 8929,
      "ĠMock": 8930,
      "pled": 8931,
      "ĠLaw": 8932,
      "Ġstrik": 8933,
      "definitions": 8934,
      "Ġsubs": 8935,
      "running": 8936,
      "æŃ£": 8937,
      "Color": 8938,
      "Ġà¦ķà¦°": 8939,
      "Hel": 8940,
      "global": 8941,
      "large": 8942,
      "å¢": 8943,
      "ĠMath": 8944,
      "``.": 8945,
      "Ġ{})": 8946,
      "Ġshel": 8947,
      "supp": 8948,
      "Ġsigned": 8949,
      "èªį": 8950,
      "LL": 8951,
      "zy": 8952,
      "ĠAC": 8953,
      "Ġrisk": 8954,
      "reset": 8955,
      "OLD": 8956,
      "consider": 8957,
      "Val": 8958,
      "rust": 8959,
      "Ġtz": 8960,
      "quar": 8961,
      "Ġ'.": 8962,
      "usr": 8963,
      "ĠEX": 8964,
      "area": 8965,
      "priority": 8966,
      "åĩĨ": 8967,
      "Ġimagine": 8968,
      "mutable": 8969,
      "Fl": 8970,
      "oom": 8971,
      "pa": 8972,
      "tls": 8973,
      "za": 8974,
      "ĠÄ": 8975,
      "Ġgames": 8976,
      "Ġgenerate": 8977,
      "\"},": 8978,
      ")\",": 8979,
      "far": 8980,
      "rand": 8981,
      "íĻ": 8982,
      "inery": 8983,
      "think": 8984,
      "(\"\"\"": 8985,
      "Ġclusters": 8986,
      "izers": 8987,
      "Ġmerry": 8988,
      "Ġ${": 8989,
      "74": 8990,
      "Audio": 8991,
      "`](": 8992,
      "Ġstick": 8993,
      "Ġ29": 8994,
      "putation": 8995,
      "Ġactions": 8996,
      "Ġbreakfast": 8997,
      "slice": 8998,
      "è®¸": 8999,
      "ãĤ¤ãĥ³": 9000,
      "agram": 9001,
      "Ġê²½ìļ°": 9002,
      "Roles": 9003,
      "home": 9004,
      "Ġlos": 9005,
      "ãģĽ": 9006,
      "ĠLong": 9007,
      "week": 9008,
      "Ġêµ¬": 9009,
      "Ġdirected": 9010,
      "Ġdriven": 9011,
      "ĠBlack": 9012,
      "Ġbell": 9013,
      "ernel": 9014,
      "columns": 9015,
      "Ġcursor": 9016,
      "Ġbuy": 9017,
      "([\"": 9018,
      "parts": 9019,
      "Bytes": 9020,
      "é¡¹": 9021,
      "Ġsafety": 9022,
      "Sign": 9023,
      "rt": 9024,
      "ĠdÃ©": 9025,
      "seudo": 9026,
      "Ġstuff": 9027,
      "oscal": 9028,
      "Ġseed": 9029,
      "Ġpermitted": 9030,
      "Ġcompiler": 9031,
      "Ġexplan": 9032,
      "Secret": 9033,
      "changes": 9034,
      "Fil": 9035,
      "çł": 9036,
      "Ġconstraints": 9037,
      "actual": 9038,
      "aised": 9039,
      "ĠÐ¼": 9040,
      "subprocess": 9041,
      "Ġafford": 9042,
      "Ġfellows": 9043,
      "ĠGrand": 9044,
      "Ġunderstanding": 9045,
      "authn": 9046,
      "Ġneighbour": 9047,
      "Ġnodded": 9048,
      "'{": 9049,
      "58": 9050,
      "inging": 9051,
      "Ġprice": 9052,
      "fulness": 9053,
      "ĠItaly": 9054,
      "Ġflower": 9055,
      "Ġcrime": 9056,
      "Ġkeen": 9057,
      "assertIsNot": 9058,
      "Ġfourth": 9059,
      "ĠUpon": 9060,
      "cum": 9061,
      "fit": 9062,
      "Ġsql": 9063,
      "Ġkings": 9064,
      "Ġhappens": 9065,
      "Ġcareer": 9066,
      "authz": 9067,
      "exceptions": 9068,
      "OCK": 9069,
      "vendor": 9070,
      "iner": 9071,
      "Ġì¶": 9072,
      "Cluster": 9073,
      "sequently": 9074,
      "ĠImport": 9075,
      "Ġevidently": 9076,
      "Method": 9077,
      "sch": 9078,
      "¸Į": 9079,
      "ertion": 9080,
      "addCleanup": 9081,
      "Ġpositive": 9082,
      "Command": 9083,
      "ReadOnly": 9084,
      "Runtime": 9085,
      "poly": 9086,
      "ì¤": 9087,
      "ecycle": 9088,
      "Ġdisapp": 9089,
      "Ġcomposed": 9090,
      "Ġexperi": 9091,
      "Ġlogger": 9092,
      "Ġslightly": 9093,
      "AU": 9094,
      "SQL": 9095,
      "èº": 9096,
      "Ġnaturally": 9097,
      "ĠPal": 9098,
      "çĶ¨çļĦ": 9099,
      "Ġcommanded": 9100,
      "ĠØ¨": 9101,
      "Ġsurprised": 9102,
      "esterday": 9103,
      ",),": 9104,
      "/\")": 9105,
      ">\",": 9106,
      "bury": 9107,
      "eunt": 9108,
      "mag": 9109,
      "pdb": 9110,
      "ĠæľįåĬ¡åĻ¨": 9111,
      "onful": 9112,
      "ĠHoly": 9113,
      "Ġoverride": 9114,
      "Ġthrone": 9115,
      "Ġfalling": 9116,
      "Ġpatient": 9117,
      "Ġrequirements": 9118,
      ":'": 9119,
      "outer": 9120,
      "Ġease": 9121,
      "eldom": 9122,
      "ĠJo": 9123,
      "ĠStreet": 9124,
      "à¤¿": 9125,
      "Ġputting": 9126,
      "Ġsouls": 9127,
      "ä½ľæĪĲ": 9128,
      "ĠCHAR": 9129,
      "ĠJerusalem": 9130,
      "Ġakan": 9131,
      "Ġsoil": 9132,
      "Ġdiss": 9133,
      "ships": 9134,
      "Ġà¦ı": 9135,
      "party": 9136,
      "Ġìłľ": 9137,
      "Ġgenius": 9138,
      "åĽł": 9139,
      "èº«": 9140,
      "iB": 9141,
      "ĠÙħ": 9142,
      "Ĥ¨": 9143,
      "Ġstones": 9144,
      "Ġusername": 9145,
      "ĠChild": 9146,
      "lands": 9147,
      "Ġcoordin": 9148,
      "Ġauthentication": 9149,
      "Ø§ÛĮ": 9150,
      "happy": 9151,
      "Ġìĭľ": 9152,
      "åĭķ": 9153,
      "];": 9154,
      "df": 9155,
      "pur": 9156,
      "íĦ°": 9157,
      "elves": 9158,
      "Ġlest": 9159,
      "Ġcoat": 9160,
      "Ġpursu": 9161,
      "generator": 9162,
      "ĠPerhaps": 9163,
      "Ġìłķ": 9164,
      "ixture": 9165,
      "Ġeducation": 9166,
      "EmbedLiveSample": 9167,
      "SH": 9168,
      "cases": 9169,
      "xb": 9170,
      "Ġwed": 9171,
      "ãĤª": 9172,
      "Ġappointed": 9173,
      "Ġprayer": 9174,
      "Ġprecious": 9175,
      "Ġacquaint": 9176,
      "Ġfoolish": 9177,
      "Ġreplaced": 9178,
      "PC": 9179,
      "Ġ\",": 9180,
      "ĠEve": 9181,
      "Ġguar": 9182,
      "Control": 9183,
      "å·¥ä½ľ": 9184,
      "IST": 9185,
      "dark": 9186,
      "natural": 9187,
      "ĿìĦ±": 9188,
      "Ġ===": 9189,
      "Ġseized": 9190,
      "Ġdoctr": 9191,
      "emplates": 9192,
      "ĠShould": 9193,
      "æī§": 9194,
      "zeros": 9195,
      "ãģķãģĦ": 9196,
      "Ġhaven": 9197,
      "avour": 9198,
      "cknow": 9199,
      "Ġëı": 9200,
      "Ġsmiling": 9201,
      "Ġaffect": 9202,
      "æī§è¡Į": 9203,
      "68": 9204,
      "AML": 9205,
      "dim": 9206,
      "utch": 9207,
      "Ġkamu": 9208,
      "IAN": 9209,
      "di": 9210,
      "raise": 9211,
      "Ġfer": 9212,
      "img": 9213,
      "thems": 9214,
      "Ġchamber": 9215,
      "Ġcompile": 9216,
      "ĠStephen": 9217,
      "requests": 9218,
      "Ġclearly": 9219,
      "5678": 9220,
      "Ġpictures": 9221,
      "Ġwounded": 9222,
      "things": 9223,
      "constraints": 9224,
      "secure": 9225,
      "Ġlayer": 9226,
      "Ġidentical": 9227,
      "62": 9228,
      "coll": 9229,
      "istics": 9230,
      "Ġcommitted": 9231,
      "âĢĮ": 9232,
      "chedul": 9233,
      "Ð»Ñı": 9234,
      "Ġgradually": 9235,
      "_;": 9236,
      "ville": 9237,
      "icion": 9238,
      "ĠBY": 9239,
      "ĠĠĠĠĠĠĠĠĠĠĠĠĠĠĠĠĠĠĠĠĠĠĠĠĠĠĠĠĠĠĠĠĠ": 9240,
      "Ġresolve": 9241,
      "Ġcorrectly": 9242,
      "ĠThomas": 9243,
      "è£ħ": 9244,
      "bage": 9245,
      "esides": 9246,
      "Ġbore": 9247,
      "ĠSunday": 9248,
      "ĠWr": 9249,
      "Ġencoun": 9250,
      "ference": 9251,
      "Ġcounsel": 9252,
      "Ġfarm": 9253,
      "signed": 9254,
      "ãģĹãģ¦ãģĦ": 9255,
      "Ġduties": 9256,
      "æ¬¡": 9257,
      "Enum": 9258,
      "rules": 9259,
      "Ġtired": 9260,
      "Ġwand": 9261,
      "Ġini": 9262,
      "external": 9263,
      "Ġdetail": 9264,
      "Ð½Ð¾": 9265,
      "locale": 9266,
      "Ġexecuted": 9267,
      "ä½łåı¯ä»¥": 9268,
      "Ġmistake": 9269,
      "~~~~": 9270,
      "tone": 9271,
      "åİ": 9272,
      "Ġshade": 9273,
      "ĠBoth": 9274,
      "ĠVirgin": 9275,
      "Ġsubprocess": 9276,
      "Ġconnected": 9277,
      "Ġneglect": 9278,
      "Ġcelebr": 9279,
      "Ap": 9280,
      "DIR": 9281,
      "Ġaverage": 9282,
      "ĠLo": 9283,
      "Ġconsult": 9284,
      "ĠINGRE": 9285,
      "æĶ¹": 9286,
      "ãģıãģł": 9287,
      "DIENTS": 9288,
      "BUT": 9289,
      "CP": 9290,
      "Ġbosom": 9291,
      "Ġconven": 9292,
      "asted": 9293,
      "ĠThose": 9294,
      "Ġrights": 9295,
      "urls": 9296,
      "åºĵ": 9297,
      "ï¼īãĢĤ": 9298,
      "Ġrecognized": 9299,
      "Ġfreedom": 9300,
      "ĠINGREDIENTS": 9301,
      "Ingress": 9302,
      "Nor": 9303,
      "ikube": 9304,
      "multi": 9305,
      "Ġhuge": 9306,
      "thren": 9307,
      "Ġaband": 9308,
      "Ġreduced": 9309,
      "ITY": 9310,
      "Ġadvice": 9311,
      "iece": 9312,
      "ãģıãģłãģķãģĦ": 9313,
      ";<!--": 9314,
      "both": 9315,
      "asant": 9316,
      "ados": 9317,
      "Ġgay": 9318,
      "ãĥĸ": 9319,
      "ĠFe": 9320,
      "blue": 9321,
      "ICE": 9322,
      "cannot": 9323,
      "Ġburning": 9324,
      "ĠLouis": 9325,
      "hon": 9326,
      "war": 9327,
      "æĬ": 9328,
      "ç´": 9329,
      "è¶": 9330,
      "Ġtouched": 9331,
      "Ġcss": 9332,
      "Ġconfess": 9333,
      "ĠComm": 9334,
      "Ġquantity": 9335,
      "boy": 9336,
      "mtd": 9337,
      "Ñī": 9338,
      "also": 9339,
      "Ġconsequence": 9340,
      "ADE": 9341,
      "ĠProt": 9342,
      "Ġannounced": 9343,
      "Ġhopes": 9344,
      ")])": 9345,
      "Before": 9346,
      "Namespace": 9347,
      "baz": 9348,
      "cer": 9349,
      "Ġtax": 9350,
      "Ġwilt": 9351,
      "ĠVolume": 9352,
      "Ġspecifies": 9353,
      "Ġapps": 9354,
      "Ġmoments": 9355,
      "Ġreferred": 9356,
      "Ġpopulation": 9357,
      "pay": 9358,
      "xff": 9359,
      "Ġwound": 9360,
      "Ġfo": 9361,
      "entially": 9362,
      "128": 9363,
      "Ġimplemented": 9364,
      "URE": 9365,
      "contribute": 9366,
      "Ġunexpected": 9367,
      "addle": 9368,
      "Ġkinds": 9369,
      "Ġoptim": 9370,
      "è´Ł": 9371,
      "Ġdelivered": 9372,
      "aN": 9373,
      "}\",": 9374,
      "Ġacknow": 9375,
      "Ġwings": 9376,
      "sty": 9377,
      "esting": 9378,
      "Ġ((": 9379,
      "ĠBad": 9380,
      "å®¢": 9381,
      "Ð¾Ð³": 9382,
      "Ġsteam": 9383,
      "ĠCluster": 9384,
      "Ġqueue": 9385,
      "System": 9386,
      "best": 9387,
      "gb": 9388,
      "pool": 9389,
      "ato": 9390,
      "atr": 9391,
      "omial": 9392,
      "Ġluck": 9393,
      "ĠSoc": 9394,
      "Ġgraph": 9395,
      "Exit": 9396,
      "Ġskill": 9397,
      "Ġphr": 9398,
      "annotations": 9399,
      "1000": 9400,
      "mans": 9401,
      "Ġnarr": 9402,
      "ĠTim": 9403,
      "Ġgray": 9404,
      "Ġtelling": 9405,
      "Ġrepresentation": 9406,
      "ĠSpirit": 9407,
      "scroll": 9408,
      "[*": 9409,
      "mom": 9410,
      "Ġpk": 9411,
      "Ġextract": 9412,
      "Ġintent": 9413,
      "Ġbegun": 9414,
      "ĠXX": 9415,
      "Ġdestroyed": 9416,
      "Ġcas": 9417,
      "otted": 9418,
      "estr": 9419,
      "ENE": 9420,
      "ĠåŃ": 9421,
      "young": 9422,
      "Ġsounds": 9423,
      "operator": 9424,
      "Ġfortun": 9425,
      "Ġprisoner": 9426,
      "çº§": 9427,
      "âĶĢâĶĢ": 9428,
      "Ġìĭ¤íĸī": 9429,
      "EW": 9430,
      "Ġmas": 9431,
      "rie": 9432,
      "ĠDan": 9433,
      "dims": 9434,
      "messages": 9435,
      "Ġpressed": 9436,
      "hers": 9437,
      "eller": 9438,
      "Ġdozen": 9439,
      "manifest": 9440,
      "------------": 9441,
      "Ġsubsequent": 9442,
      "subject": 9443,
      "255": 9444,
      "oking": 9445,
      "Ġcountenance": 9446,
      "centage": 9447,
      "Ġconcerning": 9448,
      "ëĵľë¥¼": 9449,
      "è°ĥåº¦": 9450,
      "ReadOnlyInline": 9451,
      "themselves": 9452,
      "199": 9453,
      "POST": 9454,
      "mul": 9455,
      "itics": 9456,
      "ashes": 9457,
      "Ġhal": 9458,
      "odo": 9459,
      "Ġissued": 9460,
      "ifle": 9461,
      "Ġwholly": 9462,
      "ĠServ": 9463,
      "Ġrode": 9464,
      "Ġ[-": 9465,
      "Ġtraceback": 9466,
      "Ġdisabled": 9467,
      "Ġexceptions": 9468,
      "Ġpriority": 9469,
      "æĿĥ": 9470,
      "Ġresolution": 9471,
      "Ġrepeat": 9472,
      "ãĥķãĤ£": 9473,
      "Ġbind": 9474,
      "ĠWood": 9475,
      "ĠLog": 9476,
      "ĠFin": 9477,
      "éĥ½": 9478,
      "hend": 9479,
      "Ġnoted": 9480,
      "endar": 9481,
      "ĠJim": 9482,
      "Store": 9483,
      "ĠWhite": 9484,
      "Christ": 9485,
      "Ġinvolved": 9486,
      "ĠResponse": 9487,
      "Ġindicating": 9488,
      "VC": 9489,
      "yet": 9490,
      "åŀ": 9491,
      "hem": 9492,
      "Ġmail": 9493,
      "Ġnet": 9494,
      "ceive": 9495,
      "Ġ'',": 9496,
      "unks": 9497,
      "buf": 9498,
      "Ġrestart": 9499,
      "\"].": 9500,
      "Ġdrove": 9501,
      "åĥı": 9502,
      "Min": 9503,
      "TLS": 9504,
      "ĠAc": 9505,
      "Ġweary": 9506,
      "Ġthereof": 9507,
      "Ġages": 9508,
      "ruary": 9509,
      "Ġcarriage": 9510,
      "Ġdeclare": 9511,
      "æ¯ı": 9512,
      "Ġfierce": 9513,
      "Ġepisode": 9514,
      "69": 9515,
      "bott": 9516,
      "tons": 9517,
      "Ġobey": 9518,
      "Ġ'')": 9519,
      "ĠMen": 9520,
      "ipTest": 9521,
      "ocks": 9522,
      "Ġslaves": 9523,
      "Thread": 9524,
      "details": 9525,
      "Ġ----------": 9526,
      "^^^^": 9527,
      "Ġpulled": 9528,
      "Som": 9529,
      "çľ": 9530,
      "inspect": 9531,
      "ĠAlex": 9532,
      "cli": 9533,
      "prise": 9534,
      "ETA": 9535,
      "Ġobtain": 9536,
      "ÑĨÐ¸": 9537,
      "Ġdisease": 9538,
      "Que": 9539,
      "SR": 9540,
      "Ġecho": 9541,
      "earch": 9542,
      "Ġpoison": 9543,
      "byte": 9544,
      "Ġattached": 9545,
      "Ð¾Ð±": 9546,
      "ITE": 9547,
      "ãģªãģĦ": 9548,
      "ĠÄĳ": 9549,
      "RES": 9550,
      "cookie": 9551,
      "fro": 9552,
      "Ġresemb": 9553,
      "aping": 9554,
      "apan": 9555,
      "ĠCYR": 9556,
      "oops": 9557,
      "ALP": 9558,
      "ttp": 9559,
      "Ġcareful": 9560,
      "################################": 9561,
      "Ġmigration": 9562,
      "ĠìĥĿìĦ±": 9563,
      "ILLIC": 9564,
      "Ġdignity": 9565,
      "ayed": 9566,
      "Ġswear": 9567,
      "Ġmatching": 9568,
      "IRST": 9569,
      "Ġdomin": 9570,
      "Ġuniversal": 9571,
      "ĠRoger": 9572,
      "Never": 9573,
      "jor": 9574,
      "Ġreward": 9575,
      "Ġrepos": 9576,
      "trait": 9577,
      "Ġstew": 9578,
      "Ġgranted": 9579,
      "Ġlookup": 9580,
      "Ġbegins": 9581,
      "Ġcapture": 9582,
      "Query": 9583,
      "Ġliked": 9584,
      "Ġdeclaration": 9585,
      "Ġprincipal": 9586,
      "ĠCYRILLIC": 9587,
      "Ġwet": 9588,
      "Ġdb": 9589,
      "Ġdictionary": 9590,
      "Ġpow": 9591,
      "chars": 9592,
      "abling": 9593,
      "Ġalign": 9594,
      "ĠPart": 9595,
      "Ġprofile": 9596,
[...]
